#version: 0.2
t h
th e</w>
i n
a n
t i
r e
e n
e r
o n
o n</w>
e d</w>
o f</w>
an d</w>
a r
o r
i n</w>
i t
in g</w>
e r</w>
t o</w>
o u
e s</w>
a ti
a l</w>
s t
a t
a l
r o
a s</w>
e c
i c
o r</w>
s i
q u
o t
o m
a c
a t</w>
p o
i s</w>
e l
a n</w>
i s
i l
m en
qu ot
quot ;</w>
& quot;</w>
u r
e s
ati on</w>
r i
a s
f or</w>
p ro
@ -
@- @</w>
o l
e n</w>
h e</w>
po s
l e
a m
c on
a d
on s</w>
t s</w>
u n
v e</w>
l y</w>
s u
w as</w>
a g
d e
w h
l i
ti on</w>
th at</w>
men t</w>
c e</w>
a pos
& apos
l e</w>
e m
h a
o p
re s
v i
it h</w>
d i
w ith</w>
a b
c om
&apos ;
c h
2 0
c i
l o
u s
ou n
a p
b y</w>
f or
v er
t r
t er
b e
it y</w>
e x
h is</w>
&apos; s</w>
g h
u l
th e
h i
on al</w>
p or
t ed</w>
at e</w>
i r
i t</w>
p ar
1 9
i m
n o
f f
ati ons</w>
s e
p l
en t</w>
s t</w>
t e
n e
a r</w>
a in
er e</w>
p er
g r
l d</w>
u c
b u
b e</w>
er s</w>
f ro
fro m</w>
th er</w>
a y</w>
w or
si on</w>
ar y</w>
t er</w>
re d</w>
st r
al l</w>
c l
p e
20 0
t h</w>
s h
u d
a k
em b
m e
ati onal</w>
re c
u m
ar e</w>
m o
at ed</w>
re n
e v
d s</w>
S t
a f
ou ld</w>
o o
U n
s o</w>
it s</w>
i r</w>
m e</w>
d er</w>
ou r
ti c
m an
c h</w>
o w
g i
t y</w>
v el
s p
e d
ti es</w>
t ing</w>
c o
th is</w>
a y
ic h</w>
con t
f i
an ce</w>
20 1
i z
it ed</w>
s e</w>
C om
in g
ur e</w>
ha d</w>
e p
n ational</w>
no t</w>
wh ich</w>
e ar
es s</w>
ou t</w>
on e</w>
m in
c oun
d ed</w>
t w
p re
o ver
o c
d ing</w>
gh t</w>
e st
C h
for m
ti ons</w>
d is
ha ve</w>
the ir</w>
al so</w>
s ec
Com m
ec i
h as</w>
s er
an t</w>
g h</w>
I n
in ter
por t</w>
at es</w>
r a
u b
en t
w ere</w>
g e</w>
ab le</w>
ou r</w>
d e</w>
en er
Un ited</w>
p res
emb er</w>
a i
al ly</w>
ic e</w>
o b
men ts</w>
h er</w>
am e</w>
f e
f in
f ir
v ed</w>
u t
ar d</w>
de vel
il l</w>
ag e</w>
o v
en ce</w>
e t</w>
C on
o ther</w>
cl ud
com m
p r
l a
re t
d uc
p le
bu t</w>
g n
e l</w>
devel op
es s
s he</w>
o u</w>
i c</w>
es t</w>
over n
h e
be en</w>
e ment</w>
on g</w>
ad e</w>
ti ve</w>
or e</w>
ar i
r ou
is h
ou s</w>
men t
u e</w>
in clud
c es</w>
s o
p ri
v en
a u
ener al</w>
t ri
y ou</w>
w i
l ed</w>
fir st</w>
19 9
the y</w>
pro vi
a in</w>
ti t
t en
om e</w>
wor k</w>
r u
d er
ac c
af ter</w>
it te
re s</w>
c re
a d</w>
ac e</w>
w ill</w>
c ri
a v
N ations</w>
e w</w>
w ould</w>
g an
itte e</w>
su p
i es</w>
g u
a m</w>
i a</w>
su b
ec t</w>
gh ts</w>
ic al</w>
el l</w>
u s</w>
or y</w>
o g
in e</w>
al s</w>
ur ing</w>
k s</w>
ff ic
b ec
ci al</w>
i d
l ic
s hi
ti me</w>
k ing</w>
wh o</w>
us t</w>
ati ve</w>
lo w
e f
t ak
S ec
Comm ittee</w>
m on
re g
St ates</w>
m ar
e i
as t</w>
u p</w>
G eneral</w>
e t
i st
m ore</w>
s y
en d
en ti
as e</w>
op er
re e</w>
st e
es e</w>
a re
res p
in v
re qu
us e</w>
t ec
re l
inter national</w>
an d
am p
tw o</w>
gan iz
w e</w>
ser v
or s</w>
u tion</w>
s on</w>
gr am
as ed</w>
C oun
m s</w>
s el
e ar</w>
com p
g o
at ing</w>
r an
i ties</w>
ing s</w>
wh en</w>
d uring</w>
um an</w>
e g
un der</w>
at er</w>
d u
oun d</w>
P ro
T he</w>
as s
m ade</w>
h el
pro c
om en</w>
con c
si gn
sh ould</w>
v es</w>
su ch</w>
&apos ;</w>
f ac
m an</w>
in to</w>
f r
an y</w>
is sion</w>
develop ment</w>
li c</w>
f ol
ain st</w>
si st
b o
p ub
is h</w>
r it
ag ainst</w>
u m</w>
n ing</w>
ac ti
il e</w>
al l
ne w</w>
th ere</w>
includ ing</w>
en c
A r
ac k</w>
n ed</w>
h o
u p
U N
si ons</w>
k e
ch il
v ing</w>
w e
i ver
le g
si d
th o
ear s</w>
k ed</w>
m er
tri es</w>
s tit
M ar
k e</w>
m il
overn ment</w>
th rou
A s
hi m</w>
re gi
m at
in form
or d
an s</w>
su l
is t</w>
si b
c ol
per i
ow n</w>
u res</w>
ov er</w>
y ear</w>
tr an
por t
il l
ac h</w>
ai d</w>
y ears</w>
pl ay
i g
t o
d re
cont in
ci l</w>
c an</w>
l ish
il ity</w>
P ar
im ple
h n
coun tries</w>
ri ghts</w>
i an</w>
w ell</w>
oo d</w>
e en</w>
m y</w>
wi th
a st
a w
or ganiz
shi p</w>
res ol
k no
tr y</w>
tic al</w>
pro gram
m ak
for e</w>
Coun cil</w>
re port</w>
an c
a il
0 0</w>
i al</w>
wh ere</w>
ur ity</w>
d el
ec ted</w>
w omen</w>
A n
d r
op le</w>
1 8
c ap
sp eci
f ic
t or</w>
d eci
on d</w>
d ay</w>
p h
um b
le v
s ome</w>
es ti
j o
mo st</w>
St ate</w>
on ly</w>
l and</w>
ab out</w>
it e</w>
ac h
ren ce</w>
ci p
on om
lo c
s ed</w>
is su
n o</w>
em p
l es</w>
ap pro
ic an</w>
f un
A u
throu gh</w>
tw een</w>
ev er</w>
fol low
be tween</w>
sup port</w>
h uman</w>
man y</w>
th en</w>
th ese</w>
A l
po in
pro duc
at t
con si
iver s
ven tion</w>
s ch
n ot
f u
ex p
E n
m a
el y</w>
d o
en s
e b
A mer
res s</w>
f e</w>
par t
ar ds</w>
Sec ret
i ti
vi ew</w>
ec onom
W or
ain ed</w>
ol d</w>
re m
an g
ay s</w>
e qu
so ci
e ff
th an</w>
pe ople</w>
inform ation</w>
wh ile</w>
In ter
en ts</w>
est ab
comm un
str uc
us ed</w>
J o
t e</w>
resp on
ol og
ul ar</w>
en d</w>
i f</w>
p s</w>
dre n</w>
l ar
i str
oo k</w>
p er</w>
com men
g re
es sion</w>
r e</w>
si s</w>
an n
m es</w>
v is
conc er
oo l</w>
the m</w>
il y</w>
t ure</w>
ste m</w>
D ec
re por
tran s
ment ation</w>
in te
st s</w>
v e
ac t</w>
f ul
ain ing</w>
th ree</w>
v er</w>
as on</w>
fe rence</w>
e w
per s
c ur
f o
f am
s c
man ag
o ff
d ic
s aid</w>
ver y</w>
be fore</w>
un der
po si
in ce</w>
R e
resol ution</w>
N ew</w>
o ffic
tho se</w>
b i
u al</w>
b ot
tec hn
f l
m i
gr ou
ap pe
19 8
ur al</w>
is m</w>
st an
en g
chil dren</w>
lo w</w>
n umb
ri bu
in a</w>
ic es</w>
As s
ter s</w>
ren t</w>
on g
R ep
ment al</w>
g e
S p
d es
c ould</w>
be ing</w>
sy stem</w>
& #
kno w
A d
la w</w>
th ou
d o</w>
t on</w>
emb ly</w>
t ly</w>
au th
is e</w>
al ity</w>
ec tive</w>
L e
ec tion</w>
in cre
oper ation</w>
ti onal</w>
rec ei
B o
&# 9
po lic
par ti
l ater</w>
tic le</w>
de p
r on
ec ts</w>
si ve</w>
A c
po li
st ar
coun try</w>
s ol
o d</w>
sid ent</w>
f ur
r ap
g en
ivers ity</w>
P re
Ass embly</w>
re pres
1 0</w>
pro m
o f
s ession</w>
numb er</w>
re commen
estab lish
el l
me as
t re
ro w
ic a</w>
g et</w>
im port
ou th</w>
bot h</w>
m ay</w>
vi ties</w>
s ur
l in
b or
G overnment</w>
ed uc
follow ing</w>
h ow
e ting</w>
af t</w>
contin u
ch ar
b er
al i
D i
a ff
di rec
Secret ary</w>
imple mentation</w>
en tr
l an
acti vities</w>
f a
re sul
par t</w>
c c
sec ond</w>
how ever</w>
e ty</w>
ou t
f il
sel f</w>
wh at</w>
ri ght</w>
ef for
d ec
ex t</w>
bu il
ti l
st at
par tic
c ent</w>
n i
al th</w>
bec ame</w>
th er
m emb
C ol
ad op
se ason</w>
A fr
tak e</w>
d oc
c or
I s
our ces</w>
L i
R i
sib le</w>
j ect</w>
Comm ission</w>
b ro
for m</w>
y ing</w>
h an
as sist
w ay</w>
p ur
su cc
pub lic</w>
J u
parti cip
Inter national</w>
v en</w>
Un iversity</w>
t en</w>
rec or
un e</w>
vi ol
r .</w>
Con vention</w>
cl u
a ir
M in
b el
w rit
enc y</w>
ti c</w>
a use</w>
19 7
O r
y our</w>
I I</w>
lo y
ou s
c ar
t ro
ab ility</w>
s ince</w>
ar ticle</w>
com e</w>
econom ic</w>
be g
u ro
ep t
ret ur
r is
si c</w>
c our
me eting</w>
al iz
&apos; t</w>
pl ic
cont ribu
te am</w>
at ten
c al
wor ld</w>
stit u
sec urity</w>
D e
li ke</w>
requ i
r y</w>
b ased</w>
o m</w>
m is
Amer ican</w>
an cial</w>
memb ers</w>
ub lic</w>
si de</w>
vi sion</w>
i on</w>
or der</w>
s s</w>
su m
se t</w>
Dec ember</w>
ag re
S o
st ud
re le
hel d</w>
C o
di d</w>
ff e
com ple
ut e</w>
fu l</w>
o p</w>
ad d
an ts</w>
u ation</w>
Wor ld</w>
1 2</w>
s it
sh all</w>
li fe</w>
le ad
se ver
program me</w>
el d</w>
meas ures</w>
col l
par ty</w>
E uro
J une</w>
ad di
n er</w>
lev el</w>
so cial</w>
sign ed</w>
P e
olog y</w>
1 5</w>
fur ther</w>
pro pos
s en
J an
n on</w>
mak e</w>
g overn
D ev
ar ly</w>
c ul
ad v
fam ily</w>
fi c</w>
O c
al e</w>
regi onal</w>
p a
s ame</w>
c lo
me di
effor ts</w>
lo b
li on</w>
b r
ac tion</w>
p p
im pro
cri min
2 0</w>
res t</w>
f t</w>
min istr
poli tical</w>
no w</w>
fin ancial</w>
u t</w>
ati c</w>
E x
in ation</w>
ac k
200 8</w>
le ar</w>
201 0</w>
En g
with in</w>
at h</w>
jo in
m ember</w>
pro f
Con ference</w>
R o
po l
prom ot
ag rap
co operation</w>
vi ron
a ve</w>
ro le</w>
h ar
e ther</w>
pl ace</w>
hi gh</w>
a im
19 6
S ch
o w</w>
a z
ati on
ch an
am es</w>
par agrap
s k
dr aft</w>
3 0</w>
organiz ations</w>
ne ed</w>
Ju ly</w>
proc ess</w>
st ed</w>
li m
c ed</w>
ho w</w>
Dev el
M r.</w>
th ir
d y</w>
200 9</w>
t ob
d on</w>
as es</w>
b ur
N ov
ac coun
b a
tak en</w>
fi ed</w>
am ong</w>
Devel op
af f</w>
N ational</w>
h ol
l ing</w>
Pre sident</w>
pr in
or ity</w>
it ted</w>
play ed</w>
sever al</w>
S ept
1 1</w>
Sept ember</w>
doc u
F or
m ust</w>
v ari
in iti
issu es</w>
res ources</w>
educ ation</w>
d ate</w>
con tr
e m</w>
thou gh</w>
t ain</w>
M ay</w>
ent ly</w>
provi de</w>
ma j
ti on
peri od</w>
201 1</w>
cont ro
N or
Oc tob
ag es</w>
200 7</w>
Octob er</w>
serv ices</w>
ag ue</w>
S er
in di
pl ac
u ary</w>
ri ed</w>
pro b
wor king</w>
c are
s ing</w>
200 6</w>
ac hi
f er
ti l</w>
manag ement</w>
a w</w>
leg al</w>
vel y</w>
v ic
pro tec
posi tion</w>
recei ved</w>
t or
bec ause</w>
v al
Nov ember</w>
, 0
G rou
un til</w>
1 4</w>
de red</w>
m ain
se e</w>
he alth</w>
w ard</w>
Jan uary</w>
ren g
T h
b ack</w>
201 2</w>
th ing</w>
Mar ch</w>
g n</w>
e ments</w>
ati ves</w>
Y or
t ook</w>
as s</w>
l ish</w>
Grou p</w>
f our</w>
grou p</w>
Rep ublic</w>
hi gh
provi ded</w>
em s</w>
di ed</w>
tr aining</w>
import ant</w>
Develop ment</w>
deci sion</w>
g overnment</w>
ou se</w>
ec ti
p ul
di es</w>
200 5</w>
us in
repres ent
Ch ina</w>
e f</w>
ens ure</w>
an t
it ary</w>
C ar
s m
O ff
n er
1 3</w>
e ach</w>
pr is
si onal</w>
n am
know n</w>
bor n</w>
s es</w>
1 6</w>
1 8</w>
str at
chan ge</w>
ear ly</w>
lob al</w>
st reng
g o</w>
c r
st aff</w>
Yor k</w>
re ad
j ust</w>
assist ance</w>
t al
g ress</w>
di ffe
recommen d
n ec
s ing
inv ol
m ul
c us
Sec urity</w>
A pri
Apri l</w>
w on</w>
rel ated</w>
g g
ev en</w>
t ter</w>
cal led</w>
us ti
t ors</w>
fi eld</w>
Ri ghts</w>
ad i
l ine</w>
sch ool</w>
enti al</w>
Au g
en ing</w>
end a</w>
M o
l ong</w>
bu d
201 3</w>
G u
er al</w>
po w
tr a
B ri
c ha
paragrap h</w>
it al</w>
en viron
are as</w>
Aug ust</w>
e y</w>
ser ved</w>
S outh</w>
Off ice</w>
st ri
gr ap
il ities</w>
develop ing</w>
,0 00</w>
b and</w>
el ec
19 4
j ud
In di
m ed</w>
til l</w>
ap poin
with out</w>
tic s</w>
p e</w>
P ol
1 7</w>
cap ac
t u
re lev
polic y</w>
consi der
1 0
sub m
sup por
u r</w>
W il
oc c
d at
i d</w>
h al
dis cus
o gn
loc al</w>
200 4</w>
C ha
fa ther</w>
l ast</w>
c er
s pe
speci al</w>
si a</w>
lo o
vi l</w>
care er</w>
al bu
emp loy
continu ed</w>
H e
ap p
b an
f ri
u st
ti s
an other</w>
G er
vi ew
establish ed</w>
at ure</w>
mil lion</w>
m p
hi st
b usin
pl an
dep end
ex pres
the re
g ood</w>
al y
o s</w>
P er
commun ity</w>
a red</w>
ex peri
in stitu
M on
fic ation</w>
partic ular</w>
om e
com pe
requ est
e k</w>
v ot
t ural</w>
g eneral</w>
r ic
ear ch</w>
m en</w>
gr ad
prob le
th ers</w>
M an
rec ogn
rele ased</w>
w in
beg an</w>
19 5
thir d</w>
ful l</w>
di st
program mes</w>
del eg
s till</w>
con f
fi ve</w>
re li
im p
relev ant</w>
st u
b le</w>
n al</w>
b il
F eb
u sic</w>
2 1</w>
uc h</w>
1 9</w>
Sp eci
wor k
of f</w>
Feb ru
2 5</w>
c ase</w>
ig n</w>
Febru ary</w>
d own</w>
buil ding</w>
c an
b en
d es</w>
ag enda</w>
1 ;</w>
&#9 1;</w>
Jo h
ec u
ap plic
l it
inte gr
re view</w>
or ities</w>
G re
part ment</w>
l ess</w>
is l
am e
T r
H ar
M a
s ci
se qu
k et</w>
or ing</w>
pers ons</w>
in dic
H i
maj or</w>
n ess</w>
ke y</w>
ag ed</w>
y oun
h ome</w>
acc or
Speci al</w>
si on
f oc
re ign</w>
th s</w>
m uch</w>
gi ven</w>
b est</w>
de ath</w>
up on</w>
sh or
pri v
id enti
li g
en ted</w>
st ate</w>
le ft</w>
b all</w>
form er</w>
adop ted</w>
ne w
S h
pl ay</w>
con sul
contin ue</w>
il i
i on
iz ed</w>
mil itary</w>
200 3</w>
d ue</w>
at or</w>
le y</w>
protec tion</w>
3 ;</w>
&#9 3;</w>
d ge</w>
ic s</w>
H uman</w>
le ge</w>
uc lear</w>
acc ord
t t
eff ective</w>
1 7
e ds</w>
ec han
201 4</w>
c o</w>
C our
sit uation</w>
t ot
ish ed</w>
v ol
b ri
P r
i l</w>
n s</w>
C an
nec ess
par ties</w>
albu m</w>
ro ss</w>
su st
as h
bel i
capac ity</w>
pub lish
P h
Joh n</w>
ob j
2 2</w>
ar ti
ain s</w>
n ext</w>
ad ministr
g ed</w>
2 4</w>
ac y</w>
is ed</w>
t ow
ari at</w>
G overn
de f
ag ain</w>
w ent</w>
t ur
v al</w>
200 2</w>
c ent
er ing</w>
en n
pres ent</w>
d ra
in es</w>
con duc
b re
g row
ur y</w>
G e
200 0</w>
g lobal</w>
h um
tre at
ex c
accor ding</w>
pos sible</w>
t el
fil m</w>
w ays</w>
st and
Or ganiz
P al
2 3</w>
vari ous</w>
ab or
acc ess</w>
un i
Ch ar
con di
are a</w>
la w
achi ev
reg ul
N o
mat er
pe ace</w>
d om
qu es
l ack</w>
mak ing</w>
a k</w>
ter min
S y
Bo ard</w>
C entr
includ ed</w>
en ces</w>
ari an</w>
si an</w>
repor ts</w>
P l
av ail
w ar
Afr ica</w>
an aly
f ound</w>
reg ard</w>
usti ce</w>
for man
co ord
ch ang
busin ess</w>
hal f</w>
n e</w>
cl aim
Euro pe
3 1</w>
sib ility</w>
s ome
esti g
it em</w>
at ely</w>
n ame</w>
th em
consi dered</w>
chil d</w>
ic k</w>
o s
leg isl
str u
0 s</w>
200 1</w>
appro pri
ter m</w>
1 5
serv ice</w>
B ar
appe ar
fin al</w>
po pul
Q u
succ ess
proc ed
ser ies</w>
ffic i
Europe an</w>
w el
M e
ir e</w>
k in
pro ject</w>
develop ed</w>
bec ome</w>
h ear
contro l</w>
in c
vi du
m echan
Cour t</w>
includ e</w>
com b
g ener
p ut</w>
ha ving</w>
f oun
dat a</w>
mo ved</w>
al ia</w>
ous ly</w>
Sch ool</w>
pro gress</w>
conf lic
ful ly</w>
l y
resp ect</w>
comp any</w>
R us
g es</w>
tr ade</w>
en sive</w>
al though</w>
he ad</w>
ut ure</w>
2 6</w>
b ed</w>
S u
recommend ations</w>
er n</w>
ist er</w>
tis h</w>
ep t</w>
indi vidu
Afr ican</w>
j ects</w>
techn ical</w>
ch all
per forman
Au str
wor ks</w>
or ig
us ing</w>
o ve</w>
ci es</w>
en s</w>
z e</w>
it ation</w>
diffe rent</w>
nam ed</w>
publish ed</w>
in ten
hel p</w>
ti m
w ater</w>
o grap
pl es</w>
n uclear</w>
ex ist
accord ance</w>
commun ic
inv est
ati s
I C
enc our
air s</w>
mar ried</w>
2 7</w>
2 8</w>
in tro
h on
c amp
stan ding</w>
c ases</w>
e gi
ben ef
wor ked</w>
C or
consul t
201 5</w>
grou ps</w>
en h
me tho
viol ence</w>
V i
form ed</w>
res earch</w>
li ght</w>
per son</w>
in e
f uture</w>
Le ague</w>
pr ac
i p
necess ary</w>
sy st
F o
g ame</w>
inv estig
go ing</w>
tot al</w>
gre at</w>
ti mes</w>
g y</w>
Organiz ation</w>
d ays</w>
Is ra
ain able</w>
struc tion</w>
ed ed</w>
ba sis</w>
en ed</w>
op e</w>
M c
gen der</w>
le ar
qu ar
in du
stit ute</w>
sm all</w>
r ul
s co
regi on</w>
sh ow</w>
De partment</w>
tak ing</w>
e p</w>
og ether</w>
d en</w>
m usic</w>
ar ound</w>
ol s</w>
o t</w>
i ous</w>
bud get</w>
re duc
des cri
i fic
M ember</w>
es p
str ic
w ar</w>
me d
d ence</w>
Pro gram
w in</w>
y p
ecu tive</w>
fi f
W h
or ies</w>
l s</w>
1 6
pre vi
retur ned</w>
e ve</w>
addi tion</w>
s af
f re
issu e</w>
t ogether</w>
v ement</w>
m er</w>
c ame</w>
ex ten
fl u
for ce</w>
soci ety</w>
not ed</w>
ke ep
i als</w>
f y</w>
un ity</w>
Ser v
fun c
pol ice</w>
si x</w>
r or
t le</w>
avail able</w>
199 9</w>
sign ific
F r
de t
ne l</w>
D is
b ook</w>
c a
F ran
pers on
read y</w>
at ors</w>
si gn</w>
S e
an g</w>
propos ed</w>
2 9</w>
reg ar
ar t</w>
join ed</w>
institu tions</w>
p ed</w>
Hi gh</w>
y s
vel s</w>
v o
C ity</w>
incre ase</w>
ex per
polic ies</w>
a vi
resul t</w>
we ap
ap er</w>
re st
i ed</w>
of ten</w>
recor d</w>
pre par
n or
ic k
cur rent</w>
t able</w>
ac ts</w>
priv ate</w>
Un ion</w>
amp ion
Program me</w>
ame work</w>
es sional</w>
G r
ast er</w>
plac ed</w>
ass ess
et ings</w>
d on
pl an</w>
hum an
kno w</w>
th in
ac e
tr ad
e very</w>
pos ed</w>
mon it
au gh
at ory</w>
Ge or
S te
appropri ate</w>
i de
un d</w>
partic ul
sh ow
op port
d ers</w>
19 3
Eng lish</w>
re at
E con
er y</w>
ci r
in al</w>
f ree</w>
requi re
tit led</w>
de b
am oun
l er</w>
Econ om
ne eds</w>
ann oun
anc ing</w>
mo ther</w>
lar ge</w>
know le
199 8</w>
ne ver</w>
produc tion</w>
accoun t</w>
I D
appoin ted</w>
me etings</w>
st er</w>
speci fic</w>
pur su
de termin
Bri tish</w>
ci vil</w>
Amer ica</w>
v il
add res
p en
stud y</w>
shi ps</w>
not e</w>
m or
D em
intro duc
in depend
particul arly</w>
r ing</w>
ac tive</w>
our s</w>
p at
a th
L on
ach ed</w>
Can ad
ne y</w>
5 0</w>
strat egi
mon ths</w>
en ni
youn g</w>
am b
J ap
g er</w>
L aw</w>
organiz ation</w>
p tion</w>
in f
hi m
wi fe</w>
crimin ation</w>
olog ical</w>
am s</w>
el ection</w>
c at
bo dy</w>
W ar</w>
grad u
m ary</w>
l ab
concer ned</w>
s ent</w>
govern mental</w>
u tions</w>
performan ce</w>
i or</w>
ai l</w>
S .</w>
off ice</w>
u red</w>
Wil li
an ces</w>
. 1</w>
consider ation</w>
comm it
it arian</w>
oc r
pow er</w>
pos t</w>
requi red</w>
en ded</w>
So cial</w>
- -</w>
fe w</w>
ob lig
r un
. .</w>
h er
B e
amp ;</w>
& amp;</w>
ch ed</w>
pr acti
al low
m ission</w>
h ere</w>
pro jects</w>
E l
p ass
P ri
he ad
ak e</w>
m ain</w>
star ted</w>
t ar
do es</w>
clu b</w>
W omen</w>
om an</w>
Ch in
char ac
promot e</w>
iz ation</w>
our n
ei ght</w>
ch i
s em
an k</w>
Par ties</w>
atten tion</w>
ad em
ro te</w>
in j
s ha
u l</w>
S w
Lon don</w>
f el
add ress</w>
ter ror
I V</w>
as si
there fore</w>
t a
deci ded</w>
w rote</w>
c are</w>
keep ing</w>
fer red</w>
ul t</w>
provi sions</w>
u re
tow ards</w>
d augh
s w
appe ared</w>
imple men
b al
our ce</w>
techn ology</w>
be tter</w>
f ail
conflic t</w>
F i
poin t</w>
repor ted</w>
cur ren
o thers</w>
en cies</w>
agre ed</w>
as soci
ing ton</w>
resul ts</w>
Col lege</w>
ther n</w>
al ong</w>
F ren
mo tion</w>
gi ve</w>
a ment</w>
de fe
auth orities</w>
it ing</w>
oper ations</w>
Di rec
g ir
Par ty</w>
e red</w>
pro per
enni um</w>
sing le</w>
le vels</w>
ab ove</w>
com pl
str y</w>
sec tor</w>
condi tions</w>
re f
pur pos
camp ai
addi tional</w>
import ance</w>
C l
on ce</w>
mi gr
e re
him self</w>
ac tions</w>
Chin ese</w>
r ac
me ans</w>
ne t
y s</w>
d ri
lan gu
R ob
in flu
mar ket</w>
aliz ed</w>
si x
pre h
o re
a ren
se tt
Dem ocr
esp eci
struc ture</w>
A b
de fin
Econom ic</w>
1 3
invol ved</w>
el ected</w>
l ate</w>
mat ch</w>
du ce</w>
sust ainable</w>
especi ally</w>
stit ution</w>
su gg
fr amework</w>
g ency</w>
wh ether</w>
Pal est
le t</w>
an a</w>
in stru
contr act</w>
h ouse</w>
Fren ch</w>
n ers</w>
E ast</w>
ess es</w>
M ic
for d</w>
p i
po ver
ab ly</w>
F und</w>
fo ot
inte rest</w>
g ames</w>
amp le</w>
comp an
t ory</w>
particip ation</w>
C ri
n at
em er
r ound</w>
reg ular</w>
ex am
M or
f ace</w>
aliz ation</w>
form s</w>
b oo
syst ems</w>
appro ach</w>
hist ory</w>
popul ation</w>
our th</w>
qu ality</w>
lo st</w>
des p
f ood</w>
imp act</w>
B er
all s</w>
4 0</w>
go ti
en ter</w>
wi de</w>
201 6</w>
R es
sp ace</w>
retur n</w>
a u</w>
di ffic
d ro
subm itted</w>
T ri
pover ty</w>
e vi
chall eng
stat us</w>
No .</w>
ist an</w>
us es</w>
Min ister</w>
deleg ation</w>
in ated</w>
gu id
I II</w>
de l</w>
ve red</w>
a h</w>
require ments</w>
o se</w>
st re
k er</w>
to o</w>
er ship</w>
E d
de m
view s</w>
esti c</w>
vis ory</w>
ne goti
en ds</w>
ir man</w>
mi ght</w>
al ready</w>
ar s</w>
desp ite</w>
S c
F ed
re fl
m us
n ation
. ..</w>
re ti
fac t</w>
eg y</w>
z ed</w>
F in
a ir</w>
u ally</w>
practi ce</w>
en ter
c entr
poin ts</w>
me t</w>
anc ed</w>
offic ial</w>
ru le</w>
sub stan
re as
incre ased</w>
sub ject</w>
er c
1 .
stat ement</w>
T er
pa ren
M al
prof essional</w>
al ist</w>
proble ms</w>
sec ret
As soci
U .
streng th
bo dies</w>
le ad</w>
fe at
te red</w>
ci ples</w>
st ated</w>
prac tic
tit le</w>
reli gi
vic ti
announ ced</w>
An g
qu e</w>
i e</w>
G en
ar ma
ai m</w>
auth or</w>
ar ri
am a</w>
fo reign</w>
C O
ter ms</w>
at eral</w>
ques tion</w>
fac il
A ff
W e
U S</w>
l ist</w>
ev al
h ard</w>
th us</w>
c ity</w>
s ure</w>
go als</w>
cour t</w>
m ag
on es</w>
lar ation</w>
con sist
ch es</w>
s al
ach ing</w>
istr y</w>
preh ensive</w>
oun d
le ast</w>
ar ran
r a</w>
D P</w>
Al l</w>
as h</w>
play ing</w>
human itarian</w>
1 4
S en
ha m</w>
docu ment</w>
go al</w>
pub lic
ol e</w>
ment ary</w>
li ed</w>
no v
199 7</w>
ef ul</w>
W est</w>
n ia</w>
man ent</w>
sub sequ
weap ons</w>
r an</w>
m ing</w>
Secret ariat</w>
dom estic</w>
cl es</w>
v ity</w>
r ate</w>
environ ment</w>
ris k</w>
ou gh</w>
ograp h
arma ment</w>
prin cip
atten ded</w>
gr ound</w>
i m</w>
li ve</w>
incre as
establish ment</w>
aw ay</w>
lit tle</w>
shor t</w>
por ts</w>
d en
for ces</w>
ag encies</w>
c le
requ est</w>
mon ey</w>
comm on</w>
grow th</w>
ex ample</w>
Re gi
ut es</w>
impro ve</w>
li ving</w>
applic ation</w>
lan ds</w>
signific ant</w>
is sion
rec ent</w>
S i
employ ment</w>
ag o</w>
so on</w>
att emp
Wor king</w>
throu gh
co st</w>
ur ch</w>
M ission</w>
treat ment</w>
Ac t</w>
rou ght</w>
ex pl
com ing</w>
is ing</w>
inte re
compe ti
M I
p ot
en titled</w>
ter rit
201 7</w>
e vision</w>
represent atives</w>
T he
Eng land</w>
Aff airs</w>
a h
esti m
success ful</w>
dis crimination</w>
co l</w>
R ap
2 .
B ro
person nel</w>
respon se</w>
s ou
to p</w>
dra w
daugh ter</w>
as k</w>
Nor th</w>
through out</w>
to col</w>
al ways</w>
concer n</w>
d ru
regar ding</w>
ist s</w>
id d
represent ative</w>
Euro pe</w>
y et</w>
ecti vely</w>
rul es</w>
ag ement</w>
occ up
Di vision</w>
f av
thin k</w>
s .</w>
Fr ance</w>
O p
as ked</w>
medi a</w>
p ain
legisl ation</w>
B r
d ated</w>
ne x</w>
ampion ship</w>
M i
b an</w>
i tion</w>
al leg
B ur
199 6</w>
di t</w>
an ted</w>
con ven
W al
U. S.</w>
request ed</w>
gen ous</w>
oun ds</w>
expres sed</w>
p le</w>
p ay
g ing</w>
de mo
ex t
j ustice</w>
por te
li es</w>
ver age</w>
iz e</w>
clo se</w>
sup p
op s</w>
consi der</w>
cont ext</w>
suppor ted</w>
Ex ecutive</w>
d a</w>
ha pp
fun ds</w>
res ent
e th
b l
el s</w>
curren tly</w>
str ong</w>
facil it
s po
em por
amoun t</w>
M us
I tal
w a
f er</w>
coll abor
sco red</w>
d ou
H ol
b ir
experi ence</w>
I m
cour se</w>
co sts</w>
repor ting</w>
op en</w>
ro w</w>
Indi a</w>
h old</w>
cor por
agre ement</w>
ne t</w>
de but</w>
t a</w>
R ec
ab ilities</w>
6 0</w>
s ex
crimin al</w>
knowle dge</w>
com es</w>
st age</w>
concer ning</w>
ac ks</w>
le tter</w>
p ast</w>
qu i
con n
ener gy</w>
H er
T im
In stitute</w>
B l
pre v
form ation</w>
N e
C hi
si t</w>
l l</w>
m it</w>
respon sibility</w>
B el
st on</w>
S up
cul tural</w>
ru n</w>
to day</w>
T ur
k a</w>
ing ly</w>
do m</w>
b as
la un
bro ther</w>
u es</w>
P an
cont ained</w>
G o
we e
exist ing</w>
g ave</w>
as p
p aper</w>
fol low</w>
P o
s ay</w>
B i
ph ys
environ mental</w>
I ra
previ ous</w>
f ar</w>
Direc tor</w>
all ing</w>
f ourth</w>
E m
succ ess</w>
e ver
og ue</w>
R ic
cir c
cer tain</w>
is ms</w>
writ ten</w>
en ant</w>
produc ed</w>
emp ha
c ust
contribu tions</w>
ar med</w>
exp lo
gr am</w>
M ill
ci d
devel op</w>
Serv ice</w>
re p
s ite</w>
Rep resent
request s</w>
op h
monit oring</w>
C .
res er
ner ship</w>
T e
Ac tion</w>
man date</w>
stand ards</w>
ann ual</w>
ffici ent</w>
y a</w>
lead ing</w>
ti z
in s</w>
ace keeping</w>
Govern ments</w>
rem ained</w>
H ouse</w>
pro t
com prehensive</w>
at s</w>
sch o
rel ation
stud ents</w>
resol utions</w>
or i
adop tion</w>
Min istry</w>
recor ded</w>
r adi
w ant</w>
A m
in ed</w>
s aw</w>
analy sis</w>
er t</w>
Austr alia</w>
Ch il
C up</w>
est ern</w>
provi sion</w>
ad equ
ar ms</w>
ic i
t ures</w>
mo der
si mil
sec tion</w>
en ding</w>
A ward</w>
ni ght</w>
pro motion</w>
proble m</w>
Associ ation</w>
fr on
in come</w>
porte ur</w>
So ci
c lear</w>
respon sible</w>
e y
go t</w>
h in
199 5</w>
Palest in
or gan
Centr al</w>
Rus sian</w>
b rought</w>
di d
cre ated</w>
l ong
t ual</w>
foc us</w>
Democr atic</w>
mis sions</w>
fre ed
ac i
A t
ra ised</w>
P or
proc e
oo ds</w>
b it
y al</w>
pres ented</w>
g et
ric ul
st ep
o k
ne eded</w>
sci enti
practic es</w>
a ut
Pro tocol</w>
provi ding</w>
c ou
S m
im medi
me et</w>
1 00</w>
tel evision</w>
in st
h and</w>
ob serv
M il
invest ment</w>
Canad a</w>
Isra el</w>
streng then</w>
proper ty</w>
administr ative</w>
t ou
de g
T A
ever y
b un
B ra
mat ter</w>
prin ciples</w>
n om
descri bed</w>
con clud
vi a</w>
spe ak
for ced</w>
an y
Ad ministr
campai gn</w>
clu sion</w>
ren ces</w>
Rap porteur</w>
om s</w>
Jap an</w>
c y</w>
re ad</w>
coord ination</w>
pre sident</w>
med ical</w>
challeng es</w>
S ci
C am
t ation</w>
proced ures</w>
lo ve</w>
del i
exp ected</w>
individu al</w>
rel ating</w>
con struction</w>
estab lish</w>
st ing</w>
ver s</w>
eff ect</w>
chang es</w>
plan ning</w>
y le</w>
oc k</w>
provi des</w>
re form</w>
K ing</w>
organiz ed</w>
19 0
tion ed</w>
in ter</w>
ro ad</w>
. m
re fu
se ven</w>
ne ar</w>
ari es</w>
al ogue</w>
for c
equ ality</w>
star t</w>
Com p
S tr
M ed
gu ar
Willi am</w>
ill s</w>
in sp
deg ree</w>
mon th</w>
li ance</w>
c lim
play er</w>
we ek</w>
199 4</w>
T ec
paren ts</w>
ev ent
ess or</w>
h om
imple ment</w>
cri me</w>
se par
de sign</w>
fin d</w>
g est</w>
dist ribu
g res
ar ch
fin ished</w>
sen ior</w>
att le</w>
ip ment</w>
t ained</w>
mechan isms</w>
r ati
bo ard</w>
s ti
t i</w>
Ger man</w>
C ali
val ue</w>
mo ve</w>
H en
strat egy</w>
pl ans</w>
de al</w>
sp ent</w>
g l
A sia</w>
A .</w>
over all</w>
not es</w>
v in
evi dence</w>
independ ent</w>
th y</w>
ol o
ci tiz
ra ther</w>
.m .</w>
addres sed</w>
issu ed</w>
law s</w>
d ly</w>
Th om
h y
beli ev
op les</w>
docu ments</w>
t y
Sc ot
er ous</w>
Dec laration</w>
nat ural</w>
le x
a men
Geor ge</w>
er ation</w>
writ ing</w>
deci sions</w>
201 8</w>
L .
victi ms</w>
idd le</w>
su sp
pers onal</w>
se ts</w>
foot ball</w>
pre ci
x im
h un
follow ed</w>
d one</w>
A ra
ex erc
ri age</w>
ac ting</w>
Ger many</w>
s ong
e th</w>
l at
Cali for
ser ious</w>
econom y</w>
langu age</w>
enc ed</w>
f em
re al</w>
Ad visory</w>
equ ipment</w>
offic ials</w>
vot e</w>
M ex
li k
re ached</w>
for ward</w>
Centr e</w>
loo k</w>
ev ent</w>
w oman</w>
it er
jo b</w>
l in</w>
en jo
UN C
assess ment</w>
un ities</w>
pri mary</w>
&apos; m</w>
or ial</w>
lo ss</w>
c all</w>
mat ters</w>
Califor nia</w>
car ried</w>
in ning</w>
indi genous</w>
lim ited</w>
qu ali
s ong</w>
co ach</w>
direc tor</w>
p ing</w>
S C
ac ross</w>
ke ts</w>
n ature</w>
quar ters</w>
c op
strength ening</w>
ro om</w>
comm er
join t</w>
J ames</w>
co vered</w>
d ow
D avi
ver s
fun ding</w>
ne i
work ers</w>
oblig ations</w>
indu stry</w>
an ese</w>
wh ose</w>
ic ally</w>
p ay</w>
po or</w>
ffic king</w>
bro ad
c el
L ou
Ar my</w>
S um
o l</w>
Ara b</w>
p un
B C</w>
det ail
er ia</w>
L u
comple ted</w>
an ia</w>
empor ary</w>
an ti
refu ge
on y</w>
a i</w>
se e
un ic
st and</w>
de sign
le ague</w>
rele ase</w>
per formed</w>
m a</w>
K ing
H o
S al
C i
B ank</w>
stu dies</w>
W ash
s ons</w>
E li
row n</w>
Palestin ian</w>
con fi
olo gi
C .</w>
direc t</w>
b ack
199 3</w>
s la
orig inal</w>
h ours</w>
sex ual</w>
A f
om b
pot ential</w>
prev ent</w>
h or
high er</w>
ba sic</w>
g s</w>
administr ation</w>
ex change</w>
S a
d a
UN DP</w>
aff ir
commit ment</w>
cap ital</w>
18 9
mater ial</w>
g an</w>
0 ,000</w>
ot s</w>
h and
sel ves</w>
terror ism</w>
fri end</w>
pri or</w>
S ou
s or
ac ted</w>
Cha irman</w>
introduc ed</w>
le ave</w>
g a
wh ole</w>
Wash ington</w>
w ards</w>
bec om
l a</w>
Tec hn
wh om</w>
arti cles</w>
ter n
k il
pres s</w>
N ew
trad iti
elec tr
ev ents</w>
t old</w>
out side</w>
ch e
se en</w>
kin d</w>
l d
N i
K ore
ic ial</w>
stat ements</w>
boo ks</w>
gre ater</w>
m em
w at
vol un
D u
comm ittee</w>
sugg est
fi ght</w>
t ment</w>
initi atives</w>
el im
exp an
ser ve</w>
T o</w>
ar ing</w>
obj ective</w>
hist or
conduc t</w>
demo cr
B u
el i
gir ls</w>
comm itted</w>
hel ped</w>
Ira q</w>
adequ ate</w>
s ent
aw ar
scho ols</w>
av ing</w>
in ste
T V</w>
y n
pre vention</w>
consult ations</w>
3 5</w>
claim ed</w>
ic o</w>
v oc
ar re
cl ass</w>
cri sis</w>
ec ting</w>
al most</w>
vis ed</w>
ud e</w>
wh y</w>
s qu
T reat
relation ship</w>
integr ation</w>
an nex</w>
ecti ves</w>
secret ariat</w>
su per
sci ence</w>
ran ge</w>
communic ation</w>
C ap
promot ing</w>
c k</w>
p aid</w>
S an</w>
event ually</w>
le t
el ines</w>
F l
di alogue</w>
mo d
achi eve</w>
T ran
mo del</w>
ch em
ti an</w>
conduc ted</w>
thou ght</w>
H C
ti ci
assi st</w>
O per
purpos e</w>
in ate</w>
cent ury</w>
en ty</w>
Pe ople</w>
li gh
compan ies</w>
G i
I O
mar riage</w>
en se</w>
under standing</w>
ay ing</w>
ar gu
re ly</w>
pris on
av o
appro ved</w>
ei gh
c le</w>
&apos; re</w>
Represent ative</w>
me an
opport unity</w>
recommen ded</w>
ple ase</w>
dis armament</w>
ag ing</w>
1 2
offic ers</w>
vi de
rem ains</w>
pe acekeeping</w>
f f</w>
lo t</w>
strategi c</w>
e an</w>
aren ess</w>
ant i</w>
si mp
manag er</w>
t ain
pro sec
trans fer</w>
r ural</w>
am m
stan ces</w>
ission er</w>
es sions</w>
discus sion</w>
aff ected</w>
U S
part ners</w>
ain t</w>
can not</w>
Coun ty</w>
6 3</w>
d am
E R
pro gram</w>
n um
h ous
Li ber
cri tical</w>
br ing</w>
ven ess</w>
an te
B en
ex tr
av y</w>
rem ain</w>
be half</w>
3 .
li er</w>
awar ded</w>
th ings</w>
adem y</w>
de st
peri o
ID S</w>
pre pa
con fir
acc ep
n a</w>
J ustice</w>
C a
recogn ized</w>
an im
indu stri
co ver</w>
f ying</w>
z er
produc ts</w>
hi t</w>
cl aim</w>
aw areness</w>
us h
Soci ety</w>
st atis
F re
f ar
lit er
tra fficking</w>
S ha
al low</w>
step s</w>
w ood</w>
t our</w>
princip le</w>
ke ep</w>
tri al</w>
comple te</w>
M ari
pri ority</w>
F ir
min ist
u su
cre ate</w>
or d</w>
simil ar</w>
R om
saf ety</w>
con sequ
199 2</w>
ch o
recommend ation</w>
re sid
treat y</w>
oper ational</w>
r ace</w>
mo vement</w>
in t</w>
O ffic
clim ate</w>
en tered</w>
fif th</w>
Ro yal</w>
inste ad</w>
increas ing</w>
de mon
c y
H IV</w>
reduc tion</w>
ag ricul
prepa red</w>
dis p
E duc
si tion</w>
li ved</w>
pe oples</w>
6 5</w>
hi bi
beg inning</w>
opport unities</w>
commun ities</w>
par a</w>
ge ments</w>
con stitu
proced ure</w>
win ning</w>
cul ture</w>
r d</w>
w w
A IDS</w>
Davi d</w>
fin ally</w>
auth ority</w>
posi tions</w>
ver sion</w>
it or</w>
p ic
loc ated</w>
J er
wor ds</w>
il ies</w>
writ er</w>
ap preci
offic es</w>
4 5</w>
For ce</w>
B al
religi ous</w>
con ference</w>
in t
d ings</w>
su s</w>
eval uation</w>
3 2</w>
hin d</w>
char ge</w>
mul ti
w it
equ al</w>
claim s</w>
posi tive</w>
p rec
fac ilities</w>
con sum
fin ancing</w>
I N
King dom</w>
G ar
l and
ach es</w>
par ts</w>
D r
5 5</w>
18 8
M at
defe ated</w>
bun al</w>
1 ,
effor t</w>
ly mp
L eg
ul ation</w>
in ary</w>
empha si
sel ected</w>
199 0</w>
hi b
M s.</w>
3 3</w>
sur ve
traditi onal</w>
h us
Par is</w>
freed om</w>
el i</w>
St .</w>
w al
iz ing</w>
show s</w>
C ov
d ol
guar ante
rel and</w>
H all</w>
ph ot
Chi ef</w>
y outh</w>
al ian</w>
li ament</w>
ill ing</w>
ivers al</w>
instru ments</w>
ad or</w>
R ev
E F</w>
Ch ampionship</w>
O b
diffic ult</w>
individu als</w>
al tern
O lymp
le ment</w>
po p
p an
subsequ ently</w>
L ab
ish ing</w>
al ism</w>
s ays</w>
cat eg
M is
prot ect</w>
aim ed</w>
Comm issioner</w>
strategi es</w>
inform ed</w>
a j
agre ements</w>
op in
it self</w>
implemen ted</w>
Fir st</w>
t ext</w>
be hind</w>
viol ations</w>
exp end
ess ential</w>
ques tions</w>
gr and
H un
lead ers</w>
exper ts</w>
a verage</w>
Jo hn
I reland</w>
g ar
v ul
oc k
inv ited</w>
min d</w>
au l</w>
com man
fri ends</w>
M ac
achiev ed</w>
5 7</w>
Ch ris
e al
men tioned</w>
av el</w>
Ad d
stu died</w>
an ish</w>
au ght</w>
P aci
on ic</w>
stric t</w>
tr u
j ourn
foun ded</w>
rec ru
deleg ations</w>
Ph il
al ities</w>
T or
o d
lead ership</w>
them selves</w>
eff ects</w>
bel ow</w>
Man agement</w>
identi fied</w>
metho d</w>
re ferred</w>
Y ear</w>
di o</w>
cl ass
I n</w>
fir e</w>
ev a</w>
6 1</w>
P ublic</w>
demon str
t yp
dru g</w>
Paci fic</w>
ei ther</w>
l am
lik ely</w>
low er</w>
te en
th reat
mechan ism</w>
y er</w>
3 4</w>
ch ing</w>
ti n</w>
th re
metho ds</w>
song s</w>
coll ection</w>
direc tly</w>
6 4</w>
propos al</w>
vic tory</w>
c ast</w>
H ong</w>
Thom as</w>
Austr alian</w>
ci vil
contribu tion</w>
beli eve</w>
bi ennium</w>
a si
est er</w>
dis e
Ac ademy</w>
t own</w>
rel ations</w>
enh ance</w>
c ar</w>
M ad
ho sp
fo re
benef its</w>
p h</w>
pop ular</w>
allow ed</w>
3 6</w>
W estern</w>
is tic</w>
199 1</w>
h u
ear ned</w>
i gn
radi o</w>
t op
an o</w>
Char les</w>
intere sts</w>
re ference</w>
6 2</w>
buil d</w>
5 8</w>
A p
de signed</w>
implemen ting</w>
po sts</w>
4 .
UN E
j ected</w>
fun da
Fran c
ri st
N A
lead er</w>
Ang el
on d
H u
el ess</w>
col lege</w>
B .</w>
hol ders</w>
circ um
K ong</w>
st ates</w>
Ar ticle</w>
centr al</w>
tar ge
sh are</w>
e ts</w>
Isra eli</w>
some thing</w>
5 9</w>
f requ
fe rences</w>
work sh
se ven
f ed
tw enty</w>
s an
sur vi
negoti ations</w>
promot ed</w>
I r
fam ilies</w>
i de</w>
&apos; ll</w>
del iver
in de
inform al</w>
ologi es</w>
Treat y</w>
j ur
Af gh
arran gements</w>
D ar
Rob ert</w>
fem ale</w>
tri bu
appear ance</w>
inf ra
inter nal</w>
h ood</w>
Pro f
Mex ico</w>
elec tions</w>
auth or
5 3</w>
E C
b ar
R oo
ec e</w>
it able</w>
3 7</w>
si l
t est</w>
concer ns</w>
includ es</w>
4 8</w>
K en
dep loy
B as
asp ects</w>
5 2</w>
C ub
Ch urch</w>
p il
Indi an</w>
ati c
man ner</w>
He alth</w>
tor al</w>
ub lic
op ening</w>
p sy
obj ectives</w>
en ough</w>
forc ement</w>
occ a
tra vel
pursu ant</w>
ec h</w>
competi tion</w>
tr avel</w>
propos als</w>
s ource</w>
inter pre
proc esses</w>
c alls</w>
att ack</w>
ur ban</w>
expend it
de al
re duce</w>
d in
az ine</w>
vul ner
sol id
vi sit</w>
investig ation</w>
is on</w>
ou ght</w>
lab our</w>
V al
ast ern</w>
p t</w>
d i</w>
func tions</w>
repres ented</w>
B rit
P at
jud icial</w>
mater ials</w>
offic er</w>
li a
sp on
st ory</w>
view ed</w>
w ish</w>
facilit ate</w>
u ations</w>
P aul</w>
hear t</w>
m ur
pp ed</w>
acti vity</w>
6 6</w>
c ause</w>
fail ed</w>
it ems</w>
5 4</w>
conn ection</w>
becom ing</w>
R u
wee ks</w>
cre d
exerc ise</w>
anc y</w>
o il</w>
g in
hus band</w>
ad j
di c</w>
Ter rit
w anted</w>
phys ical</w>
re ally</w>
l ad
Hen ry</w>
ad ap
Fed eration</w>
H am
adv oc
pre ven
k en</w>
5 1</w>
ca used</w>
L eb
us h</w>
pr ise</w>
communic ations</w>
comp on
e um</w>
s atis
kil led</w>
s ources</w>
comp u
st res
moder n</w>
accep ted</w>
vil le</w>
L os</w>
maj ority</w>
st yle</w>
c anc
Pan el</w>
dre w</w>
ens uring</w>
rec ently</w>
18 7
5 6</w>
en e</w>
V ic
particip ated</w>
adv ant
sel y</w>
M ag
man u
In formation</w>
net work</w>
ak e
3 8</w>
fi el
li ves</w>
x ed</w>
influ ence</w>
Ci vil</w>
bri ef
r ates</w>
o red</w>
appear ances</w>
se a</w>
Sm ith</w>
pl om
per manent</w>
mul til
ac tors</w>
As sist
Ph ili
h op
te en</w>
Cov enant</w>
fron t</w>
S ud
num erous</w>
mar k</w>
h ope</w>
ten tion</w>
y ed</w>
dra w</w>
Bra z
li ber
Mill ennium</w>
charac ter</w>
F ri
dou b
commer cial</w>
h s</w>
scienti fic</w>
res ource</w>
regi ons</w>
de part
ear lier</w>
serv ing</w>
high est</w>
feat ured</w>
ac ked</w>
C ro
ac her</w>
V ir
6 7</w>
Tri bunal</w>
gre at
L an
integr ated</w>
G od</w>
c ru
guid elines</w>
3 9</w>
bur g</w>
tur n</w>
do ing</w>
S A
direc ted</w>
m itted</w>
tu red</w>
ep tion</w>
lin es</w>
fif ty</w>
J ew
su ff
n ine</w>
P i
sch ed
pris on</w>
se t
v ill
ain ts</w>
U N</w>
associ ated</w>
el ements</w>
s essions</w>
bi g</w>
u ty</w>
cr aft</w>
He ad
tur ned</w>
en ge</w>
G lobal</w>
ar my</w>
contribu te</w>
ay ed</w>
p ter</w>
T ex
Gen eva</w>
buil t</w>
cri mes</w>
provi sional</w>
A gency</w>
benef it</w>
t in
Ch ic
am p</w>
Con gress</w>
E g
S ub
star ting</w>
Educ ation</w>
Mic ha
Tr ade</w>
tr ack</w>
me t
long er</w>
comp ens
loc ation</w>
particip ants</w>
P ak
esti val</w>
C E
op ened</w>
min im
ure ment</w>
lin ed</w>
funda mental</w>
ati n</w>
previ ously</w>
vide o</w>
m ut
Pl an</w>
suppor ting</w>
Y u
eff ectively</w>
ac tor</w>
ad ded</w>
off ered</w>
particip ate</w>
sum mer</w>
sc ale</w>
recommen ds</w>
r is</w>
tec tion</w>
ic t</w>
B ud
- -
territ ory</w>
k y</w>
f all</w>
4 1</w>
C A
I T
Re view</w>
trans l
eng ine
under taken</w>
proce ed
e ffici
sch ol
new sp
app lied</w>
infra structure</w>
Rep ublic
c u
recei ve</w>
re stric
collabor ation</w>
G ol
charac ter
su fficient</w>
re affir
prepar ation</w>
stand ard</w>
4 4</w>
gradu ated</w>
aw ard</w>
sib ilities</w>
min al</w>
impro ved</w>
grow ing</w>
laun ched</w>
S ing
at re</w>
co oper
A l</w>
pur ch
ra in</w>
or ds</w>
fun d</w>
si ght</w>
l ess
sp ec
al d</w>
D on
se x</w>
bre ak
immedi ately</w>
er a</w>
form ing</w>
al ed</w>
4 2</w>
Ital y</w>
un g</w>
r o</w>
chi ef</w>
M u
regul ations</w>
L o
t ary</w>
e es</w>
reg im
J ud
pow er
K u
f lo
inj ury</w>
v ation</w>
po st
A g
For um</w>
t aining</w>
comp liance</w>
R A
m ach
ru ption</w>
y ond</w>
al led</w>
tak es</w>
g oods</w>
P A</w>
En viron
M ary</w>
S om
UN O
li fer
ing u
E ar
dem and</w>
le aving</w>
s ound</w>
tran sp
chang ed</w>
impro ving</w>
Gre at</w>
ste p</w>
we b
Serv ices</w>
arti st</w>
en forcement</w>
L in
St re
bal ance</w>
&apos; ve</w>
en able</w>
in cid
indic ated</w>
b ility</w>
ph il
4 7</w>
Kore a</w>
Cri minal</w>
wor d</w>
off er</w>
re pe
c ore</w>
str ong
ain e</w>
k et
initi al</w>
Sy ri
pr ice</w>
nor m
fi gh
de tention</w>
R eg
ex ecutive</w>
deb t</w>
st ly</w>
circum stances</w>
Fo reign</w>
hibi tion</w>
ra ise</w>
c ell
no ti
re r</w>
bil lion</w>
ri es</w>
Ar t</w>
suggest ed</w>
t an
4 6</w>
ti al</w>
h ic
i red</w>
ad ic
lifer ation</w>
ne g
t ren
c ro
ho st</w>
Chic ago</w>
comb at</w>
ac qui
4 9</w>
S am
hear d</w>
ter nal</w>
Micha el</w>
L a
bit r
p .m.</w>
7 0</w>
jur is
recor ds</w>
fac ed</w>
C ul
Angel es</w>
di tion</w>
h ou
in nov
re ason</w>
Comp any</w>
le gi
C enter</w>
it es</w>
refuge es</w>
y l
is o
exper t</w>
L atin</w>
Co ord
eth n
pre sid
IC EF</w>
4 3</w>
an s
Sec ond</w>
continu es</w>
Con stitution</w>
8 0</w>
on going</w>
ro l
as sets</w>
ad ver
Eg yp
ch er</w>
Str at
dr af
supp ly</w>
and a</w>
fel t</w>
Sw ed
foc used</w>
b lo
rec over
n ar
6 8</w>
Z eal
ber g</w>
re ach</w>
migr ation</w>
li sted</w>
ad es</w>
fel low</w>
V er
encour aged</w>
g ent
Un it</w>
R E
d ates</w>
estim ated</w>
D ep
part nership</w>
ty pe</w>
diffic ul
Per manent</w>
an i
ar ity</w>
cre ation</w>
fur ther
st ake
six th</w>
fil ms</w>
u b</w>
pass ed</w>
ast e</w>
citiz ens</w>
al ty</w>
di plom
Pol i
Co de</w>
L ord</w>
M usic</w>
ber t</w>
U K</w>
com par
out come</w>
1 st</w>
Ch rist
ail y</w>
su ffe
b our
believ ed</w>
ti li
m om
ish ment</w>
be yond</w>
w eight</w>
distribu tion</w>
r i</w>
s old</w>
no thing</w>
nei gh
ap ers</w>
Sp anish</w>
paragrap hs</w>
Is lam
reti red</w>
e e</w>
K ar
D .</w>
reas ons</w>
o v</w>
ten ance</w>
A gre
pris es</w>
commit ments</w>
purpos es</w>
b ase</w>
D el
ac eful</w>
is sions</w>
Zeal and</w>
in sur
loc k</w>
6 .
ograph y</w>
5 .
s cre
institu tional</w>
opin ion</w>
sol di
w ise</w>
govern ance</w>
n or</w>
per or</w>
Char ter</w>
A lex
af ter
ec tions</w>
N G
D ay</w>
suffe red</w>
cel eb
legisl ative</w>
rel ation</w>
com ments</w>
P en
S ir</w>
re ve
bir th</w>
app ly</w>
deb ate</w>
b at
t emporary</w>
C ath
sist er</w>
sc ope</w>
tu ally</w>
C al
Y ou</w>
Tex as</w>
ab use</w>
N ic
vot ed</w>
ourn ament</w>
F er
i o</w>
ag ency</w>
i er</w>
stud ent</w>
ide a</w>
te aching</w>
se y</w>
cor rec
Par liament</w>
C y
ac tual</w>
h a</w>
guid ance</w>
I F
new s</w>
du ty</w>
adv ice</w>
mon y</w>
str ation</w>
oc cur
UN ICEF</w>
jo in</w>
requ ire</w>
discus sed</w>
min utes</w>
di vi
ve hic
Brit ain</w>
bor der</w>
manu fac
ta x</w>
or ation</w>
s aying</w>
multil ateral</w>
I A
fi g
R C</w>
play ers</w>
er ial</w>
discus sions</w>
civil ian</w>
D o
sy m
subm it</w>
end or
ban k</w>
enti ties</w>
F ound
b lack</w>
ac adem
trans port</w>
mo vi
car ry</w>
z a</w>
T H
d ang
20 0</w>
ep iso
continu ing</w>
k ers</w>
ecti veness</w>
it ting</w>
mak es</w>
bre ak</w>
appoin tment</w>
succ e
ed y</w>
ur g
in o</w>
I S
Ar ts</w>
substan tive</w>
S ar
C N
fac tors</w>
play s</w>
initi ative</w>
sk ills</w>
Wh ite</w>
gi ving</w>
y an</w>
m y
9 0</w>
D C</w>
D en
gu it
dic tion</w>
j ing</w>
fri end
e as
Sud an</w>
main ly</w>
mi d</w>
enti re</w>
six ty</w>
in ating</w>
Te am</w>
fir m</w>
tri ed</w>
in corpor
Res earch</w>
ess ing</w>
ch ec
c ut</w>
Canad ian</w>
form al</w>
ol ic</w>
R ed</w>
ed ing</w>
c ast
proceed ings</w>
St at
St u
tar get</w>
gener ally</w>
B ol
comm and</w>
I t</w>
sum ed</w>
Found ation</w>
can di
B est</w>
re vised</w>
teen th</w>
v ac
contribu ted</w>
qu ick
5 00</w>
c li
clo sed</w>
Jo se
198 9</w>
chall enge</w>
m aster</w>
high ly</w>
Jap anese</w>
Pak istan</w>
hi c</w>
cer ti
de si
comp ared</w>
D istr
educ ational</w>
recogn ition</w>
n ation</w>
plan ned</w>
te ams</w>
y ards</w>
T u
St an
mar kets</w>
further more</w>
A N
com ed</w>
hous ing</w>
enn a</w>
te acher</w>
UNC TA
um s</w>
on a</w>
ad vis
UNCTA D</w>
Ric hard</w>
establish ing</w>
K h
ord ers</w>
s cri
tr ue</w>
Fed eral</w>
Par k</w>
g old</w>
eff ectiveness</w>
re iter
wel comed</w>
con struc
de v
Geor gi
fe el</w>
con clusion</w>
run ning</w>
produc tive</w>
get ary</w>
manag ed</w>
for t
c ross</w>
P ow
deliver y</w>
wor th</w>
thre at</w>
mo ving</w>
i ons</w>
conclud ed</w>
Sp ain</w>
on ed</w>
prac tical</w>
dis abilities</w>
cust om
un its</w>
t ell</w>
G l
am ed</w>
ow ned</w>
Stre et</w>
B ei
at tr
ac king</w>
inten ded</w>
cent res</w>
con vic
E r
Distr ict</w>
form ul
is tics</w>
M er
lear ning</w>
lear ned</w>
b ul
main tenance</w>
some times</w>
un iversal</w>
N F
sh ot</w>
arre sted</w>
cre dit</w>
m unic
al a</w>
S un
n on
se ek</w>
V ice</w>
tim ate</w>
H a
shi re</w>
p ati
I l
pre me</w>
s l
i ri
Cha ir</w>
Pro c
M ur
sol ution</w>
Republic an</w>
M iddle</w>
ab les</w>
Sum mit</w>
UN F
sc oring</w>
id a</w>
re t</w>
techn ologies</w>
v ince</w>
candi date</w>
main tain</w>
en try</w>
sit uations</w>
fig ure</w>
di a</w>
sing er</w>
st ood</w>
Me eting</w>
sen sus</w>
air craft</w>
effici ency</w>
Lab our</w>
t ask</w>
6 9</w>
avo id</w>
3 0
it ors</w>
sec tors</w>
be an</w>
sk y</w>
A sian</w>
fam ous</w>
amen d
sid es</w>
un it</w>
plic ations</w>
H on
si vely</w>
Afgh an
al ists</w>
Poli tical</w>
pr e</w>
198 8</w>
Pri me</w>
emer gency</w>
tor ture</w>
uni or</w>
Ma j
Agre ement</w>
lo g
ne arly</w>
ro b
ay er</w>
as hi
Afghan istan</w>
W in
poli tici
ac qu
ed ly</w>
lat ter</w>
ul es</w>
Pro tection</w>
d ance</w>
encour age</w>
Regi onal</w>
del y</w>
ethn ic</w>
Pe ter</w>
bri dge</w>
Chil dren</w>
re in
eng aged</w>
Sci ence</w>
st ability</w>
wi dely</w>
I ran</w>
Rec ords</w>
resul ted</w>
achiev ing</w>
n d</w>
eb all</w>
fin ance</w>
consist ent</w>
is s
an tly</w>
respon sibilities</w>
dec la
develop ments</w>
Pe ace</w>
an i</w>
cont act</w>
er o
appro val</w>
Bei jing</w>
did n</w>
ad y</w>
identi fy</w>
recei ving</w>
Re port</w>
en ary</w>
an e</w>
T i
jud ge</w>
t ack
recor ding</w>
ext ent</w>
confir med</w>
regim e</w>
f low
Cl ub</w>
independ ence</w>
T hi
tro ops</w>
s anc
A ir</w>
Chris tian</w>
Islam ic</w>
loo king</w>
ari b
W at
st op</w>
W ar
conc ept</w>
wa it</w>
Offic er</w>
quick ly</w>
sou ght</w>
ch urch</w>
aliz e</w>
sh own</w>
min e</w>
O F</w>
the ory</w>
M E
pres ence</w>
se as
tel lig
Gr and</w>
resul ting</w>
indic ators</w>
mag azine</w>
th i
stake holders</w>
f are</w>
pe aceful</w>
sha red</w>
compens ation</w>
cha pter</w>
uc k</w>
nation ally</w>
Co operation</w>
ro les</w>
tran sition</w>
recover y</w>
st or
g ation</w>
func tion</w>
stu dio</w>
Administr ation</w>
techn i
em ed</w>
gu n</w>
k r
do or</w>
v or
m ess
exten ded</w>
cou ple</w>
se l</w>
a ther</w>
B ul
mo di
Rus sia</w>
hol ding</w>
m ic
Sup port</w>
7 7</w>
rem aining</w>
t ability</w>
ish op</w>
gre w</w>
l ec
F il
assist ant</w>
volun tary</w>
Vi enna</w>
ob tained</w>
ha vi
detail ed</w>
ar bitr
appe al</w>
mus ical</w>
attemp t</w>
prof essor</w>
p it
de partment</w>
re d
addres sing</w>
seven th</w>
de dic
ro ck</w>
sen se</w>
t on
D ef
M el
run s</w>
initi ally</w>
sh o
ab s
fail ure</w>
subsequ ent</w>
oun ded</w>
compe t
di strict</w>
a o</w>
7 5</w>
wh ite</w>
b er</w>
Pol ice</w>
usu ally</w>
ci pl
pr ices</w>
F estival</w>
S ur
N ig
d y
stru gg
produc t</w>
pro min
ati vely</w>
ar ch</w>
um e</w>
dis sem
show ed</w>
b ran
speci fic
acc ept
k ept</w>
n es
m oun
Ital ian</w>
cle arly</w>
C arib
writ e</w>
vo ice</w>
psy ch
mo re
be au
reti re
hou se
vi r
m ass</w>
2 nd</w>
lar gest</w>
ste red</w>
u tili
intere sted</w>
ra ising</w>
F C</w>
resp ective</w>
sp ir
Carib bean</w>
pri orities</w>
li e</w>
P A
oo d
ol der</w>
follow s</w>
un able</w>
shor tly</w>
Fl or
depend ent</w>
knowle d
cont ent</w>
ref used</w>
Braz il</w>
il legal</w>
pos e</w>
sett lement</w>
inter view</w>
br ary</w>
sum mary</w>
part ner</w>
Tran s
bo y</w>
z ing</w>
r ich</w>
s mo
Techn ology</w>
u n</w>
k o</w>
d ent</w>
ess ed</w>
adv ance</w>
t uring</w>
B rown</w>
Min ist
st ay</w>
r s</w>
ex ternal</w>
0 .
cour ts</w>
more over</w>
Mus eum</w>
en em
determin ation</w>
sy n
f le
aff airs</w>
can did
tr ust</w>
insur ance</w>
r ise</w>
E .</w>
f ell</w>
Pr ince</w>
Roo m</w>
per cent</w>
gr anted</w>
w r
de man
Sen ate</w>
ot e</w>
decla red</w>
Head quarters</w>
y m
re placed</w>
UNE P</w>
plac ement</w>
Su preme</w>
ri c</w>
pres sure</w>
vulner able</w>
industri al</w>
un iversity</w>
speci alized</w>
determin ed</w>
arti sts</w>
mor ning</w>
z one</w>
t our
pro duce</w>
att acks</w>
S ol
Go als</w>
Govern or</w>
v an</w>
cor respon
se at</w>
is land</w>
os oph
coun ter</w>
Lou is</w>
is c
achiev ement</w>
ve ments</w>
pro liferation</w>
au di
h i</w>
ter y</w>
z ation</w>
jud ges</w>
invol vement</w>
198 6</w>
ati es</w>
ampion ships</w>
D r.</w>
T o
sub si
Au stri
tic ally</w>
adop t</w>
B A</w>
m ay
st ation</w>
fa ir</w>
arch it
C D</w>
Vir gin
H or
r on</w>
be havi
st ar</w>
clo sely</w>
set ting</w>
plac es</w>
ac compl
ell ing</w>
Nor thern</w>
s h</w>
ph ase</w>
John son</w>
web site</w>
appe ar</w>
oper ating</w>
de ep
S im
Tim es</w>
Cub a</w>
fed eral</w>
E mp
m id
Cri me</w>
O ne</w>
amp ion</w>
comple x</w>
p u
defe at</w>
poli tics</w>
trans ferred</w>
wh ere
el led</w>
amb er</w>
V en
inter governmental</w>
2 8
e ut
Op en</w>
invol ving</w>
ha bil
speak ing</w>
Jose ph</w>
con solid
saf e</w>
reduc ed</w>
I P
sh aring</w>
UN HC
B ure
acc used</w>
centr e</w>
appro xim
pay ment</w>
u d</w>
clu sive</w>
n in
pl at
con serv
t aught</w>
F ac
di e</w>
g reg
agricul tural</w>
Au th
UNHC R</w>
T a
M y
ac knowled
appreci ation</w>
rec alling</w>
ol ution</w>
on to</w>
viol ation</w>
terror ist</w>
198 7</w>
compu ter</w>
J ones</w>
ent ation</w>
B ill</w>
dest ro
sp ective</w>
statis tics</w>
confi dence</w>
dis aster</w>
ut ting</w>
retire ment</w>
c rit
c ash</w>
aw are</w>
Virgin ia</w>
employ ed</w>
F am
K e
mat ches</w>
foun d
V ol
M ay
fiel ds</w>
So vi
langu ages</w>
Ex per
ab led</w>
re vol
under stand</w>
char ges</w>
syst em
m ir
S hi
gir l</w>
success fully</w>
op position</w>
th an
har mon
neg ative</w>
Im ple
7 3</w>
altern ative</w>
dec re
con sensus</w>
direc tion</w>
am ing</w>
T O</w>
Con go</w>
iri t</w>
di ver
L a</w>
Le e</w>
TH E</w>
acti vely</w>
In v
cre ating</w>
me dic
perio dic</w>
mor t
al ong
Car ol
increas ingly</w>
ast ers</w>
fi gu
accoun ts</w>
Is land</w>
Jew ish</w>
equ i
S an
refl ected</w>
spo ke</w>
en ting</w>
oo t</w>
ket ball</w>
contro l
ol er
nov el</w>
sk i</w>
Sou thern</w>
al one</w>
Environ ment</w>
mar ked</w>
ner ships</w>
2 ,
h ur
econom ies</w>
O s</w>
t ournament</w>
meas ure</w>
P a
ow ing</w>
198 5</w>
lo s
&apos; d</w>
T ra
eut enant</w>
Ar gent
ex port</w>
de struction</w>
requi res</w>
N on</w>
applic ations</w>
de ep</w>
cor ruption</w>
impro vement</w>
lar s</w>
ob s</w>
v a</w>
abs ence</w>
C C
conc entr
electr onic</w>
seas ons</w>
k i</w>
ak er</w>
g as</w>
s ov
n ings</w>
ret e</w>
along side</w>
ond ary</w>
it t
vis ited</w>
wel comes</w>
ci ties</w>
Ar ab
inde ed</w>
Inter net</w>
b it</w>
min ister</w>
f ast</w>
ro r</w>
7 .
arri ved</w>
tion ing</w>
mo bil
198 0</w>
ver i
subm ission</w>
comm ission</w>
ac compan
en a</w>
tr ying</w>
Mar tin</w>
alleg ed</w>
Comm unity</w>
n y</w>
dou ble</w>
our nal</w>
w est</w>
Egyp t</w>
reli ef</w>
dam age</w>
oblig ation</w>
Sec tion</w>
um p</w>
ac tually</w>
li st
Phili pp
we alth</w>
hol ds</w>
gr ounds</w>
H el
et ro
Cath olic</w>
newsp aper</w>
l u
consult ation</w>
ou l
pres er
ca uses</w>
Fo ot
J ack
Georgi a</w>
an der</w>
e fficient</w>
J am
separ ate</w>
cha irman</w>
b es</w>
char ged</w>
Chil d</w>
i ght</w>
O n
produc er</w>
deploy ment</w>
ad o</w>
as c
ide as</w>
Bure au</w>
Sy stem</w>
dis cipl
ex ecu
p on
Administr ative</w>
mis sed</w>
P u
not ing</w>
Flor ida</w>
Willi ams</w>
loo ked</w>
D om
expendit ure</w>
sch em
han ds</w>
s ell</w>
Dep uty</w>
in struc
resp ectively</w>
F ar
a p</w>
Y oun
t es</w>
Sovi et</w>
m iddle</w>
as signed</w>
col on
cap tain</w>
dise ase</w>
g ained</w>
pro por
S E
clu sions</w>
mul ti</w>
im pres
all er</w>
Syri an</w>
eigh th</w>
P .
orig in
di vision</w>
ad a</w>
to ols</w>
vers ity</w>
S aint</w>
enter prises</w>
juris diction</w>
198 4</w>
D A
ut or</w>
te dly</w>
tw ice</w>
Pol ic
comb ined</w>
g ement</w>
I .</w>
ban ks</w>
itte es</w>
m al
chil d
ach ers</w>
Ri ver</w>
H e</w>
in k</w>
pro hib
condi tion</w>
st one</w>
U kr
ol a</w>
t em
ic ian</w>
Em peror</w>
es h</w>
ac cid
lic it</w>
V I</w>
ass ador</w>
or dered</w>
encour ages</w>
per cent
approxim ately</w>
r ying</w>
so f
har d
Jo int</w>
ven ue</w>
Al l
con ferences</w>
is es</w>
Qu een</w>
N et
instru ment</w>
s le
ag u
At lan
bur ied</w>
emb ar
lo an</w>
weap on</w>
E astern</w>
occup ied</w>
dist inc
Ch an
b ad</w>
retur ning</w>
memb ership</w>
bro ad</w>
st ock</w>
ill u
lo sing</w>
H um
public ation</w>
Imple mentation</w>
ch ampionship</w>
main stre
ab eth</w>
B ang
re new
he avy</w>
s ports</w>
bil ateral</w>
2 9
typ es</w>
ens es</w>
s en</w>
applic able</w>
pro vin
atten d</w>
sen si
observ ations</w>
adi tion</w>
soldi ers</w>
ext rem
o ther
ili ation</w>
don e
tre aties</w>
immedi ate</w>
difficul ties</w>
R adi
d aily</w>
198 2</w>
at tribu
dol lars</w>
Ne ther
an sw
coun ter
ari a</w>
med al</w>
qu ite</w>
it i</w>
Cha ir
ha i</w>
tal k</w>
pro ved</w>
e asi
ag ent</w>
draw n</w>
sol o</w>
ad s</w>
episo de</w>
accoun tability</w>
ran k</w>
academ ic</w>
pos sibility</w>
sec ure</w>
S he
prob ably</w>
ing ing</w>
In done
F A
ed itor</w>
au dit</w>
tellig ence</w>
govern ments</w>
S il
celeb r
bo ys</w>
reas on
di versity</w>
S T
g lob
H ist
migr ants</w>
tri c</w>
part nerships</w>
J .</w>
S t</w>
at a</w>
E l</w>
Ir ish</w>
satis fac
si ze</w>
def ence</w>
su b</w>
mo del
con ver
campai gn
figu res</w>
dow n
. or
movi e</w>
sel ling</w>
introduc tion</w>
gradu ate</w>
K y
5 0
it a</w>
Amer ic
D oc
dis placed</w>
read ing</w>
am i</w>
aut om
c amp</w>
cer tain
b ab
Foot ball</w>
youn ger</w>
ent al</w>
us eful</w>
t ress</w>
candid ates</w>
F A</w>
l eng
religi on</w>
i k
let ters</w>
is ation</w>
get ting</w>
multi ple</w>
er ies</w>
ad ed</w>
hon our</w>
proc urement</w>
Nether lands</w>
anc ement</w>
appro aches</w>
Dis armament</w>
re habil
Bo ston</w>
d ar
defin ed</w>
aren cy</w>
C re
c ere
ex pe
surve y</w>
hosp ital</w>
cho ice</w>
f th</w>
vill age</w>
s man</w>
percent age</w>
l o</w>
acc ur
sc ore</w>
sign ing</w>
an on</w>
spe ak</w>
du ties</w>
mar ily</w>
specific ally</w>
minim um</w>
R ome</w>
ta x
nin th</w>
me an</w>
ha ps</w>
l or</w>
B ow
conflic ts</w>
wor ld
pa ir</w>
es tions</w>
pat ter
re y</w>
3 rd</w>
Or der</w>
p ass</w>
o is</w>
back ground</w>
con clusions</w>
Sw it
contribu ting</w>
ot h</w>
sel ection</w>
per form</w>
im prison
St ar</w>
Pr in
fin e</w>
c row
detail s</w>
is co</w>
Ed ward</w>
sit es</w>
determin e</w>
gh t
M O
ar a</w>
vari ety</w>
discus s</w>
flo or</w>
cap e</w>
fo rest</w>
R el
per pe
j u
histor ical</w>
exist ence</w>
l v
f ru
acc ept</w>
regul arly</w>
Bo s
ma xim
tr ained</w>
categ ory</w>
lear n</w>
un c
hi a</w>
pl enary</w>
monit or</w>
p age</w>
ish es</w>
tion ary</w>
val u
experi ences</w>
adv anced</w>
ap s</w>
regi stration</w>
n ames</w>
Auth ority</w>
il ed</w>
nom inated</w>
se ems</w>
M r</w>
ul ti
bro thers</w>
L i</w>
com pos
e z
198 3</w>
pri marily</w>
democr atic</w>
UNF PA</w>
D ou
D un
ww w
g ely</w>
gr ade</w>
ey es</w>
wel come</w>
occup ation</w>
Olymp ic</w>
main tained</w>
N a
H R</w>
Eli z
consequ ences</w>
Leb anon</w>
198 1</w>
head quarters</w>
mut ual</w>
per haps</w>
e z</w>
in side</w>
any thing</w>
sal es</w>
wee k
Gre en</w>
pil ot</w>
il s</w>
new ly</w>
prepar e</w>
di vor
go sla
le ments</w>
Op tional</w>
7 2</w>
min or</w>
medi um</w>
im plications</w>
Ser b
R O
197 9</w>
in ess</w>
A wards</w>
Yu gosla
sem in
sec ondary</w>
on line</w>
them e</w>
ot el</w>
The atre</w>
A th
saf e
H ow
li f
H aw
vot es</w>
Fi eld</w>
qu es</w>
B ir
D av
spe ech</w>
an ci
S ust
on ds</w>
on ia</w>
refl ect</w>
crit eria</w>
happ y</w>
i b
resp ond</w>
adj ust
th ro
co he
conc rete</w>
rac ial</w>
197 8</w>
C lar
a .m.</w>
CN .
ell s</w>
figh ting</w>
T IO
eli gi
L aw
g ment</w>
Polic y</w>
hel ping</w>
enem y</w>
cour ses</w>
B a
B lack</w>
sent ence</w>
ris ks</w>
Swit zer
th r
tou ch
cri tic
www .
men ted</w>
Switzer land</w>
Oper ations</w>
w aste</w>
S el
ar rest</w>
Tur k
P rem
re si
canc er</w>
b on</w>
out standing</w>
un ion</w>
Sp ace</w>
B BC</w>
he av
val ues</w>
C la
mur der</w>
high ligh
dedic ated</w>
di ary</w>
es sion
promin ent</w>
W el
m ar</w>
T el
re a</w>
every one</w>
y es</w>
co ver
govern or</w>
Territ ory</w>
UN ID
regi stered</w>
T w
F el
G al
ch ester</w>
chem ical</w>
strong ly</w>
port ation</w>
thir ty</w>
democr acy</w>
compon ent</w>
b ig
emer ging</w>
ur ies</w>
every thing</w>
ur ged</w>
he al
it ment</w>
po ol</w>
enter prise</w>
ro se</w>
ur ges</w>
K o
re viewed</w>
pen alty</w>
b attle</w>
k new</w>
ir ing</w>
feat ures</w>
bro ke</w>
pi ece</w>
Por tu
C amp
appear s</w>
sanc tions</w>
lia mentary</w>
ul ed</w>
5 th</w>
origin ally</w>
er adic
Dis crimination</w>
Hun g
beg in</w>
transp arency</w>
M ass
explo itation</w>
stres sed</w>
di g
duc tion</w>
R am
as ks</w>
C ur
tim ely</w>
eas y</w>
Franc isco</w>
J es
ot a</w>
nor th</w>
bud ge
inter nationally</w>
world wide</w>
sp irit</w>
wit n
C le
av es</w>
el a</w>
ti se</w>
struc tures</w>
orig in</w>
expres sion</w>
Li fe</w>
.or g</w>
lar gely</w>
Youn g</w>
see king</w>
B re
capac ities</w>
ec ture</w>
Eliz abeth</w>
e .
f res
pre mi
depart ments</w>
im m
B attle</w>
P op
j obs</w>
G az
tr ou
196 7</w>
pre dic
D ru
pro te
In du
phil osoph
res ear
star red</w>
7 6</w>
consider able</w>
is s</w>
pursu e</w>
St aff</w>
s outh</w>
alleg ations</w>
qu esti
di men
in ator</w>
princip al</w>
exc ept</w>
4 th</w>
cl assi
j usti
great est</w>
cal cul
sp ring</w>
te achers</w>
cl ari
st ories</w>
min ation</w>
Swed en</w>
gener ation</w>
fin als</w>
reduc ing</w>
per f
ha z
Ch ampionships</w>
min ute</w>
cl in
d est</w>
ell ec
T ro
in i</w>
Per sons</w>
h our</w>
Prof essor</w>
tw are</w>
enh anced</w>
v .</w>
R w
es c
employ ees</w>
mom ent</w>
sup ple
B or
represent ation</w>
exam ination</w>
do w</w>
fe el
K os
eval u
per forming</w>
for ty</w>
fe ature</w>
ili ans</w>
metho d
W A</w>
rest ling</w>
deci des</w>
mar ks</w>
y e</w>
ord inary</w>
Con tro
O n</w>
co m</w>
blo od</w>
advant age</w>
re forms</w>
Tur key</w>
Sust ainable</w>
m ale</w>
com posed</w>
c e
simp ly</w>
dis crimin
shor t
cy cle</w>
in stitution</w>
worksh ops</w>
r ay</w>
ci v
UN MI
gr ant</w>
g ri
m ot
8 .
Col omb
Ho sp
deal ing</w>
mon d</w>
re conc
cont ains</w>
ari o</w>
enh ancing</w>
ru p
deli vered</w>
less ons</w>
M oun
streng th</w>
NF L</w>
consider ing</w>
eng agement</w>
em an</w>
ar ts</w>
3 00</w>
mat ely</w>
don ors</w>
Bel gi
M y</w>
se arch</w>
w all</w>
identi ty</w>
G ra
some one</w>
dis covered</w>
op tion</w>
re views</w>
worksh op</w>
197 3</w>
ag er</w>
ser vers</w>
9 .
fun ded</w>
est ate</w>
presid ential</w>
z es</w>
w estern</w>
st ance</w>
iz es</w>
7 1</w>
cru cial</w>
cir cul
Coun tries</w>
Pro sec
th u
gu ard</w>
197 0</w>
z z
it ch
a head</w>
suff ering</w>
bur gh</w>
197 5</w>
frequ ently</w>
author ized</w>
ir y</w>
defin ition</w>
Is lands</w>
mar ine</w>
rec alled</w>
bur y</w>
197 6</w>
kin s</w>
gr at
st op
Assist ant</w>
ph en
dat ab
quar ter</w>
bel ong
An n
197 2</w>
b ill</w>
urg ent</w>
197 4</w>
quali fied</w>
exper tise</w>
foun der</w>
com mod
Palest ine</w>
ob served</w>
ak es</w>
ou d</w>
expres s</w>
S at
por ting</w>
end ers</w>
pu ts</w>
b ing</w>
197 7</w>
tion ally</w>
Se a</w>
pre gn
occur red</w>
civ ilians</w>
ab in
con sec
gu est</w>
program s</w>
ver th
i ds</w>
k es
est er
exten sive</w>
numb ers</w>
El ec
m ail</w>
munic ip
il licit</w>
los ses</w>
simp le</w>
y ers</w>
un less</w>
deli ber
7 4</w>
ar d
t ains</w>
pro gres
s a</w>
L ove</w>
ov o</w>
a ud
lin ked</w>
verth eless</w>
coun t</w>
w il
particip ating</w>
Pre vention</w>
regar ded</w>
SC O</w>
no w
op posed</w>
public ations</w>
comman der</w>
th ank</w>
ivers ary</w>
br inging</w>
UNID O</w>
al le
organiz ational</w>
squ ad</w>
st able</w>
che str
tr ain</w>
Ser ies</w>
P enn
ne vertheless</w>
Mil itary</w>
Alex ander</w>
sol utions</w>
lab el</w>
NG Os</w>
ing ham</w>
ar ily</w>
m ist
s at
as tic</w>
ec t
per spective</w>
H ill</w>
Mic hi
a c</w>
Ch amber</w>
p apers</w>
S P
ag ree</w>
dec ade</w>
Mus li
ch oo
bas ketball</w>
dru gs</w>
O x
contr acts</w>
O ther</w>
C r
f lex
w on
P lan
inj ured</w>
im posed</w>
spon s
Thi rd</w>
T ay
repres ent</w>
ut ri
ob tain</w>
Con serv
accord ingly</w>
sub regional</w>
dec ades</w>
Nor way</w>
Maj or</w>
di ag
rehabil itation</w>
des er
bo x</w>
other wise</w>
albu ms</w>
A C
7 8</w>
reve aled</w>
p ack
th ly</w>
g ate</w>
proc essing</w>
T own</w>
S k
accoun ting</w>
Am b
fin ish</w>
constitu tional</w>
im age</w>
gu il
us ers</w>
ric k</w>
Fil m</w>
Mal ay
man i
ven tions</w>
Gre ek</w>
N uclear</w>
ograph ical</w>
consum ption</w>
ab ol
Du ke</w>
R ac
fin dings</w>
Un der</w>
regul ation</w>
fac ing</w>
ad el
C ross</w>
B usin
per c
t esti
el abor
op tions</w>
empha sis</w>
d ney</w>
co verage</w>
Radi o</w>
Som alia</w>
uni que</w>
Eli mination</w>
Qu e
coll ective</w>
mo stly</w>
. C.</w>
m ers</w>
s end</w>
min ing</w>
Leg al</w>
law yer</w>
i ally</w>
strength ened</w>
v ent
Gu ine
ar di
D C
T ha
h am
W ol
san ds</w>
comple tion</w>
lim it</w>
ar m
oler ance</w>
ut ation</w>
emphasi zed</w>
li qu
Michi gan</w>
threat s</w>
Carol ina</w>
b loc
re sist
8 5</w>
Argent ina</w>
Add .
substan tial</w>
T ai
M un
Govern ing</w>
ex ec
engine ering</w>
O R
ser i
si mul
E st
s er</w>
Fam ily</w>
agricul ture</w>
net works</w>
ld n</w>
j an</w>
sy lv
sof tware</w>
in clusion</w>
ris on</w>
accompan ied</w>
Col on
Hosp ital</w>
er ra</w>
ur ation</w>
friend ly</w>
vis its</w>
B on
I L
fic ations</w>
he ar</w>
er gy</w>
s a
pain ting</w>
enjo y</w>
re ality</w>
succe eded</w>
ulti mately</w>
Vic tor
recogn izing</w>
em e
M an</w>
draw ing</w>
Pro ject</w>
sh e
re signed</w>
g ain</w>
recru itment</w>
o dy</w>
signific antly</w>
chang ing</w>
s ale</w>
199 0s</w>
assess ments</w>
E A</w>
atic ally</w>
en su
docu mentation</w>
fu el</w>
um n</w>
ve y</w>
der i
New s</w>
d u</w>
fac tor</w>
sched uled</w>
P S</w>
aw ards</w>
J ord
performan ces</w>
3 ,
196 9</w>
op pos
quar ter
concer t</w>
197 1</w>
her self</w>
guarante e</w>
en rol
sc ene</w>
pe ti
l ers</w>
Com man
ti ful</w>
aliz ing</w>
politici an</w>
re jected</w>
pp ing</w>
E U</w>
B I</w>
v ice</w>
196 8</w>
estim ates</w>
u le</w>
Indone sia</w>
tor ate</w>
aff ect</w>
sid ers</w>
pl ant</w>
g ol
thou sands</w>
D es
st er
S lo
po e
An nex</w>
fort un
Strat egy</w>
uc k
re al
under take</w>
targe ts</w>
or al</w>
coord inated</w>
Busin ess</w>
N U
cont emporary</w>
be l</w>
de ad</w>
H ab
st a</w>
k es</w>
diplom atic</w>
M A
comm ission
f light</w>
ó n</w>
S af
t om
R oman</w>
con dem
R a
bu y</w>
sylv ania</w>
ing er</w>
expan sion</w>
attemp ted</w>
Col umb
ch ance</w>
investig ations</w>
G il
refuge e</w>
Wal es</w>
M .</w>
e ing</w>
stre et</w>
9 5</w>
liter ature</w>
pun ishment</w>
indic ate</w>
g a</w>
ec h
car rying</w>
den ied</w>
int ellec
spe ed</w>
vol ume</w>
J ack</w>
T om</w>
cop ies</w>
adel p
7 9</w>
8 7</w>
st ant</w>
b in
victi m</w>
am bi
i ded</w>
D ut
Kos ovo</w>
Cul tural</w>
ow ner</w>
G all
E N
pro per</w>
M ov
n ations</w>
expl ained</w>
il and</w>
fav our</w>
f low</w>
A ri
incid ent</w>
cro s
k in</w>
Pol and</w>
dr ama</w>
Mar k</w>
f ashi
et ts</w>
et c</w>
Phil adelp
educ ated</w>
ti v
n ur
def ense</w>
f ra
expan ded</w>
c ard</w>
stit utes</w>
se as</w>
man dates</w>
perpe tr
D ani
ho sted</w>
suppor ts</w>
ici ans</w>
j a</w>
fil led</w>
Bi g</w>
g one</w>
Philadelp hia</w>
ul ations</w>
j unior</w>
G ir
ep tions</w>
t ool</w>
associ ation</w>
ab road</w>
Austri a</w>
j i</w>
S pe
G ri
min ority</w>
flex i
ic als</w>
as ing</w>
A gr
volun te
eng age</w>
man n</w>
N o</w>
Bro ad
Scot t</w>
mic ro
diffe rences</w>
fin ding</w>
et te</w>
re aching</w>
interpre tation</w>
Net work</w>
ti vity</w>
ac hel
fa ith</w>
acqui red</w>
nei ther</w>
don or</w>
R ules</w>
conven tions</w>
sp ending</w>
i ans</w>
dro pped</w>
power ful</w>
Wil son</w>
Guine a</w>
g in</w>
9 8</w>
Tr ust</w>
draf ted</w>
ingu ished</w>
Coord ination</w>
198 0s</w>
pro sp
a ur
head s</w>
bi o
design ated</w>
disp ute</w>
Par t
al es</w>
C as
st ations</w>
dy nam
E s
in ations</w>
al i</w>
os en</w>
initi ated</w>
con vention</w>
c enter</w>
u el</w>
sp read</w>
prison ers</w>
S O
C z
8 3</w>
sur g
t ex
gr ave</w>
min es</w>
highligh ted</w>
Ro ad</w>
abin et</w>
at tit
We ap
experi enced</w>
e x</w>
B an
In te
th or
ab il
c alling</w>
Fran k</w>
S A</w>
ph y</w>
F ame</w>
str ai
bas eball</w>
st ac
B ay</w>
ill a</w>
insp ired</w>
statis tical</w>
d red</w>
Tr aining</w>
organ s</w>
b ar</w>
en g</w>
in duc
av al</w>
Jack son</w>
Dav is</w>
gu ards</w>
bri ef</w>
ti ves</w>
u sted</w>
prof ession
Tay lor</w>
i ent</w>
at er
elec toral</w>
cont aining</w>
recogn ize</w>
pat ri
Fin ancial</w>
ass ess</w>
pow ers</w>
men d
norm al</w>
lo ad</w>
ur s
Sy dney</w>
join ing</w>
O ver
rap id</w>
fil ed</w>
a sion</w>
cover ing</w>
w an</w>
ici ary</w>
corpor ate</w>
poin ted</w>
Ku wait</w>
et ary</w>
head ed</w>
4 0
9 9</w>
re ver
con sent</w>
respon ses</w>
fe ren
Li b
w ing</w>
b le
e ous</w>
ch ampion</w>
integr ity</w>
M em
t al</w>
adap tation</w>
ex ist</w>
v als</w>
supp lies</w>
Si erra</w>
dec laration</w>
b att
tow ard</w>
Amb assador</w>
W e</w>
R ef
ch osen</w>
N avy</w>
adver ti
cont ing
H ou
inter n
Ar ch
loc ations</w>
H an
compon ents</w>
ste in</w>
pres entation</w>
inst ance</w>
Ma ur
endor sed</w>
Mon t
top ic</w>
hi red</w>
resid ence</w>
achiev ements</w>
sust ained</w>
require ment</w>
elim inate</w>
ob servers</w>
o x
9 2</w>
cha ir</w>
el ine</w>
R en
guit ar</w>
the sis</w>
categ ories</w>
be at</w>
us al
der son</w>
ans as</w>
8 8</w>
8 1</w>
9 6</w>
cle an</w>
ace building</w>
pol l
acc el
found ation</w>
Z h
mean ing</w>
ab and
ow nership</w>
n utri
ac tress</w>
J ean</w>
Ukr aine</w>
4 00</w>
tw el
T est</w>
Penn sylvania</w>
L ev
nam ely</w>
194 5</w>
sett led</w>
a ver
sing les</w>
oc ks</w>
sever e</w>
co de</w>
ad ing</w>
ad d</w>
Prem ier</w>
dise ases</w>
hear ing</w>
oun ding</w>
G ames</w>
hi o</w>
sh op</w>
tr aff
m iti
traff ic</w>
repres enting</w>
be red</w>
Pow er</w>
laun ch</w>
ic ity</w>
con str
bu s</w>
6 th</w>
For ces</w>
I M
f ish</w>
con siders</w>
Americ ans</w>
D or
lo se</w>
f ought</w>
off ences</w>
Ste ph
Jer usal
S qu
el ement</w>
n it
for th</w>
diag no
8 4</w>
compl aints</w>
9 7</w>
lat est</w>
S how</w>
ag ues</w>
comb ating</w>
8 2</w>
ou red</w>
exc e
compet ent</w>
Columb ia</w>
acc es
ach us
ob stac
mach ine</w>
thi op
ad visory</w>
O hio</w>
im pe
E v
pres sion</w>
Mass achus
t asks</w>
E thiop
cooper ate</w>
pati ents</w>
ann iversary</w>
re moved</w>
Massachus etts</w>
ou ts</w>
Scot land</w>
Jerusal em</w>
mess age</w>
con stitute</w>
influ enced</w>
sp here</w>
I s</w>
ag gres
k o
pre ne
thin king</w>
L A
pa rent</w>
est s</w>
Nig eria</w>
m as</w>
territ ories</w>
K el
M ul
ti s</w>
identi fication</w>
Olymp ics</w>
8 6</w>
v ital</w>
plac ing</w>
docu mentary</w>
su me</w>
trad ing</w>
Contro l</w>
ot ing</w>
rati fication</w>
et t
repor tedly</w>
O ut
se emed</w>
sou thern</w>
pay ments</w>
exc ell
9 3</w>
D ub
S pr
ad mitted</w>
g ar</w>
buil dings</w>
y n</w>
M ol
as sign
grap h
e at</w>
rel atively</w>
leng th</w>
HC HR</w>
com edy</w>
n ative</w>
fe ar</w>
Cro ati
ic h
c as
exten d</w>
ar m</w>
lar ger</w>
Ber lin</w>
st ro
vehic les</w>
sub programme</w>
sh el
com position</w>
g un
T E
exam ples</w>
T an
daugh ters</w>
ran ked</w>
s li
tren ds</w>
Philipp ines</w>
ch ron
answ er</w>
lin k</w>
Pre sid
ic ul
fu r</w>
A ud
f al
consec u
at e
O HCHR</w>
y e
inten tion</w>
7 th</w>
V II</w>
U r
re place</w>
N az
gu ide</w>
in telligence</w>
sent enced</w>
F e
T om
b omb
Add .1</w>
sur r
ef s</w>
Ken ne
s on
e ties</w>
achel or</w>
or ary</w>
An d</w>
in qu
196 6</w>
su d
9 1</w>
H is</w>
re cip
be aring</w>
v it
allow ing</w>
UN A
A h
pl us</w>
f ill</w>
campaign s</w>
secret ary</w>
prosec ution</w>
oc key</w>
exp enses</w>
deci de</w>
por tr
Hum an
journ alist</w>
196 4</w>
L im
Har v
Ob serv
doc tor</w>
in fl
exten sion</w>
L ew
de grad
t ely</w>
legi timate</w>
tre ated</w>
su it</w>
sem i</w>
techni ques</w>
reser ve</w>
H y
tem per
argu ed</w>
im ag
Wh it
li ghts</w>
migr ant</w>
hop ed</w>
A sh
tit les</w>
comple tely</w>
gi ves</w>
s and</w>
al ties</w>
mak ers</w>
stud ying</w>
P ress</w>
del ay</w>
believ es</w>
Fi fth</w>
sur face</w>
K i
c en
L y
Cor por
ur s</w>
l ying</w>
sat ell
control led</w>
li min
AN D</w>
in form</w>
I C</w>
197 0s</w>
hon or</w>
bi d</w>
me ant</w>
reason able</w>
ir s</w>
de fic
g ross</w>
out comes</w>
extrem ely</w>
child hood</w>
Ear th</w>
N P
e dition</w>
196 0</w>
Med ical</w>
st ers</w>
Jam a
Comm unic
attemp ts</w>
comm ittees</w>
T our</w>
gre en</w>
un iver
Rw anda</w>
inv ent
invest ments</w>
y our
s av
Techn ical</w>
leg ally</w>
az z</w>
coll ected</w>
m as
consecu tive</w>
s par
196 5</w>
T ok
em o
b ought</w>
freed oms</w>
not able</w>
c ement</w>
in ing</w>
Fri day</w>
ov a</w>
compl ain
illu str
beau tiful</w>
b arri
C o</w>
s un
H .</w>
Cor ps</w>
In dependent</w>
ex plan
auth ors</w>
Liber ia</w>
In iti
ob ject</w>
Mo sco
si ties</w>
hu ge</w>
dr am
sust ain
ex hibition</w>
fav our
investig ate</w>
per sist
Ox ford</w>
min orities</w>
Jo e</w>
9 4</w>
any one</w>
tre me</w>
le agues</w>
air e</w>
ec es</w>
col d</w>
b ai
g en</w>
St atis
la m</w>
prof it</w>
dri ve</w>
S ul
speci fied</w>
F .</w>
Bl ue</w>
Dr aft</w>
li ons</w>
diffe rence</w>
offic ially</w>
sec ret</w>
sc en
preven ting</w>
ep h
protec ted</w>
Jord an</w>
for um</w>
li t</w>
Weap ons</w>
W i
op tim
ch ers</w>
ap ore</w>
B .
g al</w>
Mon day</w>
brief ly</w>
4 ,
limin ary</w>
main taining</w>
Su per
Scot tish</w>
conven ed</w>
man age</w>
tri p</w>
P un
ur a</w>
8 9</w>
Tor onto</w>
e u
Dut ch</w>
prom p
pic ture</w>
Mov ement</w>
liter ary</w>
audi ence</w>
ten ure</w>
Ar men
phen om
them atic</w>
C op
R ol
Ap pe
1 1
ly wood</w>
ere ign
por ted</w>
beli ef</w>
Jer sey</w>
Agr icul
b ound
se em</w>
t ings</w>
se ment</w>
prom ise</w>
Territ ories</w>
con vin
te sting</w>
op pon
Vi ol
Sing apore</w>
Fr amework</w>
st an</w>
Rob er
st ore</w>
S em
J ournal</w>
x ing</w>
en der</w>
cap tured</w>
Turk ish</w>
produc ing</w>
5 ,000</w>
US A</w>
foun ding</w>
peri al</w>
F ood</w>
T enn
targe ted</w>
ail ed</w>
ud i</w>
assist ed</w>
Li brary</w>
L uc
St and
T ru
prepar ing</w>
mem ory</w>
Mosco w</w>
T y
re b
competi tive</w>
Leg isl
u ted</w>
aw a</w>
A zer
Le one</w>
great ly</w>
f la
than ks</w>
her it
speak ers</w>
g er
convin ced</w>
C lin
s ave</w>
Po st</w>
att ached</w>
ti e</w>
Eng ine
W ed
Assist ance</w>
accel er
rep utation</w>
eme tery</w>
St ud
Fran k
avail ability</w>
as ser
y o</w>
easi ly</w>
per s</w>
Exper ts</w>
restric tions</w>
R og
Il lin
f ans</w>
Ar th
T his</w>
amp ions</w>
W .</w>
do es
mis sing</w>
196 3</w>
N at
sov ereign
ro ll</w>
sub jects</w>
st ress</w>
i ding</w>
ex clud
territ orial</w>
P O
pan el</w>
Yugosla via</w>
S ri</w>
En ergy</w>
usu al</w>
z h
aim s</w>
tren d</w>
character istics</w>
ent re
commission ed</w>
g ers</w>
re vi
pr o</w>
datab ase</w>
B ush</w>
depend ence</w>
amoun ts</w>
medic ine</w>
al ing</w>
we b</w>
Minist ers</w>
Gaz a</w>
Harv ard</w>
expendit ures</w>
ey e</w>
sh ar
ph one</w>
maxim um</w>
ul l</w>
ion e
in clusive</w>
b s</w>
regul atory</w>
ex hib
A le
I S</w>
tru th</w>
ul ty</w>
off ers</w>
pris ing</w>
vehic le</w>
dri ving</w>
ev ol
0 1</w>
I L</w>
H ay
Comm un
de ter
hous es</w>
subsi diary</w>
y ard</w>
ush ed</w>
a ult</w>
196 1</w>
nor thern</w>
Pr inc
Mon tre
vot ing</w>
not ably</w>
E qu
Pri ze</w>
Leb anese</w>
V an</w>
n es</w>
A ir
in nings</w>
enti ally</w>
ad minist
ar i</w>
Azer bai
194 9</w>
c aught</w>
noti ce</w>
f oot</w>
certi fic
dig ital</w>
le ts</w>
Ju li
ap ar
C ir
m el
Illin ois</w>
em issions</w>
conclud ing</w>
f ran
l ay</w>
B S</w>
schol ar
cred ited</w>
re medi
ab ling</w>
we ak
poe try</w>
sovereign ty</w>
pre liminary</w>
Mari a</w>
CO P</w>
Pe acekeeping</w>
q i</w>
Colomb ia</w>
wr ong</w>
encour aging</w>
Y outh</w>
strai ght</w>
ke ting</w>
power ment</w>
In ter</w>
nom ination</w>
sib ly</w>
innov ative</w>
re rs</w>
Chair person</w>
sensi tive</w>
pl ying</w>
Bos nia</w>
de voted</w>
philosoph y</w>
govern ing</w>
C R
au g
Emp ire</w>
qu anti
satisfac tion</w>
fac ts</w>
cri tici
go es</w>
ail ing</w>
us er</w>
comm issions</w>
st ages</w>
intellec tual</w>
seri ously</w>
broad cast</w>
bro ken</w>
Tim e</w>
sal ary</w>
e k
il le</w>
mi xed</w>
occa sion</w>
S and
an ian</w>
elim ination</w>
ub s</w>
ro c
Sci enti
big gest</w>
hosp it
Cy pr
there by</w>
Mi ke</w>
popul ations</w>
dom in
Arth ur</w>
O ri
K er
fi xed</w>
amend ment</w>
comp il
Cypr us</w>
func tioning</w>
in king</w>
nor ms</w>
win ner</w>
g .</w>
fer ring</w>
Pro vi
ci a</w>
0 9</w>
er ce</w>
r ad
imprison ment</w>
Sun day</w>
h an</w>
fav or
te sted</w>
gradu ating</w>
ri d</w>
w ishes</w>
han g</w>
s si
purch ase</w>
as yl
b ishop</w>
S ant
t ;</w>
amend ments</w>
M r
n one</w>
b ow
deep ly</w>
sc ul
coun ty</w>
di gn
el se</w>
them atic
glob alization</w>
E S</w>
Ha iti</w>
Her z
S har
Ag enda</w>
de ad
s we
wal k</w>
entre prene
ear ning</w>
att acked</w>
S S</w>
F ol
g or
distribu ted</w>
Montre al</w>
sil ver</w>
hun dred</w>
clo sure</w>
sing ing</w>
con sci
nation ality</w>
B ah
to m</w>
pi eces</w>
196 0s</w>
s low
desi re</w>
Med al</w>
fin ishing</w>
plat form</w>
Hist ory</w>
re sumed</w>
s in</w>
dis ability</w>
destro yed</w>
ci de</w>
an try</w>
ot t</w>
accid ent</w>
exp and</w>
cere mony</w>
L ar
H al
en de
s .
un employment</w>
st aff
over sight</w>
p al
ni e</w>
M A</w>
enti ty</w>
top ics</w>
es sive</w>
acti v
L ady</w>
a b</w>
Ch em
decre ase</w>
dec lined</w>
hol der</w>
col or</w>
see ing</w>
L it
b ad
ti eth</w>
196 2</w>
Mill er</w>
cont ain</w>
Sup er</w>
ex treme</w>
ch ose</w>
F ourth</w>
up dated</w>
194 8</w>
Tha iland</w>
valu able</w>
enjo y
schem e</w>
Hi gh
D re
l aid</w>
sub stitute</w>
der ing</w>
rem ember</w>
ab sol
manag ers</w>
194 6</w>
D ist
u k
ris ing</w>
po sted</w>
chestr a</w>
flow s</w>
U gan
inter im</w>
T al
E mer
pain tings</w>
C ra
0 5</w>
off ence</w>
mater nal</w>
W est
si tional</w>
5 ,
Ob ama</w>
f it</w>
re alization</w>
St ock
Gen der</w>
fashi on</w>
K r
class es</w>
D on</w>
ici de</w>
de a
trans portation</w>
far m</w>
protec ting</w>
model s</w>
bour ne</w>
li eutenant</w>
it at</w>
does n</w>
exec ution</w>
ga p</w>
IA EA</w>
194 4</w>
wel fare</w>
tal ks</w>
Vi et
Cam bridge</w>
c ous
chec k</w>
O k
v ations</w>
respon ded</w>
techn ological</w>
char t</w>
Bang lad
feat uring</w>
a po
asyl um</w>
M aster</w>
B il
inv asion</w>
B ab
manag ing</w>
Stu dies</w>
Belgi um</w>
u ge
B ut
re productive</w>
li sts</w>
H ear
mor al</w>
p as
we ather</w>
gr av
B ran
enjo yed</w>
pro p
Prosec utor</w>
pro vince</w>
occ o</w>
mort ality</w>
di an</w>
w illing</w>
join tly</w>
Represent atives</w>
compe ted</w>
pass ing</w>
happ ened</w>
invest ors</w>
enter ing</w>
s our
ul ts</w>
deman ds</w>
mo b
en abling</w>
choo se</w>
Sh ang
aut onom
D A</w>
s low</w>
grand father</w>
as sumed</w>
En ter
fi red</w>
tr adition</w>
Inte gr
F O
comp ly</w>
Don ald</w>
194 2</w>
Gre ece</w>
C P
inst all
ri ver</w>
C ast
on ing</w>
dissem ination</w>
the atre</w>
atten ding</w>
Hab itat</w>
L ong</w>
lin ing</w>
exam ined</w>
ment ally</w>
met al</w>
convic ted</w>
co vers</w>
rel ative</w>
so red</w>
scul p
Hol lywood</w>
K in
bran ch</w>
Bur un
reconc iliation</w>
wh at
v on</w>
ref er</w>
ti fication</w>
sched ule</w>
Victor ia</w>
o to</w>
usti n</w>
mem or
struc tural</w>
N ar
0 8</w>
house hold</w>
Lew is</w>
y l</w>
ob vi
inj uries</w>
Christ mas</w>
hi p</w>
b on
Kore an</w>
Ch ile</w>
Ar ti
we red</w>
spo t</w>
no on</w>
H ome</w>
dang erous</w>
uc ky</w>
rac ism</w>
sti pul
Vol un
lin ks</w>
h tt
coun cil</w>
po et</w>
be ar</w>
Sa udi</w>
ra il
m ac
att or
ak ed</w>
mon thly</w>
system atic</w>
dro p</w>
demonstr ated</w>
com ment</w>
c k
B ru
lo s</w>
incid ents</w>
inv itation</w>
Dar fur</w>
impro vements</w>
ak ing</w>
enn ial</w>
or t</w>
tain ment</w>
dec line</w>
acknowled ged</w>
ex ac
ar ising</w>
accept able</w>
form ulation</w>
foc using</w>
Ken ya</w>
te sts</w>
po p</w>
pen ding</w>
fe et</w>
vis iting</w>
id ity</w>
recogn izes</w>
ex pos
st ayed</w>
194 0</w>
guil ty</w>
M emb
S ports</w>
Ref uge
M e</w>
un .org</w>
ov ina</w>
N E
par liamentary</w>
Malay sia</w>
z en</w>
le g</w>
l ar</w>
re sident</w>
u gg
K az
Bu il
shi p
J ac
Sh er
f an</w>
P ur
stop ped</w>
J i
b i</w>
resol ve</w>
ak h
F or</w>
Un iversal</w>
loo ks</w>
Bl ack
are t</w>
B ishop</w>
fi l</w>
complain ant</w>
A k
l abor
ag greg
194 1</w>
reser vations</w>
val ent</w>
ho t</w>
expl ore</w>
Franc is</w>
T ow
fr ag
Inter nal</w>
Fin ance</w>
Musli m</w>
ame works</w>
ear th</w>
transl ation</w>
deploy ed</w>
youn gest</w>
ver si
assess ed</w>
busin esses</w>
enjoy ment</w>
He ad</w>
bir th
For t</w>
c am
ma p</w>
l es
ath le
p ick</w>
T op</w>
rati fied</w>
Den mark</w>
ush ing</w>
e v</w>
cre di
la sting</w>
ar tis
ou ter</w>
olog ist</w>
advoc acy</w>
grap hic</w>
pre ad</w>
re bel
6 00</w>
M echan
ha ir</w>
Dani el</w>
exam ine</w>
T S</w>
is her</w>
la h</w>
O h</w>
ev ening</w>
b ra
anti cip
Ter ror
Initi ative</w>
propor tion</w>
critic ism</w>
tack les</w>
e .</w>
H L</w>
sec ured</w>
form ity</w>
ex tra
el ev
disp utes</w>
Sen ior</w>
C A</w>
as sum
ro yal</w>
id ly</w>
P R
ali tion</w>
loc ked</w>
dri ver</w>
conn ected</w>
Prof essional</w>
Al i</w>
re integration</w>
lab or</w>
Ni ght</w>
strugg le</w>
viol ent</w>
C el
8 th</w>
draf ting</w>
reser vation</w>
ograp hic</w>
sw it
st ating</w>
expres ses</w>
s port</w>
heav ily</w>
p ione
An drew</w>
cast ing</w>
anci ent</w>
J im</w>
Ch r
Wh at</w>
amen ded</w>
R ed
hom es</w>
Su n</w>
ak a</w>
Ven ez
al location</w>
win ter</w>
e ast</w>
cap able</w>
Wed nes
G ro
Mor occo</w>
ali d</w>
innov ation</w>
b ound</w>
Ethiop ia</w>
195 8</w>
Kh an</w>
S in
Mr s.</w>
win s</w>
An ton
mean while</w>
be gun</w>
Herz eg
dis asters</w>
prin t</w>
contro versi
ell a</w>
S us
193 9</w>
B y
surg ery</w>
195 0</w>
dist ance</w>
inten si
195 1</w>
Pol ish</w>
wi des
dow ns</w>
M ot
Banglad esh</w>
Ste ve</w>
pos s
s y</w>
it z
provin cial</w>
relation ships</w>
10 .
R .
isc al</w>
Shang hai</w>
k illing</w>
as n</w>
repres ents</w>
dep th</w>
c ell</w>
intern ally</w>
Herzeg ovina</w>
in son</w>
Con tr
ful fil</w>
observ er</w>
cust oms</w>
W ang</w>
How ard</w>
ic ket</w>
u tionary</w>
feel ing</w>
P ope</w>
dis abled</w>
writ ers</w>
N ot
wat ch</w>
Reg ulations</w>
L B</w>
ai red</w>
wides pread</w>
ang er</w>
Res ources</w>
Mar g
ad mis
6 ,
sp end</w>
f ile</w>
certain ly</w>
public ly</w>
Coun try</w>
c in
Strat egi
Indi genous</w>
rul ed</w>
K ir
F inal</w>
mob ile</w>
des c
serv es</w>
Wednes day</w>
Ma h
alleg edly</w>
re mo
op en
equ itable</w>
195 6</w>
L ake</w>
Bo b</w>
phot ograph
c ing</w>
incre ases</w>
tr acks</w>
es tion</w>
re min
Mar y
N BA</w>
a rent</w>
Comman der</w>
sti mul
j our
ag ents</w>
Nor th
ple as
spon sored</w>
ec o
A R
Pl at
G ran
fr ameworks</w>
in sul
S C</w>
stri ke</w>
show ing</w>
p ath</w>
n ell</w>
cri tics</w>
resid ents</w>
ad er</w>
c utting</w>
Man chester</w>
L at
your self</w>
n ity</w>
contro ls</w>
ann a</w>
d ness</w>
il ton</w>
pl ants</w>
Ira qi</w>
Con sul
TIO N</w>
purch ased</w>
perio ds</w>
eg o</w>
0 6</w>
Venez u
K a
bin ding</w>
Har ry</w>
194 3</w>
UNE SCO</w>
estim ate</w>
194 7</w>
&apos; I
fe a
Scienti fic</w>
0 7</w>
view ing</w>
plic ation</w>
s per
195 9</w>
ast y</w>
R ock</w>
un cle</w>
intro duce</w>
L A</w>
doub t</w>
obj ects</w>
Steph en</w>
tour ism</w>
enn y</w>
X X
bud getary</w>
t ap
w s</w>
as sic</w>
Mis s</w>
adi um</w>
Sci ences</w>
Azerbai jan</w>
viol ated</w>
g by</w>
def ensive</w>
Dom in
pi ano</w>
program ming</w>
A P</w>
com for
un d
B ec
dep uty</w>
tal ent</w>
contr ary</w>
UNO DC</w>
assist s</w>
correc t</w>
app ing</w>
9 th</w>
sustain ability</w>
ex ports</w>
chem icals</w>
n am</w>
em powerment</w>
j unc
far mers</w>
ali gn
occa sions</w>
M ir
ei ved</w>
par as</w>
ograp her</w>
P s</w>
star ring</w>
mainstre aming</w>
Atlan tic</w>
C er
charac ters</w>
Al g
sec tions</w>
g y
C ô
t ac
equ ity</w>
cle an
1 ,000</w>
Mex ican</w>
O tt
til ity</w>
li ability</w>
O l
o ke</w>
c ited</w>
t an</w>
Indu stri
N ep
E SC
IC T</w>
re construction</w>
coun sel</w>
win d</w>
ear ing</w>
er o</w>
vi c</w>
lim its</w>
witn esses</w>
mo vements</w>
er to</w>
G .</w>
t ree</w>
Cz ech</w>
Fre der
El l
gr an
su itable</w>
At tor
ret ained</w>
Dec ade</w>
al located</w>
consequ ently</w>
bi ological</w>
depart ure</w>
C at
por tra
195 7</w>
curren cy</w>
Bol i
n ick
vo ire</w>
heal thy</w>
ar ist</w>
enc ing</w>
transp arent</w>
ende av
P res
pres cri
D er
speak er</w>
ban ds</w>
the red</w>
L oc
W restling</w>
Human itarian</w>
imp acts</w>
Al ban
satell ite</w>
Fin land</w>
g ro
I f</w>
identi fying</w>
star s</w>
accept ance</w>
Ugan da</w>
Corpor ation</w>
Burun di</w>
car bon</w>
&apos;I voire</w>
Pop ulation</w>
spir it
conduc ting</w>
rest aur
an thro
appear ing</w>
i x</w>
mani f
conven tional</w>
han ded</w>
allow s</w>
ex emp
excell ent</w>
Hung ary</w>
it ations</w>
prec ed
si le</w>
7 ,
O ld</w>
G ab
te l</w>
veri fication</w>
eradic ation</w>
u a</w>
d am</w>
transl ated</w>
diffe ren
travel ed</w>
pol y
resist ance</w>
cop y</w>
incorpor ated</w>
g row</w>
camp s</w>
bo at</w>
neigh bour
re placement</w>
Ex cell
influ ential</w>
win dow</w>
der ly</w>
ash ed</w>
ra id</w>
y i
Ric h
Cô te</w>
195 4</w>
Kenne dy</w>
cur ricul
super vision</w>
indic ates</w>
ven ues</w>
plan e</w>
M D
fl ying</w>
rem ote</w>
Tu es
f ish
Gol den</w>
X i
R esp
vi ć</w>
un fortun
Ath le
d h
human ity</w>
Ber n
deli ver</w>
Portu gal</w>
cur y</w>
C ru
F al
histor ian</w>
rap idly</w>
R .</w>
M P</w>
bur den</w>
eph one</w>
deal t</w>
c lear
w ished</w>
rep ly</w>
Memb ers</w>
ori ented</w>
8 00</w>
inter vention</w>
sav ings</w>
ge ographical</w>
at mo
An derson</w>
mil es</w>
ther ap
H in
Th urs
S T</w>
as set</w>
sor t</w>
out put</w>
IL O</w>
insp ection</w>
ill ness</w>
gl ass</w>
fac ility</w>
v is</w>
compl aint</w>
m atic</w>
Ch ris</w>
hun dre
expl ain</w>
Plan ning</w>
Commun ist</w>
M as
speci es</w>
aff ecting</w>
ro man
s ac
tur ning</w>
scienti sts</w>
trans actions</w>
prepar atory</w>
er son</w>
my self</w>
emp le</w>
D al
extr a</w>
T ar
organiz e</w>
N ai
w ounded</w>
Pl ayer</w>
195 2</w>
A pp
over come</w>
til l
facilit ating</w>
Sum mer</w>
S ab
Ear l</w>
T am
Tues day</w>
per mit</w>
Gre en
m its</w>
ow ed</w>
Def ence</w>
inv ites</w>
W H
substan ti
dar k</w>
inter c
Mar ine</w>
obstac les</w>
war ning</w>
w age</w>
divi ded</w>
simil arly</w>
un known</w>
dr y</w>
pro ve</w>
p up
twel ve</w>
there after</w>
ten th</w>
te amm
k ill</w>
F lo
Pro vince</w>
perf ect</w>
fol k</w>
citiz en</w>
univer sities</w>
b rain</w>
se gment</w>
ti er</w>
re move</w>
ex ha
0 3</w>
is ol
T ask</w>
tran sit</w>
e astern</w>
Prin ciples</w>
ha bit
Swed ish</w>
195 5</w>
poll ution</w>
Serb ia</w>
survi ved</w>
equ ally</w>
T re
techni que</w>
ap art</w>
T ony</w>
Sen ator</w>
cre ative</w>
b ell</w>
fe e</w>
Oper ation</w>
busin ess
forc ing</w>
soci o</w>
e. g.</w>
f iscal</w>
acqui sition</w>
compos er</w>
dis pos
coord inate</w>
cl er
An dre
V III</w>
dri ven</w>
V o
sp lit</w>
Pu erto</w>
oper ate</w>
Thurs day</w>
dang er</w>
Ri o</w>
All en</w>
O w
C ent
Qu estions</w>
Tai wan</w>
proper ties</w>
assist ing</w>
col leagues</w>
scho ol
Pre par
Terror ism</w>
pris ed</w>
publish ing</w>
im port</w>
or gan</w>
u an</w>
accur ate</w>
br and</w>
id ation</w>
ex plic
det ained</w>
Tenn es
Sa har
A s</w>
b ol
I A</w>
k ne
Bel ar
Sub committee</w>
Liber al</w>
W eb
Al bert</w>
rap e</w>
oc ols</w>
mar k
under stood</w>
them es</w>
Por t
Attor ney</w>
stan ds</w>
arri val</w>
engine er</w>
O s
hy dro
continu ous</w>
E rit
L am
substan ces</w>
D .C.</w>
C emetery</w>
D e</w>
i si
Val ley</w>
dign ity</w>
tou red</w>
after wards</w>
F le
ple ased</w>
19 18</w>
do g</w>
Br ad
A .
form at</w>
d ges</w>
al o
con formity</w>
ul ated</w>
parti al</w>
execu ted</w>
20 th</w>
pursu ed</w>
ass ass
t ments</w>
associ ate</w>
un anim
I G
pen sion</w>
ur o</w>
B lo
Gall ery</w>
ris es</w>
exp ect
Jud ge</w>
c a</w>
week ly</w>
i .
h otel</w>
FA O</w>
per su
journ alists</w>
sol id</w>
cap abilities</w>
Lit tle</w>
Tennes see</w>
so il</w>
li brary</w>
con fron
Ari z
K ansas</w>
law yers</w>
es cape</w>
break ing</w>
m outh</w>
f ers</w>
reli able</w>
u it</w>
descri bes</w>
Mel bourne</w>
In f
det ail</w>
may or</w>
U l
Stat us</w>
Con stitu
F a
w ed
soci eties</w>
s ens
Saf ety</w>
so ft</w>
scre en</w>
occ er</w>
fi re
A li
tr a</w>
Sat ur
il ian</w>
class ical</w>
associ ations</w>
ud es</w>
anim als</w>
D etro
h amm
B ill
th a</w>
op her</w>
in sist
fo ster</w>
discrimin atory</w>
en sion</w>
D E
becom es</w>
O li
nutri tion</w>
Hou ston</w>
Th at</w>
s ang</w>
en ship</w>
DA W</w>
Detro it</w>
For d</w>
sh r
app ed</w>
em en</w>
tro op</w>
UN IF
a str
G han
Ariz ona</w>
hon orary</w>
comb ination</w>
s in
susp ended</w>
Al f
enti rely</w>
Pe ter
195 3</w>
gr ants</w>
Ad vis
L e</w>
ay a</w>
dis missed</w>
thou sand</w>
ste el</w>
re alized</w>
h its</w>
D I</w>
or m
My an
constr aints</w>
O u
off ering</w>
manufac turing</w>
Ti be
ad ol
arran ged</w>
mar keting</w>
P ic
cous in</w>
L and</w>
Part nership</w>
hundre ds</w>
Myan mar</w>
N A</w>
en on</w>
Regi on</w>
construc tive</w>
with draw
la u
fic tion</w>
graph y</w>
Jes us</w>
L yn
tu rer</w>
htt p</w>
CE DAW</w>
cust ody</w>
Y our</w>
Bul g
Pr o</w>
resol ved</w>
prof ile</w>
al co
stor age</w>
de tec
ad ult</w>
V an
s tic
cl ubs</w>
archit ecture</w>
threat ened</w>
eligi ble</w>
z y</w>
Cam bo
R ock
Lan ka</w>
Fo x</w>
F ro
no tic
Rev olution</w>
J e
P ap
acces sible</w>
men tion</w>
B ook</w>
G a
patter n</w>
Com b
im possible</w>
it an</w>
oppos ite</w>
de pos
broad er</w>
reiter ated</w>
p ain</w>
val uation</w>
d ged</w>
Marg aret</w>
bal anced</w>
f ishing</w>
D a
re venue</w>
dea ths</w>
pol is</w>
co ast
sett lements</w>
An ne</w>
z i
ke y
de bu
en vis
b a</w>
sign ature</w>
for d
B oo
at em
im ages</w>
G ord
ell er</w>
di ff
Sy m
critici zed</w>
artis tic</w>
fi es</w>
clo ser</w>
on wealth</w>
scholar ship</w>
Lin col
Croati a</w>
tr ag
neigh b
par liament</w>
Dru gs</w>
Ad v
remedi es</w>
guit arist</w>
jud iciary</w>
ir ation</w>
J unior</w>
s at</w>
Per u</w>
C. 2</w>
san itation</w>
pos sibly</w>
Bow l</w>
m ari
Alg eria</w>
t un
we ak</w>
Nic hol
lo ans</w>
anim al</w>
Tw o</w>
recru ited</w>
P .</w>
ell o</w>
du al</w>
I .
s am
ho sti
W ith</w>
0 2</w>
Tr in
wi der</w>
or row</w>
w ear</w>
psych ological</w>
Strategi c</w>
hor se</w>
industri es</w>
mil lions</w>
controversi al</w>
tel ephone</w>
Wal ter</w>
Gu atem
G ame</w>
up date</w>
D ow
conserv ation</w>
W is
sub jected</w>
in aug
it o</w>
Mi ami</w>
F u
touch downs</w>
guarante es</w>
C H
193 8</w>
minist erial</w>
ut ors</w>
defe ating</w>
rest ing</w>
at en</w>
un t</w>
J r</w>
refl ects</w>
G ul
moder n
direc tors</w>
coll ap
tal king</w>
An th
sugg est</w>
newsp apers</w>
p utting</w>
Mo ore</w>
divor ce</w>
s n
Med ic
E C</w>
dre am</w>
am in</w>
ri e</w>
ma thematic
IO S</w>
Gol d
0 4</w>
Sant a</w>
f ly</w>
what ever</w>
Rom ania</w>
he re
st o
W all
L and
method ology</w>
prohib ited</w>
off s</w>
lin s</w>
Al liance</w>
Cap tain</w>
semin ars</w>
F ree</w>
rul ing</w>
perpetr ators</w>
Co ast</w>
appe als</w>
attor ney</w>
a x
Bri g
15 0</w>
un il
Mem orial</w>
wa iting</w>
U p
deter i
ec tor</w>
f alling</w>
T ig
success or</w>
elec tric</w>
Col or
rec ur
su n</w>
peti tion</w>
foc al</w>
correspon ding</w>
wit ness</w>
off ensive</w>
h man</w>
ve ter
Tim or</w>
qu ick</w>
ass ur
ron ze</w>
func tional</w>
Sou th
resp ected</w>
land s
sub stance</w>
O m
fir ms</w>
Comm onwealth</w>
discipl inary</w>
On t
ca using</w>
ref ers</w>
We ek</w>
mus ician</w>
m u
ar chi
Refuge es</w>
b al</w>
W TO</w>
J on
Li eutenant</w>
proper ly</w>
i. e.</w>
anc ell
19 17</w>
tor ies</w>
k id
r ant</w>
ric h
w ai
m itting</w>
preven tive</w>
l i</w>
confi d
lo y</w>
pre mis
L t
em a</w>
spo kes
bot tom</w>
restric ted</w>
In cre
re feren
a uc
w ast
em or
m ic</w>
con stant</w>
trans mitted</w>
d less</w>
cre w</w>
th es</w>
. com</w>
g on
trad ed</w>
lo gi
se ized</w>
w rest
over seas</w>
reiter ates</w>
Coord inator</w>
consult ative</w>
Broad way</w>
exc eption</w>
safe guards</w>
dist inguished</w>
pri me</w>
e ge</w>
sha res</w>
struc k</w>
193 6</w>
sm aller</w>
M et
law ful</w>
al g
sk in</w>
O IOS</w>
Phili p</w>
gradu ally</w>
DC s</w>
Co sta</w>
ti ed</w>
ester day</w>
rob i</w>
Bro ok
bur n</w>
travel led</w>
Nai robi</w>
a e</w>
ous ness</w>
fe time</w>
yn asty</w>
he at</w>
invol ve</w>
N el
Color ado</w>
L .</w>
row ing</w>
F ron
Ont ario</w>
19 19</w>
fin ed</w>
Col l
oph ob
ir ates</w>
custom ers</w>
For ms</w>
A n</w>
E cu
tr ain
fe es</w>
ob i
dynam ic</w>
Mo del</w>
sur ren
frequ ent</w>
suggest s</w>
et e</w>
Bas eball</w>
cha in</w>
Hol y</w>
claim ing</w>
Pro gram</w>
enrol led</w>
Y an
Pe oples</w>
Mor gan</w>
fr ame</w>
hamm ad</w>
t ine</w>
infl ation</w>
e tic</w>
out lined</w>
net t</w>
reg ards</w>
K il
oper a</w>
behavi our</w>
co al</w>
193 7</w>
fam ili
man dated</w>
fac tory</w>
foot b
form ally</w>
dol lar</w>
Mary land</w>
B at
sle ep</w>
ic ing</w>
NP T</w>
histor ic</w>
CC C</w>
tex ts</w>
explan ation</w>
th m</w>
ti le</w>
Res er
sol e</w>
dec lar
ord ings</w>
C ust
Mag azine</w>
inter views</w>
J im
V is
i us</w>
u tr
pic ked</w>
B ag
bab y</w>
har m</w>
consum er</w>
ass embly</w>
U E
pos session</w>
arran gement</w>
Colon el</w>
nar r
temper ature</w>
Clar k</w>
ear th
R aj
investig ated</w>
Min nes
Mari e</w>
F un
conserv ative</w>
C ow
withdraw al</w>
t z</w>
in sufficient</w>
fac es</w>
Chan ge</w>
Legisl ative</w>
v in</w>
Venezu ela</w>
hol id
Chris ti
ly n</w>
H ur
K al
suppor ters</w>
birth day</w>
patter ns</w>
ali on</w>
ow ners</w>
sum mar
war t</w>
cap ture</w>
G old</w>
Mon it
rec alls</w>
b y
ail s</w>
prepar ations</w>
distinc tion</w>
W ater</w>
Proc ed
dr um
Inv est
Si x
rac ing</w>
R an
staff ing</w>
sho oting</w>
W A
G on
clo sing</w>
to x
Ro s
Minnes ota</w>
cap it
Ham ilton</w>
Pro duc
municip al</w>
lin k
D am
utili zation</w>
mus icians</w>
liber ty</w>
O cc
E P</w>
emer ged</w>
renew ed</w>
reaffir ming</w>
Le on
adjust ment</w>
elec om
Pa ul
ne ar
7 00</w>
signific ance</w>
it t</w>
behavi or</w>
L iver
chan nel</w>
ac es</w>
har ass
keep er</w>
stres ses</w>
pro sper
tribu te</w>
R on
vers y</w>
d ating</w>
su icide</w>
D ol
premis es</w>
B h
Di ego</w>
Monit oring</w>
V in
se ats</w>
wel coming</w>
par ame
w asn</w>
ad ding</w>
vi ation</w>
s i</w>
des cent</w>
fa ir
re alize</w>
the tic</w>
gen u
o cide</w>
co ast</w>
det ain
er r
L E
ep ts</w>
hop es</w>
M .
comp ati
Nep al</w>
Sam uel</w>
bound ary</w>
be sides</w>
W W
aff ili
ri er</w>
her o
v ast</w>
person ality</w>
Sim on</w>
bl ue</w>
in cur
dr inking</w>
ap ti
F ul
recip ient</w>
Sm all</w>
Belar us</w>
Sal v
A C.
d res
í a</w>
193 3</w>
Or gan
B run
resear chers</w>
pro stitution</w>
presid ency</w>
kin ds</w>
repe ated</w>
g aps</w>
j e
ban king</w>
nation als</w>
fra ud</w>
advoc ate</w>
t olerance</w>
L en
m ate</w>
195 0s</w>
inc umb
L DCs</w>
p ill
y esterday</w>
sec toral</w>
equi valent</w>
gener ated</w>
cli ents</w>
M id
Buil ding</w>
pack age</w>
coord inating</w>
ag an</w>
mak er</w>
Mad rid</w>
j azz</w>
sugg estions</w>
w ants</w>
car s</w>
col umn</w>
s burg</w>
in ci
S P</w>
Chr ist</w>
co aching</w>
induc ted</w>
pass eng
cell s</w>
B et
g all
remo val</w>
fal se</w>
under ing</w>
ro ads</w>
har m
L au
comple ting</w>
brief ing</w>
ther ine</w>
re sign
profession als</w>
Fre ed
res c
arbitr ary</w>
po ems</w>
at ures</w>
Lincol n</w>
prin ted</w>
bor ne</w>
8 ,
hand ling</w>
expan ding</w>
Viet nam</w>
ef ul
on n
recommen d</w>
contro versy</w>
d il
ro ster</w>
m ly</w>
L ow
demonstr ate</w>
D all
pa th
M S</w>
f our
i um</w>
H amp
w er</w>
á n</w>
Agricul ture</w>
Jan e</w>
Con fed
ou gh
imp unity</w>
phenom enon</w>
vulner ability</w>
19 20</w>
Gord on</w>
Dub lin</w>
expos ure</w>
trou ble</w>
D ur
ay ne</w>
er ly</w>
stan tly</w>
provin ces</w>
gr o</w>
shi ft</w>
budge ts</w>
n t</w>
care fully</w>
a f</w>
fa x</w>
Bud getary</w>
assign ment</w>
Indi ana</w>
sha pe</w>
ann ually</w>
con nec
pres ents</w>
ir o</w>
exp ect</w>
ab sor
circul ated</w>
K ent
elecom munic
Un der
Resp on
junc tion</w>
tack le</w>
separ ation</w>
Char l
op er</w>
uni tion</w>
adv ancement</w>
Freder ick</w>
dev ices</w>
acc um
star ts</w>
u g
mas sive</w>
inter action</w>
vel and</w>
Emp loy
exc ep
R ho
squ are</w>
convic tion</w>
spons ors</w>
Exper t</w>
M en
Stat ute</w>
H us
lo gy</w>
guarante ed</w>
mon t</w>
ed ited</w>
grad uation</w>
compil ation</w>
solid arity</w>
descri ption</w>
Clin ton</w>
om ic</w>
st ocks</w>
evalu ate</w>
ret t</w>
fin anced</w>
gu ided</w>
near by</w>
ur ities</w>
B row
priv il
rou te</w>
in put</w>
prom ised</w>
p a</w>
ho c</w>
integr ate</w>
19 30</w>
Li u</w>
semin ar</w>
ap plying</w>
comm it</w>
as king</w>
Bri an</w>
de pri
paren tly</w>
ste re
sh oul
sist ers</w>
pl ate</w>
crow d</w>
consist s</w>
B un
ish ments</w>
193 5</w>
deri ved</w>
ann ex
bu re
C lim
organiz ing</w>
d uration</w>
Afgh an</w>
after noon</w>
ir a</w>
Mechan ism</w>
reaffir ms</w>
ro p
en th</w>
Occ up
ran king</w>
pro of</w>
or a</w>
simul tan
compet ence</w>
de emed</w>
ap parently</w>
E le
re ts</w>
Statis tics</w>
V ill
E p
C. 3</w>
NG O</w>
cont est</w>
bo ards</w>
cri tic</w>
O reg
CE O</w>
Rob inson</w>
p ages</w>
J eff
occ ur</w>
citiz enship</w>
Doc u
herit age</w>
mach in
19 29</w>
fres h</w>
T reas
dep ic
L O
ju ven
C C</w>
Cle veland</w>
r y
con stitutes</w>
Atlan ta</w>
susp ected</w>
M ong
oper ated</w>
p tions</w>
jour ney</w>
cohe rence</w>
b lock</w>
repe at
bu t
Wal ker</w>
commod ity</w>
il a</w>
thr one</w>
B ou
progres sive</w>
Z im
oper ative</w>
Lou isi
rac es</w>
por tion</w>
ad he
Communic ations</w>
work er</w>
pro jected</w>
me rely</w>
attit ude</w>
Arab ia</w>
p raised</w>
contr ast</w>
t ty</w>
Tok yo</w>
Engine ering</w>
ill er</w>
st y
addi tionally</w>
dis play</w>
ou ldn</w>
x on</w>
Prepar atory</w>
ch i</w>
integr al</w>
St ri
clo thes</w>
bal ances</w>
ang ers</w>
Anth ony</w>
Por t</w>
G ood</w>
Li ve</w>
regar dless</w>
ne utr
n i</w>
Har ris</w>
af ford</w>
R ab
relev ance</w>
ad ron</w>
B en</w>
ag on</w>
Jew s</w>
f led</w>
Sel f</w>
Louisi ana</w>
Observ er</w>
mobil ization</w>
Liver pool</w>
e able</w>
ass es</w>
m ol
sit ting</w>
barri ers</w>
ge ts</w>
voc ational</w>
produc tivity</w>
cha ired</w>
e reign</w>
G DP</w>
reb ounds</w>
inter ventions</w>
dispos al</w>
ric s</w>
re patri
fun eral</w>
war m</w>
d ul
con grat
doc tors</w>
ou tre
R em
el dest</w>
Rom a</w>
f illing</w>
eng ine</w>
Ac coun
-- --
p ast
d or
tre es</w>
P itt
or ship</w>
Gu id
no vels</w>
con vers
s oph
Kel ly</w>
formul ated</w>
ear n</w>
g t;</w>
& gt;</w>
b lin
Ghan a</w>
Pat rick</w>
WH O</w>
ed ge</w>
um es</w>
requ iring</w>
p son</w>
at r
1 20</w>
acc ession</w>
Ky oto</w>
v ar
19 14</w>
D an
Satur day</w>
9 ,
spirit ual</w>
A ut
su m</w>
N S</w>
asp ect</w>
Guatem ala</w>
friend ship</w>
spo ken</w>
instru mental</w>
person ally</w>
Oreg on</w>
193 4</w>
N CA
hol e</w>
Inv estig
L es
Wh en</w>
may be</w>
adop ting</w>
fin ds</w>
v eg
te ach</w>
advant ages</w>
at ar</w>
mo tiv
ru pt</w>
surr ounding</w>
mainstre am</w>
rep lied</w>
au x</w>
5 0,000</w>
L et
B ay
im migration</w>
ten sion</w>
Con tin
Pl ay
ch ann
sec onds</w>
gr ati
ho l</w>
An na</w>
j i
C lo
pain ter</w>
a side</w>
re n</w>
p he
g ains</w>
im bur
K ur
B achelor</w>
plic ated</w>
difficul ty</w>
resign ation</w>
pay ing</w>
belong ing</w>
v an
tour ing</w>
e ously</w>
St ar
fil es</w>
fa ult</w>
clu ster</w>
mod alities</w>
b orders</w>
is a</w>
Ad ams</w>
es cap
su peri
Com prehensive</w>
pati ent</w>
UNO PS</w>
beau ty</w>
expres sing</w>
Rel ations</w>
or i</w>
si m
opin ions</w>
ul ate</w>
l un
b ass</w>
unfortun ately</w>
in no
tri als</w>
outre ach</w>
hel ps</w>
Me tho
reser ves</w>
x es</w>
rec ordings</w>
gi an</w>
expl oration</w>
Ar med</w>
Sw iss</w>
ha r</w>
S .
attr acted</w>
Thom pson</w>
invent ory</w>
wh e
deliber ations</w>
R ad
under taking</w>
c abinet</w>
B ot
gl as</w>
adverti sing</w>
den ly</w>
for th
in adequate</w>
touch down</w>
head ing</w>
d ad</w>
il li
t ar</w>
conting ent</w>
aband oned</w>
pe l</w>
mil iti
Princ ess</w>
I T</w>
anc er</w>
clin ical</w>
Pri v
experi mental</w>
the ore
fav or</w>
dev ice</w>
sou l</w>
Ed in
minist ers</w>
T uni
May or</w>
pri ze</w>
su red</w>
v est
qu ake</w>
ligh tly</w>
Tor ture</w>
w ill
vi sible</w>
part ly</w>
shi r
Par t</w>
Dall as</w>
tax es</w>
divor ced</w>
201 9</w>
I X</w>
rou gh</w>
emphasi zes</w>
m on</w>
separ ated</w>
argu ment</w>
ancell or</w>
Clim ate</w>
coll ect</w>
gr y</w>
reaffir med</w>
H ai
preven ted</w>
P ot
Bill board</w>
dis cre
repeat edly</w>
go al
en coun
conc epts</w>
Cap e</w>
ak i</w>
econom ics</w>
Dou glas</w>
S B
y st
strong er</w>
alle l</w>
S ong</w>
k ings</w>
ic ks</w>
sol ve</w>
tom orrow</w>
z er</w>
He av
Cambo dia</w>
ch ant</w>
0 th</w>
h ot
g ence</w>
per mission</w>
gi e</w>
G reg
thu si
ov ered</w>
U C
descri be</w>
re imbur
moun tain</w>
certific ate</w>
D aily</w>
E quality</w>
er re</w>
Edin burgh</w>
g ue</w>
w ich</w>
sud denly</w>
su ffici
Mo der
E M</w>
grow n</w>
A rea</w>
CN. 4</w>
rel l</w>
enti als</w>
pre jud
m ates</w>
defin e</w>
Erit rea</w>
K im</w>
eg al</w>
Chan nel</w>
hon ors</w>
Volun te
c rises</w>
r are</w>
pregn ant</w>
mar gin
el se
p ace</w>
b ronze</w>
cast le</w>
comman ded</w>
wat er
diver se</w>
C D
ad vised</w>
Fo re
collabor ated</w>
A y
P sy
attribu ted</w>
Industri al</w>
f ts</w>
sour i</w>
atmo sphere</w>
produc ers</w>
In stitu
super vis
Pal ace</w>
Jo s
Me dia</w>
air space</w>
UN R
Conserv ative</w>
U ru
instruc tions</w>
ro ots</w>
li est</w>
o k</w>
Kent ucky</w>
ther ing</w>
introduc ing</w>
R yan</w>
fo rec
on ization</w>
footb aller</w>
Mis souri</w>
ru s</w>
char ity</w>
un ited</w>
demo bil
Ar m
Stan ding</w>
Syri a</w>
consider ations</w>
re action</w>
conclud e</w>
house holds</w>
Environ mental</w>
neigh bor
e di
Li thu
r um
exist s</w>
Ch ampions</w>
ass emb
schol ars</w>
R ay</w>
in y</w>
per mitted</w>
ex posed</w>
193 2</w>
al o</w>
low ship</w>
j ournal</w>
L iter
over view</w>
z o</w>
19 th</w>
K .</w>
g aining</w>
sign s</w>
re ferences</w>
ac commod
Se attle</w>
H otel</w>
re z</w>
ag en</w>
else where</w>
coast al</w>
g ated</w>
ph r
en thusi
electr icity</w>
t empor
determin ing</w>
ard ous</w>
negoti ation</w>
I ran
are n</w>
mer cury</w>
def end</w>
de gre
R ail
M en</w>
Ber k
rec overed</w>
z ones</w>
L og
request ing</w>
prot est</w>
An ti</w>
rati o</w>
elim inated</w>
is n</w>
vent ure</w>
2 12</w>
organ is
j ury</w>
19 16</w>
cont acts</w>
we al
activ ist</w>
ain der</w>
adver se</w>
up per</w>
th row</w>
Anton io</w>
m ation</w>
v ent</w>
Pri x</w>
unil ateral</w>
consult ant</w>
i i</w>
Fin ancing</w>
om a</w>
as er</w>
ven s</w>
Def ense</w>
bo ar
St adium</w>
I V
hol m</w>
c ot
H .
grad ing</w>
Li ght</w>
M ain
arbitr ation</w>
An n</w>
con junction</w>
par allel</w>
lo ved</w>
Ecu ador</w>
cour age</w>
CO M
en abled</w>
ci ve</w>
l ings</w>
Plat form</w>
en ophob
A P
W all</w>
s burgh</w>
inde x</w>
un ivers
pat ro
extr adition</w>
Ro ss</w>
com ment
Pe acebuilding</w>
observ ation</w>
fore sts</w>
classi fication</w>
mar ry</w>
T .</w>
hom a</w>
hun ger</w>
flexi ble</w>
embar go</w>
degre es</w>
Cul ture</w>
10 5</w>
amb ia</w>
RA L</w>
E ver
Alex and
mo thers</w>
N aval</w>
voc al</w>
vo y</w>
Uru gu
Excell ency</w>
quali fying</w>
list en</w>
. 2</w>
a us
con stitution</w>
Constitu tional</w>
Ok la
allow ance</w>
la sted</w>
b all
trans mission</w>
co very</w>
1 2.
el e
Naz i</w>
J r.</w>
Tel evision</w>
UE FA</w>
modi ties</w>
ro oms</w>
happ en</w>
aw a
Mc C
ri val</w>
l an</w>
vel i
An ti
v ak
p ts</w>
proce ed</w>
Viol ence</w>
in her
A d</w>
pro hibition</w>
ri f
fail ing</w>
see ks</w>
G or
ass ault</w>
Jama ica</w>
grat eful</w>
Ste wart</w>
di am
ten d</w>
e ase</w>
st ering</w>
A F
Gu ide</w>
N ev
B uc
where as</w>
ti more</w>
ap parent</w>
it z</w>
ei l</w>
I R
C u
b right</w>
em i
wh il
n is</w>
el even</w>
vis ual</w>
rem ainder</w>
10 ,000</w>
De an</w>
nat ur
Regi ment</w>
Arab ic</w>
incumb ent</w>
Minist erial</w>
degrad ation</w>
ur ge</w>
pain ted</w>
1 1.
succe ed</w>
h ence</w>
Okla homa</w>
suff er</w>
F ur
expe dition</w>
comp ul
m al</w>
gh ter</w>
re vision</w>
re mark
foc uses</w>
UNR WA</w>
og s</w>
em bered</w>
B each</w>
ep ide
Armen ia</w>
envis aged</w>
h at
machin ery</w>
C. 5</w>
f all
o a</w>
f estival</w>
till ery</w>
ro ot</w>
oun ced</w>
19 31</w>
cou ldn</w>
el low</w>
Con nec
dat ory</w>
diver si
re viewing</w>
av al
19 28</w>
Mar shall</w>
Or chestra</w>
il led</w>
Is su
Haw ai
t elling</w>
en orm
contin ent</w>
Stan ley</w>
challeng ed</w>
Al an</w>
re marks</w>
St reng
pres sed</w>
ter ing</w>
H it
trans national</w>
an ge</w>
W right</w>
Pitt sburgh</w>
Nor we
bri g
Ho c</w>
tre as
popul arity</w>
gener ate</w>
loy d</w>
Th ree</w>
Oper a</w>
sor ry</w>
consist ing</w>
char ts</w>
soldi er</w>
A z
veg et
for ums</w>
commen ded</w>
employ ee</w>
du m</w>
minist ries</w>
Ch el
consist ently</w>
tru ly</w>
hospit als</w>
Loc al</w>
S hel
the ater</w>
Gi b
rem embered</w>
M and
anticip ated</w>
compe te</w>
b les</w>
Pat ri
ot ed</w>
whil st</w>
wor st</w>
B ell</w>
ow a</w>
Nel son</w>
In tro
D anish</w>
10 9</w>
pass es</w>
drum mer</w>
un like</w>
ga thered</w>
umb er</w>
mean ing
V e
19 24</w>
ti vely</w>
t ant</w>
Sar ah</w>
gi ble</w>
adequ ately</w>
Th ere</w>
Fel low</w>
at t</w>
compar ison</w>
Bu ff
sov ereign</w>
coord inator</w>
Om bud
ad ults</w>
flexi bility</w>
sion ally</w>
Wh o</w>
ari ties</w>
hibi tions</w>
Ph ys
S am</w>
w an
w earing</w>
ti vation</w>
Ex p
quarter back</w>
employ ers</w>
P ear
docu mented</w>
Bal timore</w>
en ever</w>
rel atives</w>
R and
a polis</w>
k ing
Camp bell</w>
norm ally</w>
19 15</w>
g ot
S av
as y</w>
Z hang</w>
Rus sell</w>
ER A</w>
NCA A</w>
We b</w>
em peror</w>
w ave</w>
uni ons</w>
Palestin ians</w>
F IF
kne e</w>
ass y</w>
Ch all
19 21</w>
el and</w>
19 22</w>
cr icket</w>
tou ch</w>
Portu gu
sum mit</w>
Ch ampion</w>
R ound</w>
gi es</w>
gener ations</w>
sla very</w>
s ory</w>
b one</w>
par k</w>
S R.
di um</w>
ai de</w>
harass ment</w>
ur able</w>
e ted</w>
gr and</w>
st abil
ot yp
expect ations</w>
bat ting</w>
politici ans</w>
ME N
satis fied</w>
ed onia</w>
f ab
r ation
manif est
b id
l or
re me
Tan z
Cl ass</w>
exp ensive</w>
pri est</w>
Mat the
Develop ing</w>
thre w</w>
f ast
susp ension</w>
restaur ant</w>
consolid ated</w>
h all</w>
h at</w>
Aud itors</w>
R educ
favor ite</w>
T A</w>
inte resting</w>
ear liest</w>
Ro se</w>
Ang ola</w>
ate ur</w>
Pro motion</w>
regi ster</w>
g le</w>
Over sight</w>
i res</w>
d ale</w>
colon ial</w>
o o</w>
B eng
loc ate</w>
c ards</w>
prosp ects</w>
19 25</w>
song writer</w>
dr ink</w>
cat ch</w>
C iti
le ans</w>
mari time</w>
fla g</w>
wed ding</w>
ob taining</w>
Braz ilian</w>
Ju an</w>
appro ached</w>
be aten</w>
respon ding</w>
schem es</w>
fac ulty</w>
MO NU
bo ss</w>
FO R</w>
cli ent</w>
C RC</w>
enti eth</w>
the ast</w>
re placing</w>
dist ur
gar den</w>
B la
sc r
custom er</w>
ten ed</w>
pr ud
w a</w>
commen ted</w>
Mis si
ev olution</w>
Norwe gian</w>
Jos é</w>
t ab
mir al</w>
y weight</w>
T it
d in</w>
wal ked</w>
refl ecting</w>
st ock
wh enever</w>
the dr
vac ancy</w>
inqu iry</w>
succ ession</w>
a iss
ann e</w>
pol itan</w>
ir on</w>
Oc ean</w>
sub missions</w>
comm emor
Portugu ese</w>
Brook lyn</w>
Appe als</w>
ben ch</w>
W y
IN G</w>
y uan</w>
j o</w>
voc als</w>
C S
aut obi
Fo rest</w>
Mo z
v alid</w>
Ri ght</w>
reme dy</w>
se ve
li ps</w>
def enders</w>
polic y
2 ,000</w>
c oo
genu ine</w>
R ot
Kaz akh
photograph s</w>
mis s</w>
S han
revol ution</w>
m o</w>
ch ur
accompl ishments</w>
Mong ol
st y</w>
debu ted</w>
concentr ation</w>
el der</w>
G M</w>
tic ut</w>
over s</w>
be y</w>
ag a</w>
p in
pre dec
discipl ine</w>
D eb
clo thing</w>
Connec ticut</w>
str ing</w>
arre n</w>
constitu ted</w>
mil it
rel ate</w>
re struc
19 27</w>
organ isation</w>
ret ain</w>
Ric o</w>
re ferring</w>
Ben j
é e</w>
forth coming</w>
sc ar
vill ages</w>
A N</w>
M ain</w>
un a</w>
Cub an</w>
Ac ting</w>
v es
G s</w>
P on
se ed</w>
surve ys</w>
ev in</w>
aiss ance</w>
H RC</w>
Al ab
Kazakh stan</w>
detain ees</w>
del ayed</w>
A BC</w>
cul tures</w>
V eg
lo be</w>
b acks</w>
li fetime</w>
ex clu
Cha pter</w>
character ized</w>
sm ugg
proced ural</w>
Bud get</w>
Mur ray</w>
N am
adv ances</w>
trans fers</w>
ra m</w>
din ner</w>
def ended</w>
dis charge</w>
Comm erce</w>
sp r
G ood
wor thy</w>
exac tly</w>
k ni
el derly</w>
deleg ates</w>
W ood
Or leans</w>
N ation
si e</w>
Slo ven
t ative</w>
cooper ative</w>
U z
li veli
h ill</w>
2 50</w>
W F
inter ference</w>
Trans port</w>
hand le</w>
U R
ad ow</w>
Au gu
E ag
In spec
t ables</w>
comple x
Integr ated</w>
sup posed</w>
don ated</w>
cha ir
bo y
el ey</w>
seve rely</w>
g ay</w>
I d
pre ferred</w>
and um</w>
sugg estion</w>
et own</w>
b us
N HL</w>
mac ro
Moun t</w>
mon etary</w>
man datory</w>
H om
miti gation</w>
cor ner</w>
om b</w>
n avi
Stock holm</w>
trans formation</w>
est yle</w>
fo res
business man</w>
S BI</w>
Ar n
b in</w>
Al bu
ot te</w>
fiel der</w>
aggres sion</w>
repor ter</w>
in stances</w>
appoin tments</w>
Medic ine</w>
sk ill</w>
A ustin</w>
H ous
Car ter</w>
sp ite</w>
K night</w>
C T
jud gement</w>
adjust ments</w>
know s</w>
thedr al</w>
compe ting</w>
wat ers</w>
lead s</w>
Wor k</w>
Sing h</w>
FIF A</w>
Do ha</w>
S ett
Iran ian</w>
Bran ch</w>
m m</w>
prin ting</w>
am ong
Lab or</w>
amm unition</w>
ol onization</w>
dow s</w>
negoti ating</w>
n ine
organ ic</w>
ter ri
quali fication</w>
el le</w>
Se e</w>
E ric</w>
consequ ence</w>
del ays</w>
preser ve</w>
writ ings</w>
af raid</w>
custom ary</w>
B ron
pro tocol</w>
p ho
Fer n
C E</w>
Inf antry</w>
low s</w>
od d</w>
s ick</w>
tho do
un successful</w>
fu sion</w>
19 23</w>
ran ks</w>
la d</w>
design er</w>
Urugu ay</w>
pp i</w>
gr ass</w>
D V
im per
B att
s lightly</w>
l ay
as sume</w>
inter viewed</w>
famili ar</w>
9 00</w>
Y e
stre ets</w>
out puts</w>
Elec tr
movi es</w>
inv ite</w>
conf isc
19 26</w>
circ uit</w>
si zed</w>
end ants</w>
er ror</w>
necess ity</w>
Gra ham</w>
Gr ant</w>
Treat ment</w>
explo sive</w>
H ow</w>
dec or
st ation
ess els</w>
Cap ital</w>
tr y
as ka</w>
r ounds</w>
Y ou
Ad am</w>
r ub
et t</w>
Alab ama</w>
Benj amin</w>
fem in
an ch
pass age</w>
De sign</w>
episo des</w>
N ag
it ly</w>
In dependence</w>
en forced</w>
sy ner
gi ft</w>
H as
f alls</w>
conver ted</w>
cy cl
among st</w>
Proc ess</w>
s aving</w>
t ons</w>
de als</w>
consolid ation</w>
inc enti
apar tment</w>
ori entation</w>
form erly</w>
A del
necess arily</w>
fl ag
a to</w>
Po int</w>
di os</w>
schol ar</w>
bun als</w>
Indu stry</w>
noti fication</w>
extra ordinary</w>
trans action</w>
dam aged</w>
frequ ency</w>
10 th</w>
inc in
run ner</w>
testi mony</w>
Ni k
12 4
pl ed</w>
neighbour ing</w>
é r
construc ted</w>
commer ce</w>
T un
C had</w>
w are</w>
ti a</w>
Qu ar
au tho
Six th</w>
po em</w>
Frank lin</w>
Stud y</w>
serv ants</w>
ber y</w>
Prin cip
portr ayed</w>
C .1</w>
R ica</w>
N BC</w>
men ting</w>
oppon ent</w>
Bru ce</w>
exc essive</w>
happ iness</w>
care ful</w>
experi ment</w>
app lies</w>
pic tures</w>
autho red</w>
vak ia</w>
O ak
fle w</w>
Comm ittees</w>
inst alled</w>
rest ore</w>
eth ics</w>
par ted</w>
concer ts</w>
Indi ans</w>
tre at</w>
susp ic
sur prise</w>
dro ve</w>
at i</w>
P ho
el e</w>
tr e</w>
ill ance</w>
C rown</w>
w ine</w>
S S
Th or
doc tr
Salv ador</w>
em e</w>
C s</w>
Austri an</w>
pursu ing</w>
suppor ter</w>
labor atory</w>
Mar t
la undering</w>
Al ber
pe acebuilding</w>
ex changes</w>
d ress</w>
Ev ans</w>
terror ists</w>
P as
G oo
under lying</w>
retur ns</w>
int olerance</w>
ef f</w>
in ner</w>
Wis con
di stric
Q atar</w>
Ch er
stere otyp
sen ding</w>
celebr ated</w>
absol ute</w>
mom ent
Inter ior</w>
mo on</w>
Wiscon sin</w>
R ay
d ens</w>
pregn ancy</w>
gu es</w>
continu ation</w>
de z</w>
Cast le</w>
10 0,000</w>
ministr y</w>
st ems</w>
prosec utors</w>
C abinet</w>
avi ation</w>
pen alties</w>
ep ing</w>
encoun tered</w>
Law rence</w>
is er</w>
earth quake</w>
Freed om</w>
w restling</w>
h ang
end ant</w>
P RO
im perial</w>
Wor ks</w>
ke e</w>
M itch
greg ation</w>
some what</w>
re pair</w>
certain ty</w>
ne phe
Tanz ania</w>
facilit ated</w>
proce eds</w>
10 1</w>
sa ved</w>
W rit
be ating</w>
I owa</w>
be ings</w>
ob serve</w>
cap ability</w>
recei pt</w>
ha b
Reser ve</w>
E ff
Is lam</w>
pe t</w>
enophob ia</w>
E th
lia ison</w>
B ob
air port</w>
Su b</w>
doub les</w>
obvi ous</w>
sc and
analy tical</w>
Proced ure</w>
IT RAL</w>
atten dance</w>
19 12</w>
with draw</w>
accoun table</w>
wr ong
St one</w>
lim itations</w>
s al</w>
UNC ITRAL</w>
sol ved</w>
Bro thers</w>
umb le</w>
s son</w>
b ases</w>
i ć</w>
consum ers</w>
ex ual</w>
cl assic</w>
B ad
H op
ten e
Doc tor</w>
fre e
up coming</w>
U se</w>
at ories</w>
tw entieth</w>
Bas el</w>
m ere</w>
B ar</w>
Tr ump</w>
Incre ased</w>
in ser
Jim my</w>
sco res</w>
Intro duction</w>
A A
compul sory</w>
b and
up s</w>
P in
ST A</w>
h em
Invest ment</w>
124 ;</w>
&# 124;</w>
K am
impres sed</w>
in tr
haz ardous</w>
link ages</w>
bor ough</w>
j um
comm only</w>
prof its</w>
liber al</w>
gon na</w>
port fol
lan ded</w>
il ing</w>
fif teen</w>
A T
dep ends</w>
X I</w>
R angers</w>
condem ned</w>
amp ton</w>
mess ages</w>
rest oration</w>
con gres
rele ases</w>
pro j
fran ch
f ail</w>
www. un.org</w>
ver sions</w>
end ar</w>
writ es</w>
eb r
B aker</w>
ab st
dram atic</w>
defin i
alco hol</w>
Lib yan</w>
Ch en</w>
pres ti
A L</w>
altern atives</w>
le aves</w>
ul a</w>
mus eum</w>
t ub
mar t</w>
favour able</w>
K evin</w>
I N</w>
Cor r
mo de</w>
Sen egal</w>
D an</w>
per taining</w>
n esses</w>
incorpor ate</w>
he im</w>
Wor k
invol ves</w>
Ca therine</w>
com prising</w>
co alition</w>
ex clusive</w>
193 0s</w>
Rog er</w>
eval uations</w>
rec all</w>
fre ely</w>
sent ences</w>
0 00</w>
19 10</w>
Advis er</w>
bre ach</w>
og en
d den</w>
bio diversity</w>
amoun ted</w>
y ou
Ass ess
Tuni sia</w>
Rev .1</w>
fle et</w>
inv o
An aly
R ud
Hung arian</w>
am ateur</w>
I D</w>
consist ed</w>
ti veness</w>
harm ful</w>
vot ers</w>
rel ates</w>
adi tions</w>
cont ents</w>
Democr at</w>
dis placement</w>
Cor n
boo k
pursu it</w>
with drew</w>
on ally</w>
ph arm
incur red</w>
incenti ves</w>
att an</w>
ar agu
w ages</w>
con stantly</w>
R iver
ol dest</w>
ã o</w>
D S</w>
Missi ssi
c au
accompl ished</w>
SA S</w>
A D</w>
renew able</w>
ret ro
install ation</w>
acc o</w>
gu y</w>
termin ation</w>
SB STA</w>
stric tly</w>
tow ns</w>
Mo st</w>
adap ted</w>
mag ne
w ic
Employ ment</w>
ann y</w>
mem o
ali ve</w>
exclu sively</w>
Pro liferation</w>
w ick</w>
en ess</w>
B e</w>
ban k
L ist</w>
hist ori
dec entr
chem istry</w>
reg ret
for get</w>
Uz be
assess ing</w>
dep end</w>
sign al</w>
Nic aragu
li ked</w>
ph ony</w>
Y ang</w>
t ations</w>
perc eived</w>
under took</w>
exten sively</w>
wal king</w>
in equality</w>
ta g</w>
lands cape</w>
acc red
Mil an</w>
li ers</w>
co ffe
ev ac
cred its</w>
ul sion</w>
consult ants</w>
e i</w>
ing ness</w>
Mississi ppi</w>
s k</w>
E CO
K on
G A</w>
lec tures</w>
af ford
el ed</w>
P ad
con version</w>
ran ging</w>
s ity</w>
Gul f</w>
v essels</w>
cu ts</w>
W o
s wi
stre am</w>
Pro t
wor n</w>
event ual</w>
stre am
st ret
la in</w>
gr ation</w>
sel s</w>
manufac ture</w>
depri ved</w>
eth eless</w>
design s</w>
enorm ous</w>
Mor ris</w>
sec urities</w>
dimen sions</w>
Im perial</w>
f at
im migrants</w>
Sch o
questi oned</w>
wor se</w>
ab ud
R eli
slow ly</w>
imprison ed</w>
tran sitional</w>
ben ch
ai gn</w>
D o</w>
prom ising</w>
inter active</w>
sec on
ic op
com ic</w>
ver b
survi v
B and</w>
reti ring</w>
en tion</w>
Confed er
Cam ero
non etheless</w>
N O
com mentary</w>
e ans</w>
est e</w>
announ cement</w>
F our</w>
an k
n aval</w>
un usual</w>
Con ventions</w>
d d
ans wered</w>
weal thy</w>
parti ally</w>
Re form</w>
az ines</w>
wil d</w>
mis sion
poli tically</w>
bi ennial</w>
phys ics</w>
coll ecting</w>
Head s</w>
be c</w>
ic ed</w>
Gon z
á n
n ice</w>
prop ag
commer ci
Ar chi
oppon ents</w>
Be au
a z</w>
ne gl
survi val</w>
inten sive</w>
on er</w>
m ingham</w>
V ar
li abilities</w>
un to</w>
Par liamentary</w>
abor tion</w>
Ar ms</w>
pro mo
negoti ated</w>
1 10</w>
S he</w>
liter acy</w>
C I</w>
hon ored</w>
c ess</w>
on ym
ol f</w>
or iti
coun c
cohe rent</w>
contr actual</w>
O t
tr aditions</w>
suffici ently</w>
Me as
gen cies</w>
camp us</w>
Wat er
ga thering</w>
un k</w>
D ave</w>
simultan eously</w>
et on</w>
Que ens
as a</w>
deman ded</w>
ran ean</w>
consci ous</w>
out break</w>
archit ect</w>
ff s</w>
sh ore</w>
alg ori
autonom ous</w>
provi ders</w>
. 2
dic t
Occup ied</w>
Bulg aria</w>
spar e</w>
li ke
abud getary</w>
resc ue</w>
W G
th um
ack er</w>
administ ering</w>
in tim
com modities</w>
Ch o
compati ble</w>
pre tty</w>
um a</w>
bo t</w>
ash es</w>
k er
MD Gs</w>
i g</w>
dimen sion</w>
excep tional</w>
con qu
ren amed</w>
con spir
ast s</w>
St ation</w>
ESC AP</w>
re leg
The ater</w>
trans mit</w>
z ens</w>
Egyp tian</w>
P le
parame ters</w>
stand ardi
Zim bab
exist ed</w>
elecommunic ations</w>
ul timate</w>
B ase</w>
Mon tene
influ ences</w>
ut ely</w>
dis h</w>
An dr
Mal i</w>
acqu ire</w>
su res</w>
stro ke</w>
fish eries</w>
E R</w>
B an</w>
flow ers</w>
Bil ly</w>
G un
or ph
t us</w>
Man h
L ad
Re al</w>
Chem ical</w>
uni form</w>
ed it
ne red</w>
t ari
teamm ate</w>
r ice</w>
Bir mingham</w>
attit udes</w>
s ound
classi fied</w>
v able</w>
gen e</w>
ten sions</w>
ly rics</w>
b o</w>
c ra
mat h</w>
chann els</w>
Reduc tion</w>
appoin t</w>
Assess ment</w>
persist ent</w>
Y ale</w>
will ingness</w>
us al</w>
gan g</w>
vis itors</w>
Car los</w>
A C</w>
surve illance</w>
indic ating</w>
R ou
mag azines</w>
ten d
accommod ation</w>
al liance</w>
ab str
easi er</w>
H ud
h ockey</w>
fall en</w>
Coun ter</w>
trans mitting</w>
r hy
Er n
ab o
v acc
pleas ure</w>
Fron t</w>
T ol
an cies</w>
curricul um</w>
aver aged</w>
D j
prof ession</w>
Hit ler</w>
in struction</w>
i gh
organis ations</w>
f ate</w>
ou l</w>
ati zation</w>
aff air</w>
t age</w>
demobil ization</w>
t ude</w>
oc ean</w>
amb ers</w>
19 11</w>
rad ical</w>
Wor kers</w>
fir mly</w>
T ot
vide os</w>
sel ect</w>
Hist or
P C</w>
p ly</w>
comp iled</w>
R al
exhib ited</w>
pub lish</w>
eng aging</w>
C BS</w>
dep ending</w>
de tection</w>
kin son</w>
juven ile</w>
coffe e</w>
K at
a qu
in habit
z i</w>
Con cer
man s</w>
M S
Med iter
b ag
9 63</w>
Mitch ell</w>
x i
p ush</w>
F as
Rober ts</w>
u ality</w>
log ical</w>
fe wer</w>
prescri bed</w>
occup ying</w>
ret re
typ ically</w>
Al ice</w>
obj ection</w>
occa sionally</w>
f ai
20 s</w>
pul led</w>
G EF</w>
19 13</w>
repatri ation</w>
E u
ed a</w>
Con gres
rou gh
col um
quanti ty</w>
bo l</w>
W ill
f ted</w>
En d</w>
addres ses</w>
Boli via</w>
d um
d inal</w>
bo w</w>
f asc
expe di
sp ection</w>
Mu hammad</w>
c ad
Ro y</w>
environ mentally</w>
remark able</w>
H eb
wat ching</w>
pri oriti
L anc
d an</w>
3 ,000</w>
D F</w>
col our</w>
Or din
shoul der</w>
In c</w>
Del hi</w>
Gi ants</w>
O f</w>
s pl
ph y
Par ker</w>
s ley</w>
ex clusion</w>
mathematic s</w>
Br us
nit ure</w>
car to
Col lins</w>
dis covery</w>
P ed
cam era</w>
U p</w>
thodo x</w>
premi ered</w>
ar do</w>
sh op
po c
real istic</w>
b acked</w>
O EC
s lo
Pi erre</w>
Alf red</w>
qu iry</w>
ri a</w>
fru it</w>
meaning ful</w>
meas urement</w>
fe ed
m ad</w>
K an
Inter governmental</w>
Pan ama</w>
e tr
Hu gh
M ach
portra it</w>
0 0
Gr am
Christ opher</w>
therap y</w>
Rac ial</w>
sp ell</w>
sec t</w>
appro ve</w>
questi onn
ar y
Mediter ranean</w>
ar k</w>
prison er</w>
pris ons</w>
ha ven</w>
C air
Bar bar
ide al</w>
ol en</w>
coll ections</w>
feel ings</w>
dev ast
Manh attan</w>
emo tional</w>
John ny</w>
mi x
te a</w>
enter tainment</w>
her o</w>
privil eg
w ake</w>
W u</w>
high light</w>
dom inated</w>
wi dow</w>
mut ually</w>
satisfac tory</w>
dec ent</w>
W a
wast es</w>
experi ments</w>
Tro phy</w>
S ession</w>
Emer gency</w>
advoc ated</w>
restruc turing</w>
hur t</w>
T ournament</w>
Rom anian</w>
Cust oms</w>
en comp
mo bility</w>
v el</w>
distric ts</w>
sw im
H ot</w>
H av
scen es</w>
P R</w>
tic ul
kno c
Squ are</w>
wh el
desi r
B ren
shel ter</w>
Con stan
fl at</w>
argu es</w>
met res</w>
facil itation</w>
tion ers</w>
r am
meas ured</w>
formul ate</w>
Co oper</w>
nephe w</w>
fort une</w>
sec uring</w>
t ol
acceler ate</w>
h oods</w>
legisl ature</w>
Maur iti
inter ven
adol esc
Ann ual</w>
grand son</w>
dis par
D r</w>
extr abudgetary</w>
mon u
it ely</w>
at us</w>
du o</w>
r ated</w>
WF P</w>
ru gby</w>
ab uses</w>
notic ed</w>
rati fy</w>
attemp ting</w>
Athle tic</w>
ban ned</w>
C incin
prosper ity</w>
radi ation</w>
bran ches</w>
nat i</w>
c lock</w>
re vit
electr ical</w>
c at</w>
l isher</w>
modi fied</w>
U FC</w>
like wise</w>
sib lings</w>
S ev
h o</w>
k i
insp iration</w>
sh i</w>
ar ise</w>
organ ised</w>
emphasi ze</w>
shar p</w>
exp ulsion</w>
M I</w>
simp li
compar ative</w>
ang le</w>
it ative</w>
fac to</w>
con du
Dru g</w>
adv ancing</w>
figh ter</w>
Ab u</w>
S ho
ed e</w>
A t</w>
produc tions</w>
T emple</w>
supple mentary</w>
witn essed</w>
certi fied</w>
med als</w>
a than</w>
typ ical</w>
our selves</w>
comb at
Nichol as</w>
P il
hel icop
issu ance</w>
elim inating</w>
sub scri
o b</w>
B iss
po le
bus y</w>
T im</w>
dis played</w>
arch y</w>
w is
corpor ations</w>
promp tly</w>
Lt d</w>
Sur vey</w>
K or
s inc
Gu il
Cincin nati</w>
ari ans</w>
propos e</w>
C O</w>
l ingu
appreci ate</w>
br ings</w>
Domin ican</w>
Hear t</w>
tis m</w>
fu n</w>
ess entially</w>
H R
propor tion
T aj
jud gment</w>
u lo
a is</w>
Camero on</w>
targe ting</w>
inf ection</w>
administ ered</w>
rup ted</w>
coord in
escap ed</w>
P age</w>
th in</w>
Joh ann
pot entially</w>
bir ds</w>
tap e</w>
referen dum</w>
d or</w>
S tra
holid ay</w>
W ard</w>
ent ations</w>
bir d</w>
in puts</w>
h ate</w>
clear ance</w>
A L
ro ok
W inter</w>
ch ess</w>
indic ator</w>
requ is
Tra fficking</w>
Serb ian</w>
sel ler</w>
vi gor
Y emen</w>
ex ile</w>
attr act</w>
Bo ys</w>
ti ous</w>
le ton</w>
prejud ice</w>
Offic ial</w>
w ouldn</w>
M etro
ten nis</w>
appe aled</w>
Car l</w>
entr usted</w>
Camp aign</w>
comfor table</w>
lin e
Democr ats</w>
. D.</w>
rep lies</w>
OEC D</w>
Vin cent</w>
D eci
vol umes</w>
us cri
Bud dh
decre ased</w>
In spection</w>
L as</w>
Ordin ance</w>
p ap
em an
cou p</w>
li ft</w>
gen ocide</w>
Educ ational</w>
F itz
cal endar</w>
K im
C ot
ri de</w>
quot ed</w>
employ er</w>
over whel
v ine</w>
ograp h</w>
li p
cat aly
kid n
k ick</w>
utili zed</w>
pit cher</w>
H ockey</w>
r ushing</w>
log istics</w>
in ev
I cel
ac ter
in scri
distinc t</w>
B apti
sal aries</w>
Gir ls</w>
D y
vel t</w>
M it
elec tro
Ma x</w>
n an</w>
cas u
ac id</w>
mar king</w>
Tig ers</w>
Mongol ia</w>
re str
N am</w>
1. 5</w>
Ombud sman</w>
Comb at</w>
prom ul
I P</w>
B all
ob ile</w>
design ing</w>
In telligence</w>
sett le</w>
pres sing</w>
ri ding</w>
dead line</w>
19 00</w>
hom etown</w>
ang el
attribu table</w>
10 2</w>
p en</w>
justi fied</w>
M idd
190 7</w>
m ass
Brus sels</w>
K ent</w>
um in
deteri or
G ary</w>
Bar on</w>
phys ician</w>
Ukr ain
man ual</w>
M ak
row s</w>
bi ography</w>
argu ments</w>
t ext
Ch ur
main tains</w>
quali fy</w>
eful ly</w>
on ian</w>
he ight</w>
e ating</w>
cru el</w>
cont ain
appreci ated</w>
val ence</w>
no vel
impres sive</w>
compu ters</w>
competi tions</w>
inhabit ants</w>
soci alist</w>
o po
c up</w>
tic ket</w>
laun ching</w>
ash ing</w>
colon el</w>
disp ens
challeng ing</w>
be st
T our
S on
ta h</w>
adv ent
F CCC</w>
Moder n</w>
ori um</w>
sub paragraph</w>
ti ght</w>
IP SAS</w>
mem orial</w>
legi tim
sol ic
ell i</w>
proce eded</w>
bi e</w>
Roo se
Mauriti us</w>
Comm and</w>
I mp
190 8</w>
f ame</w>
beli efs</w>
sk illed</w>
ti me
s essional</w>
divi sions</w>
anthro p
ensu red</w>
admis sible</w>
Hugh es</w>
in fr
w eigh
thou ghts</w>
ha w
Queens land</w>
og o</w>
im pose</w>
pho to</w>
Con f
k ar</w>
si ded</w>
fore ign
m und</w>
no ise</w>
Direc torate</w>
C ER
D ance</w>
evi dent</w>
s occer</w>
al ised</w>
j ump</w>
credi bility</w>
mar gin</w>
Ou ter</w>
ec tors</w>
R y
Nicaragu a</w>
Ac ti
Psy ch
Gri ff
zer o</w>
O P
Sch ol
fur niture</w>
rail way</w>
A S
wh ol
pres enting</w>
Zimbab we</w>
pit ched</w>
lan ding</w>
ho sting</w>
ste ady</w>
pain t</w>
co ached</w>
Tur ner</w>
Pen al</w>
p raise</w>
Dis abilities</w>
u ated</w>
histori ans</w>
Cam p</w>
amp s</w>
dis closed</w>
cu it</w>
Stand ard</w>
ac o</w>
uni tions</w>
Guid elines</w>
D own</w>
se es</w>
mechan ical</w>
com promise</w>
Est ab
confir m</w>
en ko</w>
macro economic</w>
er b
Econom ics</w>
W ell
gen etic</w>
vic tories</w>
Roose velt</w>
cont am
ren dered</w>
k h
aw i</w>
Offic ers</w>
medi ation</w>
k ids</w>
scre en
W he
autom atic</w>
t emp
mal aria</w>
ab a</w>
step ped</w>
b achelor</w>
domin ant</w>
com e
mil k</w>
ra w</w>
Issu es</w>
harmon ization</w>
prosp ect</w>
P et
CO NF
there of</w>
confi g
amb assador</w>
nar row</w>
analy ses</w>
rel uc
W oods</w>
insist ed</w>
re j
Lib ya</w>
sc ar</w>
rest ored</w>
contr adic
arch ing</w>
sol ely</w>
B ut</w>
Stand ards</w>
investig ating</w>
Tran sitional</w>
Biss au</w>
dis appearance</w>
wor e</w>
T ali
posi t</w>
ad mission</w>
pub lisher</w>
benef ici
S imp
c iting</w>
exclud ed</w>
phr ase</w>
dec l
Gu ard</w>
F air
reduc tions</w>
Streng th
Hel en</w>
fair ly</w>
o es</w>
ri an</w>
M erc
gran ting</w>
calcul ated</w>
D ig
Hous ing</w>
moment um</w>
din als</w>
B ak
D ay
cha e
it ated</w>
im ports</w>
o tic</w>
dis t</w>
Tibe t</w>
F ine</w>
convers ation</w>
week end</w>
cent uries</w>
prote sts</w>
sum ption</w>
190 5</w>
mer its</w>
ful fil
inten se</w>
militi a</w>
dis aggreg
Ch e
Mur phy</w>
Treas ury</w>
mat ure</w>
Gar den</w>
Charl otte</w>
declar ations</w>
gi ous</w>
o on</w>
O ut</w>
f loo
Spr ing</w>
ad i</w>
L ine</w>
li br
qui et</w>
correspon dence</w>
Montene gro</w>
Le eds</w>
DV D</w>
og y</w>
mobil ize</w>
got ten</w>
ecti vity</w>
leg acy</w>
preser vation</w>
Lin d
190 6</w>
s u</w>
roman tic</w>
en shr
Rev ol
10 3</w>
B us
T en</w>
defic i
la stly</w>
li sting</w>
D aw
T on
pr on
lic ense</w>
psych ology</w>
revol utionary</w>
d rought</w>
sha re
So x</w>
survi ving</w>
certi fication</w>
ge on</w>
circ le</w>
R ub
Reli ef</w>
theore tical</w>
accoun ted</w>
Cy pri
Mol d
F DI</w>
appropri ation</w>
M asters</w>
Ur ban</w>
sen al</w>
dis advant
man uscri
inher ited</w>
pl ain</w>
S ic
car ries</w>
brief ings</w>
St or
zh ou</w>
vi an</w>
Tru ste
voc alist</w>
inf ant</w>
T ob
see kers</w>
fin anci
m i</w>
N LB</w>
s ample</w>
Uzbe k
Ale x</w>
Har t
communic ate</w>
subsi dies</w>
rec eption</w>
in si
inaug ural</w>
IM F</w>
descri bing</w>
di min
p ushed</w>
re now
tri bunal</w>
B T</w>
an ist</w>
A mend
star ter</w>
Soci alist</w>
y cl
land locked</w>
St ars</w>
x enophobia</w>
sp ectives</w>
un preced
1 11</w>
J acqu
k m</w>
W ill</w>
J eff</w>
K ab
Cor ruption</w>
and o</w>
an ed</w>
Car l
Corr .1</w>
stor m</w>
Ch am
p lot</w>
C ou
portfol io</w>
in er</w>
Alban ia</w>
ra rely</w>
acc us
W ood</w>
2 7
I TA
Uzbek istan</w>
Ed wards</w>
k ill
accur acy</w>
Vic tor</w>
eas e
Chel sea</w>
gu ests</w>
hi re</w>
Que bec</w>
Bar cel
consul t</w>
inno cent</w>
Fi ve</w>
def ending</w>
Pro per
Sy stems</w>
pr ince</w>
Enter tainment</w>
vi sts</w>
cros sing</w>
dest ination</w>
O N</w>
dis closure</w>
par lia
complex ity</w>
concentr ated</w>
long est</w>
r ain
speci alist</w>
Barbar a</w>
spokes man</w>
tic es</w>
character istic</w>
P y
cr ash</w>
h itting</w>
R id
1. 2</w>
b omb</w>
dissem inate</w>
benefici aries</w>
ra is
J un
memor andum</w>
sk et
C ook</w>
found ations</w>
arri ving</w>
exc ess</w>
m ons</w>
strugg led</w>
Ar k
Hawai i</w>
rook ie</w>
integr ating</w>
11 th</w>
W oman</w>
Mar c
du ly</w>
F ather</w>
ac ute</w>
g ments</w>
Appe al</w>
c rown</w>
war ned</w>
connec tions</w>
L loyd</w>
credi ble</w>
ig no
f ant
unpreced ented</w>
pl ing</w>
Buff alo</w>
co s</w>
unanim ous</w>
diagno sed</w>
consist ency</w>
M es
Man ager</w>
separ ately</w>
enh ouse</w>
rein force</w>
resid ential</w>
reg ret</w>
l ayer</w>
fres hman</w>
aval ry</w>
shi pping</w>
h r
u k</w>
interpre ted</w>
pres entations</w>
Wel sh</w>
tempor arily</w>
Ukrain ian</w>
low est</w>
te stant</w>
190 9</w>
fic ial</w>
Rec on
serv icing</w>
0 0,000</w>
Mal ta</w>
v o</w>
negoti ate</w>
ro g
conc ur
p ir
grand mother</w>
P el
Gir l</w>
t ail
condu cive</w>
M a</w>
c ut
re sume</w>
comple ment</w>
C ab
blin d</w>
O ur</w>
stipul ated</w>
fr ac
in he
ag on
serv ant</w>
mer chant</w>
lad y</w>
emphasi zing</w>
. ...</w>
st a
explic itly</w>
log is
Arch bishop</w>
An dy</w>
Gu ang
Dist inguished</w>
confi dent</w>
nom inations</w>
The y</w>
Sloven ia</w>
play offs</w>
U tah</w>
bu ying</w>
t ours</w>
E D</w>
analy zed</w>
deser tification</w>
mi x</w>
en z
Lithu ania</w>
gun s</w>
competi tiveness</w>
Har rison</w>
Stri p</w>
sol ven
Fri ed
El ection</w>
Vi et</w>
ease fire</w>
phot ography</w>
P hi
contr actors</w>
18 th</w>
S ac
rec over</w>
it ter</w>
bal lot</w>
n ish</w>
veter an</w>
t one</w>
deci sive</w>
10 4</w>
H il
system atically</w>
prof ound</w>
b or</w>
sem i
The ir</w>
is lands</w>
destro y</w>
S O</w>
S or
embar ked</w>
discus sing</w>
N u
volunte ers</w>
ann on</w>
per sec
Veg as</w>
ar t
sym bol</w>
uc ks</w>
under mine</w>
Stan ford</w>
Lu x
w alls</w>
al lies</w>
W arren</w>
admis sibility</w>
M L
she et</w>
Gl as
T ak
sym pa
ver se</w>
invest ed</w>
L ei
US D</w>
dam ages</w>
pl ant
clari fication</w>
re venues</w>
Ky r
m ast
st olen</w>
Bar ry</w>
mot or</w>
Nat ural</w>
Le ader</w>
Barcel ona</w>
o vić</w>
ec k</w>
l as</w>
ac com
prec eding</w>
co tic</w>
ear nings</w>
O A
Moun tain</w>
ess ors</w>
nec k</w>
b out</w>
Prot ocols</w>
Mat t</w>
sco rer</w>
en acted</w>
por no
f aster</w>
clari fy</w>
H ague</w>
At omic</w>
regi ment</w>
ste ad
Ca thedral</w>
ach ment</w>
feed back</w>
smo oth</w>
inv est</w>
collap se</w>
qu it</w>
inci dence</w>
10 8</w>
Yugosla v</w>
ai res</w>
E .
12 th</w>
equi pped</w>
benef ited</w>
independ ently</w>
shir t</w>
mot or
enh agen</w>
Brig ade</w>
g ins</w>
a .
L is
1 30</w>
Cir cuit</w>
10 6</w>
Z ambia</w>
Dec ree</w>
bo xing</w>
H ut
pas sion</w>
po wered</w>
MI N
disadvant aged</w>
bu l</w>
commen ced</w>
pe ak</w>
i ff</w>
it ness</w>
bloc ks</w>
ni ghts</w>
k ie</w>
sto res</w>
accom mo
Pol y
imm unity</w>
high lights</w>
cl am
W ay</w>
k ina</w>
G ener
pat ent</w>
ti ce</w>
regul ated</w>
Wel fare</w>
re la
iti ous</w>
h en</w>
ann er</w>
decl are</w>
sk a</w>
E valuation</w>
exerc ises</w>
b acking</w>
Mic ro
Mi gration</w>
vis e</w>
N ash
y ellow</w>
s s
claim ant</w>
pos sibilities</w>
Bo y</w>
regim es</w>
2. 5</w>
lo g</w>
abo ard</w>
psy chi
Sym phony</w>
ec ho
substanti ally</w>
s ounds</w>
Lan gu
autobi ography</w>
es cal
travel ing</w>
logis tical</w>
a ments</w>
H az
re par
C are</w>
g ent</w>
Y o
thor ough</w>
ren a</w>
defic it</w>
anc e
d ynasty</w>
la p</w>
on au
explo red</w>
li fel
mist ake</w>
ac re</w>
Bi ble</w>
Augu st
Port land</w>
es cor
1 .</w>
res ort</w>
Bri st
superi or</w>
N .</w>
consider ably</w>
advis er</w>
combat ants</w>
j ail</w>
Sec tor</w>
A venue</w>
valu ed</w>
defin ing</w>
Cop enhagen</w>
pr oud</w>
Acti vities</w>
un likely</w>
ten der</w>
Ar bitr
under ground</w>
or ia</w>
where by</w>
ex hibitions</w>
gh ted</w>
diagno sis</w>
ke en</w>
sud den</w>
deleg ate</w>
s by</w>
perio dic
inter medi
asp ir
it ate</w>
enh ancement</w>
com plicated</w>
ens ing</w>
Fac ility</w>
re located</w>
exten ding</w>
A ge</w>
Lan e</w>
r ab
predic table</w>
oblig ed</w>
War ner</w>
he ir</w>
applic ant</w>
de posit</w>
sla ve</w>
pup ils</w>
Fri ends</w>
tr ac
R A</w>
t ank</w>
L este</w>
pro pri
deb ates</w>
Sul li
Cent ury</w>
t all</w>
Fro m</w>
Har t</w>
Li ons</w>
190 4</w>
Un iver
oc ese</w>
ch amber</w>
erc ulo
Di am
k ov</w>
T ER
un lawful</w>
exp ense</w>
Comm on</w>
pe tro
me at</w>
Nor man</w>
sol ar</w>
Inter im</w>
se ments</w>
me th
Clo sed</w>
ack ers</w>
rel ess</w>
1 12</w>
adi er</w>
Den ver</w>
wi d
no tion</w>
the ories</w>
ch ampions</w>
Bern ard</w>
volunte er</w>
elabor ate</w>
lic t</w>
municip alities</w>
jo y</w>
erculo sis</w>
entreprene ur
Le ad
sh ut</w>
do ors</w>
advis or</w>
dis pat
gener ating</w>
O DA</w>
inter net</w>
pro ven</w>
sil ent</w>
b ly</w>
G o</w>
Arch it
2 6
evi d
U .</w>
min ors</w>
S we
dis appeared</w>
ym n
pe er</w>
C F
i eld</w>
har mony</w>
A SE
Proc urement</w>
safe guard</w>
o thy</w>
coun try
Sup ple
Sahar a</w>
Bo y
De ath</w>
H ill
de ple
autonom y</w>
S la
190 2</w>
em pl
let t</w>
TIO NS</w>
mur dered</w>
grap h</w>
chron ic</w>
Ad miral</w>
stic k</w>
S ti
Ab dul
rem un
collabor ative</w>
leg es</w>
. 3
hor iz
ri ages</w>
motiv ated</w>
dr ums</w>
contr acting</w>
p are
a res</w>
meas uring</w>
travel ling</w>
dri vers</w>
assass ination</w>
be d
Sulli van</w>
D urban</w>
B ell
au d</w>
off set</w>
author ization</w>
in d
coun selling</w>
vir tually</w>
Per forman
Char lie</w>
S R</w>
mater i
Ab ra
J an</w>
om on</w>
aus p
or ally</w>
for t</w>
exce ed</w>
grati tude</w>
ec tural</w>
2 1st</w>
franch ise</w>
om ing</w>
me ter</w>
id ated</w>
surren der</w>
em in
sh oot</w>
acti vists</w>
Mac edonia</w>
th al</w>
fulfil ment</w>
scand al</w>
every body</w>
H and
C an</w>
differen ti
vi able</w>
har dly</w>
Cair o</w>
Au dit</w>
gu ez</w>
intensi fy</w>
vi rus</w>
M ut
S op
Presid ential</w>
V .</w>
consul ting</w>
ref usal</w>
St ory</w>
te t</w>
ch ampionships</w>
at ri
V anc
prom pt</w>
th ou</w>
p ip
el ds</w>
Berk eley</w>
ow s</w>
ag ers</w>
Squ adron</w>
commun ist</w>
co ck</w>
ke es</w>
Bi ological</w>
supple ment</w>
Develop ed</w>
presti gious</w>
UNIF IL</w>
tot ally</w>
out line</w>
ni ght
kes pe
b ond</w>
Ph D</w>
der ful</w>
with standing</w>
tan gible</w>
continu ously</w>
ec ological</w>
prosec utor</w>
in k
e vil</w>
nation wide</w>
20 ,000</w>
B ed
fil ing</w>
e rec
Mc Car
ge o
pit ch</w>
phot ographer</w>
Adv ancement</w>
ple dged</w>
H K
er on</w>
an th
h t
R ei
Sha kespe
Tri al</w>
secon dly</w>
play off</w>
gu iding</w>
MI NU
stres sing</w>
aut umn</w>
ti red</w>
g age</w>
des k</w>
nick name</w>
1 .1</w>
deliver ing</w>
tit ude</w>
liber alization</w>
int ent</w>
tob acco</w>
adolesc ents</w>
vac ant</w>
ri vals</w>
Hu gh</w>
or ious</w>
monit ored</w>
demonstr ation</w>
b ills</w>
read s</w>
epide mic</w>
per man
pe as
an gry</w>
For mer</w>
conven ing</w>
Kyr gy
li a</w>
figh ters</w>
cler k</w>
B ris
Ter ry</w>
gg ing</w>
Vanc ou
are r</w>
10 7</w>
id en
ausp ices</w>
l ord</w>
de priv
F ire</w>
hum ans</w>
al tar</w>
UNA MI
T ang</w>
disaggreg ated</w>
fe ed</w>
V lad
190 1</w>
PA D</w>
17 th</w>
edit orial</w>
1 15</w>
scri pt</w>
pun ished</w>
en force</w>
P RE
Car dinals</w>
pione er</w>
Vancou ver</w>
Cor k</w>
B our
control ling</w>
go w</w>
elabor ation</w>
renow ned</w>
war ded</w>
sur plus</w>
vol ati
no ble</w>
Bo dy</w>
ce ase</w>
ves sel</w>
s an</w>
moder ate</w>
S U
advis ers</w>
ex act</w>
app ren
far ming</w>
16 0</w>
survi ve</w>
prev ailing</w>
chur ches</w>
ut ory</w>
e u</w>
consolid ate</w>
ologi sts</w>
att acking</w>
budge ting</w>
tr acking</w>
w ishing</w>
um p
know ing</w>
Volunte ers</w>
car go</w>
S id
eth ical</w>
ac he</w>
K ol
Bas ketball</w>
hor ses</w>
F red</w>
particip ant</w>
adj usted</w>
Musli ms</w>
Ch and
D .
p ounds</w>
man ship</w>
king dom</w>
e ter</w>
desir able</w>
au dio</w>
r age</w>
adap t</w>
gre enhouse</w>
canc elled</w>
sil ence</w>
lo aded</w>
S ig
d g
Le ast</w>
illustr ated</w>
d ay
audi ences</w>
L ud
promot es</w>
Elec toral</w>
Organiz ed</w>
ac le</w>
con tested</w>
per spectives</w>
Ex change</w>
Rich mond</w>
phil anthrop
cor d</w>
D ak
I an</w>
1 ,0
lec turer</w>
there in</w>
Tali ban</w>
G ur
loc ally</w>
Sus an</w>
tru ste
read ers</w>
We i</w>
Nash ville</w>
N y
col league</w>
defin itely</w>
Performan ce</w>
UN D
L ig
car rier</w>
Jon athan</w>
reti re</w>
13 th</w>
t ough</w>
cha p
amb itious</w>
re fe
R ow
gg er</w>
J ay</w>
ac on</w>
lik es</w>
initi ate</w>
occup ational</w>
c tic</w>
Wall ace</w>
chec k
rec re
traditi onally</w>
concer ted</w>
Ag ainst</w>
enshr ined</w>
instruc tor</w>
ar tillery</w>
entr ance</w>
comple mentary</w>
e h</w>
supp lied</w>
P over
rever se</w>
mis sile</w>
pos ing</w>
c .</w>
M other</w>
sam ples</w>
hy po
broad casting</w>
In sur
prosec ute</w>
algori thm</w>
ye ah</w>
W ayne</w>
Brist ol</w>
t ue</w>
indic ation</w>
contr actor</w>
Mun ich</w>
nov ation</w>
Ba sic</w>
d ub
scienti st</w>
work place</w>
Res olution</w>
pare dness</w>
th ful</w>
N eil</w>
fea sible</w>
benef icial</w>
Pro hibition</w>
t aste</w>
emb le</w>
Sett lements</w>
J ar
i di
te amed</w>
solven cy</w>
Matthe w</w>
pl astic</w>
b led</w>
ba g</w>
j ew
sur prised</w>
journ alism</w>
Sil ver</w>
post p
wic kets</w>
smo king</w>
under lined</w>
ac ity</w>
d urable</w>
Her bert</w>
o z
v or</w>
Mi k
mar tial</w>
hel p
stat ute</w>
l ots</w>
imper ative</w>
C B
itch en</w>
Kar l</w>
war s</w>
R eligi
it ch</w>
Pover ty</w>
in human</w>
surviv ors</w>
l en</w>
ko k</w>
But ler</w>
Yor k
l ler</w>
190 3</w>
ev ed</w>
Par agu
k s
Gram my</w>
prec ise</w>
Sch eme</w>
prud ence</w>
Phil lips</w>
fin alized</w>
liqu id</w>
Is ab
smo ke</w>
li ties</w>
requis ite</w>
en berg</w>
Slo vakia</w>
Ath ens</w>
r ating</w>
MONU C</w>
t elecommunications</w>
iz ations</w>
gh tly</w>
predec essor</w>
there to</w>
public ity</w>
P ul
eb ook</w>
Par ti
cred entials</w>
method ologies</w>
Tu be</w>
subm itting</w>
Per ry</w>
tal ked</w>
list ening</w>
i o
en ix</w>
Rog ers</w>
reg rets</w>
Jac ob</w>
cro ps</w>
supp liers</w>
SA R</w>
far mer</w>
Hamp shire</w>
C ob
J ason</w>
pat er
pos es</w>
N ation</w>
F ab
appoin ting</w>
L ong
A ar
depriv ation</w>
afford able</w>
Na pole
cl ause</w>
CO N
p ure</w>
r as</w>
l on</w>
si ege</w>
in n</w>
mater nity</w>
St al
I R</w>
Fas o</w>
lec ture</w>
M C</w>
Wh ere</w>
J en
Bag h
1 14</w>
Coun t</w>
I B
prot ocols</w>
sho es</w>
d é
Belgi an</w>
Priv ate</w>
Ch ancellor</w>
I U</w>
uni fied</w>
hosti lities</w>
D od
est y</w>
Gr ay</w>
am az
K it
1 16</w>
yst al</w>
promp ted</w>
qu een</w>
Gab ri
quali fications</w>
emp ty</w>
cha p</w>
Bur kina</w>
assur ance</w>
H. E.</w>
en listed</w>
del ic
j e</w>
NE PAD</w>
se iz
nom ine
leg s</w>
ol ds</w>
Rec om
in security</w>
pos thum
emi gr
New castle</w>
Communic ation</w>
Ott awa</w>
4 ,000</w>
not withstanding</w>
inten ds</w>
in direct</w>
mach ines</w>
ar o</w>
Mic hel
ca p</w>
su gar</w>
Ser ge
Lux emb
Hun ter</w>
hon est</w>
Gil bert</w>
wi ves</w>
hand led</w>
com prises</w>
recogn ised</w>
emer gencies</w>
degrad ing</w>
impres sion</w>
lic ence</w>
UNIF EM</w>
avo ided</w>
exam ining</w>
Ru gby</w>
hosti le</w>
th rown</w>
te or
Pow ers</w>
Af ter</w>
el ect</w>
b ers</w>
L P</w>
re per
L abor
Analy sis</w>
em ission</w>
15 th</w>
in ven
A ma
Flo rence</w>
N umber</w>
summar ized</w>
f ing
S aints</w>
Glas gow</w>
ro t
resi li
Con n
cho ices</w>
S ong
swe et</w>
suppor tive</w>
smugg ling</w>
H ond
elev enth</w>
cros sed</w>
casu alties</w>
N ative</w>
ec hn
Ser ie</w>
Bang kok</w>
ure r</w>
th ood</w>
k ar
e uro
Organiz ations</w>
gr ound
boo st</w>
Insur ance</w>
duc t</w>
b onds</w>
neighbor hood</w>
K n
N ap
mod est</w>
sci ences</w>
priv acy</w>
ic ked</w>
Co alition</w>
govern ed</w>
K O</w>
ful filled</w>
Consul tative</w>
il es</w>
L ast</w>
di r
anthro po
contr acted</w>
dom ain</w>
Mo h
sh ots</w>
pre valence</w>
dist ingu
at ric</w>
Per son
Br and
sett ings</w>
rebel lion</w>
ass ure</w>
narr ative</w>
dis mis
Ta g</w>
Meas ures</w>
om y</w>
16 th</w>
14 .
ace u
ac knowledge</w>
as m</w>
L C</w>
IC T
y ang</w>
f esti
our g</w>
gir l
lim itation</w>
esc u</w>
Di alogue</w>
gn ed</w>
up set</w>
passeng ers</w>
Bri dge</w>
No t</w>
í n</w>
N ick</w>
rou tine</w>
Heav yweight</w>
igno red</w>
E uro</w>
B omb
eradic ate</w>
ur n</w>
fire arms</w>
aggres sive</w>
Strength ening</w>
C T</w>
D ick</w>
k g</w>
1 13</w>
ic tion</w>
D J</w>
Administr ator</w>
d ying</w>
aff ects</w>
with drawn</w>
stan bul</w>
s or</w>
contin ental</w>
Hond ur
en rich
Nic ol
ati vity</w>
acqu ain
F on
sp ac
ash i</w>
Metro politan</w>
h n</w>
d ents</w>
to s</w>
law suit</w>
P D</w>
rec eptions</w>
analy se</w>
Taj ik
2 3
ot ted</w>
moun tains</w>
ev al</w>
dec ree</w>
Bl ues</w>
E mil
B y</w>
ne uro
a ven
C are
Jer ry</w>
bur ning</w>
arri ve</w>
Car dinal</w>
per mits</w>
b n</w>
Jeff erson</w>
gi o</w>
stri king</w>
po t</w>
ant ine</w>
certific ates</w>
E ast
k an</w>
spec tr
ASE AN</w>
de parted</w>
obvi ously</w>
contribu tes</w>
Wat son</w>
Jo an</w>
ri x</w>
NA TO</w>
H an</w>
Amend ment</w>
nar row
celeb rate</w>
r he
Fel lowship</w>
F air</w>
ad mi
P an</w>
si ves</w>
W ag
constitu ency</w>
autom atically</w>
Yan kees</w>
Proper ty</w>
tro p
b ic
Z one</w>
threat ening</w>
de pression</w>
altern ate</w>
a x</w>
sub ur
I I.
Go d
Batt alion</w>
sy mp
si r</w>
K um
Tajik istan</w>
particip atory</w>
Rac ing</w>
P ub
let es</w>
en tit
es burg</w>
Pro duction</w>
advis e</w>
s now</w>
formul a</w>
st al
M ack
Direc tors</w>
Ar senal</w>
th res
doc torate</w>
vi e</w>
st ag
un certainty</w>
dimen sional</w>
ure ly</w>
succ essive</w>
continu ity</w>
Mad ison</w>
Bob by</w>
reiter ate</w>
desi red</w>
econom ically</w>
Colon ial</w>
F la
eco system</w>
1 25</w>
conc ept
t um
Armen ian</w>
wor ry</w>
str ange</w>
C in
ra p</w>
Fac ulty</w>
ati al</w>
refl ection</w>
in ity</w>
co gn
comp li
er i</w>
Mo on</w>
f a</w>
t ells</w>
Fi ji</w>
accep ting</w>
co er
x i</w>
N av
radi o
establish es</w>
Republic ans</w>
A id</w>
H oo
no body</w>
r ational</w>
e a</w>
cal m</w>
L ak
sust ain</w>
pe red</w>
wat ched</w>
cul tiv
there on</w>
Comm ons</w>
open ly</w>
Vir gin</w>
19 20s</w>
or chestra</w>
li p</w>
bad ly</w>
bre ast</w>
Dis ney</w>
celebr ation</w>
re l</w>
cust om</w>
psy cho
assur ances</w>
exp elled</w>
189 8</w>
un employed</w>
yi eld</w>
draw ings</w>
ess ay</w>
Em irates</w>
a es
C S</w>
wis dom</w>
lo ver</w>
br ut
189 9</w>
legitim acy</w>
it ement</w>
Ex peri
Pr acti
Som ali</w>
R B
pe aked</w>
co des</w>
K no
B uck
patro l</w>
SC E</w>
P etro
sc op
14 th</w>
Pen sion</w>
hi dden</w>
ff ield</w>
F BI</w>
Adel aide</w>
fore ver</w>
id ad</w>
Pho enix</w>
fil med</w>
13 .
ful filling</w>
Oli ver</w>
val idity</w>
sh ock</w>
glob ally</w>
Ben nett</w>
persu aded</w>
confir mation</w>
o ch
Statis tical</w>
A viation</w>
p in</w>
Abra ham</w>
subm its</w>
plan et</w>
follow ers</w>
cen sus</w>
Sol omon</w>
2 .1</w>
remin ded</w>
fil m
el ite</w>
K le
school ing</w>
ow ski</w>
fe eding</w>
G ren
B og
Presid ents</w>
Ark ansas</w>
mo ves</w>
R af
b loo
M E</w>
pul l</w>
is cop
Mc G
ic le</w>
accid ents</w>
Peter sburg</w>
il ly</w>
exp ec
Arn old</w>
an te</w>
The od
imm un
margin alized</w>
amen d</w>
eco systems</w>
confid ential</w>
inst ability</w>
calcul ation</w>
work load</w>
c ab
Moz ambi
beg ins</w>
reimbur sement</w>
b lan
com positions</w>
w ell
en sed</w>
es cent</w>
lifel ong</w>
coun ts</w>
reve al</w>
contribu tor</w>
Log istics</w>
F ili
b low</w>
re bel</w>
Ar e</w>
miti gate</w>
IG H
vir tue</w>
acces sibility</w>
En h
d ash</w>
absol utely</w>
abol ition</w>
sub ord
religi ons</w>
cre ates</w>
inter ior</w>
ud a</w>
du le</w>
Shakespe are</w>
Mozambi que</w>
enc er</w>
ele mentary</w>
col ony</w>
S it
B ail
O scar</w>
P rison</w>
questionn aire</w>
You Tube</w>
discrimin ate</w>
as sured</w>
Res ource</w>
Lim ited</w>
tr ick</w>
st int</w>
compar able</w>
t ag
A R</w>
on y
susp ect</w>
Dis aster</w>
Imp act</w>
Gr ace</w>
E d</w>
Clar ke</w>
compe tit
Phil osoph
sculp ture</w>
perman ently</w>
reaffir m</w>
CN. 9</w>
ret ri
1 17</w>
s enti
read iness</w>
draw s</w>
e ased</w>
me ets</w>
hel m</w>
amp a</w>
help ful</w>
f at</w>
war rant</w>
v ary</w>
arran ge</w>
Lu is</w>
juris dic
Ru le</w>
spons or</w>
gen re</w>
app rais
V il
sym b
won derful</w>
fo stering</w>
bloc k
Confeder ate</w>
Sahar an</w>
ok ay</w>
Christi an
believ ing</w>
1 18</w>
ro tation</w>
Stu art</w>
sub region</w>
Mon ter
po o
ac claimed</w>
Trin ity</w>
Pun ishment</w>
Agricul tural</w>
fi able</w>
lo ying</w>
B O
tu rers</w>
d ancing</w>
ov en</w>
it age</w>
ak s</w>
1 40</w>
ho sts</w>
l on
conven e</w>
sh ed</w>
Icel and</w>
Associ ate</w>
d ogs</w>
de ar</w>
consci ousness</w>
spe ech
dre ams</w>
do zen</w>
aspir ations</w>
rob ust</w>
Har old</w>
expl oring</w>
thir ds</w>
ref rain</w>
l ington</w>
I stanbul</w>
cop y
K ings</w>
thor ough
thir teen</w>
pro claimed</w>
magne tic</w>
Hon or</w>
18 61</w>
l ending</w>
ID B.
ri ya</w>
Ro y
WW E</w>
ü r
t .</w>
ten s</w>
cot ton</w>
UNMI K</w>
Em b
won der</w>
A ber
Comp u
L ang
G S</w>
c ott</w>
swim ming</w>
knoc ked</w>
V el
J ur
Phi l</w>
Eag les</w>
circul ation</w>
in equ
defini tions</w>
. The</w>
Regi ster</w>
fea sibility</w>
c able</w>
ra h</w>
rele asing</w>
Liber ation</w>
isol ated</w>
foreign ers</w>
W an
hat red</w>
S o</w>
belong ed</w>
Bapti st</w>
war ran
so m</w>
exerc ised</w>
UNAMI D</w>
Indi an
minim ize</w>
sla ves</w>
ro s</w>
observ ance</w>
de an</w>
Govern mental</w>
es man</w>
al istic</w>
Lou ise</w>
J azz</w>
le m</w>
Be at
Estab lish
re sign</w>
com preh
Val ent
clam ation</w>
Pr us
T han
t son</w>
A chi
align ed</w>
Tow n
ing e</w>
sm ile</w>
A D
Or thodox</w>
prohib it</w>
b assist</w>
concentr ate</w>
Bagh dad</w>
Com petition</w>
pre paredness</w>
Luxemb ourg</w>
mon ies</w>
Oak land</w>
urg ently</w>
sub sist
pal ace</w>
heal th
plan es</w>
enrol ment</w>
r at</w>
con ve
Croati an</w>
in stitute</w>
phil os
fol d</w>
Ah med</w>
pro long
environ ments</w>
Secret ary
sk i
c easefire</w>
V P</w>
rest ation</w>
C P.
str o</w>
alle vi
é s</w>
enem ies</w>
after math</w>
Lar ry</w>
herit ance</w>
d ging</w>
S r.</w>
Ma x
doctr ine</w>
189 6</w>
net working</w>
cap ita</w>
ref use</w>
R overs</w>
six tieth</w>
tit e</w>
oppos ing</w>
every day</w>
rol ling</w>
ship ment</w>
acknowled ging</w>
lu x
exac erb
st aying</w>
g al
Har vey</w>
s ch</w>
consul ted</w>
Trans national</w>
big ger</w>
at ings</w>
Mon etary</w>
vi br
kill ings</w>
than ked</w>
Per s
en os</w>
D enn
cle ared</w>
qui ries</w>
iden tical</w>
prosec uted</w>
perc eption</w>
15 .
im partial</w>
ag eing</w>
su e</w>
Po st
Ott oman</w>
vari ed</w>
s ati
doc toral</w>
Sha h</w>
par ad
investig ative</w>
S port</w>
conspir acy</w>
Ke ith</w>
M unic
off enders</w>
S as
A qu
o e</w>
ass ed</w>
deb ts</w>
im ir</w>
t es
r al</w>
di et</w>
Tam il</w>
LA C</w>
assum ption</w>
win ners</w>
hear ings</w>
ph ases</w>
four teen</w>
R et
success es</w>
an ism</w>
D NA</w>
proceed ing</w>
ur gency</w>
ten ded</w>
tr il
onym ous</w>
Munic ip
1 22</w>
N S
ne sty</w>
Tri ple</w>
regul ate</w>
Vill age</w>
M ason</w>
bel t</w>
ha ble</w>
every where</w>
break down</w>
Argent ine</w>
y i</w>
six teen</w>
i k</w>
an tit
S l
rac ed</w>
mar riages</w>
ac ous
porno graphy</w>
chap ters</w>
uni fication</w>
M aine</w>
syn thesis</w>
pre fer</w>
cin ema</w>
avi er</w>
Cam eron</w>
uc c
Br y
err ors</w>
manag erial</w>
s field</w>
protec tive</w>
eng er</w>
en di
Work shop</w>
speci ally</w>
Sha w</w>
Indian apolis</w>
swit ched</w>
g om
rein forced</w>
happ ens</w>
hop ing</w>
Johann esburg</w>
remun eration</w>
K ath
13 73</w>
vi g
expe d
pill ars</w>
rul er</w>
vis a</w>
inhe rent</w>
on so</w>
b is</w>
on t</w>
Nam ib
til ation</w>
ret ail</w>
form ers</w>
bat ted</w>
D ata</w>
fi x
N an
ne ys</w>
man kind</w>
C un
Z e
Jud icial</w>
sett lers</w>
an eous</w>
tend ency</w>
swit ch</w>
mani pul
us age</w>
tre mend
ig inal</w>
c ool</w>
bu yer</w>
194 0s</w>
Equ al</w>
o ks</w>
f is
T ake</w>
y ah</w>
Fran ç
qu e
unanim ously</w>
phot os</w>
om et
st ake</w>
red ress</w>
2. 2</w>
dispens able</w>
athle te</w>
Ben in</w>
ga ther</w>
deman ding</w>
num er
attr active</w>
nine teenth</w>
2 5
leg end</w>
h ad
v y</w>
legi ate</w>
goal keeper</w>
ci vic</w>
T C</w>
O range</w>
ren tal</w>
im ported</w>
om ore</w>
po sting</w>
administr ator</w>
n u
direc ting</w>
Lat via</w>
occur s</w>
Ven ice</w>
execu tions</w>
deci ding</w>
i z</w>
f lower</w>
M ess
d al
po le</w>
nur sing</w>
ath letes</w>
rel la</w>
col leges</w>
Ch ambers</w>
pi anist</w>
ess ays</w>
No bel</w>
co at</w>
Democr acy</w>
ban e</w>
station ed</w>
Cath ol
view ers</w>
m ad
stereotyp es</w>
ar chae
dres sed</w>
S occer</w>
Man uel</w>
ell ation</w>
A bor
poo rest</w>
insul a</w>
back up</w>
g am
Ru th</w>
ch ill</w>
K as
ust er</w>
se ud
g ood
ic on</w>
Gu ardi
lin ear</w>
policy makers</w>
Secretary General</w>
Mar ket</w>
20 20</w>
stat utory</w>
Bh ut
ar ose</w>
Tom my</w>
Z ha
terri ble</w>
sh ut
propos es</w>
tri ps</w>
du plication</w>
boar ding</w>
pun k</w>
br illi
Ger mans</w>
u tility</w>
Ral ph</w>
me ters</w>
tur ns</w>
d ancer</w>
Organ isation</w>
A v
ex it</w>
abstr act</w>
ox ide</w>
H ills</w>
tr uck</w>
Spe aker</w>
rebel s</w>
condi tional</w>
Ro sen
astr onom
us s</w>
bi ology</w>
4 9
wai ved</w>
D in
w ire</w>
189 5</w>
str ated</w>
ran e</w>
budge ted</w>
H at
l acking</w>
es hip</w>
affili ated</w>
inter face</w>
A sp
enn e</w>
in dispensable</w>
sty les</w>
tub erculosis</w>
dil ig
N ow</w>
Ali gned</w>
oper ators</w>
m unitions</w>
D ame</w>
announ c
For mul
C W</w>
syner gies</w>
ag grav
Est onia</w>
b acter
cul min
adhe rence</w>
neutr al</w>
N ote</w>
cen ters</w>
gol f</w>
explic it</w>
H ann
B ret
et a</w>
T ul
st ery</w>
Comm er
Bah rain</w>
reser ved</w>
She ffield</w>
Con temporary</w>
1. 3</w>
Pr ice</w>
porte urs</w>
view er</w>
portra its</w>
f lights</w>
gr ain</w>
L et</w>
subsist ence</w>
Is a
scre ening</w>
def ender</w>
ar gue</w>
un ci
sh al</w>
pro vo
1 19</w>
ac ies</w>
Monter rey</w>
An im
ol i
cul tivation</w>
min ster</w>
Sam oa</w>
shop ping</w>
avo iding</w>
sound track</w>
be t</w>
Hondur as</w>
co c
gent le
Tec h</w>
ho p</w>
str ar</w>
an n</w>
S TA
N ad
Con c
gi ant</w>
Le gi
strugg ling</w>
Ste ven</w>
disp uted</w>
t emple</w>
resol ving</w>
CA T</w>
in heritance</w>
where ver</w>
t oler
sp atial</w>
fi er</w>
Stu dios</w>
te ars</w>
justi fy</w>
L ic
L es</w>
M az
V .
n ic
argu ing</w>
ag o
Presid ency</w>
oper ator</w>
c ry</w>
189 7</w>
at orial</w>
install ations</w>
de o</w>
T D</w>
recru it</w>
r and
vent ures</w>
To day</w>
soph omore</w>
Contr acting</w>
phys ically</w>
hor ror</w>
e pers</w>
under graduate</w>
critic ised</w>
Institu tions</w>
189 3</w>
R is
Practi ce</w>
batt alion</w>
Wil d</w>
answ ers</w>
analy st</w>
M s</w>
nur se</w>
sal t</w>
communic ated</w>
En voy</w>
un paid</w>
vo ices</w>
C ad
Gl en
Ch ron
hi de</w>
ov ich</w>
le um</w>
bo x
W ells</w>
tri um
L or
Chall enge</w>
stu ff</w>
simul ation</w>
phy si
ill iter
P ep
Ci vil
v ous</w>
Mold ova</w>
18 0</w>
incorpor ating</w>
el ing</w>
s acks</w>
o di
bl ack
depos its</w>
Cra w
spec ulation</w>
l t;</w>
& lt;</w>
formul ating</w>
girl friend</w>
tra ffic
Sp i
Bel grade</w>
T wit
CONF .
189 0</w>
t am
sex ually</w>
don t</w>
up dating</w>
twel fth</w>
Air port</w>
config uration</w>
Char t</w>
dic t</w>
cor ner
M ine</w>
l en
ord ained</w>
Jo se</w>
DC P</w>
A w
curricul a</w>
Philipp ine</w>
expl ains</w>
MINU R
regi stry</w>
vir tual</w>
lif ted</w>
diam ond</w>
York shire</w>
endor sement</w>
at tered</w>
less on</w>
V illa</w>
sc he</w>
stat ue</w>
Pl ace</w>
Cra ig</w>
dro me</w>
Christian ity</w>
C ric
favour ite</w>
Princ eton</w>
z e
S ter
R ain
sti g
ac ademy</w>
in car
navi gation</w>
cip ation</w>
In dies</w>
鈥 檚</w>
V it
Jama hi
recei ver</w>
min ed</w>
logi c</w>
Ro d
t une</w>
Ph .D.</w>
ple dges</w>
F isher</w>
on i</w>
er ated</w>
comman ding</w>
18 63</w>
se ar
Mont gom
18 64</w>
min d
char ter</w>
is tic
Docu ment</w>
ren der</w>
fur n
Ca uc
lif ting</w>
min eral</w>
K un
preser ved</w>
norm ative</w>
correc tly</w>
ment or</w>
i fication</w>
Sem in
Recom mend
Paragu ay</w>
in tellig
bur ned</w>
archi ves</w>
Un ity</w>
P it
ut most</w>
rac ist</w>
W arri
18 62</w>
18 65</w>
O M</w>
ast ing</w>
s ar</w>
B ack</w>
Ang lo</w>
S ound</w>
Jamahi riya</w>
H app
bomb ing</w>
Leon ard</w>
SO M</w>
Re yn
Ray mond</w>
cro p</w>
bel ong</w>
ast ery</w>
L ag
A B
loy al</w>
G ill
endeav our</w>
demo graphic</w>
P P
am er</w>
WA S</w>
Ab du
Lev el</w>
exam inations</w>
El li
oc eans</w>
ab ad</w>
poss ess</w>
in vention</w>
stake holder</w>
Pow ell</w>
practi tioners</w>
win dows</w>
aggreg ate</w>
passeng er</w>
or chestr
proc essed</w>
i qu
fore stry</w>
Lu ci
d ens
blo g</w>
UNMI L</w>
av a</w>
mid fielder</w>
as i</w>
Re ed</w>
po is
gi fts</w>
care ers</w>
chan ces</w>
h es
op ted</w>
sha ped</w>
ren sic</w>
K en</w>
v as</w>
no se</w>
l ake</w>
journ als</w>
EC A</w>
ap h
R est
teamm ates</w>
Fol low</w>
Rail way</w>
Al b
X II</w>
ol o</w>
l acked</w>
H ob
invest or</w>
er man</w>
att ained</w>
sol ving</w>
pol l</w>
u ate</w>
o th
it er</w>
electr on
modern ization</w>
fac tion</w>
spe l</w>
s ad</w>
Out standing</w>
Hon orary</w>
omet res</w>
contr ac
applic ants</w>
Dre am</w>
sh adow</w>
fe els</w>
ourn aments</w>
speci fy</w>
dist or
ed o</w>
accompan ying</w>
under went</w>
Mar qu
Greg ory</w>
6 ,000</w>
cast s</w>
o h</w>
brig ade</w>
m ile</w>
189 2</w>
R on</w>
imag ine</w>
er ian</w>
mag istr
w oo
re w</w>
Mon ey</w>
c s</w>
ali en</w>
un clear</w>
repor ters</w>
L ov
qu antit
ass ing</w>
retre at</w>
Liter ature</w>
F uture</w>
re conn
Cap it
revi val</w>
cred itors</w>
D ynasty</w>
W im
IC C</w>
testi fied</w>
D P
and y</w>
gu ys</w>
Trin idad</w>
kil ometres</w>
Im migration</w>
financi ally</w>
re alizing</w>
os ity</w>
2 4
188 9</w>
1 23</w>
cri tically</w>
oun ce</w>
comp ound</w>
H ope</w>
Am ster
S co
pre ference</w>
L az
H ir
tal ents</w>
u ties</w>
ash a</w>
Conf lict</w>
den ial</w>
prin ts</w>
the e</w>
Col e</w>
conduc tor</w>
A MI
ab et
p seud
issu ing</w>
un successfully</w>
hy per
veri fy</w>
m ill</w>
por ters</w>
sk ir
invest ing</w>
acknowled ges</w>
R ice</w>
ge ographic</w>
ent e</w>
est e
y ana</w>
T R
up grading</w>
dec lining</w>
re ar</w>
C ase</w>
obstac le</w>
ce ased</w>
comfor t</w>
S ah
develop mental</w>
K now
line up</w>
inc en
Mo ham
investig ators</w>
cr af
Si x</w>
Ed die</w>
ro y
1 21</w>
bo ats</w>
r ushed</w>
demonstr ations</w>
vis m</w>
effici ently</w>
accor ded</w>
coun sel
re moving</w>
lo on</w>
Ku wa
mol ec
Langu age</w>
umb er
Amster dam</w>
t oms</w>
apprais al</w>
W es
li able</w>
Jacqu es</w>
short age</w>
hal t</w>
Ta x</w>
Con tribu
isol ation</w>
188 8</w>
Napole on</w>
u sion</w>
fir ing</w>
Ste vens</w>
y cle</w>
Emb assy</w>
grand children</w>
UNO CI</w>
Fi ght</w>
struc tured</w>
cir cles</w>
pan els</w>
Sp encer</w>
termin ated</w>
Le o</w>
co ol
mer ged</w>
Hun t</w>
Go al</w>
direc tions</w>
Ir on</w>
a unt</w>
COM MI
justi fication</w>
pass port</w>
ur ging</w>
surr ounded</w>
wrest ler</w>
speech es</w>
festi vals</w>
W G</w>
Denn is</w>
Cypri ot</w>
assign ments</w>
archit ectural</w>
compl ained</w>
ton ight</w>
oc a
emer gence</w>
w ound</w>
c ali
accus ations</w>
H ey</w>
gen ital</w>
bound aries</w>
D ri
divi de</w>
juris prudence</w>
stri p</w>
High er</w>
mic ro</w>
rough ly</w>
Con gol
un acceptable</w>
soci ally</w>
exha usted</w>
bor row
ch lor
wil d
res ett
R ai
ter ror</w>
ret ention</w>
priv ately</w>
M P
mis conduct</w>
Di plom
n an
N ancy</w>
Namib ia</w>
Commer cial</w>
leng thy</w>
189 4</w>
exc use</w>
tox ic</w>
ob a</w>
c he</w>
Op port
ensu res</w>
OR D</w>
ch er
I E
0 ,
D et
S po
Car di
end ary</w>
w aves</w>
correspon dent</w>
R ah
F M</w>
lo ves</w>
hom os
corpor ation</w>
th rowing</w>
dist ant</w>
w right</w>
Pers onal</w>
ver sus</w>
Kuwa iti</w>
Hud son</w>
H ans</w>
e o</w>
rec k
practic ed</w>
frag ile</w>
elabor ated</w>
Sy n
s mart</w>
accommo date</w>
inter rupted</w>
Con t
b our</w>
O K</w>
per former</w>
f i</w>
Achi ev
rup t
b are
Indone sian</w>
t less</w>
I ES</w>
Ac adem
di str
cha irs</w>
sp ouse</w>
Coll ection</w>
gener ous</w>
re alities</w>
o zone</w>
a g</w>
ul ative</w>
Pro vin
si ans</w>
ch y</w>
Mic h
s ung</w>
D E</w>
um bered</w>
R IGH
fa thers</w>
propag anda</w>
d ust</w>
cros s
out set</w>
d le</w>
Ex ternal</w>
Cow boys</w>
fis sile</w>
des per
G O
reli ance</w>
Si gn
Y u</w>
V E
conclud es</w>
Gi br
re united</w>
ev es</w>
S ky</w>
lin king</w>
ac claim</w>
cir cl
k n
I t
bas eline</w>
analy sts</w>
evalu ated</w>
sett ling</w>
occa sional</w>
ess ence</w>
Hai tian</w>
Investig ation</w>
res sion</w>
tim ing</w>
ous es</w>
fast est</w>
c ann
t ail</w>
prom ises</w>
pun ish</w>
Mc K
MIN US
We ek
exhib it</w>
inter ro
R S</w>
Ped ro</w>
Congol ese</w>
discus ses</w>
li ti
purch asing</w>
coun ties</w>
t ournaments</w>
evol ved</w>
d ant</w>
Stu dio</w>
Al lied</w>
X V</w>
Des er
l uck</w>
lif estyle</w>
ong ue</w>
j er
mean time</w>
bre ad</w>
us tion</w>
soph istic
hun ting</w>
Bar bad
pharm aceu
par ish</w>
recur ring</w>
Y ears</w>
ad ds</w>
Hol land</w>
Fer din
Cl assic</w>
g lad</w>
mis si
natur ally</w>
liveli hoods</w>
sinc ere</w>
gu ess</w>
M ai
tion er</w>
b old</w>
ECO WAS</w>
don ations</w>
H ub
u x</w>
trag edy</w>
ad just</w>
af ore
G and
Ad di
id es</w>
it ably</w>
s ailed</w>
O SCE</w>
w au
k itchen</w>
UNC CD</w>
spectr um</w>
Vic ti
R oc
A vi
reli ability</w>
Vlad imir</w>
S anti
prolong ed</w>
Montgom ery</w>
satis fy</w>
co st
gradu ates</w>
sp her
in s
suggest ing</w>
in um</w>
R eb
Sul tan</w>
exerc ising</w>
Bu enos</w>
Boo ks</w>
asser ted</w>
col ors</w>
Revol utionary</w>
D R</w>
anc est
Ch ang
10 00</w>
stead ily</w>
Americ as</w>
P la
Bris bane</w>
dismis sal</w>
ali ke</w>
S n
stri kes</w>
ar tic
Ca o</w>
tal ented</w>
Exp lo
ke ys</w>
apo logi
st e</w>
le z</w>
T ampa</w>
speci alists</w>
den y</w>
Cru z</w>
k ness</w>
produc es</w>
rein forcing</w>
Pre f
Con duct</w>
A ires</w>
commen cement</w>
a j</w>
Pak ist
obj ections</w>
al locate</w>
nomine e</w>
ch a</w>
vo y
Win d
n g</w>
p es</w>
on ey</w>
ani um</w>
Mor ning</w>
repe at</w>
datab ases</w>
v et
Rober tson</w>
recei ves</w>
bul k</w>
entreprene urs</w>
UN IT
Mil wau
reconn aissance</w>
ME s</w>
v i</w>
3. 5</w>
profession ally</w>
om ed</w>
Bar ack</w>
medic ines</w>
rec ycl
it y
com plications</w>
ff er</w>
tri o</w>
sh ine</w>
ow ns</w>
im migrant</w>
pay able</w>
acous tic</w>
lun ch</w>
d son</w>
è re</w>
Contin ental</w>
wi g</w>
pen etr
work force</w>
T O
Mari time</w>
CR P.
Ell is</w>
comment ator</w>
189 1</w>
refe ree</w>
Le ic
C B</w>
P om
Gib son</w>
Abdu l</w>
Em my</w>
cont acted</w>
ha bit</w>
kin dly</w>
arti ficial</w>
tremend ous</w>
b ars</w>
diplom acy</w>
Alban ian</w>
dem ic</w>
S even</w>
gh ton</w>
Aar on</w>
ar ray</w>
sm en</w>
Twit ter</w>
comb ine</w>
bloc ked</w>
afore mentioned</w>
le ase</w>
Sp irit</w>
gol den</w>
cl ick</w>
c attle</w>
sequ ence</w>
E is
evol ving</w>
construc t</w>
break s</w>
institu tion
w are
W oo
compe ten
G E
en counter</w>
S ad
Milwau kee</w>
Scho ols</w>
bon us</w>
fe ared</w>
dedic ation</w>
a ul
respon sive</w>
car di
read er</w>
exc eptions</w>
col li
O d
re ign
oper ates</w>
bl ame</w>
Ni xon</w>
D ic
promo tional</w>
sm ith</w>
pres enter</w>
re fin
H og
con science</w>
Eth ics</w>
end um</w>
exp ired</w>
appropri ately</w>
hi e</w>
de br
G A
H ei
tri bal</w>
qu alities</w>
atr ical</w>
st ones</w>
se gments</w>
b low
ag e
Rot ter
ol ph</w>
foun ders</w>
f ears</w>
L akes</w>
hi er
consi st</w>
De ad</w>
inequ alities</w>
Formul a</w>
recru iting</w>
abol ished</w>
Ver mont</w>
Reg ulation</w>
Arm strong</w>
187 4</w>
st om
188 5</w>
M TV</w>
moun ted</w>
F res
thres hold</w>
celebr ity</w>
att ain</w>
G E</w>
Heb rew</w>
F em
desc endants</w>
Rotter dam</w>
Pro testant</w>
Ap pro
evalu ating</w>
ke epers</w>
analy sed</w>
lic ensing</w>
Accoun ting</w>
s ake</w>
mist akes</w>
2. 3</w>
d ors</w>
Her itage</w>
ang a</w>
Simp son</w>
premi ere</w>
Davi es</w>
Bro oks</w>
Y am
vac ancies</w>
qu al
guar ding</w>
D ays</w>
Mon ro
16 .
introduc es</w>
Inspec tor</w>
missi les</w>
civil ization</w>
sup er</w>
counter parts</w>
pir acy</w>
et ta</w>
RA F</w>
mo od</w>
intensi fied</w>
flo od</w>
Pr ac
rupt cy</w>
co aches</w>
st em
privileg es</w>
plant ation</w>
f ed</w>
dynam ics</w>
Bar n
Li a
Arti st</w>
thorough ly</w>
congres sional</w>
M ore</w>
Georgi an</w>
de vo
brilli ant</w>
tw in</w>
im men
T hai</w>
Maur ice</w>
D iversity</w>
clari fied</w>
dec olonization</w>
broad ly</w>
eligi bility</w>
Ac tress</w>
inten d</w>
teen ager</w>
l ap
th ri
Ot to</w>
li ver</w>
1 24</w>
un necessary</w>
w et</w>
me al</w>
it us</w>
Gre y</w>
Wil d
Mat ters</w>
Volun tary</w>
Rel ated</w>
ill o</w>
f eld</w>
sur geon</w>
T able</w>
gi ene</w>
g est
tic ism</w>
R ural</w>
eigh teen</w>
Ro dri
N ature</w>
char itable</w>
ad mir
G ot
C P</w>
ali enable</w>
M é
fl uc
Nig er</w>
Fac ebook</w>
C oo
188 0</w>
In stitution</w>
pro li
ew ay</w>
re ward</w>
ga ret
aim ing</w>
hard ware</w>
cor ps</w>
F .
whe el</w>
R T
Pub lish
su l</w>
radio active</w>
Kyrgy z
Tour ism</w>
K ash
wor ried</w>
tri ple</w>
main land</w>
ay an</w>
Enter prise</w>
Barbad os</w>
Ron ald</w>
the ology</w>
ick y</w>
emigr ated</w>
He in
mur ders</w>
associ ates</w>
insp ections</w>
exclud ing</w>
ch ore
A M</w>
long time</w>
ful l
Regi strar</w>
in ability</w>
Som er
E SP
ou ting</w>
Cel tic</w>
B is
ub a</w>
dis ban
stri ve</w>
acc ru
H em
Labor atory</w>
tac tics</w>
ch ick
ur ban
enti ary</w>
G lobe</w>
counter ing</w>
co tics</w>
lingu istic</w>
is ely</w>
sing ers</w>
Cha p
g us
a er
Person nel</w>
r aft</w>
scr ut
18 .
a erial</w>
Ah mad</w>
1 28</w>
tic a</w>
H K</w>
c ope</w>
Guardi an</w>
Kyrgyz stan</w>
mo dule</w>
S car
dis proportion
Em press</w>
B lan
auc tion</w>
m ai
oca ust</w>
agre es</w>
S eb
F ish
ra ises</w>
dis man
ch o</w>
y pe</w>
deteri oration</w>
Rw and
c ester</w>
sm all
coll ectively</w>
e ur</w>
H ot
endi x</w>
add y</w>
J on</w>
tr o</w>
ni k</w>
he res</w>
G N
mag ic</w>
C av
I van</w>
Cre ek</w>
be side</w>
A tt
Dis p
lau gh
M og
vi sibility</w>
av er</w>
clean ing</w>
F all</w>
iscop al</w>
I MI
thir teenth</w>
diversi fication</w>
choo sing</w>
Co hen</w>
Addi tional</w>
Hop kins</w>
Tow er</w>
interc eptions</w>
N ur
speak s</w>
pill ar</w>
as p</w>
Gr ad
Bla ir</w>
lim iting</w>
O il</w>
ul u</w>
g inal</w>
rec ession</w>
grad es</w>
t ance</w>
overn mental</w>
Tibe tan</w>
C en
u i</w>
Col um
viol ate</w>
promin ence</w>
in admissible</w>
L ORD</w>
CA R
15 5</w>
13 2</w>
J IU</w>
ne es</w>
n ong
quantit ative</w>
App le</w>
pres sures</w>
Buddh ist</w>
sum mits</w>
ac res</w>
cor p
z ong</w>
comb ining</w>
T ed</w>
re deployment</w>
con vey</w>
clear ing</w>
F is
A T</w>
dis bur
in solvency</w>
Con ferences</w>
athle tic</w>
Yu an</w>
mission ary</w>
promul gated</w>
commit ting</w>
prec urs
fer tility</w>
fe ud</w>
trad em
or bit</w>
es .
over time</w>
debr is</w>
P av
188 6</w>
---- ----
wal ks</w>
ab duc
t ongue</w>
instruc ted</w>
UN DCP</w>
Metho dist</w>
War saw</w>
il legally</w>
any where</w>
A rena</w>
inten sity</w>
N Y
r ag
har sh</w>
annex es</w>
en tic
anim ated</w>
pat ron</w>
amoun ting</w>
je op
su its</w>
p ig
M end
con fined</w>
gg ed</w>
pe ac
p m</w>
el ess
al lied</w>
rej ection</w>
188 7</w>
trans formed</w>
w ei
tic kets</w>
R ach
ik h</w>
en er</w>
or able</w>
hon oured</w>
13 8</w>
tri bunals</w>
po or
leg endary</w>
Andre ws</w>
def endant</w>
Fore sts</w>
Santi ago</w>
c aster</w>
Pal mer</w>
i que</w>
dem ol
Ow en</w>
f ever</w>
NA SA</w>
Z i
parti ality</w>
Del eg
13 5</w>
nong overnmental</w>
gall ery</w>
H end
Arti cles</w>
ch est</w>
Philosoph y</w>
em ail</w>
affir med</w>
B ears</w>
3. 2</w>
s bury</w>
secret ari
m aps</w>
align ment</w>
K ap
d al</w>
Albu m</w>
Gu er
Ch ang</w>
ick ness</w>
b ore</w>
Pear l</w>
Co ach</w>
en ables</w>
Ac count</w>
de fault</w>
allow ances</w>
Ferdin and</w>
for gotten</w>
H ass
Goo gle</w>
assum ing</w>
p our</w>
at orium</w>
x y</w>
Man ual</w>
acceler ated</w>
N ebr
Coun sel</w>
phot ograph</w>
Hol mes</w>
pe ace
loy alty</w>
Gibr altar</w>
con fusion</w>
intellig ent</w>
execu tives</w>
f oods</w>
West minster</w>
phenom ena</w>
pri de</w>
persec ution</w>
T RA
Nar cotic</w>
advoc ates</w>
Prosec ution</w>
Gol an</w>
New ton</w>
dis order</w>
viol ating</w>
comman ders</w>
libr aries</w>
me l</w>
Mill s</w>
infr ing
Carol ine</w>
ten stein</w>
scen ario</w>
ro of</w>
Christi ans</w>
at ro
ai da</w>
Por ter</w>
E ven
3 .1</w>
st aged</w>
Chi efs</w>
i tive</w>
B O</w>
tax ation</w>
R ick</w>
b at</w>
harmon ized</w>
Mo ses</w>
web sites</w>
the atrical</w>
im er</w>
conting ency</w>
lin eb
Up per</w>
the at
stock pil
W ig
th am</w>
stre ak</w>
manufac turer</w>
hi ring</w>
chec ks</w>
Bal d
prec isely</w>
or n</w>
fail s</w>
suspic ion</w>
Ric hard
un certain</w>
manifest ations</w>
Rei d</w>
Per sian</w>
15 3</w>
resp ects</w>
P ay
P é
O .</w>
be t
batt les</w>
susp ects</w>
Nebr aska</w>
dang ers</w>
symp toms</w>
conven i
ov sky</w>
Rob in</w>
P E
Dj ib
free ze</w>
cou ples</w>
am as</w>
out i</w>
Mon aco</w>
L ec
13 4</w>
b ach</w>
philosoph ical</w>
M VP</w>
Bur ton</w>
g amb
quanti ties</w>
Fin nish</w>
p el
at on</w>
at al</w>
encour agement</w>
Deci sion</w>
ot echn
be ars</w>
Pakist ani</w>
pater nal</w>
utili ze</w>
ud ed</w>
ff e</w>
ci an</w>
J ourn
B au
trans form</w>
ren tly</w>
fil ming</w>
D O
en za</w>
threat en</w>
ab sent</w>
H er</w>
roc ket</w>
aw n</w>
air ing</w>
corpor al</w>
guid eline</w>
h ome
induc ed</w>
de fl
dis charged</w>
neighb ours</w>
fem ales</w>
serv er</w>
rou tes</w>
EC E</w>
mom ents</w>
it ory</w>
exce eded</w>
posi tively</w>
commen ds</w>
li ances</w>
Isa ac</w>
W ars</w>
T uc
Chur chill</w>
over n</w>
Fur ther</w>
te eth</w>
qu ad
postp oned</w>
IO N</w>
recur rent</w>
eb ack</w>
Well ington</w>
UN ITA
MEN T</w>
A j
si veness</w>
ter ly</w>
over saw</w>
trans ferring</w>
Li ke</w>
sw ing</w>
sp an</w>
P ris
on able</w>
mobil izing</w>
liber ation</w>
Er adic
l ing
inf ected</w>
Bri en</w>
thin ks</w>
conc eived</w>
cl an</w>
str ain</w>
s worn</w>
st atic</w>
en lar
R ut
trag ic</w>
Mar x
Law s</w>
ap por
1 26</w>
incorpor ation</w>
intim idation</w>
Princip al</w>
aud its</w>
ann i</w>
z on</w>
stri ke
Alber ta</w>
188 2</w>
inf antry</w>
hol istic</w>
concept ual</w>
some body</w>
enthusi asm</w>
8 ,000</w>
s ly</w>
h ell</w>
fo rensic</w>
grav ity</w>
18 60</w>
l ung</w>
Re agan</w>
p ur</w>
th ick</w>
kno ck
W er
tari ff</w>
inv al
ay e</w>
att ain
Mon te
H ad
verb ale</w>
proli fic</w>
enc umbered</w>
J .
mil est
cul t</w>
ne ed
Ern est</w>
Richard son</w>
RIGH TS</w>
resili ence</w>
188 1</w>
fores een</w>
l ity</w>
S MEs</w>
emp ire</w>
philos opher</w>
entreprene ur</w>
Con sensus</w>
k it</w>
amp h
rub ber</w>
re ci
su rely</w>
S ak
K is
cl arity</w>
edi tions</w>
H S</w>
fun dra
overwhel ming</w>
Regi stry</w>
Bl u
pre domin
assemb led</w>
tar ily</w>
det ect</w>
conven ient</w>
pen al</w>
op tional</w>
li on
dis ser
entrepreneur ship</w>
ach t</w>
le tin</w>
H is
ber ry</w>
188 4</w>
manufac turers</w>
Victor ian</w>
com ings</w>
rif ice</w>
al isation</w>
Hol ocaust</w>
ph a</w>
P at</w>
og a</w>
be ach</w>
seven ty</w>
ne um
e uro</w>
Gu y</w>
15 40</w>
U s</w>
ad mit</w>
Mc Donald</w>
Cer ti
posi um</w>
lic ted</w>
sp an
im position</w>
bir ths</w>
J enni
Athle tics</w>
T ab
b ye</w>
K ra
dru m</w>
prote in</w>
com prised</w>
assum ptions</w>
Cric ket</w>
Conserv ation</w>
re mind</w>
conn ect</w>
vac ation</w>
l ucky</w>
l is</w>
bure au</w>
Let ter</w>
Con ven
st amp</w>
k el</w>
g ymn
bank ruptcy</w>
Ab bey</w>
lo ading</w>
&apos; Con
cor ro
bre a
Coun c
predic ted</w>
brief ed</w>
Re ading</w>
H ave</w>
heav en</w>
sh oc
C IA</w>
renew al</w>
Pro gres
inten dent</w>
ac ent</w>
diplom at</w>
fore most</w>
Sou theast</w>
inst al
coo king</w>
W hi
resear cher</w>
poor ly</w>
maxim ize</w>
is hable</w>
M B
Con struction</w>
up dates</w>
Pro gress</w>
Fl ying</w>
wor ship</w>
war ming</w>
trans late</w>
Arbitr ation</w>
M oo
tran si
doub ts</w>
Legi on</w>
mar ch</w>
Pres by
decentr alization</w>
qu est</w>
S z
wor ding</w>
Colum bus</w>
diam onds</w>
sp aces</w>
ri dge</w>
keep s</w>
d t</w>
rel ay</w>
es on</w>
acc eded</w>
posthum ously</w>
Mal awi</w>
ESC WA</w>
novel ist</w>
cell aneous</w>
Zh u</w>
spons oring</w>
K id
e ums</w>
Deser tification</w>
Co x</w>
mer it</w>
4. 5</w>
ur i</w>
Wol f
m in</w>
Juli a</w>
Har per</w>
optim al</w>
La o</w>
car riage</w>
our se</w>
crimin als</w>
sp heres</w>
inven ted</w>
come dian</w>
m asters</w>
Fo ster</w>
re new</w>
surren dered</w>
les b
j un
Moh amed</w>
J a
Com edy</w>
ver tical</w>
mal nutrition</w>
tel e
pow der</w>
engine ers</w>
accum ulated</w>
devast ating</w>
inste in</w>
187 0</w>
plat forms</w>
en tions</w>
collap sed</w>
contribu tors</w>
P ra
Wim ble
Nig erian</w>
jud ic
gr ace</w>
M umb
st ored</w>
in directly</w>
noti fied</w>
r ington</w>
memo ir</w>
tri bes</w>
he m</w>
S ut
stipul ates</w>
&apos; Brien</w>
grad ual</w>
lan e</w>
Abor iginal</w>
com prise</w>
bas ically</w>
P ent
paren tal</w>
congrat ulate</w>
La ura</w>
o be
Pr ague</w>
inter red</w>
emp loy</w>
ñ a</w>
ser ial</w>
an xi
Wimble don</w>
expl aining</w>
ox y
fu els</w>
tou ched</w>
che z</w>
cl ay</w>
M rs</w>
Der by</w>
aband on</w>
E U
F eli
por ter</w>
in stitutes</w>
deep er</w>
Patri ots</w>
ten ing</w>
ri sts</w>
bench marks</w>
rati fying</w>
perf ec
ne ts</w>
men s</w>
embar r
M T
mathematic al</w>
ci garet
J ak
break through</w>
in consistent</w>
sla u
F ly
under scored</w>
Tru th</w>
EN T</w>
confron ted</w>
50 0,000</w>
al y</w>
teen age</w>
bl ues</w>
ab i</w>
helicop ter</w>
g i</w>
Y a
f inger</w>
For bes</w>
pan ic</w>
Ste ering</w>
pol i</w>
k at
hol y</w>
cy cles</w>
st airs</w>
dep loy</w>
cou pled</w>
barri er</w>
i ents</w>
off ense</w>
bu b
war fare</w>
up hold</w>
min i</w>
Tok el
e an
am an</w>
ord in
Spr ing
1 29</w>
pi pe</w>
par ks</w>
che ap</w>
ex am</w>
she ets</w>
inc eption</w>
13 3</w>
short comings</w>
Dun can</w>
standardi zed</w>
ris en</w>
Paul o</w>
1 27</w>
share holders</w>
3 0,000</w>
Nev ada</w>
1. 4</w>
D anny</w>
canc ellation</w>
weak nesses</w>
tor tured</w>
ish ops</w>
stor y
convic tions</w>
AC C</w>
Ang els</w>
H ull</w>
Achiev ement</w>
M emp
vari an</w>
v et</w>
im partiality</w>
m apping</w>
jurisdic tions</w>
UNITA R</w>
alo g</w>
dub bed</w>
defin ite</w>
individu ally</w>
el ic</w>
Provi sional</w>
won dered</w>
m it
del eted</w>
de rer</w>
sh ell</w>
f ty</w>
Rho de</w>
B all</w>
bure auc
adj acent</w>
rem itt
re marked</w>
la v</w>
Memp his</w>
tre ating</w>
p y
sw ana</w>
S cre
respon dents</w>
ir respective</w>
Tri bunals</w>
sh ops</w>
Djib outi</w>
migr ated</w>
des ert</w>
18 2</w>
vo iced</w>
gu s</w>
al locations</w>
dis cover</w>
narrow ly</w>
ed iting</w>
2. 4</w>
Moham med</w>
tec h</w>
suspic ious</w>
recip ients</w>
pen sions</w>
T ogo</w>
Reyn olds</w>
sp in</w>
femin ist</w>
do se</w>
Mar tha</w>
cat s</w>
ambi gu
discre tion</w>
de rers</w>
copy right</w>
Ham burg</w>
shi fted</w>
trans boundary</w>
se arching</w>
ne z</w>
s ab
categ or
est ates</w>
ph ones</w>
econom ist</w>
ra il</w>
bl amed</w>
r in
Dod gers</w>
Dec olonization</w>
Boli varian</w>
T est
Bon n</w>
loc ating</w>
as tics</w>
u ous</w>
parti san</w>
Pol l
P aper</w>
new s
belong s</w>
Bail ey</w>
tan ks</w>
K har
Gu am</w>
ath on</w>
nick named</w>
K ate</w>
di ves</w>
sh an</w>
dis appointed</w>
bit ter</w>
Pen n</w>
favor able</w>
Rev .</w>
stri ker</w>
ev o</w>
viol in</w>
k l
ti de</w>
ing o</w>
M ass</w>
ut ants</w>
j ar
fi x</w>
ch ancellor</w>
Con si
rob bery</w>
ir regular</w>
am id</w>
Li ech
Fer gus
occur ring</w>
Hen derson</w>
de e</w>
Fran ces</w>
Truste es</w>
v est</w>
Im pro
cor rupt</w>
T as
pr ayer</w>
noti fy</w>
circl ed</w>
syn dic
be er</w>
gh ty</w>
de vote</w>
so ap</w>
pl ain
collabor ate</w>
mil l
R un
read ily</w>
T en
Gabri el</w>
regul ating</w>
p esti
h r</w>
Sh en
dis c</w>
ay al</w>
R aw</w>
poss essed</w>
Shi r
P S
var ying</w>
17 .
cha ins</w>
de tri
k u</w>
Ed mund</w>
Add. 2</w>
plan ted</w>
institu ted</w>
emb o
coun ted</w>
18 66</w>
Mi gu
e ks</w>
Ac tor</w>
re strict</w>
ag as
pre f
acqu iring</w>
Chair s</w>
k en
con fin
B order</w>
experi encing</w>
Dr ama</w>
prohib iting</w>
tri be</w>
arre sts</w>
Bur ke</w>
187 6</w>
hon ours</w>
P op</w>
Bur ns</w>
&apos; i</w>
Ell en</w>
Li ving</w>
dis gu
Arti sts</w>
e b</w>
ri t</w>
Que ens</w>
L un
explo sives</w>
bot tle</w>
it ating</w>
Ap plication</w>
forec ast</w>
Marc us</w>
Dom estic</w>
ref using</w>
alo gues</w>
abet es</w>
al ter
IN F</w>
D D</w>
stand ings</w>
r ally</w>
p ile</w>
Respon sible</w>
Mun ster</w>
ass ad
Fac il
inter s</w>
W on
pleas ant</w>
preser ving</w>
do zens</w>
Rab bi</w>
C li
Be ir
tin y</w>
s word</w>
ac tu
Liech tenstein</w>
time table</w>
n ian</w>
innov ations</w>
ol ate</w>
R ace</w>
J ust</w>
3. 3</w>
Dist r</w>
Com ple
L ac
haw ks</w>
le e</w>
ght ful</w>
am o</w>
Jo han
super vised</w>
har der</w>
Lead ership</w>
J ustin</w>
nation alist</w>
Associ ated</w>
tra vels</w>
ment arians</w>
Wat ch</w>
Ma har
ti st</w>
Par ish</w>
min ds</w>
hi es</w>
in cl
Histor ical</w>
ic ans</w>
oper ation
dispar ities</w>
ast ro
Hay es</w>
spher ic</w>
lic ensed</w>
liveli hood</w>
Re sident</w>
Cap acity</w>
preci ous</w>
excell ence</w>
pl ates</w>
N on
vest ock</w>
up held</w>
fif teenth</w>
accompl ishment</w>
comm issioner</w>
sur name</w>
enti ality</w>
e iro</w>
guarante eing</w>
fir stly</w>
Turk men
W it
7 ,000</w>
t s
Brad ford</w>
C old</w>
stop ping</w>
fel lowship</w>
dro pping</w>
J S
Bar on
en quiry</w>
M LB</w>
qu et</w>
En sure</w>
design ation</w>
E sp
le af</w>
ess ation</w>
vir al</w>
b alls</w>
19 .
Econom y</w>
mort gage</w>
L ef
supp lier</w>
fin ite</w>
awa iting</w>
univer se</w>
Se ason</w>
el o
dissem inated</w>
poc ket</w>
bot t
J in
g lobe</w>
ste am</w>
ple aded</w>
amm ar</w>
preci sion</w>
fav oured</w>
char ging</w>
s tic</w>
exce eding</w>
u able</w>
cl ou
mer ger</w>
cont empor
in compatible</w>
fro zen</w>
Ang el</w>
Se an</w>
Mat er
G am
Micro soft</w>
u ting</w>
f ting</w>
ch ro
Sch war
A uck
se eds</w>
Sud anese</w>
reli ed</w>
bl u
accred ited</w>
er ie</w>
ali ens</w>
confisc ated</w>
Rich ards</w>
Ne ill</w>
be dro
manuscri pt</w>
er ion</w>
Mumb ai</w>
Bot swana</w>
s ad
mag nit
highligh ting</w>
defin es</w>
King ston</w>
Sh i</w>
re sumption</w>
Mar c</w>
resett lement</w>
fo restation</w>
sophistic ated</w>
ensu ing</w>
accur ately</w>
Pri mary</w>
com eback</w>
Sup pression</w>
pl ur
p amph
annex ed</w>
orig ins</w>
Zh ou</w>
fif tieth</w>
ev en
su ed</w>
n ist</w>
J or
pre sided</w>
per tin
Presby ter
mix ture</w>
as ti
c um
min ded</w>
Fer r
tin ational</w>
pen ter</w>
volun tarily</w>
aren a</w>
Electr onic</w>
Auck land</w>
c avalry</w>
g az
exemp tion</w>
Ever y
fre ight</w>
Supple ment</w>
N in
Cor nell</w>
enc lo
bare ly</w>
Wag ner</w>
Tokel au</w>
Br yan</w>
subsi di
sensi tivity</w>
ther hood</w>
accompl ish</w>
L E</w>
me teor
anch or</w>
i fied</w>
Tel e
g é</w>
di ocese</w>
at ra</w>
Luc y</w>
ab ide</w>
p neum
compar e</w>
S of
explo sion</w>
es h
disser tation</w>
correc tions</w>
bi ke</w>
G et</w>
on ist</w>
plic ate</w>
se em
adol escent</w>
Mad agas
w icket</w>
squ adron</w>
refu ge</w>
R ig
Me h
Turkmen istan</w>
cop per</w>
A FC</w>
res a</w>
harmon ic</w>
ur anium</w>
ple dge</w>
se ize</w>
ac tment</w>
UNMI S</w>
Es sex</w>
sp ouses</w>
Victi ms</w>
188 3</w>
T odd</w>
y on</w>
s and
exp ects</w>
accor d</w>
Brad ley</w>
ö r
sc ep
monu ment</w>
S ID
14 1</w>
Mag ic</w>
Sec ret</w>
cont ex
W C</w>
Ro b</w>
Fle et</w>
ten ham</w>
j et</w>
the ft</w>
releg ation</w>
declar ing</w>
demonstr ates</w>
arbitr al</w>
Car ne
un expected</w>
Te h
Bi o
P ete</w>
af for
yi el
H ag
reason ably</w>
P ublic
identi fies</w>
Broad casting</w>
ack et</w>
stimul ate</w>
rail road</w>
or ate</w>
hand ic
claim ants</w>
attain ment</w>
al together</w>
Fran co</w>
Ben ed
F M
Add is</w>
sle eping</w>
re location</w>
UN DA
Man ila</w>
sum mon
h il
J ab
Coord inating</w>
quot a</w>
mat ched</w>
im a</w>
Migu el</w>
resid es</w>
Madagas car</w>
quarter ly</w>
Beir ut</w>
to ire</w>
pri ests</w>
clin ics</w>
be am</w>
W P.
ric ane</w>
erec ted</w>
patro ls</w>
att a</w>
dis solved</w>
trop ical</w>
ri k</w>
le dge</w>
18 48</w>
ad here</w>
L G
Wil helm</w>
cent red</w>
M am
sion ate</w>
fo ssi
break fast</w>
Pl ay</w>
some time</w>
persu ade</w>
confron tation</w>
wor sen
187 8</w>
v ak</w>
un doub
ex changed</w>
con v
horiz on
S exual</w>
R I</w>
Mc L
Si de</w>
po ets</w>
mem ories</w>
mar ital</w>
H ig
lux ury</w>
plic ity</w>
de en</w>
u g</w>
. I</w>
se in</w>
She ikh</w>
Lyn ch</w>
ret ali
UN AIDS</w>
ra d</w>
in comes</w>
Ed mon
ner vous</w>
tow er</w>
tom b</w>
an not
ad ul
M om
liqu idation</w>
14 5</w>
counc ils</w>
Y an</w>
s worth</w>
up grade</w>
N L</w>
bri d</w>
spec tac
D ud
h ob
Ste ven
expres sions</w>
Ex press</w>
over see</w>
me tal
magnit ude</w>
distinc tive</w>
sign als</w>
D ir
C oc
pit ching</w>
G at
B av
sac rifice</w>
abst entions</w>
Comp an
periodic ally</w>
Al aska</w>
w ounds</w>
inc t</w>
ver dict</w>
trans cri
fle e</w>
t ut
cor ri
detec ted</w>
tow n
candid acy</w>
past or</w>
cl oud</w>
k ick
de ferred</w>
Sh ort</w>
NA L</w>
I bra
Establish ment</w>
bal let</w>
R ican</w>
Leic ester</w>
&apos; an</w>
2 2
manufac tured</w>
hol dings</w>
Wh y</w>
is ure</w>
ha il</w>
b ail</w>
incen tive</w>
Her ald</w>
20 .
18 68</w>
en cia</w>
chec ked</w>
M ap
st un
hun g</w>
happ ening</w>
re vise</w>
rec oun
Cur tis</w>
veri fied</w>
G EN
Song s</w>
1 31</w>
T TE
ñ o</w>
accred itation</w>
al be
dram atically</w>
har t</w>
t asked</w>
de portation</w>
resi ded</w>
lo aned</w>
hang ing</w>
Rho des</w>
. .
187 9</w>
ren e</w>
s om
Gre g</w>
sk ins</w>
ce iling</w>
p it</w>
hal f
deliber ate</w>
4. 2</w>
ap pl
multil ater
TA H</w>
s light</w>
Mal dives</w>
fron tier</w>
pione ering</w>
e ze</w>
di fication</w>
Bald win</w>
restric tion</w>
S on</w>
Nov a</w>
Eu gene</w>
tr acted</w>
H off
hi ding</w>
prohib its</w>
min ent</w>
K ey
l ac
deliber ately</w>
O N
jum ped</w>
ari st
UC LA</w>
loo se</w>
J in</w>
fab ric
Ph ot
system ic</w>
ri gor
Bl ake</w>
si ding</w>
c ens
Viet nam
ub er
se al</w>
clin ic</w>
l é
clo s
sor ship</w>
CD M</w>
negl ect</w>
ing ual</w>
Sil va</w>
pro active</w>
introduc tory</w>
Ser ious</w>
13 6</w>
explan ations</w>
ast ed</w>
pil ots</w>
mal es</w>
fin ances</w>
art work</w>
ul ing</w>
ear marked</w>
MINUS TAH</w>
Li v
B in
tour ist</w>
Thi r
G y
kni fe</w>
ide ology</w>
emin ent</w>
Tob ago</w>
Hin du</w>
Cat al
Maur it
Fin als</w>
Ca es
trans ported</w>
reluc tant</w>
ti ble</w>
satell ites</w>
187 1</w>
Compu ter</w>
An tar
X III</w>
Rwand an</w>
de x</w>
bur ial</w>
Fern ando</w>
Cour se</w>
Ad voc
scholar ships</w>
A gn
interc eption</w>
hi r</w>
health care</w>
er als</w>
E T
ri val
conver t</w>
N ak
A str
str ang
dens ity</w>
op pose</w>
Q aida</w>
sun ami</w>
extra judicial</w>
manu el</w>
expres sly</w>
op tical</w>
ligh ting</w>
ri ers</w>
ch t</w>
Kenne th</w>
ing en</w>
decor ated</w>
revi sions</w>
im posing</w>
mu tilation</w>
ari ous</w>
ther mal</w>
cooper ating</w>
aci onal</w>
tion ality</w>
Gen ocide</w>
Del ta</w>
e sis</w>
Govern ance</w>
sion ed</w>
dum ping</w>
Fergus on</w>
Cl ass
ter bury</w>
recei vable</w>
t ent
Pun j
sub j
s ar
Em ma</w>
f itness</w>
Cri sis</w>
Craw ford</w>
B. A.</w>
y ce</w>
colum ns</w>
Ch ase</w>
stabil ization</w>
S tran
14 2</w>
hear ts</w>
eigh teenth</w>
design ate</w>
I ce</w>
Dr ag
tic o</w>
aver aging</w>
G H
un fair</w>
atic s</w>
out look</w>
1, 500</w>
educ ate</w>
ther land</w>
ge ome
hol es</w>
ang ular</w>
aliz es</w>
ak h</w>
an o
Mont ana</w>
super visory</w>
appropri ations</w>
Ab aba</w>
i bid</w>
X u</w>
Blo om
haz ard</w>
T ren
Man u
tor n</w>
re ject</w>
s port
arist ocr
S ony</w>
h u</w>
minim al</w>
Wol f</w>
P os
Cham ber
per formers</w>
P att
ign or
Vietnam ese</w>
rhe tor
ach i</w>
b au
oph one</w>
con ferred</w>
re produced</w>
invo ked</w>
ex trad
res emb
Sa x
six teenth</w>
Progres sive</w>
sp ots</w>
avi a</w>
Nik ol
r ush</w>
fre el
struc tive</w>
s porting</w>
a sive</w>
S mi
sp reading</w>
dec eased</w>
adver sely</w>
B asi
UNF CCC</w>
Pap ua</w>
P M</w>
modi fication</w>
AMI SOM</w>
recover ing</w>
le ep</w>
mo tivation</w>
k h</w>
T ip
E ve</w>
ur u</w>
depic ted</w>
au to</w>
Gu yana</w>
Dor othy</w>
C M
dis per
c emetery</w>
woo den</w>
auth entic
coordin ators</w>
T E</w>
compan ion</w>
Ad option</w>
CER D</w>
allevi ate</w>
el er</w>
coc aine</w>
histor ically</w>
seven teenth</w>
Sh ep
Mul til
Ker ry</w>
voc ation</w>
ch ard</w>
pl a
Ac ts</w>
B ack
D im
16 9</w>
tru sted</w>
shar ply</w>
avi an</w>
subur b</w>
class room</w>
alco hol
L ords</w>
Bar nes</w>
m ir</w>
er up
Rol l</w>
gri d</w>
country side</w>
re fer
G an
provi der</w>
liti gation</w>
ib n</w>
cre ativity</w>
13 9</w>
m ud</w>
ent ally</w>
Il licit</w>
fluc tu
Cardi ff</w>
Se oul</w>
perfec tly</w>
Ac cess</w>
Pref ecture</w>
CC W</w>
Ger ald</w>
D um
All an</w>
A A</w>
disban ded</w>
bat tery</w>
su ited</w>
18 67</w>
Mo hammad</w>
17 0</w>
Sem inary</w>
Spr ings</w>
N ob
Gonz á
O sl
tr ace</w>
ar ming</w>
B ad</w>
inev itable</w>
H ans
exc iting</w>
Luc as</w>
rem n
Phys ics</w>
gh ting</w>
Wal sh</w>
vir tu
ti les</w>
P irates</w>
187 2</w>
ci o</w>
bre ath</w>
R at
Di e</w>
Dar k</w>
Be th
revit alization</w>
emer ge</w>
pre clud
sen ator</w>
ton nes</w>
p ushing</w>
Cru el</w>
14 3</w>
vis ing</w>
ang ered</w>
Diam ond</w>
Citi zens</w>
sli de</w>
con vince</w>
Provin cial</w>
John ston</w>
resi ding</w>
Ang lic
tis sue</w>
resp ecting</w>
Can terbury</w>
2 5th</w>
a el</w>
G B</w>
t man</w>
distingu ish</w>
al ter</w>
w ings</w>
13 7</w>
sur ge</w>
O ber
Dig ital</w>
es sively</w>
ank le</w>
re formed</w>
gr a
By z
ret aining</w>
after ward</w>
IN TER
Com ics</w>
op e
Pic tures</w>
Carne gie</w>
st uck</w>
holid ays</w>
Municip al</w>
sens ing</w>
fail ures</w>
announ ce</w>
confid entiality</w>
doub led</w>
se gregation</w>
n a
Su z
weak ness</w>
mis cellaneous</w>
Brow ns</w>
high way</w>
affili ate</w>
Franç ois</w>
3 6
ti um</w>
Osl o</w>
Elec tric</w>
wrong ful</w>
sympa thy</w>
ir i</w>
crit erion</w>
Zha o</w>
E arly</w>
16 2</w>
trou bled</w>
advent ure</w>
m dash</w>
Gonzá lez</w>
ti que</w>
mod ules</w>
Gre ater</w>
14 4</w>
the astern</w>
eg gs</w>
Or land
qual itative</w>
gar nered</w>
accum ulation</w>
S ay
univers ality</w>
u ki</w>
pharmaceu tical</w>
4 .1</w>
187 7</w>
program matic</w>
orig inated</w>
evac uation</w>
D ha
our ing</w>
her d</w>
syn the
s acked</w>
pertin ent</w>
Stor m</w>
some where</w>
truste e</w>
l aser</w>
Fal k
Rom an
ym outh</w>
R equ
S lam</w>
é t
ir ri
imp lies</w>
es el
at omic</w>
Ty ler</w>
endeav ours</w>
C MP</w>
Bal let</w>
an or</w>
L u</w>
impe di
differen tial</w>
ch ew
Lu ke</w>
inten tions</w>
Adv anced</w>
Ed itor</w>
pre sum
Sur rey</w>
under lines</w>
sit uated</w>
p ha
Ste in
Mot or
here with</w>
C ancer</w>
rap porteurs</w>
Cha pel</w>
releg ated</w>
Me ts</w>
re sts</w>
bur st</w>
W an</w>
Vo ice</w>
box er</w>
Cla im
rhy thm</w>
Ste el</w>
hard ship</w>
par d</w>
Gar c
diff er</w>
Com e</w>
hy giene</w>
fru it
ac company</w>
Presbyter ian</w>
Ch an</w>
undoub tedly</w>
G ates</w>
la v
st up
attr acting</w>
stom ach</w>
K om
Viol ations</w>
V oc
proj ections</w>
in appropriate</w>
def endants</w>
Re ds</w>
Mor rison</w>
Mich el</w>
Bulg arian</w>
pr ag
he ating</w>
18 69</w>
l end</w>
wh eat</w>
G h
ESP N</w>
explo ded</w>
Mar shal</w>
Ca stro</w>
st en</w>
less ly</w>
compos ers</w>
educ ator</w>
cred itor</w>
monit ors</w>
re ra</w>
De grading</w>
tit ution</w>
si st</w>
as se</w>
Respon se</w>
secretari ats</w>
fr ater
EC LAC</w>
s mil
enjo ys</w>
Cla ude</w>
succe eding</w>
et ly</w>
R h
Fran z</w>
n ance</w>
cor n</w>
w en</w>
clos est</w>
Qu ality</w>
Gand hi</w>
occur rence</w>
Gi ov
poin ting</w>
defici ency</w>
A I</w>
me tric</w>
elev ated</w>
R ing</w>
ari os</w>
Writ ers</w>
Mar in
Ex hibition</w>
1. 15</w>
prec au
pre m
ob sc
ap par
F ra
Fam ilies</w>
ide als</w>
cap s</w>
pre fer
tack ling</w>
li vestock</w>
econom ists</w>
she ep</w>
author ize</w>
N R
deb tor</w>
p ist
lineb acker</w>
dis appearances</w>
In human</w>
16 6</w>
semi finals</w>
g ear</w>
W u
J ay
f an
ecti ous</w>
bureauc r
Abdul lah</w>
on ation</w>
Ma thematic
practic ing</w>
persist ence</w>
bomb s</w>
in mates</w>
app endix</w>
Willi am
rem i
curren cies</w>
p urely</w>
import antly</w>
inter sessional</w>
cont empl
200 ,000</w>
inst ant</w>
in complete</w>
Theod ore</w>
G ao</w>
Bab y</w>
Integr ation</w>
chair manship</w>
un happy</w>
train er</w>
I ts</w>
ri vers</w>
Orland o</w>
re di
dom s</w>
H u</w>
Car ol</w>
Col in</w>
ket t</w>
T ong
ch ol
und ant</w>
soci o
k icked</w>
Hon ours</w>
my stery</w>
Tri b
depart mental</w>
Me di
perpetr ated</w>
b rown</w>
b apti
Car roll</w>
col legiate</w>
add endum</w>
Cz echo
I F</w>
Ed gar</w>
shel ters</w>
ful ness</w>
flu id</w>
187 3</w>
jud ged</w>
Le on</w>
Czecho slo
res cent</w>
Ar ctic</w>
sho ot
admi red</w>
Not re</w>
or ous</w>
mat rix</w>
eless ness</w>
S how
Ma xim
H ere</w>
Gaz ette</w>
ge red</w>
r ance</w>
restaur ants</w>
Rec ord</w>
Blo od</w>
u sive</w>
grand parents</w>
wh is
Semin ar</w>
B ath</w>
Warri ors</w>
hab its</w>
Ex pe
R Y</w>
app a</w>
re actions</w>
inf ections</w>
al um
UN U</w>
otechn ology</w>
ro de</w>
op ing</w>
Liber ty</w>
Emil y</w>
D ick
emp loying</w>
Mus ical</w>
187 5</w>
mast er
3 50</w>
tu be</w>
fin alist</w>
fant asy</w>
Stat ement</w>
Gr and
advoc ating</w>
Colomb ian</w>
Produc tions</w>
ic king</w>
T at
Cor p
ro oted</w>
f arms</w>
Bron cos</w>
sid y</w>
strong est</w>
Gu ar
ion ist</w>
analy sing</w>
am y</w>
lo ving</w>
be tr
G C.
b ons</w>
Phys ical</w>
c essation</w>
hum or</w>
b li
thr iller</w>
s m</w>
bri dges</w>
ter ies</w>
model ing</w>
ab bed</w>
analy ze</w>
res ses</w>
p an</w>
ho s
bow ling</w>
imag ination</w>
down load</w>
sac red</w>
go d</w>
commen ce</w>
in ks</w>
fac tories</w>
coordin ates</w>
ü n
Pan thers</w>
14 7</w>
g ases</w>
arm ies</w>
D ob
Bret ton</w>
id able</w>
scri p
colum nist</w>
ne o</w>
C ann
enjo ying</w>
1. 6</w>
co stly</w>
cap es</w>
mo m</w>
vot er</w>
N ear</w>
T em
S ome
pl enty</w>
indic ative</w>
shor ter</w>
Fili p
CE B</w>
A ub
w rap
rol led</w>
ht m
p ack</w>
inter actions</w>
d ner</w>
Char le
contex ts</w>
Y es</w>
o ist</w>
18 57</w>
pe ers</w>
R BI</w>
reci proc
a a</w>
L in</w>
dis appointment</w>
Y P</w>
appro aching</w>
th ic</w>
voy age</w>
mus eums</w>
Ve ter
F ish</w>
Juli an</w>
D eg
veget ables</w>
inter dependence</w>
eng ines</w>
l ds</w>
inc itement</w>
O g
ec k
c ure</w>
Lia ison</w>
pack ages</w>
L isa</w>
k id</w>
In c.</w>
18 50</w>
V as
Rach el</w>
den om
chi ef
Certi fic
Volunte er</w>
any way</w>
gener als</w>
aci ón</w>
land mark</w>
c ation</w>
Jan eiro</w>
Ly on</w>
rec ourse</w>
out lets</w>
Hum ph
H U
Teh ran</w>
Les lie</w>
Y i</w>
Ro chester</w>
ide ological</w>
Cla u
chron ic
di abetes</w>
y en</w>
Kim ber
leg ality</w>
Lou is
B ased</w>
exc av
em power</w>
Stud ent</w>
predomin antly</w>
S ão</w>
exped ite</w>
Gar cia</w>
rest oring</w>
prosper ous</w>
Sup porting</w>
ap est</w>
att aches</w>
vari able</w>
sha w</w>
OA U</w>
Lyn n</w>
S ist
ur ated</w>
D uring</w>
Ab k
Nap les</w>
d ar</w>
urban ization</w>
memo irs</w>
15 6</w>
emb ro
le y
The ory</w>
Ch ev
P ain
Tot al</w>
I m</w>
under mined</w>
15 7</w>
evi ć</w>
Ac c
Ste el
mind ful</w>
fur t</w>
e tics</w>
rec o
propos ing</w>
re hear
four teenth</w>
Nor folk</w>
Cub s</w>
m ative</w>
g ating</w>
al t</w>
par king</w>
haz ards</w>
Liber ian</w>
strike outs</w>
lig a</w>
clim b</w>
exclud e</w>
P GA</w>
14 6</w>
ol es</w>
sec ular</w>
ali ans</w>
Sou l</w>
Mag n
bo xes</w>
T ho
M O</w>
Gran ting</w>
mon astery</w>
Congres sional</w>
under going</w>
incre di
al tered</w>
seven teen</w>
L ock
jeop ardi
gh o
ch or
R ole</w>
modi fy</w>
repar ation</w>
for bid
en ey</w>
M eg
part nered</w>
pres ently</w>
ol i</w>
TE D</w>
sign atures</w>
inv iting</w>
Ban ks</w>
rever sed</w>
Mach ine</w>
un ve
ph on
tiz ation</w>
e ath</w>
MA N</w>
ing redi
br ac
Th ur
Chem icals</w>
d are</w>
M au
tradem ark</w>
questi oning</w>
tou rists</w>
over coming</w>
hor n</w>
Pre ston</w>
illiter acy</w>
b ath</w>
Main land</w>
pre amb
w ash</w>
J ere
ran o</w>
comp ounds</w>
o res</w>
collabor ating</w>
s ail
De ut
te ach
fi ghts</w>
W ong</w>
men to</w>
ch en</w>
pul se</w>
f u</w>
G oods</w>
surg ical</w>
univers ally</w>
c on</w>
CN N</w>
boo m</w>
Sum mary</w>
N ass
regret ted</w>
ut t
t ale</w>
don ation</w>
ti ously</w>
Regi stration</w>
autom obile</w>
Sol id
Col eman</w>
w ed</w>
un de
eg g</w>
appren tic
veter ans</w>
az z
ap y</w>
res cu
compreh en
b re</w>
horizon tal</w>
ou tw
expend able</w>
Fem ale</w>
el eg
Sal t</w>
progres sed</w>
h oo
Lin da</w>
V id
H ed
ep tive</w>
me tre</w>
hi d</w>
c ow
the id</w>
alleg ation</w>
cr ude</w>
S D</w>
Dur ham</w>
harmon ious</w>
for ci
safe guarding</w>
Ab out</w>
tim ber</w>
crow ned</w>
confisc ation</w>
Somer set</w>
Cour ts</w>
l aying</w>
conv inc
mer cen
e ager</w>
Per th</w>
fat al</w>
2 35</w>
acc ede</w>
deser ve</w>
r atings</w>
foot age</w>
W ing</w>
text books</w>
Quar tet</w>
lic k</w>
it ure</w>
preamb ular</w>
fair ness</w>
T ou
B ent
Low er</w>
Pat ter
per forms</w>
ot rop
Web b</w>
L oo
P ass
pan el
Hut ch
Be ver
15 1</w>
hom eless</w>
J ag
Hass an</w>
fai thful</w>
IC RC</w>
Recon c
ri gi
Stal in</w>
ak ers</w>
Mar ía</w>
mag ni
U A
Van der
ul ous</w>
resi st</w>
broad casts</w>
fun ny</w>
volunte ered</w>
P ret
comp elled</w>
aj a</w>
sculp tor</w>
invent ories</w>
ambi tion</w>
Beng al</w>
mir ror</w>
50 th</w>
et al</w>
South ampton</w>
R as
distribu te</w>
A x
2 5,000</w>
it ude</w>
F L</w>
Ex am
en actment</w>
Ber ry</w>
3 3
g ary</w>
ber ger</w>
b ones</w>
ens en</w>
R um
Pat ric
lad ies</w>
demonstr ating</w>
Dub ai</w>
sou th
dr a</w>
J ets</w>
au t</w>
vi er</w>
O C</w>
Fried rich</w>
re an</w>
Mil ton</w>
st own</w>
án dez</w>
Pro mot
port al</w>
campaign ed</w>
Du chess</w>
psychi atric</w>
pre requisite</w>
n est</w>
disman t
Su ff
Sher man</w>
ol l
mus cle</w>
s ack</w>
reg ain</w>
sac ri
Tig er</w>
Hi m</w>
Har dy</w>
re joined</w>
Rai ders</w>
b as</w>
An y</w>
v s.</w>
land mines</w>
hor ri
al umin
Elli ott</w>
termin al</w>
feren tial</w>
mel o
ic ism</w>
gr ad</w>
Ele anor</w>
u h</w>
summon ed</w>
rem emb
r ical</w>
pl en
inv aded</w>
15 4</w>
att ach</w>
ne e</w>
ham pered</w>
eful ness</w>
ro l</w>
retur nees</w>
al ign</w>
opo ly</w>
kidn apping</w>
Vi deo</w>
pain ful</w>
Lo st</w>
re k</w>
dis count</w>
down town</w>
Di ana</w>
et ti</w>
dra u
V ol</w>
ab used</w>
Spe ed
5. 2</w>
g overn</w>
Play ers</w>
val ley</w>
T N
S U</w>
L é
y .
Di vi
knock out</w>
Ethiop ian</w>
extr action</w>
correc ted</w>
announ cing</w>
Xi a
San tos</w>
ah n</w>
P N
Ep iscopal</w>
roc ks</w>
less er</w>
Maurit ania</w>
par am
in fer
ance stry</w>
an es</w>
sup pression</w>
par aly
lo ads</w>
el is</w>
W ell</w>
Chron icle</w>
cl a
S H
un ch</w>
Can al</w>
4. 3</w>
Ch es
vari ations</w>
sur prising</w>
dr ag
IM O</w>
C ris
ol an</w>
pun ishable</w>
instal ment</w>
hom eland</w>
H MS</w>
dissem inating</w>
consolid ating</w>
N ab
F ant
seiz ure</w>
H am</w>
ten ds</w>
emb assy</w>
Out come</w>
re novation</w>
Bol ton</w>
imp ly</w>
endor ses</w>
under go</w>
la b</w>
Hel ena</w>
medi eval</w>
fi res</w>
petro leum</w>
ign ore</w>
ec raft</w>
impe tus</w>
fac tions</w>
C ant
sel ective</w>
Reconc iliation</w>
se di
De struction</w>
L earning</w>
ai ded</w>
iss a</w>
ful fill</w>
Bre w
oxy gen</w>
il i</w>
restric tive</w>
af ia</w>
reve als</w>
ov an</w>
Guil d</w>
Cir cle</w>
Ma c</w>
y or</w>
list ened</w>
Mal col
wa ited</w>
secret ly</w>
m aries</w>
absor bed</w>
bow l</w>
L op
Mari o</w>
depos ited</w>
train ers</w>
er as</w>
SE C</w>
interven e</w>
t ally</w>
ro ad
in alienable</w>
cl oth</w>
Accoun ts</w>
play wright</w>
es hi
any body</w>
ess a</w>
adverti sement</w>
Mer it</w>
fab ric</w>
I SA
fer tili
Valent ine</w>
2 20</w>
di version</w>
au s</w>
ri ties</w>
pe d
dis solution</w>
y early</w>
18 59</w>
ad ays</w>
Kir k
bi om
ari al</w>
X IV</w>
Rac ism</w>
N as
D ra
Har ri
5. 5</w>
plat inum</w>
acceler ating</w>
Mar s</w>
k iller</w>
Multil ateral</w>
ish u</w>
ste ering</w>
E L
pseud ony
gri ev
K ey</w>
E T</w>
S ai
arre ars</w>
I v
o h
T el</w>
New port</w>
real m</w>
out door</w>
e ren
alle viation</w>
tri g
rad ar</w>
bor rowing</w>
Mac ao</w>
H ong
COMMI TTE
s me
M ake</w>
Gr ammar</w>
mass acre</w>
habil itation</w>
Ro th
utili zing</w>
policy making</w>
dis position</w>
M ali
t land</w>
fl our
bag s</w>
prec eded</w>
M ing</w>
Hen ri</w>
Gl ou
lab els</w>
ab e</w>
Ex c
olog ically</w>
f li
T in
Pe aceful</w>
Jenni fer</w>
A re
ent ail</w>
den ounced</w>
Garc ía</w>
G C</w>
chick en</w>
tu ition</w>
tak ings</w>
i os</w>
pat ron
5 9
Cir c
susp end</w>
nor th
Observ atory</w>
Cl er
R ag
ti gh
m ask</w>
academ ics</w>
tol l</w>
A F</w>
revol t</w>
i alism</w>
McCar thy</w>
con gress</w>
parlia mentarians</w>
cre am</w>
anc he</w>
Mer cury</w>
block ade</w>
P ick
itz er</w>
B M
Let ters</w>
sy l
Sec ondary</w>
ast rop
a sia</w>
pron ounced</w>
Bhut an</w>
d well</w>
defici encies</w>
sh ells</w>
endor se</w>
abil ization</w>
vari ation</w>
15 2</w>
M ust
Del aware</w>
Bul l</w>
An nie</w>
conc eption</w>
Thor n
Ibra him</w>
method ological</w>
Sand ers</w>
Bri ghton</w>
dis appointing</w>
Stud ents</w>
K w
Bah amas</w>
pro pon
Grad uate</w>
lau gh</w>
establish ments</w>
Dak ota</w>
ho stage</w>
gi a</w>
activ ated</w>
sust aining</w>
Re ports</w>
wan ting</w>
lo dged</w>
sh ad
quarter finals</w>
inform ing</w>
Bur n
sm outh</w>
mor atorium</w>
he i
intermedi ate</w>
K ow
saf ely</w>
coll ector</w>
acqu itted</w>
indic tment</w>
grand daughter</w>
academ ia</w>
Bet ty</w>
commen d</w>
F D
R ams</w>
vari ance</w>
G ö
R av
Trib une</w>
su r</w>
Win ston</w>
K enny</w>
C lif
6. 5</w>
C U
sculp tures</w>
res e</w>
recycl ing</w>
premi er</w>
syn drome</w>
Bal i</w>
Sus sex</w>
In stru
ha ir
Sh am
14 8</w>
agre eing</w>
am nesty</w>
molec ular</w>
hero in</w>
spon sorship</w>
re side</w>
aes thetic</w>
L ub
thou se</w>
de duc
commerci als</w>
contain er</w>
Hor n</w>
immen se</w>
desc endant</w>
continu ally</w>
bro ok</w>
Port smouth</w>
Na than</w>
teach ings</w>
ab is</w>
Griff in</w>
B and
hard t</w>
ew s</w>
200 0s</w>
Ed win</w>
or derly</w>
cy ber
B ig
g as
Malcol m</w>
15 8</w>
fre estyle</w>
Dep ression</w>
s aint</w>
o ath</w>
cat alogue</w>
sex uality</w>
sol em
le ather</w>
IC OM</w>
cho ir</w>
C row
Sy l
ah o</w>
grad ed</w>
volati le</w>
er mo</w>
H o</w>
sor tium</w>
la us</w>
ic z</w>
destro ying</w>
mercen aries</w>
bi ographer</w>
mul tinational</w>
ab ed</w>
helicop ters</w>
doc k</w>
Rol ling</w>
Eradic ation</w>
met als</w>
mis tic</w>
Jud iciary</w>
ven dors</w>
B ond</w>
o y
lic a</w>
Program mes</w>
develop s</w>
Appro ach</w>
m un
emp t</w>
compos ite</w>
g li
O ff</w>
15 ,000</w>
nor m</w>
hot els</w>
ar ization</w>
fing ers</w>
fi erce</w>
Week ly</w>
sil k</w>
sit com</w>
re fri
V ati
re vo
gram s</w>
North west</w>
a ther
IT C</w>
C. 4</w>
open er</w>
neg atively</w>
albe it</w>
ang o</w>
Engine ers</w>
mist ak
Monro e</w>
compens ate</w>
IC A
Il lu
phys ic
ut ter</w>
New man</w>
contam inated</w>
p es
on wards</w>
lev er</w>
zz y</w>
COMMITTE E</w>
sup pose</w>
substanti ated</w>
sub programmes</w>
commun iqu
F light</w>
mid st</w>
N .
in ts</w>
Sh a</w>
stat e
rand om</w>
attribu tes</w>
avi d</w>
roman ce</w>
K au
Heav en</w>
Legisl ature</w>
hu an</w>
Car lo</w>
L ate</w>
sp y</w>
in timate</w>
dis close</w>
desc ended</w>
con front</w>
sel ecting</w>
sc rap
end as</w>
Glen n</w>
il ia</w>
b age</w>
Mog ad
contempor aries</w>
reg ained</w>
Sit uation</w>
Archit ecture</w>
L em
hand ful</w>
amaz ing</w>
inf ectious</w>
indic ted</w>
t sunami</w>
f ere</w>
CO P.
n ic</w>
Jes se</w>
CP R</w>
strugg les</w>
tw e
eigh ty</w>
cur ator</w>
zh en</w>
Kab ul</w>
em powered</w>
nur ses</w>
di al
he igh
il ization</w>
ut ures</w>
em ia</w>
F alls</w>
An to
ve z</w>
observ ing</w>
compu ting</w>
Ma o</w>
D s</w>
x ton</w>
now adays</w>
conveni ence</w>
p ays</w>
O ver</w>
K l
is le</w>
ben eath</w>
scrut iny</w>
schol arly</w>
re ven
dra g</w>
emo tions</w>
Fre eman</w>
cri p
celeb rities</w>
re forming</w>
ay ton</w>
D ang
vest ed</w>
em bed
ethn icity</w>
Cal gary</w>
si tions</w>
es el</w>
Louis ville</w>
A st
Har d
w n</w>
the l</w>
te m</w>
Mogad ishu</w>
2. 6</w>
17 5</w>
R ich</w>
Hu ang</w>
d ine</w>
Cr ystal</w>
Contribu tions</w>
7. 5</w>
re ro</w>
16 1</w>
Hin di</w>
C ar</w>
fre ed</w>
rap per</w>
el iness</w>
Anglic an</w>
K ad
stu dios</w>
amen ding</w>
5 .1</w>
ren n
Sw an
F ar</w>
m ou
RE S</w>
O P</w>
dep uties</w>
M D</w>
vo ir</w>
liqu idity</w>
acti c</w>
Dou ble</w>
trad ers</w>
k ara</w>
d ong</w>
John s</w>
u um</w>
conting ents</w>
a qui
ev angel
Jere my</w>
C M</w>
Ch al
sign atories</w>
municip ality</w>
diplom a</w>
con s</w>
transl ations</w>
dar kness</w>
Far m</w>
work plan</w>
Gab on</w>
film maker</w>
Comm itted</w>
n uc
im plic
RB Is</w>
L as
Al bi
AA A</w>
w rec
n avy</w>
fav ored</w>
M ou
delic ate</w>
Roo kie</w>
ve to</w>
Bel fast</w>
car ing</w>
V ent
Chap man</w>
prosec utions</w>
dr unk</w>
mon ial</w>
in door</w>
exc ited</w>
Alf onso</w>
Li ang</w>
Fed er
D at
harmon ize</w>
Opport unities</w>
Pl ymouth</w>
Parti cipation</w>
Chamber lain</w>
win d
techn ically</w>
M id</w>
T ir
K ane</w>
tion ment</w>
F F</w>
off shore</w>
dor f</w>
cap tained</w>
Xi ao</w>
ste ad</w>
sc our
e h
s ailing</w>
remn ants</w>
I vor
Ch ester</w>
en burg</w>
clu sters</w>
c ant
Bra ves</w>
W en</w>
Fr aser</w>
Capit ol</w>
negl ected</w>
illustr ations</w>
UNF IC
fin est</w>
fe ud
M Ps</w>
New s
16 5</w>
WW F</w>
re building</w>
incar cer
UNFIC YP</w>
t ess</w>
hin dered</w>
Promot ing</w>
Constan tin
A my</w>
su preme</w>
resid ency</w>
run ners</w>
ei ve</w>
18 54</w>
peas ants</w>
Rail road</w>
M ail</w>
free zing</w>
st adium</w>
sh a</w>
l ou
b ling</w>
Ivor ian</w>
3 8
es se</w>
comple ment
ac t
gamb ling</w>
conc eal
N ash</w>
L af
in quiries</w>
confin ement</w>
A pol
re vel
Sal es</w>
mar ty
18 56</w>
inter fere</w>
in duction</w>
fra ud
con form</w>
Sch ul
war time</w>
Whit e
pre ferential</w>
20 8</w>
sh ua</w>
Tw enty</w>
18 55</w>
chec king</w>
Mar k
14 9</w>
wild life</w>
s ville</w>
met aph
inser ted</w>
imm une</w>
e ag
decentr alized</w>
Per io
Dr agon</w>
Mar tin
Lig a</w>
Certific ate</w>
Vati can</w>
X VI</w>
3. 4</w>
dist ress</w>
p ound</w>
ni ece</w>
Disp ute</w>
yl an</w>
dilig ence</w>
num bered</w>
Jo sh</w>
Gu st
t ingham</w>
resi dual</w>
consult ancy</w>
ant um</w>
o tive</w>
sion ist</w>
par ting</w>
com ics</w>
El is
cre ator</w>
L us
shi pped</w>
ti p</w>
it é</w>
ore r</w>
Gre ene</w>
10 ,
rigor ous</w>
Pu tin</w>
Ro dr
18 49</w>
Nor wich</w>
c ook</w>
re w
guil t</w>
ch in</w>
war ri
sh ocks</w>
circ ular</w>
ph ins</w>
Hor se</w>
C L
oc olate</w>
mat ching</w>
18 40</w>
or ian</w>
Man n</w>
il ey</w>
es ome</w>
ad diction</w>
H ell
is i</w>
sacri fic
expec tation</w>
P har
Mor ton</w>
G as
CAR ICOM</w>
exec ute</w>
ch equ
Re in
p ump</w>
C ay
eu tic</w>
do s</w>
Wan derers</w>
Cel ebr
c ence</w>
Cent res</w>
socio economic</w>
Se a
occup y</w>
de structive</w>
20 1</w>
Dy nam
in sight</w>
1. 8</w>
fres h
A U</w>
brig adier</w>
l oud</w>
ap preh
umb rella</w>
Isab ella</w>
renn ial</w>
mo tions</w>
men tions</w>
benef iciary</w>
go s</w>
Vi sion</w>
S cal
Inspec tors</w>
3 4
Tur ks</w>
Dam asc
human kind</w>
pro ph
affir mative</w>
Ex ecu
qu ez</w>
el ia</w>
ag eous</w>
prin cess</w>
de fam
L ess
mon opoly</w>
b its</w>
anxi ety</w>
Prac tices</w>
re public
Car son</w>
flu or
19 2</w>
rac ks</w>
Offic es</w>
cat astrop
sub stitu
ar ta</w>
privil ege</w>
om o</w>
Phil lies</w>
al arm</w>
Ul ster</w>
u als</w>
ut ant</w>
tot alling</w>
appor tionment</w>
Thom son</w>
18 51</w>
Rodr í
Fi re
Dow n
syn chron
restr aint</w>
Sing les</w>
O man</w>
L ot
C ST</w>
der og
co inci
W yn
ple a</w>
By r
res or
M obile</w>
Bud apest</w>
cr ashed</w>
Bo hem
p light</w>
hi atus</w>
Kr ish
I TV</w>
Hus sein</w>
re union</w>
Z o
N Y</w>
Gar dner</w>
re match</w>
pup il</w>
emb race</w>
cap turing</w>
Pro m
z y
illustr ate</w>
dispat ched</w>
Se x</w>
In dex</w>
cra zy</w>
2 51</w>
Moun tains</w>
E b
ch ants</w>
wh i
bu yers</w>
K ot
inj ection</w>
ang el</w>
benef iting</w>
p tive</w>
f its</w>
ero sion</w>
ail er</w>
ph ased</w>
Eis en
Pot ter</w>
F u</w>
wh o
fol ded</w>
son ville</w>
re unification</w>
Mon te</w>
C um
ure ments</w>
fic tional</w>
zi g</w>
res titution</w>
fe at</w>
ar sen
Bun des
under takings</w>
Rodrí guez</w>
repe ti
Pl enary</w>
t z
kil ome
gl ory</w>
brut al</w>
competit ors</w>
Ser b</w>
interpre tations</w>
execu ting</w>
dis cour
un rest</w>
un ite</w>
over due</w>
I g
F ed</w>
Ac cr
rum ors</w>
pr icing</w>
1, 6
human e</w>
tur n
Albi on</w>
A S</w>
Bir d</w>
con gregation</w>
tur ally</w>
K aren</w>
Min es</w>
es co</w>
th ms</w>
k is
gener ic</w>
chi efs</w>
G ate</w>
prof essors</w>
memor able</w>
En s
irri gation</w>
F oc
p p</w>
H ello</w>
t arian</w>
c and
r ill</w>
Bry ant</w>
re fined</w>
Un ivers
In quiry</w>
on ers</w>
commun al</w>
no ver</w>
P ir
embo died</w>
der ness</w>
civil izations</w>
organ isms</w>
commemor ate</w>
Frank furt</w>
sym bol
Pr ad
M B</w>
tax i</w>
lin er</w>
Hu go</w>
re build</w>
explo it</w>
Mot or</w>
ex ag
ens emble</w>
ban ker</w>
seem ingly</w>
m ys
ob struc
dis orders</w>
bul l</w>
Sat ell
hun gry</w>
dis on</w>
In clud
Alexand ra</w>
in ch</w>
bic ycle</w>
j an
bri de</w>
compati bility</w>
appar atus</w>
R T</w>
x ious</w>
and ers</w>
ill or</w>
Sen ators</w>
2 10</w>
S ome</w>
tri gger</w>
a e
Damasc us</w>
D ro
sym path
&apos; a</w>
fac tual</w>
al ert</w>
Ris k</w>
liqu idated</w>
Sy rac
th al
purch ases</w>
W .
18 58</w>
reco sting</w>
neighb ors</w>
T us
V augh
e try</w>
p um
Ro sa</w>
H ali
C ities</w>
te ens</w>
pe g</w>
boy friend</w>
At las</w>
Alexand ria</w>
tion ist</w>
o ved</w>
R s</w>
conf used</w>
E X
y ours</w>
spon tan
gl asses</w>
fossi l</w>
fi ber</w>
Th er
po l</w>
commerci ally</w>
UNC DF</w>
te aches</w>
dis h
de vised</w>
N g
assad ors</w>
Not tingham</w>
te ar</w>
Trans fer</w>
Publish ing</w>
conc essions</w>
mobil ized</w>
clim bed</w>
pi vot
exemp tions</w>
UN IS
tex tile</w>
pan demic</w>
Tre aties</w>
T wel
Recommend ations</w>
K hal
Fa ith</w>
Filip ino</w>
sc attered</w>
dem o</w>
River a</w>
Albu ms</w>
Ren aissance</w>
r ations</w>
pl er</w>
industri alized</w>
bab ies</w>
Solid arity</w>
Sh ari
reli eved</w>
aud ited</w>
acti vism</w>
Matthe ws</w>
discipl ines</w>
determin es</w>
ban ning</w>
Sing le</w>
k iss</w>
K i</w>
K end
scen arios</w>
Beat les</w>
S ach
Willi e</w>
St age</w>
di alogues</w>
ancest ors</w>
Tor res</w>
tr act</w>
par amount</w>
euro s</w>
Ob j
1, 4
T ai</w>
mo des</w>
m our
connec ting</w>
ci des</w>
asc ular</w>
p per</w>
cy lin
ar ized</w>
Wh ile</w>
Ru n</w>
communic able</w>
pe z</w>
19 0</w>
labor atories</w>
am ble</w>
Sup ply</w>
peace keepers</w>
crow ded</w>
for warded</w>
comple mented</w>
Wi th
ch ase</w>
Re porting</w>
Gold man</w>
ed itors</w>
L ah
Jo shua</w>
t ney</w>
mer chan
le isure</w>
Sh u
ba th
guar di
gen ius</w>
deple ting</w>
con sp
U ses</w>
bul let</w>
gram mar</w>
C red
v u</w>
pow ering</w>
nam ing</w>
P ackers</w>
promo tions</w>
18 53</w>
x ili
reven ge</w>
st en
Ar tillery</w>
amp ed</w>
Wol ver
Asp ects</w>
bi as</w>
ec o</w>
att aining</w>
Syrac use</w>
G lob
Conven tional</w>
Steel ers</w>
Al tern
counter measures</w>
in sec
N acional</w>
An t
ł aw</w>
Religi ous</w>
floo ds</w>
On ly</w>
qui etly</w>
adequ acy</w>
cri ed</w>
b is
te e</w>
i ka</w>
but ton</w>
SC AR</w>
sour cing</w>
prof itable</w>
streng ths</w>
practic ally</w>
P B
Arab s</w>
18 12</w>
ex er
bre aches</w>
dir ty</w>
ashi re</w>
an ie</w>
1. 7</w>
J ess
&apos; clock</w>
supple mented</w>
meth yl</w>
he imer</w>
adverti sements</w>
Lanc ashire</w>
un even</w>
insp ectors</w>
&apos;Con nor</w>
hur st</w>
Sur vi
Lu ther</w>
Juli us</w>
Gol f</w>
re warded</w>
numer ical</w>
testi fy</w>
f umble</w>
al do</w>
si de
br ush</w>
c um</w>
St oke</w>
tr um
te stan
exp ecting</w>
16 7</w>
ent ries</w>
bal d</w>
an onymous</w>
ji ang</w>
fru its</w>
bran ds</w>
Bur ma</w>
Whit ney</w>
Jen kins</w>
post ers</w>
sup pos
cann abis</w>
Nation als</w>
15 9</w>
hy dr
e der</w>
U mo
ko vić</w>
stret ch</w>
fr ames</w>
di oxide</w>
cin em
c ame
UNDA F</w>
1, 7
US SR</w>
he ed</w>
N ever</w>
ri dic
C IS</w>
AC. 109</w>
18 52</w>
stimul us</w>
in ist</w>
G P</w>
multilater alism</w>
3 7
e au</w>
R az
j in</w>
exacerb ated</w>
so ever</w>
Giov anni</w>
cooper atives</w>
Grou ps</w>
C. 6</w>
emp ir
pro files</w>
my ster
L D</w>
sent encing</w>
A man
air y</w>
Bud d
Wind sor</w>
stri pped</w>
ali e</w>
pic king</w>
S EC
Al pha</w>
Aber deen</w>
Comm ission
pl un
Me yer</w>
saf er</w>
hon ey</w>
detec tive</w>
spokes person</w>
j a
Umo ja</w>
pivot al</w>
Car r</w>
fin alize</w>
del ete</w>
De part
rep airs</w>
pack aging</w>
clean er</w>
ch el
En forcement</w>
out lines</w>
b ishops</w>
B am
L ó
C all</w>
C IS
scar ce</w>
S E</w>
I O</w>
m us</w>
administr ations</w>
Lanc aster</w>
In t
un changed</w>
cla uses</w>
cataly st</w>
Schol ar
Rec over
sec rets</w>
interro gation</w>
Lu cia</w>
Jo yce</w>
ens ation</w>
Ne gro</w>
g au
Mari on</w>
3 9
po d
Tele graph</w>
S part
S mo
Can adi
Maj esty</w>
Aud itor</w>
vig il
reiter ating</w>
Happ y</w>
Ern st</w>
o x</w>
Re sid
Cri mes</w>
affor ded</w>
ad ers</w>
Col ts</w>
shoc ked</w>
ag h</w>
F ig
weak ened</w>
trig gered</w>
pro tot
compar ing</w>
Lo ren
Even ing</w>
sequ el</w>
Poli tics</w>
Dud ley</w>
Academ ic</w>
IA L</w>
tel ev
Wo ol
L ut
H aj
E igh
gentle man</w>
Vi kings</w>
T op
inser t</w>
cl ashes</w>
Lithu anian</w>
CR IC</w>
2 .</w>
shel f</w>
commen sur
cat ches</w>
j ah</w>
Se y
A ge
jud gements</w>
im minent</w>
For m</w>
ro y</w>
ro d</w>
inev itably</w>
cr ack</w>
X u
jo ke</w>
ex iled</w>
devo tion</w>
clim bing</w>
vigor ous</w>
portr ayal</w>
p y</w>
iti s</w>
St ock</w>
fe t
priv atization</w>
Ch uck</w>
otrop ic</w>
broad en</w>
Lim a</w>
Web ster</w>
fil tr
en ters</w>
Andre a</w>
18 3</w>
inf licted</w>
ag endas</w>
E ve
ab ul
Pro tec
re organization</w>
manuscri pts</w>
Aut onom
privileg ed</w>
elecommunic ation</w>
Excell ence</w>
over l
Op ening</w>
F é
shi fting</w>
sa x
sc ales</w>
op ens</w>
explo ited</w>
Re habilitation</w>
Bo x</w>
6 0
sha ke</w>
S cha
Mis sions</w>
Bomb ay</w>
me als</w>
de m</w>
simpli fied</w>
sc an
m asses</w>
tre ason</w>
L ou</w>
sw ept</w>
sist ance</w>
mar ched</w>
4 0,000</w>
sm ell</w>
phot ographic</w>
Contr act</w>
in sky</w>
Gr ound</w>
le verage</w>
tak e
gr ass
con sen
Psych ology</w>
Kum ar</w>
Gre at
symb ols</w>
M á
d row
re married</w>
or dering</w>
J al
oc ity</w>
el ly</w>
Fish eries</w>
Car rie</w>
per t</w>
docu ment
vi d</w>
person alities</w>
gi c</w>
Ber m
se aled</w>
fundra ising</w>
cor relation</w>
condem n</w>
B es
to il
sh y</w>
facilit ates</w>
bedro om</w>
e g</w>
Johan n</w>
D res
par ole</w>
dead ly</w>
Sher iff</w>
C ass
ti ary</w>
2. 7</w>
particip ates</w>
le an</w>
anim ation</w>
Su peri
tax pay
moun t</w>
ap p</w>
Mar co</w>
i .</w>
under mining</w>
convinc ing</w>
Govern ors</w>
wi reless</w>
over seeing</w>
z o
deterior ated</w>
anc a</w>
Mah on</w>
H ul
dis agreement</w>
bench mark</w>
micro finance</w>
stream lining</w>
enthusi astic</w>
[...]
