#version: 0.2
2 0
20 0
国 家</w>
委 员
委员 会</w>
会 议</w>
问 题</w>
联 合
1 9
一 个</w>
报 告</w>
联合 国</w>
我 们</w>
组 织</w>
发 展</w>
国 际</w>
工 作</w>
提 供</w>
政 府</w>
方 面</w>
关 于</w>
进 行</w>
以 及</w>
20 1
这 些</w>
包 括</w>
通 过</w>
社 会</w>
情 况</w>
机 构</w>
方 案</w>
其 他</w>
19 9
有 关</w>
他 们</w>
特 别</w>
执 行</w>
行 动</w>
活 动</w>
人 员</w>
没 有</w>
决 议</w>
秘 书
妇 女</w>
安 全</w>
建 议</w>
所 有</w>
公 约</w>
经 济</w>
项 目</w>
人 权</w>
合 作</w>
可 以</w>
需 要</w>
缔 约
工 作
大 会</w>
事 会</w>
规 定</w>
可 能</w>
根 据</w>
理 事会</w>
区 域</w>
儿 童</w>
提 出</w>
权 利</w>
决 定</w>
技 术</w>
1 0</w>
措 施</w>
支 持</w>
1 2</w>
系 统</w>
代 表</w>
必 须</w>
影 响</w>
计 划</w>
管 理</w>
政 策</w>
认 为</w>
法 律</w>
0 0</w>
重 要</w>
要 求</w>
目 标</w>
服 务</w>
一 些</w>
继 续</w>
资 源</w>
保 护</w>
促 进</w>
加 强</w>
秘书 长</w>
研 究</w>
采 取</w>
能 力</w>
和 平</w>
行 为</w>
使 用</w>
努 力</w>
主 要</w>
提 交</w>
1 1</w>
确 保</w>
作 为</w>
主 义</w>
部 分</w>
教 育</w>
缔约 国</w>
因 为</w>
任 何</w>
部 门</w>
美 元</w>
主 席</w>
这 种</w>
建 立</w>
这 个</w>
已 经</w>
注 意</w>
因 此</w>
期 间</w>
如 果</w>
世 界</w>
公 司</w>
中 国</w>
文 件</w>
地 区</w>
举 行</w>
成 员</w>
援 助</w>
先 生</w>
实 现</w>
信 息</w>
草 案</w>
关 系</w>
之 间</w>
审 议</w>
自 己</w>
环 境</w>
参 与</w>
基 金</w>
获 得</w>
这 一</w>
得 到</w>
实 施</w>
增 加</w>
各 国</w>
代 表
领 域</w>
审 查</w>
国 际
表 示</w>
共 和
全 球</w>
开 展</w>
考 虑</w>
相 关</w>
作 用</w>
美 国</w>
武 器</w>
共和 国</w>
其 中</w>
指 出</w>
持 续</w>
有 效</w>
议 程</w>
战 略</w>
一 项</w>
中 心</w>
程 序</w>
讨 论</w>
但 是</w>
开 始</w>
员 国</w>
方 法</w>
由 于</w>
政 治</w>
小 组</w>
资 料</w>
处 理</w>
时 间</w>
支 助</w>
代表 团</w>
协 调</w>
预 算</w>
参 加</w>
及 其</w>
一 步</w>
作 出</w>
发 展
第 二
能 够</w>
正 在</w>
一 种</w>
成 为</w>
同 时</w>
解 决</w>
意 见</w>
什 么</w>
提 高</w>
许 多</w>
工作 人员</w>
人 民</w>
事 务</w>
1 5</w>
方 式</w>
目 前</w>
3 0</w>
2 0</w>
培 训</w>
机 制</w>
特 派
秘书 处</w>
特派 团</w>
法 院</w>
进 一步</w>
它 们</w>
取 得</w>
非 洲</w>
调 查</w>
任 务</w>
条 约</w>
利 用</w>
减 少</w>
说 明</w>
人 口</w>
一 次</w>
不 是</w>
标 准</w>
生 活</w>
制 定</w>
评 估</w>
平 等</w>
确 定</w>
框 架</w>
制 度</w>
不 同</w>
斯 坦</w>
原 则</w>
部 队</w>
发展 中
发展中 国家</w>
具 有</w>
希 望</w>
而 且</w>
200 8</w>
文 化</w>
这 样</w>
各 种</w>
进 程</w>
数 据</w>
目 的</w>
200 5</w>
强 调</w>
机 会</w>
办 法</w>
1 0
现 在</w>
费 用</w>
发 生</w>
分 析</w>
200 6</w>
歧 视</w>
接 受</w>
存 在</w>
工作 组</w>
冲 突</w>
范 围</w>
201 0</w>
为 了</w>
此 外</w>
结 果</w>
1 4</w>
犯 罪</w>
条 件</w>
以 便</w>
最 后</w>
责 任</w>
200 9</w>
地 方</w>
应 当</w>
1 3</w>
应 该</w>
对 于</w>
200 7</w>
发 言</w>
贸 易</w>
缔约 方</w>
是 否</w>
行 政</w>
基 础</w>
必 要</w>
正 式</w>
建 设</w>
1 8</w>
1 6</w>
适 当</w>
企 业</w>
联 盟</w>
200 4</w>
不 能</w>
投 资</w>
进 展</w>
办 事
维 持</w>
家 庭</w>
造 成</w>
按 照</w>
产 生</w>
受 到</w>
办事 处</w>
201 1</w>
自 由</w>
设 立</w>
暴 力</w>
消 除</w>
专 家</w>
会 员国</w>
咨 询</w>
帮 助</w>
就 是</w>
负 责</w>
全 面</w>
并 且</w>
之 后</w>
知 道</w>
市 场</w>
司 法</w>
协 助</w>
200 0</w>
如 何</w>
具 体</w>
2 1</w>
1 7</w>
承 诺</w>
两 个</w>
资 金</w>
共 同</w>
设 施</w>
鼓 励</w>
变 化</w>
做 法</w>
利 亚</w>
办 公
欢 迎</w>
严 重</w>
大 学</w>
各 项</w>
200 3</w>
安 排</w>
第 三
义 务</w>
201 2</w>
形 式</w>
性 别</w>
过 程</w>
用 于</w>
1 9</w>
完 成</w>
2 5</w>
认 识</w>
时 候</w>
充 分</w>
以 色
艾 滋
人 道
人 们</w>
200 2</w>
改 革</w>
涉 及</w>
定 书</w>
监 测</w>
a n
议 定书</w>
一 切</w>
地 位</w>
尤 其</w>
3 1</w>
选 举</w>
事 项</w>
业 务</w>
个 人</w>
这 方面</w>
办公 室</w>
第 十
19 8
日 至</w>
2 2</w>
批 准</w>
挑 战</w>
出 现</w>
基 本</w>
协 定</w>
那 些</w>
银 行</w>
当 局</w>
非 政府</w>
200 1</w>
健 康</w>
例 如</w>
恐 怖
以色 列</w>
2 4</w>
表 明</w>
控 制</w>
规 则</w>
尽 管</w>
介 绍</w>
谈 判</w>
管 理
2 3</w>
法 庭</w>
国 内</w>
利 益</w>
a r
成 果</w>
尼 亚</w>
适 用</w>
巴 勒
采 用</w>
以 来</w>
状 况</w>
仍 然</w>
1 5
以 下</w>
201 3</w>
两 年</w>
第 一
或 者</w>
之 前</w>
改 善</w>
案 件</w>
关 切</w>
关 注</w>
增 长</w>
非 常</w>
虽 然</w>
原 因</w>
收 入</w>
附 件</w>
世 界
开 发
生 产</w>
临 时</w>
直 接</w>
之 一</w>
禁 止</w>
监 督</w>
然 而</w>
报 告
无 法</w>
难 民</w>
一 直</w>
成 功</w>
优 先</w>
评 价</w>
独 立</w>
阿 拉
一 般</w>
社 区</w>
高 级
199 9</w>
2 6</w>
联 合</w>
限 制</w>
报告 员</w>
集 团</w>
发 现</w>
人道 主义</w>
学 校</w>
不 会</w>
2 7</w>
内 容</w>
1 8
保 障</w>
e r
这 项</w>
2 8</w>
立 法</w>
同 意</w>
稳 定</w>
过 去</w>
结 束</w>
o r
因 素</w>
风 险</w>
i n
经 济
这 是</w>
产 品</w>
最 近</w>
积 极</w>
了 解</w>
现 有</w>
导 致</w>
宣 言</w>
防 止</w>
5 0</w>
履 行</w>
0 00</w>
结 构</w>
运 动</w>
总 统</w>
199 8</w>
材 料</w>
加 入</w>
领 土</w>
重 申</w>
需 求</w>
恐怖 主义</w>
事 件</w>
一 致</w>
日 本</w>
一 份</w>
人 类</w>
联 系</w>
打 击</w>
空 间</w>
选 择</w>
全 国</w>
理 会</w>
担 任</w>
1 3
综 合</w>
巴勒 斯坦</w>
请 求</w>
收 到</w>
2 9</w>
经 费</w>
针 对</w>
安 理会</w>
设 计</w>
多 数</w>
学 生</w>
6 0</w>
某 些</w>
土 著</w>
协 议</w>
人 民
国 家
欧 洲</w>
广 泛</w>
规 划</w>
军 事</w>
推 动</w>
承 认</w>
伙 伴</w>
受 害
阶 段</w>
知 识</w>
实 际</w>
划 署</w>
呼 吁</w>
论 坛</w>
只 有</w>
威 胁</w>
程 度</w>
审 计</w>
联合 国
纳 入</w>
指 导</w>
扩 大</w>
准 则</w>
警 察</w>
保 证</w>
有 人</w>
采 取
面 临</w>
危 机</w>
对 话</w>
比 亚</w>
网 络</w>
伊 拉
来 自</w>
遵 守</w>
4 0</w>
定 期</w>
协 商</w>
记 录</w>
制 订</w>
不 过</w>
条 款</w>
发 挥</w>
俄 罗
一 名</w>
完 全</w>
专 员</w>
科 学</w>
城 市</w>
起 来</w>
一 起</w>
进 入</w>
群 体</w>
上 述</w>
一 样</w>
长 期</w>
还 是</w>
你 们</w>
整 个</w>
违 反</w>
经 验</w>
重 点</w>
该 国</w>
核 武器</w>
欧 洲
当 地</w>
达 国家</w>
发 达国家</w>
从 而</w>
重 新</w>
一 级</w>
侵 犯</w>
财 政</w>
符 合</w>
结 论</w>
经 常</w>
准 备</w>
第 四
保 健</w>
年 度</w>
拥 有</w>
预 防</w>
非 法</w>
基 金
不 断</w>
官 员</w>
水 平</w>
合 同</w>
土 地</w>
伙 伴
星 期
更 加</w>
公 共
还 有</w>
裁 军</w>
联 邦</w>
明 确</w>
伊拉 克</w>
伙伴 关系</w>
1 4
设 备</w>
孩 子</w>
e n
2 .
员 额</w>
1 .
助 于</w>
同 样</w>
病 毒</w>
成 员国</w>
确 认</w>
每 个</w>
保 持</w>
公 民</w>
我 国</w>
部 长</w>
1 7
应 对</w>
改 进</w>
开 发</w>
千 年</w>
申 请</w>
贡 献</w>
显 示</w>
未 来</w>
质 量</w>
达 到</w>
201 4</w>
感 到</w>
很 多</w>
做 出</w>
成 立</w>
基 于</w>
观 察
香 港</w>
民 主
专 业</w>
法 官</w>
所 以</w>
内 部</w>
宪 法</w>
恢 复</w>
人 数</w>
就 业</w>
19 7
普 遍</w>
宣 布</w>
工 具</w>
有 助于</w>
1 6
带 来</w>
所 述</w>
给 予</w>
旨 在</w>
下 列</w>
主 任</w>
举 办</w>
环 境
民 主</w>
局 势</w>
解 释</w>
学 习</w>
研 究
行 动
规 模</w>
应 用</w>
社 会
资 产</w>
反 对</w>
文 书</w>
扩 散</w>
协 会</w>
女 士</w>
改 变</w>
种 族
编 写</w>
价 值</w>
现 象</w>
传 统</w>
基金 会</w>
本 国</w>
要 性</w>
落 实</w>
残 疾
倡 议</w>
公 共</w>
第 五
保 留</w>
指 标</w>
看 到</w>
证 明</w>
199 7</w>
宣 传</w>
女 性</w>
刑 事</w>
o n
贩 运</w>
来 说</w>
下 午</w>
缺 乏</w>
受害 者</w>
超 过</w>
条 例</w>
有 些</w>
重 大</w>
那 么</w>
议 会</w>
委 会</w>
武 装
声 明</w>
总 部</w>
境 内</w>
允 许</w>
支 付</w>
民 族</w>
大 量</w>
西 亚</w>
宗 教</w>
反 映</w>
一 位</w>
艾滋 病</w>
调 整</w>
编 制</w>
组 成</w>
最 大</w>
会 议
实 体</w>
理 由</w>
出 口</w>
拘 留</w>
管 制</w>
列 入</w>
万 美元</w>
通 知</w>
手 段</w>
然 后</w>
民 间</w>
访 问</w>
回 顾</w>
十 年</w>
以 上</w>
尊 重</w>
只 是</w>
如 此</w>
数 量</w>
提 到</w>
构 成</w>
农 业</w>
国际 法</w>
享 有</w>
意 义</w>
大 多数</w>
分 配</w>
今 天</w>
领 导</w>
危 险</w>
a t
贫 穷</w>
战 争</w>
实 行</w>
满 足</w>
一 点</w>
金 融
最 终</w>
提 议</w>
能 源</w>
一 定</w>
生 物</w>
亿 美元</w>
另 外</w>
199 6</w>
酷 刑</w>
达 成</w>
a l
后 续</w>
机 关</w>
行动 计划</w>
6 3</w>
卫 生</w>
统 计</w>
行 政
三 个</w>
有 权</w>
困 难</w>
计 划署</w>
一 部分</w>
青 年</w>
签 署</w>
补 充</w>
团 体</w>
法 国</w>
艾滋 病毒</w>
关 键</w>
登 记</w>
英 语</w>
非 正式</w>
喜 欢</w>
单 位</w>
再 次</w>
支 出</w>
治 疗</w>
最 佳</w>
发 表</w>
价 格</w>
美 洲</w>
授 权</w>
一 年</w>
通 常</w>
为 此</w>
亚 洲</w>
权 力</w>
从 事</w>
卫 生
法 律
A d
而 言</w>
基 础
运 输</w>
残疾 人</w>
第 二</w>
属 于</w>
财 务</w>
效 率</w>
印 度</w>
避 免</w>
人 权
协 调
3 5</w>
职 能</w>
媒 体</w>
来 源</w>
在 内</w>
伊 斯
任 命</w>
当 时</w>
采 购</w>
模 式</w>
拟 议</w>
第 一</w>
若 干</w>
森 林</w>
地 点</w>
政 治
生 产
告 诉</w>
证 据</w>
课 程</w>
每 年</w>
历 史</w>
加 拿
感 谢</w>
中 国
第 五</w>
4 5</w>
系 列</w>
损 失</w>
移 民</w>
安 全
修 订</w>
英 国</w>
收 集</w>
不 要</w>
更 好</w>
今 后</w>
甚 至</w>
答 复</w>
事 务
气 候
信 息
尚 未</w>
各 方</w>
财 产</w>
增 强</w>
估 计</w>
5 5</w>
重 要性</w>
外 国</w>
0 %</w>
如 下</w>
提 案</w>
5 7</w>
3 .
成 本</w>
公 开</w>
6 5</w>
几 个</w>
第二 十
核 心</w>
气候 变化</w>
a l</w>
a n</w>
工 业</w>
5 8</w>
199 5</w>
6 1</w>
学 院</w>
创 造</w>
表 现</w>
a s
引 起</w>
交 流</w>
的 话</w>
阿 富
6 7</w>
专 门</w>
朋 友</w>
201 5</w>
加拿 大</w>
比 例</w>
题 为</w>
观察 员</w>
农 村</w>
领 导
以 前</w>
毒 品</w>
日 内
3 3</w>
阿拉 伯</w>
步 骤</w>
5 9</w>
比 较</w>
Ad d</w>
苏 丹</w>
语 言</w>
鉴 于</w>
至 少</w>
相 信</w>
纽 约</w>
4 8</w>
首 脑
拟 订</w>
她 们</w>
寻 求</w>
传 播</w>
统 一</w>
公 众</w>
首脑 会议</w>
其 它</w>
十 分</w>
6 4</w>
阿富 汗</w>
特 殊</w>
金 融</w>
基础 设施</w>
通 信</w>
越 来
e r</w>
部 署</w>
3 2</w>
维 护</w>
常 驻</w>
罪 行</w>
移 徙</w>
干 事</w>
分 别</w>
赔 偿</w>
新 闻</w>
精 神</w>
第 六</w>
自 愿</w>
马 里</w>
时 期</w>
共 同
6 2</w>
体 制</w>
德 国</w>
多 边</w>
加 以</w>
观 点</w>
贸 易
除 了</w>
技 术
网 站</w>
电 话</w>
交 易</w>
主 题</w>
顾 问</w>
自 然
才 能</w>
欧洲 联盟</w>
迅 速</w>
3 4</w>
3 6</w>
债 务</w>
199 4</w>
3 7</w>
越来 越</w>
化 学
不 仅</w>
王 国</w>
里 亚</w>
检 察
5 2</w>
召 开</w>
黎 巴
依 据</w>
重 视</w>
体 系</w>
数 据
予 以</w>
身 份</w>
5 3</w>
敦 促</w>
运 作</w>
宪 章</w>
东 西</w>
商 业</w>
5 1</w>
高 级</w>
不 得</w>
依 照</w>
似 乎</w>
4 .
概 念</w>
理 解</w>
邀 请</w>
职 业</w>
真 正</w>
i s
商 定</w>
黎巴 嫩</w>
双 方</w>
良 好</w>
6 6</w>
趋 势</w>
障 碍</w>
此 类</w>
公 平</w>
o n</w>
4 9</w>
首 先</w>
医 疗</w>
5 4</w>
父 亲</w>
服 务
高级 专员</w>
律 师</w>
1 00</w>
定 义</w>
核 准</w>
5 6</w>
反 应</w>
检 查</w>
人 士</w>
计 算</w>
预 期</w>
失 所</w>
承 担</w>
外 交
流 离
流离 失所</w>
a m
纲 领</w>
开发 计划署</w>
一 般
指 控</w>
职 位</w>
死 亡</w>
学 家</w>
训 练</w>
贸 发</w>
年 人</w>
性 质</w>
解 决
预 计</w>
工 人</w>
这 里</w>
愿 意</w>
举 措</w>
立 即</w>
多 样
第 六
俄罗 斯</w>
遭 受</w>
力 量</w>
事 情</w>
世 纪</w>
数 字</w>
离 开</w>
那 个</w>
合 作
日内 瓦</w>
粮 食</w>
最 高</w>
背 景</w>
几 乎</w>
武 装</w>
物 质</w>
磋 商</w>
日 期</w>
新 闻
母 亲</w>
司 法
居 民</w>
3 9</w>
索 赔</w>
西 班
降 低</w>
形 成</w>
随 着</w>
3 8</w>
事 实</w>
非 洲
灾 害</w>
拒 绝</w>
很 大</w>
执 行
4 6</w>
找 到</w>
贫 困</w>
下 降</w>
类 似</w>
与 会
北 京</w>
两 性</w>
平 民</w>
家 庭
199 3</w>
全 部</w>
o u
发 出</w>
开发 署</w>
阿 尔
出 席</w>
实 质
4 4</w>
i c
这 次</w>
资 助</w>
辩 论</w>
疾 病</w>
上 诉</w>
探 讨</w>
工 程
转 让</w>
私 营
随 后</w>
住 房</w>
上 午</w>
指 定</w>
后 来</w>
4 1</w>
阿拉 伯
主 管</w>
采取 行动</w>
工 程</w>
4 7</w>
当 前</w>
名 单</w>
以 后</w>
飞 机</w>
实质 性</w>
详 细</w>
占 领</w>
容 易</w>
破 坏</w>
讲 习
小 时</w>
专 家
生 效</w>
经 过</w>
出 来</w>
4 2</w>
诉 讼</w>
药 物</w>
捐 款</w>
澳 大
清 单</w>
之 外</w>
比 赛</w>
明 显</w>
不 可</w>
行 使</w>
高级 别</w>
女 孩</w>
那 样</w>
一 系列</w>
全 球
与会 者</w>
那 里</w>
决 策</w>
古 巴</w>
i t
起 诉</w>
损 害</w>
发 言
及 时</w>
6 8</w>
竞 争</w>
电 子</w>
主 义
捐 助</w>
视 为</w>
电 影</w>
特 定</w>
公 正</w>
4 3</w>
海 洋</w>
5 %</w>
少 数</w>
接 触</w>
讲习 班</w>
力 于</w>
刑 事
致 力于</w>
待 遇</w>
第 一次</w>
5 .
e l
往 往</w>
领导 人</w>
本 身</w>
足 够</w>
199 0</w>
劳 动
生 命</w>
财 务
所 作</w>
各 级</w>
审 判</w>
研究 所</w>
专 题</w>
2 7
理 论</w>
2 8
基 本
会议 室</w>
专家 组</w>
私营 部门</w>
至 关
一般 性</w>
紧 急</w>
虐 待</w>
适 应</w>
加 勒
太 平
第 三</w>
意 识</w>
修 改</w>
为 什么</w>
处 于</w>
福 利</w>
合 理</w>
评 论</w>
意 味
预 防
至关 重要</w>
赞 赏</w>
父 母</w>
少 年</w>
实 际
难 民
不 足</w>
觉 得</w>
复 杂</w>
截 至</w>
意味 着</w>
6 .
大 约</w>
监 狱</w>
不 到</w>
分 子</w>
澳大 利亚</w>
最 新</w>
压 力</w>
墨 西
平 衡</w>
国际 公约</w>
有 限</w>
职 责</w>
即 使</w>
联合 王国</w>
此 种</w>
任 择</w>
巨 大</w>
一 下</w>
遭 到</w>
大 部分</w>
立 场</w>
唯 一</w>
以 外</w>
妇 女
一 条</w>
年 龄</w>
i l
二 十
专 门
试 验</w>
委 员</w>
侵 害</w>
停 止</w>
用 户</w>
研 讨
多 年</w>
6 9</w>
大 规模</w>
兴 趣</w>
不 可
数 目</w>
今 年</w>
研讨 会</w>
筹 资</w>
腐 败</w>
外 地</w>
俄罗 斯
男 子</w>
中 央</w>
事 实
地 雷</w>
2 9
索 马里</w>
所 涉</w>
最 好</w>
统 计
电 子
欧 盟</w>
全 体
0 .
贷 款</w>
筹 备</w>
令 人
未 能</w>
助 理</w>
相 互</w>
工作 队</w>
状 态</w>
相 同</w>
保 险</w>
打 算</w>
原 子
也 许</w>
意 大
资 格</w>
货 物</w>
人权 委员会</w>
信 托</w>
年 代</w>
下 来</w>
巴 西</w>
商 品</w>
各 地</w>
食 物</w>
e s
数 额</w>
官 方</w>
而 是</w>
主 权</w>
调 查
一 天</w>
台 湾</w>
治 理</w>
暴 力
太平 洋</w>
土 耳
令 人</w>
攸 关</w>
结 合</w>
创 新</w>
科 索
制 裁</w>
表 决</w>
武装 冲突</w>
不 再</w>
增 进</w>
平 均</w>
清 楚</w>
科索 沃</w>
维 亚</w>
自 然</w>
民主 共和国</w>
行 业</w>
各 自</w>
救 济</w>
计 算
开 放</w>
攻 击</w>
返 回</w>
多样 性</w>
技 能</w>
投 票</w>
印 度
在 于</w>
是 因为</w>
后 果</w>
他 人</w>
各 个</w>
满 意</w>
7 0</w>
来 文</w>
人 力
当 然</w>
延 长</w>
医 生</w>
申 诉</w>
墨西 哥</w>
汽 车</w>
公 布</w>
享 受</w>
全体 会议</w>
销 售</w>
大 家</w>
日 益</w>
加勒 比</w>
过 渡</w>
科 威
岛 屿</w>
效 果</w>
态 度</w>
e s</w>
实际 上</w>
巴 基
供 应</w>
主 持</w>
199 2</w>
种 族</w>
利 于</w>
账 户</w>
所 载</w>
获 取</w>
袭 击</w>
类 型</w>
供 资</w>
启 动</w>
教 育
8 0</w>
总 是</w>
便 利</w>
报 道</w>
维 也
拉 丁
对 此</w>
捐 助
维也 纳</w>
信 任</w>
教 授</w>
怎 么</w>
预 测</w>
途 径</w>
修 正</w>
卢 旺
候 选
C N</w>
医 院</w>
检察 官</w>
刚 果
规 范</w>
俄罗斯 联邦</w>
将 会</w>
军 队</w>
提 及</w>
7 7</w>
卢旺 达</w>
劳 动</w>
20 0</w>
第 七
集 中</w>
儿 子</w>
更 新</w>
方 向</w>
法 治</w>
事实 上</w>
使 得</w>
变 得</w>
重 建</w>
意大 利</w>
包 含</w>
流 动</w>
和 平
放 在</w>
制 造</w>
判 决</w>
本 文</w>
通 报</w>
相 当</w>
犯 罪
私 人</w>
效 力</w>
巴基 斯坦</w>
之 下</w>
主 席
埃 及</w>
分 发</w>
西班 牙</w>
安 保</w>
表 达</w>
积 极
投 入</w>
道 路</w>
拉丁 美洲</w>
一 届</w>
为 止</w>
首 次</w>
r i
高 兴</w>
土耳 其</w>
作 品</w>
国 民</w>
议 员</w>
用 途</w>
第五 十
转 移</w>
十 二
c h
三 年</w>
展 开</w>
科威 特</w>
国 籍</w>
伊斯 兰
初 步</w>
候选 人</w>
o l
资 本</w>
劳 工</w>
依 然</w>
看 法</w>
关 键
出 版</w>
指 南</w>
试 图</w>
每 天</w>
方 针</w>
这 么</w>
外 部</w>
199 1</w>
仅 仅</w>
数据 库</w>
协调 员</w>
or g</w>
种族 歧视</w>
5 00</w>
起 草</w>
污 染</w>
人力 资源</w>
美 国
供 应
查 明</w>
9 0</w>
中 华
刚果 民主共和国</w>
秘 书</w>
简 单</w>
废 物</w>
经 营</w>
发 布</w>
模 型</w>
功 能</w>
音 乐</w>
之 中</w>
残 疾</w>
一 家</w>
工 发</w>
正 常</w>
出 版
遗 憾</w>
密 切
子 女</w>
提 请</w>
动 物</w>
一 方面</w>
制 作</w>
观 察</w>
执行 局</w>
正 如</w>
我 要</w>
错 误</w>
毕 业</w>
特 点</w>
心 理</w>
只 要</w>
提 供
7 .
不 利</w>
旅 行</w>
当 事
采取 措施</w>
主席 团</w>
教 师</w>
逮 捕</w>
消 费
达 尔
可 能
总 体</w>
回 答</w>
a d
坚 持</w>
斯 坦
化学 品</w>
时 代</w>
期 限</w>
工 资</w>
客 户</w>
投 资
成 绩</w>
南 非</w>
上 升</w>
相 对</w>
曾 经</w>
议 事
自 由
组 成
组成 部分</w>
额 外</w>
总 额</w>
战 略
协 作</w>
人民 共和国</w>
有 时</w>
卫 星</w>
i n</w>
节 目</w>
全 世界</w>
利 比
经 历</w>
主 流</w>
海 洋
差 异</w>
争 取</w>
透 明
剥 夺</w>
利比 里亚</w>
国 民
附 属</w>
指 示</w>
百 分
哥 伦
难民 署</w>
分 享</w>
军 事
显 然</w>
u n
层 面</w>
瑞 士</w>
最 低</w>
位 置</w>
电 视</w>
可能 性</w>
记 者</w>
建 筑</w>
于 是</w>
第 四</w>
维 和</w>
国家 一级</w>
殖 民
富 尔</w>
裁 决</w>
进 步</w>
居 住</w>
哪 些</w>
议事 规则</w>
第二 次</w>
强 迫</w>
速 度</w>
只 能</w>
男 女</w>
民 众</w>
核 查</w>
达尔 富尔</w>
爱 尔
前 往</w>
所 有人</w>
r e
当 选</w>
酌 情</w>
财 政
竞 争
上 海</w>
相 互
更 为</w>
直 到</w>
7 3</w>
全球 化</w>
语 文</w>
成 就</w>
身 体</w>
双 边</w>
思 想</w>
区 域
干 预</w>
差 距</w>
相 应</w>
并 非</w>
感 觉</w>
规 划署</w>
第 一个</w>
基 地</w>
订 正</w>
男 性</w>
暴力 行为</w>
法 规</w>
中 期</w>
保 护
海 地</w>
第三 十
伤 害</w>
现 金</w>
斯 拉
事务 部</w>
因 而</w>
外 交</w>
正 确</w>
分 钟</w>
五 年</w>
多 少</w>
叙 利亚</w>
尼 日
报 表</w>
证 书</w>
种族 主义</w>
合 众
民 国</w>
现 代</w>
共同 体</w>
担 心</w>
妇女 地位</w>
透明 度</w>
法 案</w>
r o
爱尔 兰</w>
食 品</w>
事 业</w>
美 利
有 利于</w>
雇 员</w>
进 口</w>
测 试</w>
u n</w>
石 油</w>
多 个</w>
面 前</w>
有 所</w>
载 有</w>
法 令</w>
集 体</w>
特 设</w>
任 期</w>
得 以</w>
颁 布</w>
派 遣</w>
现 行</w>
执 法</w>
年 底</w>
女 童</w>
职 务</w>
地 球</w>
常 设</w>
国 人</w>
美利 坚
取 消</w>
美利坚 合众
位 于</w>
付 款</w>
肯 定</w>
中 东</w>
道 德</w>
剥 削</w>
中 央
3 0
回 到</w>
气 候</w>
面 对</w>
购 买</w>
三 届</w>
赞 扬</w>
诉 人</w>
电 视
艺 术</w>
担 保</w>
伊 朗</w>
决 心</w>
遇 到</w>
团 结</w>
妻 子</w>
加 拉
边 界</w>
相 比</w>
津 贴</w>
8 .
几 内
阿 根
克 斯坦</w>
C O
分 类</w>
工程 处</w>
命 令</w>
确 实</w>
公 务
补 救</w>
平 台</w>
共 识</w>
处 罚</w>
群 岛</w>
解决 办法</w>
次 级</w>
货 币</w>
去 年</w>
合 并</w>
青 少年</w>
容 忍</w>
动 员</w>
合 法</w>
车 辆</w>
四 个</w>
失 踪</w>
现 实</w>
完 整</w>
证 实</w>
总 理</w>
后 勤</w>
R e
潜 在</w>
充 分
美利坚合众 国</w>
软 件</w>
特 征</w>
原子 能</w>
根 本</w>
1 2
燃 料</w>
出 生</w>
迪 瓦</w>
代 理</w>
具 体
拟 定</w>
角 色</w>
非洲 联盟</w>
科 特
有 力</w>
防 治</w>
o m
科特 迪瓦</w>
粮 食
免 费</w>
作 出
尽 可能</w>
死 刑</w>
独 立
预防 犯罪</w>
单 独</w>
科 技</w>
附 近</w>
以 期</w>
弹 药</w>
放 弃</w>
实 践</w>
即 将</w>
逐 步</w>
荷 兰</w>
体 现</w>
环境 署</w>
南 部</w>
切 实</w>
和 解</w>
仲 裁</w>
r a
人 力</w>
球 队</w>
称 为</w>
几 年</w>
严 格</w>
阻 碍</w>
替 代</w>
印度 尼
用 来</w>
业 绩</w>
年 来</w>
开 支</w>
w w
世界 银行</w>
阁 下</w>
赋 予</w>
南 斯拉
9 .
不 得
别 人</w>
t h
利 亚
合作 伙伴</w>
推 广</w>
装 置</w>
不 久</w>
释 放</w>
紧 急
减 轻</w>
除 非</w>
e n</w>
适 合</w>
上 文</w>
场 所</w>
透 明</w>
部 长
高 度</w>
年 轻</w>
快 速</w>
失 去</w>
续 性</w>
克 兰</w>
密 切</w>
挪 威</w>
制 止</w>
ww w</w>
结 婚</w>
个 月</w>
常 常</w>
自 身</w>
申 诉人</w>
大 楼</w>
监 管</w>
家庭 暴力</w>
寻 找</w>
对 象</w>
大 使</w>
公务 员</w>
筹 措</w>
参 考</w>
诸 如</w>
想 要</w>
推 进</w>
回 应</w>
案 文</w>
惩 罚</w>
定 性</w>
议 题</w>
可 是</w>
自 治</w>
无 论</w>
消 息</w>
高 专</w>
帝 汶</w>
储 存</w>
刑 法</w>
出版 物</w>
永 远</w>
科 学
7 5</w>
认 可</w>
瑞 典</w>
消 费</w>
排 放</w>
强 烈</w>
一 旦</w>
阿根 廷</w>
婚 姻</w>
人道 主义
人道主义 法</w>
书 记</w>
男 人</w>
东 帝汶</w>
以 往</w>
争 端</w>
调 动</w>
人 物</w>
女 人</w>
突 出</w>
系 统
阐 述</w>
同 年</w>
塞 拉
效 益</w>
装 备</w>
类 别</w>
会 计
赞 同</w>
同 一</w>
角 度</w>
吁 请</w>
争 议</w>
文 章</w>
印度尼 西亚</w>
危 害</w>
反 恐</w>
融 资</w>
I I</w>
计 数</w>
利 昂</w>
公 民
管 辖</w>
第四 十
新 西
资 源
申 请
年 度
决 于</w>
取 决于</w>
意 思</w>
埃 塞
普 通</w>
运 行</w>
协 商
可 靠</w>
促 使</w>
跨 国</w>
描 述</w>
死 亡
国 务
塞拉 利昂</w>
很 快</w>
埃塞 俄
3 00</w>
声 称</w>
证 人</w>
星 期</w>
英 文</w>
混 合</w>
罗 马</w>
吸 引</w>
谴 责</w>
摘 要</w>
审 理</w>
真 的</w>
教 训</w>
u s
家 人</w>
生 态
斗 争</w>
漠 化</w>
控 制
周 期</w>
表 示
主 管
一 场</w>
日 起</w>
7 2</w>
乌 克兰</w>
涵 盖</w>
例 子</w>
提 名</w>
预 算
整 体</w>
联合 会</w>
发 起</w>
实 验</w>
四 年</w>
未 经</w>
布 隆
生 于</w>
示 范</w>
建 筑
该 项</w>
小 岛屿</w>
巩 固</w>
药 品</w>
还 要</w>
a b
四 届</w>
变 成</w>
图 书
更 大</w>
融 入</w>
感 染</w>
手 册</w>
R C</w>
估 计数</w>
故 事</w>
u r
并 未</w>
概 述</w>
旅 游</w>
葡 萄
确 立</w>
a c
款 项</w>
建 设
依 赖</w>
妨 碍</w>
C h
怎 样</w>
修 正
不得 不</w>
值 得</w>
哥伦 比亚</w>
显 著</w>
少 数
教 科
丈 夫</w>
伦 敦</w>
联 网</w>
最 初</w>
波 斯
员 工</w>
武装 部队</w>
最 高
一 套</w>
任 何
重 返</w>
主 张</w>
荒 漠化</w>
摩 洛
物 品</w>
自然 资源</w>
难 以</w>
全 体</w>
投资 者</w>
名 字</w>
1 %</w>
高 等
族 裔</w>
修正 案</w>
塞 浦
塞浦 路
中 有</w>
促 请</w>
与 此
负 担</w>
新西 兰</w>
失 败</w>
细 胞</w>
巴 黎</w>
声 音</w>
层 空间</w>
外 层空间</w>
两 次</w>
北 部</w>
e t
加 沙</w>
图书 馆</w>
7 4</w>
庇 护</w>
冠 军</w>
受 理</w>
知 识
管 辖
一 道</w>
信 仰</w>
商 业
书 面</w>
与 其</w>
大 陆</w>
埃塞俄 比亚</w>
意 愿</w>
观 念</w>
at i
消费 者</w>
细 则</w>
可 行</w>
死亡 率</w>
第 九
注 重</w>
建 造</w>
管理 局</w>
泰 国</w>
无 核武器</w>
马 来
政治 权利</w>
运 用</w>
赢 得</w>
C C
恶 化</w>
体 化</w>
具 备</w>
怀 疑</w>
劳动 力</w>
公共 部门</w>
市 场
捐助 者</w>
产 权</w>
终 止</w>
多 次</w>
政 党</w>
生 殖</w>
自 我</w>
阿尔 及
信 贷</w>
菲 律
2 %</w>
教 学</w>
七 届</w>
滥 用</w>
有 着</w>
尽 快</w>
3 %</w>
两 种</w>
受害 人</w>
正 是</w>
期 待</w>
波斯 尼亚</w>
情 报</w>
一 体化</w>
逐 渐</w>
听 到</w>
小 型</w>
监 禁</w>
脆 弱</w>
相 反</w>
衡 量</w>
看 见</w>
工 业
加 快</w>
痛 苦</w>
专门 机构</w>
参 与
准 确</w>
7 1</w>
八 届</w>
交 换</w>
五 届</w>
机 场</w>
期 望</w>
摩洛 哥</w>
掌 握</w>
斯 洛
指 数</w>
志 愿
列 出</w>
行 预</w>
会 计</w>
女 儿</w>
空 缺</w>
论 会</w>
A C</w>
持 久</w>
翻 译</w>
秩 序</w>
尼 斯</w>
信息 技术</w>
很 少</w>
菲律 宾</w>
革 命</w>
照 顾</w>
清 洁</w>
人 口
澄 清</w>
特 性</w>
阿 塞
阻 止</w>
想 法</w>
事 故</w>
男 孩</w>
至 于</w>
产 出</w>
尼日 利亚</w>
负 责
患 者</w>
阿塞 拜
经 理</w>
奥 地
生 物
询 问</w>
利 比亚</w>
分 摊</w>
本 次</w>
第三 次</w>
交 通</w>
马来 西亚</w>
C E
过 境</w>
要 素</w>
登 记
加 上</w>
定 于</w>
注 册</w>
检 查
驱 逐</w>
习 惯</w>
共 有</w>
已 有</w>
创 建</w>
海 关</w>
引 渡</w>
克 罗
立 法
布隆 迪</w>
a y
将 军</w>
早 期</w>
职 业
民 族
雇 主</w>
操 作</w>
部长 级</w>
月 份</w>
潜 力</w>
简 要</w>
管辖 权</w>
电 脑</w>
主 动</w>
设 置</w>
界 定</w>
核 裁军</w>
就 此</w>
o s
供应 商</w>
格 鲁
低 于</w>
推 出</w>
设 法</w>
自 动</w>
e l</w>
有 所
实 地</w>
8 7</w>
优 势</w>
年度 报告</w>
伊 朗
7 6</w>
蒙 特
彻 底</w>
大 型</w>
讲 话</w>
人 居</w>
飞 行</w>
尼 亚
征 聘</w>
对 待</w>
被 告</w>
欧 元</w>
塞 尔</w>
上 帝</w>
6 %</w>
讨 论会</w>
韩 国</w>
宗 旨</w>
合 法
关 心</w>
5 0
听 取</w>
警 察
所 谓</w>
咨 询
名 义</w>
e d</w>
设 想</w>
士 兵</w>
任 意</w>
好 处</w>
看 来</w>
两 项</w>
政 府
气 体</w>
使 用
老 年人</w>
农 民</w>
应 急</w>
两 名</w>
一 半</w>
许 可</w>
格鲁 吉
巴勒 斯坦
i r
下 文</w>
完 善</w>
组 合</w>
赞 成</w>
7 %</w>
恤 金</w>
发 行</w>
小 学</w>
希 腊</w>
认 真</w>
南斯拉 夫</w>
前 景</w>
A l
取 代</w>
丰 富</w>
7 8</w>
乌 干
足 以</w>
伊斯 兰</w>
就 业
推 迟</w>
一 致
年 轻
4 %</w>
连 续</w>
这 位</w>
薪 金</w>
奥地 利</w>
少数 民族</w>
克 服</w>
许 可
生 育</w>
多 种</w>
与此 同时</w>
广 告</w>
h t
计算 机</w>
i m
有 利</w>
限 于</w>
植 物</w>
乌干 达</w>
发言 者</w>
拨 款</w>
医 疗
减 贫</w>
特 别
经 委会</w>
a r</w>
金融 机构</w>
出 于</w>
检 测</w>
重 复</w>
格鲁吉 亚</w>
豁 免</w>
中 学</w>
互 动</w>
8 3</w>
监 察
护 理</w>
阿尔及 利亚</w>
或 是</w>
国 防
东 道
培 养</w>
卫生 组织</w>
u l
著 名</w>
深 入</w>
联 络</w>
受 益</w>
财务 报表</w>
五 个</w>
有 效
或 许</w>
学 会</w>
纪 念</w>
工 会</w>
提供 援助</w>
批 评</w>
退 休</w>
一 只</w>
新 加
销 毁</w>
许可 证</w>
8 %</w>
考 试</w>
解 放
下 去</w>
我 会</w>
有 限
告 知</w>
化 学</w>
警 方</w>
谅 解</w>
教科 文
体 育</w>
安 装</w>
规 约</w>
伊斯兰 共和国</w>
周 年</w>
案 例</w>
全 国
本 人</w>
教科文 组织</w>
U N
刚 果</w>
共 计</w>
惯 例</w>
持 续性</w>
世界 各地</w>
. .
8 5</w>
特 里亚</w>
约 翰</w>
西 非</w>
收 益</w>
公民 权利</w>
敏 感</w>
8 1</w>
外 勤</w>
裁 军
裁军 谈判</w>
一 方</w>
正 规</w>
将 来</w>
补 偿</w>
4 00</w>
通 讯</w>
发 放</w>
夫 人</w>
国 内
排 除</w>
丹 麦</w>
拉 圭</w>
口 头</w>
缅 甸</w>
交 通
会 上</w>
7 9</w>
塞 尔
总 数</w>
一 件</w>
香 港
不 够</w>
提 醒</w>
成 年人</w>
保 险
朝 鲜
比 如</w>
外 国人</w>
应 付</w>
厄 立
厄立 特里亚</w>
首 席</w>
现 代
削 减</w>
游 戏</w>
I n
兄 弟</w>
邮 件</w>
阿塞拜 疆</w>
事 先</w>
任 职</w>
肯 尼亚</w>
哈 拉</w>
作 业</w>
8 2</w>
补 贴</w>
初 级</w>
波 兰</w>
方 便</w>
S h
保 存</w>
人 道</w>
货 币
出 售</w>
男 女
建设 性</w>
衣 服</w>
改 为</w>
黑 塞
用 品</w>
情 形</w>
忘 录</w>
备 忘录</w>
产 业</w>
性 能</w>
马 拉</w>
年轻 人</w>
遵 循</w>
爆 炸</w>
否 则</w>
看 看</w>
这 份</w>
8 6</w>
新闻 部</w>
国 王</w>
眼 睛</w>
突 然</w>
叙 利亚
8 8</w>
动 力</w>
东道 国</w>
经济 体</w>
决 策
耶 路
本 届</w>
密切 合作</w>
耶路 撒
培 训
测 量</w>
百分 比</w>
病 人</w>
无 论
格 兰</w>
陈 述</w>
遣 队</w>
时 间
名 称</w>
N F</w>
来 到</w>
玻 利
尊 严</w>
8 4</w>
塞浦路 斯</w>
分 布</w>
耶路撒 冷</w>
智 利</w>
加 速</w>
老 师</w>
黑塞 哥
快 乐</w>
最高 法院</w>
黑塞哥 维
黑塞哥维 那</w>
航 空</w>
失 业</w>
9 6</w>
为 期</w>
备 选</w>
比 利
理 想</w>
提 高
当 中</w>
每 月</w>
4 0
文 化
明 白</w>
囚 犯</w>
紧 张</w>
晚 上</w>
演 员</w>
爆 发</w>
新加 坡</w>
始 终</w>
此 后</w>
以 此</w>
9 5</w>
短 期</w>
e m
独 特</w>
201 6</w>
人 格</w>
人 人</w>
信 心</w>
继 承</w>
策 略</w>
提 升</w>
e c
秘 密</w>
缺 少</w>
9 8</w>
绝 对</w>
关 联</w>
普 遍
加 剧</w>
身 上</w>
伊朗 伊斯兰共和国</w>
发 射</w>
各 类</w>
学 位</w>
四 条</w>
负责 人</w>
a g
共 体</w>
十 一届</w>
认 定</w>
正 义</w>
来 看</w>
推 行</w>
中华 人民共和国</w>
9 7</w>
球 员</w>
废 除</w>
海 外</w>
限 度</w>
房 间</w>
转 变</w>
9 2</w>
联 络
妈 妈</w>
互 联网</w>
受 伤</w>
营 养</w>
a k
阿拉伯 叙利亚
阿拉伯叙利亚 共和国</w>
房 子</w>
共 产
9 3</w>
金 属</w>
联 赛</w>
公 里</w>
精 神
支 援</w>
印 发</w>
i d
强 制
6 00</w>
暂 停</w>
西 方</w>
渔 业</w>
撒 哈拉</w>
价 值
不 论</w>
个 人
以 为</w>
有 用</w>
后 者</w>
杂 志</w>
a h</w>
生态 系统</w>
第四 次</w>
科 学家</w>
i a</w>
卖 淫</w>
其 后</w>
约 束
工作 者</w>
移 交</w>
名 额</w>
科 技
审 计
积极 参与</w>
运 会</w>
国务 院</w>
被 迫</w>
克罗 地
柬 埔
安 置</w>
9 9</w>
近 东</w>
康 复</w>
信息 系统</w>
恐 怖</w>
主 办</w>
198 9</w>
第二 个</w>
任何 人</w>
博 士</w>
观察 团</w>
9 1</w>
不 管</w>
某 种</w>
说 法</w>
感 兴趣</w>
经 验
接 近</w>
协商 一致</w>
粮 农
粮农 组织</w>
设 在</w>
形 势</w>
强 化</w>
当事 人</w>
旅 游
9 4</w>
朝 鲜</w>
非 常
裁 定</w>
越 南</w>
近 年来</w>
全 面
导 弹</w>
8 9</w>
基 准</w>
等 待</w>
随 时</w>
如 今</w>
距 离</w>
必 要
分 之一</w>
婴 儿</w>
国 外</w>
领 袖</w>
内 罗
问 责
汇 编</w>
六 届</w>
国际 法庭</w>
另 一方面</w>
公 路</w>
t i
足 球</w>
内罗 毕</w>
连 接</w>
充 足</w>
大 韩
大韩 民国</w>
回 来</w>
获 悉</w>
和 华</w>
工 艺</w>
交 付</w>
生 存</w>
地 震</w>
京 都</w>
in g</w>
耶 和华</w>
驻 地</w>
配 置</w>
缔 结</w>
雇 用</w>
有 害</w>
劳 工
尼 泊
据 称</w>
国 会</w>
签 名</w>
融 合</w>
可 持续性</w>
投 诉</w>
演 出</w>
其 他人</w>
极 大</w>
会计 准则</w>
得 出</w>
去 世</w>
职 等</w>
决 赛</w>
重 大
配 合</w>
总 结</w>
扩 展</w>
Re v</w>
关 闭</w>
文 本</w>
重 于</w>
志愿 人员</w>
下 面</w>
芬 兰</w>
先 前</w>
特 遣队</w>
实 验
董 事会</w>
汇 率</w>
着 手</w>
年 间</w>
几内 亚</w>
到 达</w>
调 解</w>
绿 色</w>
毁 灭
签 订</w>
持 有</w>
渠 道</w>
所 属</w>
资源 管理</w>
约束 力</w>
a s</w>
指 挥
毁灭 性</w>
照 片</w>
分 庭</w>
格 式</w>
联 邦
加 工</w>
坚 定</w>
表 面</w>
问责 制</w>
M ar
孟 加拉
文 明</w>
约 旦</w>
移 动</w>
毫 无
航 空
198 8</w>
动 态</w>
成 效</w>
变 革</w>
毛 里
附 加</w>
所 列</w>
巴 布
自然 灾害</w>
发言 人</w>
星期 一</w>
中国 政府</w>
留 下</w>
比 率</w>
星期 五</w>
召 集</w>
S t
职 人员</w>
缺 陷</w>
白 俄罗斯</w>
指 挥</w>
协 同</w>
空 气</w>
房 屋</w>
幸 福</w>
表 格</w>
效 应</w>
依 靠</w>
引 发</w>
有限 公司</w>
第一 届</w>
比利 时</w>
o v
私 营</w>
这 场</w>
管理 人员</w>
内 陆</w>
探 索</w>
工 厂</w>
不 应</w>
面 积</w>
处 境</w>
企 图</w>
的 确</w>
编 辑</w>
亚 太
谈 会</w>
现 场</w>
9 %</w>
么 样</w>
财 富</w>
活 性</w>
时间 表</w>
手 术</w>
至 今</w>
复 员</w>
共 享</w>
198 0</w>
质 疑</w>
国际 贸易</w>
间 接</w>
不 想</w>
强 大</w>
危 地
亚 美
季 度</w>
现 状</w>
安 哥
严 重
奥 运会</w>
灵 活</w>
充 满</w>
孟加拉 国</w>
邻 国</w>
秘 鲁</w>
动 机</w>
一 国</w>
知识 产权</w>
何 种</w>
穷 人</w>
概 算</w>
看 起来</w>
重 新
委 内
委内 瑞
历 史
e d
文 学</w>
有 罪</w>
里 兰
核 定</w>
过 渡
高 于</w>
反 腐败</w>
参 数</w>
专门 知识</w>
承 包
性 暴力</w>
首 长</w>
a h
事 态</w>
警 告</w>
拉 斯</w>
制 造
做 到</w>
内 部
金 额</w>
周 围</w>
左 右</w>
余 额</w>
那 种</w>
缓 解</w>
入 侵</w>
区 别</w>
繁 荣</w>
外交 部</w>
众 多</w>
产 妇</w>
作 者</w>
持 久
艺 术
行政 当局</w>
斯 特</w>
信 号</w>
坚 决</w>
转 型</w>
武 力</w>
尝 试</w>
极 为</w>
阅 读</w>
网 上</w>
上 空</w>
法 定</w>
罗 马
多 尔</w>
201 7</w>
其 实</w>
合 适</w>
强 奸</w>
杀 害</w>
不 人道</w>
开 幕</w>
沟 通</w>
说 话</w>
南 南
边 境</w>
固 定</w>
保 持
南南 合作</w>
幅 度</w>
遗 产</w>
0 0
过 来</w>
海洋 法</w>
专 辑</w>
坐 在</w>
汇 报</w>
贸易 法</w>
克 斯</w>
处 决</w>
跟 踪</w>
创 作</w>
克罗地 亚</w>
十二 届</w>
删 除</w>
地 带</w>
专 业
o r</w>
合 物</w>
总 值</w>
小 说</w>
一 张</w>
政 权</w>
出 去</w>
标 志</w>
单 方面</w>
农 业
an d</w>
国际 法院</w>
突 尼斯</w>
各 位</w>
年 初</w>
S R</w>
社会 保障</w>
筹 备
C or
普 通
退 化</w>
单 一</w>
反 对
s t
运 动员</w>
基 督
所 在</w>
结 构
怀 孕</w>
罪 犯</w>
纲 要</w>
负 债</w>
诊 断</w>
披 露</w>
厄 瓜
各 项
增 长
委内瑞 拉</w>
元 首</w>
之 内</w>
循 环</w>
此 项</w>
法 行为</w>
俱 乐
审 评</w>
柬埔 寨</w>
守 则</w>
援 助
拖 延</w>
o f</w>
可 用</w>
授 予</w>
处 置</w>
法 语</w>
定 居
极 端</w>
丧 失</w>
排 雷</w>
级 别</w>
俱乐 部</w>
监 督
忽 视</w>
容 性</w>
巴勒斯坦 人</w>
骚 扰</w>
论 文</w>
斯 里兰
危地 马拉</w>
某 个</w>
暂 时</w>
麻 醉
大 幅</w>
尼泊 尔</w>
等 等</w>
绩 效</w>
有 益</w>
作 家</w>
残 忍</w>
竞争 力</w>
能 否</w>
上 面</w>
结 果
蒙 古</w>
法 典</w>
订 立</w>
a v
安哥 拉</w>
A b
西班 牙
其 余</w>
愿 望</w>
不 少</w>
不 良</w>
多 地</w>
偿 还</w>
南 亚</w>
塞尔 维亚</w>
斯里兰 卡</w>
现代 化</w>
地 理</w>
自 从</w>
实 质</w>
明 天</w>
帐 户</w>
时 刻</w>
出 任</w>
个 别</w>
刺 激</w>
各 个
u m
展 示</w>
简 化</w>
必 要性</w>
终 于</w>
卡 塔
决 权</w>
失 业
大 不
前 提</w>
过 度</w>
倾 向</w>
广 播</w>
分 列</w>
音 乐
假 设</w>
10 00</w>
人 群</w>
流 行</w>
形 象</w>
南 方</w>
空 中</w>
转 递</w>
i g
中 共</w>
战 斗</w>
电 台</w>
东 部</w>
议 院</w>
洗 钱</w>
直 至</w>
本 地</w>
遣 返</w>
轻 武器</w>
档 案</w>
指 导
领 空</w>
自 治
这 类</w>
监 察</w>
期 内</w>
利 率</w>
协调 一致</w>
索 赔
很 难</w>
爆 炸
第十 二
每 次</w>
分 散</w>
局 长</w>
相 当
an d
1 20</w>
交 给</w>
外交 部长</w>
破 产</w>
大 大</w>
哈 萨
祝 贺</w>
T h
学 者</w>
有 机</w>
体 育
流 程</w>
战 斗
导 言</w>
A n
统计 数据</w>
追 求</w>
调 指出</w>
摊 款</w>
强 调指出</w>
城 市
生 命
世 贸
8 00</w>
算 法</w>
华 盛
问 责</w>
地 址</w>
葡萄 牙</w>
真 实</w>
应 有</w>
照 料</w>
识 别</w>
这 儿</w>
会 谈</w>
中 间</w>
例 外</w>
两 人</w>
污 染
物 资</w>
列 颠</w>
红 十
家 里</w>
时 限</w>
解决 方案</w>
北 爱尔兰</w>
查 阅</w>
还 应</w>
仇 外</w>
从 未</w>
迄 今
升 级</w>
团 队</w>
利 润</w>
维 修</w>
就业 机会</w>
厄瓜 多尔</w>
不 幸</w>
十 五届</w>
实验 室</w>
中 非
星期 四</w>
终 了</w>
D P</w>
巴 马</w>
对 手</w>
变 动</w>
思 考</w>
2 12</w>
应 用
领 取</w>
最 为</w>
伟 大</w>
别 的</w>
视 察</w>
开 会</w>
法律 援助</w>
不 妨</w>
选 出</w>
心 理
段 时间</w>
第二 届</w>
o c
由 此</w>
世贸 组织</w>
担 忧</w>
克 共和国</w>
主 教</w>
解 除
联合国 开发计划署</w>
索赔 人</w>
促 成</w>
现 已</w>
殖民 化</w>
好 像</w>
响 应</w>
没 收</w>
日 子</w>
援助 团</w>
生 涯</w>
第 八
上 涨</w>
纪 律</w>
消 耗</w>
监察 员</w>
长 期
列 为</w>
地 域</w>
税 收</w>
职 权
职权 范围</w>
同 事</w>
就 要</w>
里 面</w>
沙 特
商 务</w>
万 人</w>
国 别</w>
用 水</w>
穆 斯
记 得</w>
c l
星期 二</w>
有 辱</w>
谈 到</w>
证 券</w>
营 养
检 验</w>
发 动</w>
核 可</w>
赛 季</w>
o h
民 事</w>
是 从</w>
制 品</w>
行 事</w>
定 罪</w>
贩 卖</w>
匈 牙
含 有</w>
依 法</w>
这 件</w>
海 上</w>
交 易
击 败</w>
迄 今</w>
加 尔</w>
粮食 安全</w>
犯 下</w>
库 存</w>
综 合
首 脑</w>
美 丽</w>
庆 祝</w>
加 大</w>
国 政府</w>
成 长</w>
理 事</w>
灾 难</w>
轨 道</w>
奥 巴马</w>
规 章</w>
合 格</w>
亚美 尼亚</w>
统 治</w>
I S
紧急 情况</w>
天 气</w>
包 容性</w>
第六 十
分 析
彼 此</w>
回 家</w>
打 开</w>
A l</w>
马 尔
生 态</w>
查 询</w>
出 身</w>
不 起</w>
常 会</w>
国际 标准</w>
作 物</w>
阐 明</w>
见 到</w>
定 为</w>
星期 三</w>
并 于</w>
着 重</w>
顺 利</w>
特 网</w>
区 分</w>
男女 平等</w>
信 通</w>
物 体</w>
民主 主义
总 干事</w>
情 绪</w>
对 外</w>
198 6</w>
温 室</w>
15 0</w>
经验 教训</w>
细 节</w>
饥 饿</w>
有效 性</w>
企 业
胜 利</w>
解除 武装</w>
共产 党</w>
学 术</w>
区域 合作</w>
在 线</w>
a d</w>
选 民</w>
有 点</w>
o o
氧 化
参 照</w>
根 源</w>
简 报</w>
朝鲜 民主主义
联 刚</w>
纪 录</w>
所 说</w>
所 得</w>
预算 外</w>
上 去</w>
非 殖民化</w>
继 续
宗 教
多样 化</w>
6 0
计 划
C R
撤 销</w>
一 段</w>
教 练</w>
大 会
e v
中非 共和国</w>
医 学</w>
安全 部队</w>
穆斯 林</w>
无 线
永 久</w>
清 除</w>
多 哈</w>
提 起</w>
宝 贵</w>
斯 达
女 子</w>
常 规
因 特网</w>
a t</w>
传 染
太 阳</w>
疑 问</w>
表 演</w>
离 职</w>
首 要</w>
份 额</w>
对 策</w>
备 金</w>
公 园</w>
捐助 国</w>
发 生
分 歧</w>
农 村
创 造
干 旱</w>
之 二</w>
标 准
专 题
咨询 服务</w>
大 臣</w>
d e</w>
is t
相当 于</w>
办 理</w>
旅 费</w>
陷 入</w>
i s</w>
关 押</w>
学 科</w>
习 俗</w>
报 纸</w>
军 备</w>
坦 桑
留 在</w>
真 是</w>
塞 内
进 度</w>
明 确
宏 观
招 募</w>
加 纳</w>
该 法</w>
一 所</w>
草 坪</w>
原 来</w>
接 收</w>
排 放
塞内 加尔</w>
发展 权</w>
院 长</w>
罗马 尼亚</w>
对 付</w>
新 型</w>
详 细
内部 监督</w>
版 本</w>
解 除</w>
所 有权</w>
标 题</w>
图 像</w>
先 后</w>
基 因</w>
侵 略</w>
差 别</w>
一 支</w>
种 种</w>
不 结
改 造</w>
认 证</w>
当事 方</w>
长 时间</w>
发 给</w>
意 外</w>
匈牙 利</w>
公 报</w>
朝鲜民主主义 人民共和国</w>
一 百
辅 助</w>
每 日</w>
沙特 阿拉伯</w>
转 交</w>
乍 得</w>
想 到</w>
生产 总值</w>
主管 部门</w>
观 测</w>
回 收</w>
土 著
判 断</w>
7 00</w>
制 约</w>
倡 导</w>
西 部</w>
违 背</w>
E P</w>
家 属</w>
月 底</w>
对 方</w>
三 十
公 认</w>
实 例</w>
布 鲁
不 错</w>
e t</w>
黎 加</w>
华盛 顿</w>
首 都</w>
哥 斯达
一致 性</w>
亚太 经
铭 记</w>
纠 正</w>
必 需</w>
席 位</w>
封 锁</w>
覆 盖</w>
此 事</w>
第二 条</w>
杀 伤</w>
用 作</w>
那 时</w>
哥斯达 黎加</w>
每 周</w>
用 以</w>
流 行
设 定</w>
先 进</w>
为 何</w>
化学 武器</w>
入 境</w>
大不 列颠</w>
股 票</w>
登记 册</w>
金融 危机</w>
生 活
必要 措施</w>
贫 困
支 柱</w>
被 捕</w>
矛 盾</w>
人 生</w>
港 口</w>
as s
疟 疾</w>
活 力</w>
老 人</w>
10 5</w>
代表 性</w>
提高 认识</w>
温 度</w>
时 至</w>
净 额</w>
占 领
一 词</w>
超 出</w>
此 次</w>
接 着</w>
萨 尔
种 植</w>
常规 武器</w>
E n
保 安</w>
船 舶</w>
客 观</w>
做 好</w>
地 面</w>
u t
10 .
约 束</w>
抗 议</w>
优 化</w>
代 价</w>
排 斥</w>
C P</w>
权 人</w>
钻 石</w>
权 益</w>
那 儿</w>
198 5</w>
会 费</w>
D A
排放 量</w>
论 性</w>
网 页</w>
答 案</w>
临 床</w>
十 三届</w>
平 均
马 拉
强 有力</w>
咨 商</w>
独立 性</w>
o t
a p
得 成功</w>
退 出</w>
迄今 为止</w>
尔 斯</w>
全 权</w>
一 部</w>
司 长</w>
侧 重于</w>
脆 弱
判 例</w>
均 衡</w>
摆 脱</w>
脱 离</w>
吸 收</w>
10 9</w>
乌 拉圭</w>
意 图</w>
绑 架</w>
a m</w>
迫 切
言 论</w>
强 制</w>
日 常</w>
作出 贡献</w>
发 了</w>
高 效</w>
谢 谢</w>
组 织
水 资源</w>
友 好</w>
开 办</w>
歌 曲</w>
脆弱 性</w>
会 晤</w>
条 文</w>
申请 人</w>
不 安</w>
198 7</w>
开 设</w>
管理 系统</w>
迹 象</w>
恐怖 分子</w>
乌 兹
儿 童
十 届</w>
分 为</w>
乌兹 别
价值 观</w>
l e</w>
高等 教育</w>
六 年</w>
队 伍</w>
教 会</w>
从 来</w>
一 贯</w>
th e</w>
结 论性</w>
单 元</w>
努 力
产 量</w>
半 年</w>
初 次</w>
人民 政府</w>
0 1</w>
西 藏</w>
斯洛 伐
沿 海</w>
德 里</w>
布 尔</w>
裁 谈会</w>
本 来</w>
普 查</w>
几内 亚
健 康
风 格</w>
宏观 经济</w>
o b
北 京
文 字</w>
分 离</w>
人 才</w>
再 生
真 相</w>
污染 物</w>
配 偶</w>
同 等</w>
恰 当</w>
哪 里</w>
哈萨 克斯坦</w>
另 有</w>
培训 班</w>
削 弱</w>
对 抗</w>
负 有</w>
198 2</w>
纪 念
放 射
决策 者</w>
否 认</w>
本 法</w>
环境 保护</w>
马 上</w>
营 地</w>
较 大</w>
离 婚</w>
铁 路</w>
颜 色</w>
联合国 大会</w>
事 宜</w>
作 战</w>
论 述</w>
包 容</w>
今 日</w>
主 持
选 定</w>
仪 式</w>
l e
苏 联</w>
地 图</w>
自 决</w>
国内 法</w>
不 了</w>
.. .</w>
鼓 舞</w>
玻利 维亚</w>
不 必</w>
近 期</w>
隔 离</w>
百 万</w>
出 色</w>
9 63</w>
委 托</w>
尽 早</w>
爱 情</w>
未 成年人</w>
阿尔 巴
社会 主义</w>
顾 客</w>
会 见</w>
人 为</w>
参与 者</w>
迫 使</w>
消 失</w>
增长 率</w>
一 人</w>
机 遇</w>
六 条</w>
言 论
亚太经 社会</w>
种 子</w>
影 响
后 面</w>
中 部</w>
种 类</w>
言论 自由</w>
薪 酬</w>
小 企业</w>
感 到
着 重
给 出</w>
想 象</w>
要 是</w>
和平 利用</w>
技术 转让</w>
影响 力</w>
九 条</w>
大 小</w>
生 计</w>
年 前</w>
国家 元首</w>
喀 麦
老 板</w>
市 民</w>
不 当</w>
瓦 多</w>
下 次</w>
根 本
受 益
相 关
辐 射</w>
指挥 官</w>
富 有</w>
尽 量</w>
尼 加拉
指 称</w>
尼加拉 瓜</w>
电子 邮件</w>
通 货
局 面</w>
强制 性</w>
应 由</w>
5 000</w>
更 改</w>
清 理</w>
刚 刚</w>
灵 活性</w>
多 边
t er
萨尔 瓦多</w>
视 性</w>
无论 是</w>
复 原</w>
得 不到</w>
X X
本 书</w>
禁 运</w>
消 灭</w>
所 在
熟 悉</w>
填 补</w>
含 量</w>
被 占
被占 领土</w>
工作 文件</w>
害 怕</w>
计 量</w>
发 达</w>
平 等
歧 视性</w>
增 多</w>
输 入</w>
机 器</w>
透 过</w>
小 组
试 点</w>
小 姐</w>
据 说</w>
en t
成 熟</w>
债 权人</w>
验 证</w>
行政 部门</w>
责 任
模 拟</w>
冲 击</w>
巴 塞尔</w>
0 5</w>
l i
编 列</w>
歌 手</w>
捷 克共和国</w>
常 见</w>
喀麦 隆</w>
和 谐</w>
梦 想</w>
再生 能源</w>
三 条</w>
短 缺</w>
调查 结果</w>
昨 天</w>
多 么</w>
全球 性</w>
不 仅仅</w>
抵 达</w>
地 产</w>
其 次</w>
士 学位</w>
管理 层</w>
风 险
缓 慢</w>
旅游 业</w>
次 数</w>
失 望</w>
10 %</w>
广 播
审 查
新 兴</w>
吉 尔
诉 讼
也 门</w>
英 格兰</w>
Cor r</w>
非 国家</w>
I D
当 代</w>
颁 发</w>
是 不是</w>
西 岸</w>
色 情</w>
民 兵</w>
支 持
激 励</w>
牙 买
ht t
进 攻</w>
克 里
发 表
寿 命</w>
判 处</w>
详 情</w>
H RC</w>
船 只</w>
预 定</w>
签 证</w>
围 绕</w>
前 面</w>
过 于</w>
不 满</w>
极 其</w>
买 卖</w>
推 荐</w>
漂 亮</w>
九 届</w>
无 效</w>
技 巧</w>
知 情</w>
毛里 求
一 生</w>
利 尔</w>
援 引</w>
共同 努力</w>
第三 届</w>
团 长</w>
暂 行</w>
结果 表明</w>
保 密</w>
人权 宣言</w>
o s</w>
农村 妇女</w>
卡塔 尔</w>
核 实</w>
政府 首脑</w>
建筑 物</w>
健 全</w>
内 阁</w>
家庭 成员</w>
比 绍</w>
一 座</w>
恐 惧</w>
土 壤</w>
资 金
市 长</w>
犯罪 行为</w>
普 及</w>
第六 条</w>
迫切 需要</w>
联邦 政府</w>
免 遭</w>
人权 法</w>
罚 款</w>
合 组织</w>
9 00</w>
多 项</w>
该 部</w>
CC C</w>
修 建</w>
中 文</w>
弱 势
届 会</w>
亚 太</w>
复 苏</w>
机 械</w>
a f
广 大</w>
大 西
基本 上</w>
除 外</w>
灭 绝</w>
七 条</w>
会 员</w>
一 边</w>
层 次</w>
弱势 群体</w>
通货 膨
童 工</w>
斯 科</w>
1 2.
19 67</w>
u b
任 用</w>
司法 部</w>
六 个</w>
辩 护</w>
F CCC</w>
毛里求 斯</w>
优 惠</w>
不 罚</w>
添 加</w>
安全 部门</w>
仔 细</w>
替 代
出 口
上 次</w>
关 税</w>
经济 委员会</w>
一 块</w>
1 10</w>
竞 选</w>
引 入</w>
htt p</w>
基 会</w>
苏 丹
合法 性</w>
常 规</w>
校 长</w>
en t</w>
定居 点</w>
起 到</w>
转 向</w>
七 年</w>
实 物</w>
蒙特 利尔</w>
礼 物</w>
审查 会议</w>
设 有</w>
活 跃</w>
不 用</w>
合 约</w>
指导 方针</w>
编 号</w>
拍 摄</w>
19 49</w>
物 理</w>
大 众</w>
储 备</w>
能 源
竞 赛</w>
剩 余</w>
敌 人</w>
面 向</w>
姓 名</w>
多 名</w>
免 受</w>
散 发</w>
难民 营</w>
干 涉</w>
品 牌</w>
草 稿</w>
交 流
传 真</w>
我 谨</w>
S T</w>
如 同</w>
补 助
对 性</w>
青 年人</w>
债 券</w>
总 共</w>
承 受</w>
电 信</w>
报 酬</w>
几 天</w>
银 行
相 似</w>
殖民 地</w>
同 次</w>
爸 爸</w>
瓦 尔</w>
牙买 加</w>
之 际</w>
以色 列
忘 记</w>
第十 四条</w>
元 素</w>
不 愿</w>
一 周</w>
海 军</w>
最 低
20 %</w>
能 量</w>
生产 力</w>
演 讲</w>
维 护
家 长</w>
一 架</w>
代表 大会</w>
世界 人权宣言</w>
0 7</w>
缩 小</w>
下 放</w>
阿 卜
两 位</w>
联 黎</w>
酒 店</w>
几内亚 比绍</w>
形 态</w>
奥 斯
提 前</w>
一 句</w>
疫 苗</w>
5 0%</w>
证 件</w>
计划 生育</w>
考 察</w>
打 破</w>
约 翰
履 行
难 以
收 购</w>
手 机</w>
谨 慎</w>
祖 父</w>
冻 结</w>
失业 率</w>
为 重要</w>
二 年</w>
所 示</w>
养 护</w>
可 行
整 合</w>
博 物
修 复</w>
组 建</w>
执 法
免 疫</w>
出 发</w>
采 纳</w>
保 加
下 述</w>
0 9</w>
三 次</w>
土 地
命 运</w>
置 于</w>
再 度</w>
2 3
自由 化</w>
特 权</w>
信 用
看 着</w>
权 能</w>
有 待</w>
署 长</w>
应用 程序</w>
收 费</w>
部 落</w>
非 正规</w>
圆 桌
0 6</w>
应 为</w>
生 长</w>
分 段</w>
圆桌 会议</w>
标准 化</w>
联合国 总部</w>
家 族</w>
驳 回</w>
无 害</w>
学 术
带 有</w>
太 阳
发 挥
深 刻</w>
197 8</w>
波 动</w>
在 此
阶 层</w>
0 8</w>
包 装</w>
地 说</w>
201 8</w>
较 为</w>
198 4</w>
权 限</w>
振 兴</w>
娱 乐</w>
斯洛伐 克</w>
塔 吉
东 京</w>
国际 劳工
一 段时间</w>
气 氛</w>
纽 约
阿尔巴 尼亚</w>
准 入</w>
发挥 作用</w>
记 忆</w>
所 用</w>
2 50</w>
o p
存 款</w>
前 进</w>
显 得</w>
找 出</w>
支 配</w>
核 试验</w>
批 款</w>
节 省</w>
人 均</w>
第三 方</w>
远 远</w>
受 害</w>
无 疑</w>
家 中</w>
地 理
奠 定</w>
自 主</w>
爆炸 物</w>
补助 金</w>
覆 盖
联 塞</w>
犹 太
ati on
巡 逻</w>
住 宅</w>
经 合组织</w>
教 堂</w>
世界 卫生组织</w>
美 好</w>
路 线</w>
I II</w>
o v</w>
分 开</w>
风险 管理</w>
皇 帝</w>
成 分</w>
公 主</w>
跨 界</w>
招 聘</w>
斯洛 文
CE DA
村 庄</w>
特 使</w>
CEDA W</w>
截 止</w>
代 替</w>
煽 动</w>
筹备 工作</w>
下 跌</w>
申 明</w>
弱 势</w>
1 1.
施 加</w>
科技 咨询</w>
第十 届</w>
达 成
互 相</w>
计算 机
超 越</w>
原 理</w>
代 码</w>
罗 姆
名 为</w>
奖 励</w>
花 费</w>
网 络
着重 指出</w>
徒 刑</w>
成 人</w>
大 力</w>
载 于</w>
C A
逻 辑</w>
帝 国</w>
q u
划 分</w>
M a
吉尔 吉
严 格
中 非</w>
典 型</w>
六 个月</w>
解放 军</w>
保 罗</w>
基金 组织</w>
困 境</w>
照 会</w>
残疾 儿童</w>
o d
开 采</w>
八 年</w>
复 杂
追 究</w>
联合国 秘书处</w>
UN EP</w>
10 1</w>
说 道</w>
符 合
欺 诈</w>
要 点</w>
采 访</w>
刑事 法庭</w>
防 范</w>
197 0</w>
切 实
尔 德</w>
低 收入</w>
赞 比亚</w>
数 学</w>
福 祉</w>
电 力</w>
有 趣</w>
耶 稣</w>
博物 馆</w>
谈 话</w>
力 度</w>
手 中</w>
家 园</w>
工程 师</w>
商 店</w>
成 年</w>
文 职人员</w>
契 约</w>
198 1</w>
治 安</w>
仇 恨</w>
赠 款</w>
直 升
术 语</w>
重 组</w>
撤 回</w>
2 6
领 土
遭 遇</w>
源 于</w>
麻 烦</w>
学 率</w>
事 物</w>
走 向</w>
这 笔</w>
理 念</w>
边 缘</w>
正 当</w>
通 用</w>
力 求</w>
人 事</w>
物 种</w>
救 助</w>
打 电话</w>
衰 退</w>
手 续</w>
a w
到 底</w>
高 质量</w>
缴 款</w>
海 事</w>
CR P</w>
性 虐待</w>
卫生 部</w>
中 等</w>
观 众</w>
保加 利亚</w>
咖 啡</w>
纳 米
不 足以</w>
浓 度</w>
章 程</w>
优 秀</w>
事务 处</w>
休 息</w>
不 好</w>
进 士</w>
第七 条</w>
欧洲 委员会</w>
初 期</w>
内 政
尔 多
国际劳工 组织</w>
联合国 环境
联合国环境 规划署</w>
代 理
达成 协议</w>
分 担</w>
不结 盟
不结盟 运动</w>
基督 教</w>
分 割</w>
运 送</w>
诉 诸</w>
激 烈</w>
指 令</w>
怎 么样</w>
平 方
发 送</w>
付 出</w>
法 索</w>
警察 部队</w>
S u
干 扰</w>
印 象</w>
马 其
职 类</w>
核 能</w>
基本 权利</w>
哲 学</w>
运 营</w>
军 官</w>
逝 世</w>
环 保</w>
i v
缴 纳</w>
天 然
假 如</w>
完 全
最 多</w>
0 3</w>
一 个月</w>
五 条</w>
东 耶路撒冷</w>
海 岸</w>
感 受</w>
宣 称</w>
心 里</w>
经济 危机</w>
i k
多 米
动 性</w>
皮 肤</w>
化 合物</w>
某 一</w>
各 种
程 序
这 家</w>
网 址</w>
本 着</w>
几 次</w>
取 得成功</w>
CO NF</w>
架 构</w>
案 情</w>
购 置</w>
必 然</w>
学 金</w>
g l
斯 特
书 面
大西 洋</w>
职 员</w>
D e
法律 文书</w>
c h</w>
参 加
0 000</w>
必 不可
开 列</w>
即 便</w>
目 的
身 份
副 本</w>
回 国</w>
一 片</w>
送 交</w>
本 条</w>
权 威</w>
办 公</w>
动 作</w>
完 美</w>
回 返</w>
视 频</w>
情 报
10 2</w>
主 导</w>
2 4
中 亚</w>
仲 裁
范 畴</w>
空 间
会议 议程</w>
紧 迫</w>
危 险
人民 法院</w>
渴 望</w>
自治 区</w>
197 9</w>
驱 动</w>
工作 量</w>
三 名</w>
提 倡</w>
行 为
发 明</w>
部 件</w>
各个 方面</w>
运 动
实 在</w>
一 代</w>
津 巴布
教 学
反 馈</w>
转 换</w>
领土 完整</w>
1 30</w>
科学 技术</w>
红十 字
电视 台</w>
多米 尼
持久 性</w>
序 言</w>
指 责</w>
内 地</w>
路 上</w>
延 迟</w>
中 小企业</w>
I NF</w>
1 11</w>
现 任</w>
吉尔吉 斯
第四 届</w>
上 学</w>
屠 杀</w>
比 亚
感 情</w>
抓 住</w>
198 3</w>
系统 地</w>
2 5
t o</w>
第五 次</w>
国 公司</w>
增 至</w>
此 时</w>
准 许</w>
is h</w>
早 上</w>
之 日起</w>
工业 化</w>
智 慧</w>
职 权</w>
积 累</w>
部 委</w>
叙 述</w>
总 务</w>
城 镇</w>
生 成</w>
使 馆</w>
作出 努力</w>
勘 探</w>
此 前</w>
联 利</w>
布 基
比 额</w>
引 导</w>
针 对性</w>
i l</w>
裂 变</w>
认 捐</w>
追 踪</w>
预防 性</w>
斯洛文 尼亚</w>
毛 额</w>
必不可 少</w>
致 使</w>
德 班</w>
印 刷</w>
伯 特</w>
纳 法索</w>
布基 纳法索</w>
愉 快</w>
中 将</w>
自 动
大 幅度</w>
分 裂</w>
赛 事</w>
人民 币</w>
弥 补</w>
津巴布 韦</w>
日 本
一 类</w>
陆 军</w>
英 镑</w>
贸易 组织</w>
羽 毛
少 女</w>
10 3</w>
一 同</w>
贝 尔
辞 职</w>
毫 无</w>
含 义</w>
影 片</w>
之 上</w>
理 性</w>
我 能</w>
黑 山</w>
并 不
全 民
亲 自</w>
林 业</w>
不 受</w>
可 怕</w>
管 如此</w>
教育 部</w>
尽 管如此</w>
线 图</w>
准 备金</w>
巴 拿
大 战</w>
红 色</w>
头 发</w>
号 码</w>
中华 民国</w>
1 60</w>
阿 布
乌兹别 克斯坦</w>
救 援</w>
这 时</w>
双 边
接 纳</w>
为 主</w>
两 者</w>
经 社
比 克</w>
克 尔</w>
盟 约</w>
总 体
些 时候</w>
美国 政府</w>
有所 增加</w>
热 情</w>
当 作</w>
访 问
适 用
转 化</w>
莫 桑
10 4</w>
明 年</w>
维 尔</w>
CO P</w>
ri g
长 官</w>
民主 党</w>
同 学</w>
W G</w>
性 恋</w>
o w
妇 发</w>
席 会议</w>
哥 尔
西 撒哈拉</w>
自 杀</w>
得 知</w>
搜 索</w>
使 命</w>
斯 德
诉讼 法</w>
糟 糕</w>
偏 见</w>
团 伙</w>
一 辆</w>
中 共
三 分之一</w>
东 盟</w>
荣 誉</w>
弃 权</w>
紧 密</w>
小 额</w>
太 太</w>
谋 求</w>
原子 能
将 要</w>
乡 村</w>
阵 线</w>
外 联</w>
却 是</w>
更 多地</w>
结 余</w>
补 编</w>
斯德 哥尔
麻醉 药品</w>
价 格
企业 家</w>
配 备</w>
记 住</w>
自 行</w>
立 陶
两 级</w>
尊 重
文 献</w>
联 检</w>
到 来</w>
负 面
签 发</w>
体 面</w>
皇 家</w>
注 意
10 6</w>
立 刻</w>
养 恤</w>
行动 者</w>
目的 地</w>
就 是
向 前</w>
第三 条</w>
军 人</w>
值 得
地 中
迁 移</w>
进 行
已 于</w>
会 儿</w>
经济 学</w>
莫桑 比克</w>
和平 解决</w>
施 行</w>
第四 条</w>
赞 助</w>
艰 难</w>
刚 才</w>
原 籍</w>
大 大
解 放</w>
某 人</w>
金 钱</w>
当 年</w>
世界 贸易组织</w>
民 警</w>
in d
住 所</w>
a z
经社 理事会</w>
路 线图</w>
1 12</w>
施 工</w>
ati on</w>
曾 任</w>
尊重 人权</w>
小 心</w>
展 览</w>
还 会</w>
既 定</w>
撤 出</w>
中国 共产党</w>
力 支持</w>
统 筹</w>
工 商
看 出</w>
深 信</w>
中 止</w>
报 导</w>
夫 妇</w>
赔 偿
两 国</w>
人 员
记 载</w>
摧 毁</w>
斯德哥尔 摩</w>
闭 会</w>
大 学
第五 条</w>
势 力</w>
混 乱</w>
K h
之 处</w>
减 缓</w>
0 4</w>
玛 丽</w>
军事 行动</w>
i m</w>
确 切</w>
处 长</w>
聪 明</w>
大 多</w>
可 否</w>
m an</w>
联 科</w>
国际 原子能
国际原子能 机构</w>
参 观</w>
利 息</w>
第二 章</w>
进 来</w>
争 论</w>
大 卫</w>
火 箭</w>
原 则
征 求</w>
签 字</w>
中 断</w>
高 度
i d</w>
闭 门</w>
营养 不良</w>
一 个
尽 力</w>
测 定</w>
设 计
自 行
强 度</w>
ic h
警 官</w>
a u
品 质</w>
元 年</w>
遏 制</w>
协调 会</w>
看 上去</w>
极 端
羽毛 球</w>
197 3</w>
乔 治</w>
操 守</w>
关键 作用</w>
税 务</w>
毕 业
护 照</w>
10 8</w>
中 所载</w>
联合 共和国</w>
有 意</w>
发 电
碎 片</w>
国 防</w>
边 缘
高 中</w>
s h
资 讯</w>
补 助</w>
经济 社会</w>
战斗 人员</w>
年 级</w>
负面 影响</w>
I N
顾 及</w>
天然 气</w>
受 欢迎</w>
使用 者</w>
法 人</w>
经 共体</w>
北 方</w>
3 0%</w>
米 尔</w>
主持 人</w>
苏丹 政府</w>
首 相</w>
就 读</w>
A m
表示 感谢</w>
听 说</w>
全 力</w>
身 边</w>
口 译</w>
涉 嫌</w>
卡 尔</w>
饮 食</w>
构 建</w>
拉 加</w>
跨 国公司</w>
接 到</w>
合 成</w>
基本 建设</w>
犯 有</w>
演 变</w>
目 录</w>
巴 林</w>
乐 观</w>
尼亚 联合共和国</w>
坦桑 尼亚联合共和国</w>
汤 姆</w>
in g
支持 者</w>
收 取</w>
e b
年 期</w>
报 复</w>
斯 堡</w>
公共 行政</w>
1 15</w>
13 73</w>
ID B</w>
更 换</w>
农 场</w>
14 .
布 什</w>
立法 会</w>
从 中</w>
抵 抗</w>
莫 斯科</w>
海 盗</w>
G en
便 于</w>
服务 器</w>
称 赞</w>
10 7</w>
集 会</w>
职 工</w>
对 比</w>
不 变</w>
堕 胎</w>
i b
性 别
不 予</w>
社会 福利</w>
十 分
优 质</w>
有 没有</w>
敌 对
A r
之 所以</w>
c e</w>
项 目
赤 字</w>
伤 亡</w>
董 事</w>
一 组</w>
回 归</w>
像 是</w>
承包 商</w>
边缘 化</w>
双 重</w>
地 上</w>
司法 制度</w>
会 期</w>
未 有</w>
十 四届</w>
供 水</w>
臭 氧</w>
创 立</w>
聘 用</w>
普遍 性</w>
反对 派</w>
炸 弹</w>
淘 汰</w>
定 居</w>
马 耳
生 意</w>
癌 症</w>
一 本</w>
经济 学家</w>
停 火</w>
租 赁</w>
e z</w>
送 到</w>
司 机</w>
捐 赠</w>
日 前</w>
1 14</w>
绝 大多数</w>
0 2</w>
姆 斯</w>
国家 联盟</w>
样 子</w>
总 督</w>
所 指</w>
未 决</w>
每 一</w>
业 务
无 需</w>
唱 片</w>
充分 利用</w>
夏 天</w>
周 末</w>
频 率</w>
采 矿</w>
1 13</w>
罗姆 人</w>
浪 费</w>
撰 写</w>
练 习</w>
审 讯</w>
捍 卫</w>
贝 宁</w>
直升 机</w>
13 .
理 学</w>
人 体</w>
透 露</w>
下 载</w>
奖 学金</w>
传 递</w>
挑 选</w>
地中 海</w>
合作 社</w>
申 报</w>
下 令</w>
R E
四 十
减 免</w>
该 司</w>
一 事</w>
圣 诞
马耳 他</w>
欣 见</w>
鱼 类</w>
等 级</w>
G C</w>
拯 救</w>
土 库
军 火</w>
出 战</w>
加 盟</w>
岗 位</w>
中 美洲</w>
老 年</w>
扮 演</w>
流 入</w>
常 务
奥 运</w>
联合国 儿童
联合国儿童 基金会</w>
八 条</w>
街 头</w>
M r</w>
精 确</w>
携 带</w>
构 想</w>
处 理
木 材</w>
场 合</w>
o m</w>
运 输
全面 禁止</w>
抑 制</w>
第三 个</w>
引 力</w>
故 意</w>
谋 杀</w>
精 力</w>
海 底</w>
导 演</w>
尊 敬</w>
创 业</w>
塔吉 克斯坦</w>
法 外</w>
奥 林
解 释
九 年</w>
15 .
提 出
il l
群 众</w>
看 作</w>
顺 序</w>
上 阵</w>
摩 尔多
消 极</w>
要 么</w>
著 作</w>
欧 安
可行 性</w>
恶 劣</w>
南 部
读 者</w>
南部 非洲</w>
1 40</w>
老 龄</w>
动 议</w>
临 时
订 约</w>
异 议</w>
火 车</w>
i r</w>
维护 者</w>
个 案</w>
有 时候</w>
对 应</w>
房 地产</w>
租 金</w>
主 人</w>
该 条</w>
特 区</w>
游 客</w>
谈 论</w>
一 大</w>
调 节</w>
大 选</w>
超 级</w>
撤 离</w>
股 东</w>
受 到
旅 馆</w>
系 数</w>
一 再</w>
流 量</w>
维 奇</w>
这 部</w>
稳 定性</w>
电 邮</w>
牵 头</w>
普通 照会</w>
感到 遗憾</w>
一 笔</w>
次 序</w>
势 头</w>
以 南</w>
外 空</w>
进 出口</w>
职业 培训</w>
收 回</w>
销 售
惩 处</w>
航 天
名 册</w>
写 作</w>
高级 官员</w>
引 用</w>
1 16</w>
孕 妇</w>
不 断
前 任</w>
各 样</w>
监 控</w>
检查 组</w>
通货膨 胀</w>
种族 灭绝</w>
S B
器 官</w>
公 务</w>
家 具</w>
措 辞</w>
严 峻</w>
采取 有效</w>
纤 维</w>
惩 治</w>
塔 利
传染 病</w>
塔利 班</w>
ar d</w>
震 惊</w>
美 洲
羁 押</w>
19 60</w>
复 兴</w>
检察 长</w>
损 坏</w>
五 十
外 债</w>
特 色</w>
牺 牲</w>
无 人</w>
爱 沙
一 度</w>
姑 娘</w>
人 身
灵 魂</w>
国民 党</w>
重 叠</w>
电 话
土著 人</w>
变 更</w>
黄 金</w>
S A
中国 人民
国民 议会</w>
主 体</w>
广 州</w>
塞 族</w>
刑 法典</w>
大 批</w>
注意 力</w>
第五十 九</w>
示 威</w>
i y
标 签</w>
禁 令</w>
目 前
目前 为止</w>
毫 米</w>
接 下来</w>
不 但</w>
电 影
气 象</w>
第九 条</w>
动 荡</w>
行政 区</w>
黑 暗</w>
民 事
定 位</w>
r an
项 下</w>
不 多</w>
毫无 疑问</w>
奥林 匹
非 索</w>
后 代</w>
杀 死</w>
指 明</w>
饮 用水</w>
国防 军</w>
三 项</w>
垃 圾</w>
亲 爱</w>
等 于</w>
零 零
禁 毒</w>
1 22</w>
将 近</w>
马 斯</w>
估 算</w>
解 雇</w>
不 见</w>
公共 政策</w>
公共 卫生</w>
神 经
宣 传
专 利</w>
认 同</w>
舞 台</w>
延 误</w>
小 孩</w>
确 定性</w>
统计 数字</w>
内政 部</w>
纠 纷</w>
央 行</w>
大 脑</w>
全 文</w>
第九 届</w>
一 面</w>
本 案</w>
事 长</w>
i o</w>
看 待</w>
据 此</w>
今 晚</w>
电子 商务</w>
派 出</w>
情 感</w>
习 惯
1 18</w>
穿 着</w>
具体 措施</w>
刑事 责任</w>
相关 性</w>
法 文</w>
刑事 诉讼</w>
追 加</w>
阶 级</w>
异 常</w>
塞 人</w>
危 及</w>
进 口
商 品
公共 服务</w>
可 见</w>
救 灾</w>
入 学</w>
严 厉</w>
第一 章</w>
预 警</w>
总 裁</w>
选 手</w>
放 松</w>
本 质</w>
只 会</w>
选 择
清 晰</w>
提 取</w>
执法 人员</w>
抱 怨</w>
儿 基会</w>
警察 局</w>
s on</w>
驾 驶</w>
曼 谷</w>
峰 会</w>
储 蓄</w>
当 今</w>
载 列</w>
信 函</w>
两 份</w>
先 决
遗 留</w>
确 信</w>
无 国籍</w>
七 个</w>
法律 事务</w>
两 天</w>
服 装</w>
曼 斯坦</w>
更 具</w>
土库 曼斯坦</w>
股 份</w>
既 然</w>
思 维</w>
就是 说</w>
作 法</w>
力 学</w>
冰 岛</w>
三 分
贩 卖
爱沙 尼亚</w>
穷 国</w>
复 制</w>
第五十 八</w>
一 月</w>
in a</w>
回 复</w>
具体 情况</w>
先决 条件</w>
1 17</w>
得 出
等 教育</w>
得出 结论</w>
集 中
二 氧化
过 分</w>
而 已</w>
递 交</w>
筹 集</w>
买 方</w>
回 报</w>
那 位</w>
借 口</w>
实 务</w>
剩 下</w>
见 解</w>
几 十年</w>
女 生</w>
专 用</w>
缺 点</w>
占 有</w>
分 至</w>
地 下
纳米 比亚</w>
慈 善</w>
197 5</w>
财政 部</w>
恢 复
制造 商</w>
概 况</w>
西班牙 语</w>
1 19</w>
二 世</w>
个 体</w>
玻 璃</w>
标 记</w>
聚 集</w>
收 养</w>
权 力
南 京</w>
山 区</w>
克 劳</w>
i t</w>
L e
百 姓</w>
第十 一届</w>
4 0%</w>
英 里</w>
占 据</w>
经 营
论 点</w>
用 尽</w>
回 合</w>
外 面</w>
封 信</w>
拉 脱
编 纂</w>
吉 布
频 繁</w>
er al</w>
洪 都
石 油
假 定</w>
立陶 宛</w>
巴拿 马</w>
实 力</w>
地 下</w>
迫 害</w>
巴 拉圭</w>
欧洲 人</w>
参加 者</w>
18 0</w>
艺术 家</w>
紧 张
不 同
财务 报告</w>
马其 顿
慢 慢</w>
通 道</w>
in al</w>
政府 部门</w>
产 品
现 实
i e</w>
明确 规定</w>
u s</w>
函 数</w>
第七 届</w>
增 编</w>
里 克</w>
隔 离
邮 政</w>
适 足</w>
C RC</w>
缩 短</w>
东 欧</w>
解决 问题</w>
广 泛
夺 得</w>
i c</w>
志 愿</w>
联 海</w>
萨 摩
a y</w>
列 举</w>
国家 队</w>
马 克</w>
信 念</w>
伊拉 克
遗 传</w>
洪都 拉斯</w>
斐 济</w>
依 存</w>
神 经</w>
交 往</w>
拉脱 维亚</w>
W P</w>
一 日</w>
奇 怪</w>
选 举
养 老
原 始</w>
债 务
传 媒</w>
教 徒</w>
马 德里</w>
消 耗
核 证</w>
日 益
三 种</w>
无 关</w>
雇 佣
商 人</w>
诊 所</w>
3 3
马其顿 共和国</w>
规 律</w>
知 名</w>
议 定</w>
精 简</w>
内 在</w>
早 日</w>
处 以</w>
诸 多</w>
训 练
综合 性</w>
澳 门</w>
8 0%</w>
整 理</w>
属 性</w>
证 词</w>
刑事 诉讼法</w>
一 会儿</w>
放射 性</w>
e p
am m
B A</w>
指 派</w>
自 决权</w>
长 国</w>
核 算</w>
尸 体</w>
承 担
处 在</w>
台 湾
P ar
改 组</w>
内 外</w>
酋 长国</w>
无线 电</w>
友 谊</w>
弟 弟</w>
媒 介</w>
亲 属</w>
国际 货币
警 务</w>
微 笑</w>
司 令
第五 届</w>
服务 中心</w>
第六 届</w>
日 后</w>
原 先</w>
施 政</w>
研 制</w>
第二 天</w>
十 二</w>
划 界</w>
阳 光</w>
蒙特 雷</w>
操 作
展 望</w>
杰 出</w>
国防 部</w>
三分 之二</w>
行 径</w>
白 色</w>
统 一
世界 杯</w>
代理 人</w>
C D</w>
第十二 届</w>
愤 怒</w>
文 中</w>
喜 爱</w>
历 任</w>
1 25</w>
二十 一</w>
之 以
坚 信</w>
那 天</w>
流行 病</w>
令人 满意</w>
提供 者</w>
即 可</w>
世 卫</w>
斯 加</w>
附 录</w>
大 国</w>
灭 绝
场 地</w>
苏 格兰</w>
入 学率</w>
一 群</w>
战 役</w>
扩 张</w>
16 .
体 重</w>
万 元</w>
汇 款</w>
哪 个</w>
区 内</w>
燃 烧</w>
模 块</w>
197 4</w>
贩卖 人口</w>
标 赛</w>
锦 标赛</w>
症 状</w>
根 除</w>
卫生 保健</w>
柏 林</w>
兼 任</w>
何 时</w>
度 过</w>
灭绝 种族</w>
1 23</w>
配 额</w>
蔓 延</w>
197 7</w>
率 领</w>
市场 准入</w>
归 还</w>
见 下文</w>
新 生
大 气</w>
大 赦</w>
流 通</w>
an g
一 篇</w>
书 籍</w>
股 市</w>
预 先</w>
捕 捞</w>
嫌 疑
天 空</w>
训 研</w>
in e</w>
王 子</w>
数 值</w>
题 目</w>
司法 部门</w>
解释 性</w>
完 整
第五十 七届</w>
出 境</w>
研 发</w>
存 储</w>
接 待</w>
所在 地</w>
威 廉</w>
恐 吓</w>
生 殖
有 个</w>
赖 于</w>
他 会</w>
司法 机关</w>
安 德
评 注</w>
专题 讨论</w>
进行 谈判</w>
命 名</w>
航 行</w>
意 志</w>
皇 后</w>
延 期</w>
难 道</w>
公 告</w>
2. 1</w>
杰 克</w>
3 000</w>
吉尔吉斯 斯坦</w>
二 零零
原则 上</w>
借 鉴</w>
鉴 定</w>
第二 阶段</w>
晋 升</w>
原 料</w>
当 天</w>
彼 得</w>
敌对 行动</w>
卷 入</w>
电 池</w>
犹太 人</w>
P R
宇 宙</w>
197 6</w>
主 角</w>
东 南亚</w>
相互 依存</w>
说 服</w>
附 上</w>
抵 消</w>
伊斯兰 教</w>
幼 儿</w>
S P</w>
I V</w>
格 林
同 期</w>
1. 1</w>
al l
获 益</w>
国内 外</w>
可 靠
创 办</w>
概 要</w>
抵 押</w>
究 竟</w>
助 长</w>
P ro
阿拉伯 联合
阿拉伯联合 酋长国</w>
累 积</w>
饰 演</w>
象 征</w>
听 见</w>
引 进</w>
同 行</w>
国 立</w>
欧安 组织</w>
实 效</w>
聚 会</w>
亨 利</w>
构 成
导 航</w>
勇 气</w>
不 明</w>
18 .
什 么样</w>
公 开
妥 善</w>
务 人员</w>
o g
话 题</w>
真 诚</w>
邮 票</w>
文 职</w>
卫生 设施</w>
优 先
所 提</w>
劳动 者</w>
医疗 保健</w>
一 批</w>
el l
月 初</w>
带 领</w>
排 名</w>
gl ish</w>
花 园</w>
多 哥</w>
进 去</w>
过渡 时期</w>
背 后</w>
u d
解 散</w>
革 命
所 知</w>
大 概</w>
O rig
20 20</w>
1 21</w>
落 后</w>
天 主教</w>
海洋 环境</w>
哥伦 比亚
时 说</w>
原 本</w>
伴 侣</w>
台 北</w>
选 项</w>
匹 配</w>
S T
萨摩 亚</w>
违 法</w>
布鲁 塞尔</w>
太 子</w>
病 例</w>
型 期</w>
转 型期</w>
战 胜</w>
信 中</w>
概 览</w>
环 节</w>
忆 及</w>
Orig inal</w>
特 殊
卢 森
忽 略</w>
尚 书</w>
中 午</w>
假 期</w>
枪 支</w>
三 大</w>
大 学生</w>
境 外</w>
扭 转</w>
监 视</w>
Gen eral</w>
半 岛</w>
第六 次</w>
送 给</w>
平 静</w>
司 令</w>
进 而</w>
征 收</w>
哪 儿</w>
不 知</w>
Ab d
第 一步</w>
优 点</w>
第 七</w>
限 期</w>
统计 局</w>
密 度</w>
一 揽
公 斤</w>
正 当
一揽 子</w>
e g
续 会</w>
家 伙</w>
国际货币 基金组织</w>
素 质</w>
损 伤</w>
吸 引力</w>
青 年
托 克劳</w>
197 1</w>
应 予</w>
介 入</w>
营 销</w>
预算 编制</w>
言 之</w>
段 落</w>
想 起</w>
第 八届</w>
模 糊</w>
农 产品</w>
呼 吸</w>
无论 如何</w>
专 长</w>
无 条件</w>
业 已</w>
布 莱
复杂 性</w>
各 部</w>
不 如</w>
收 款</w>
布 罗
图 片</w>
吸 烟</w>
加 深</w>
政治 家</w>
民 间
此 机会</w>
1 24</w>
贝 尔</w>
苦 难</w>
感 染
有 者</w>
一 体</w>
哥 哥</w>
更 正</w>
核 不
继 承
核不 扩散</w>
连 续性</w>
详 尽</w>
防 御</w>
自动 化</w>
斯 基</w>
以 供</w>
o u</w>
英 雄</w>
审计 员</w>
庞 大</w>
管 道</w>
实 用</w>
可靠 性</w>
推 翻</w>
甄 选</w>
技术 支持</w>
后 裔</w>
交 换
i z
迎 接</w>
年 龄
B C</w>
西 欧</w>
生 境</w>
出 台</w>
违 法行为</w>
夏 季</w>
旁 边</w>
扫 盲</w>
苹 果</w>
制 性</w>
2 5%</w>
界 限</w>
布 雷
相 结合</w>
抱 歉</w>
突 破</w>
节 约</w>
刑 罚</w>
南斯拉 夫
C on
197 2</w>
会议 组织</w>
伊斯兰 会议组织</w>
玻利 瓦尔</w>
收 容</w>
庭 长</w>
吉布 提</w>
体 罚</w>
幸 运</w>
妹 妹</w>
黑 人</w>
ou r
长 大</w>
益 于</w>
as s</w>
早 晨</w>
广 东</w>
带 到</w>
持久 和平</w>
东 南
盘 旋</w>
卢森 堡</w>
借 此机会</w>
一 世</w>
护 士</w>
结构 性</w>
C ar
17 .
若 干
第三 国</w>
为 本</w>
集 束</w>
替代 品</w>
多 元
完整 性</w>
经 常
崩 溃</w>
信 用</w>
拉 克</w>
同 情</w>
译 文</w>
P C</w>
八 个</w>
预 见</w>
微 型</w>
客 人</w>
参 议院</w>
受 过</w>
可 信</w>
时 机</w>
清 洗</w>
僵 局</w>
适 宜</w>
布 朗</w>
乘 客</w>
保 障
十 六届</w>
学 员</w>
赤 贫</w>
东 亚</w>
常 用</w>
补 救
19 61</w>
D ist
明 星</w>
同 性恋</w>
北 约</w>
内 战</w>
旅 客</w>
对 不起</w>
投 票
中 方</w>
权力 下放</w>
妥 协</w>
党 派</w>
雇佣 军</w>
怎 么
深 切</w>
孕 产妇</w>
自行 车</w>
信 件</w>
戏 剧</w>
En glish</w>
欣 赏</w>
海 牙</w>
格 达</w>
性 骚扰</w>
罗 斯</w>
日内 瓦
不 让</w>
前 后</w>
这 使</w>
机 器
二氧化 碳</w>
益 处</w>
中 所</w>
睡 觉</w>
学术 界</w>
章 节</w>
焦 点</w>
多 斯</w>
境 况</w>
绳 之以
绳之以 法</w>
穿 过</w>
英 国
关键 问题</w>
威 尔
录 音</w>
高 层</w>
心 中</w>
课 题</w>
通 告</w>
退 休
监 护
致 命</w>
连 同</w>
管理 机构</w>
难 题</w>
细 菌</w>
日 历</w>
15 %</w>
预防 措施</w>
遵 照</w>
陆 地</w>
或 缺</w>
轻 松</w>
无 视</w>
兼 顾</w>
餐 厅</w>
慷 慨</w>
到 期</w>
总 量</w>
区域 性</w>
毕业 生</w>
拉 特</w>
加 紧
调查 团</w>
13 4</w>
甲 基</w>
财务 状况</w>
爵 士</w>
毒 性</w>
改 革
道 理</w>
航空 公司</w>
扶 持</w>
加紧 努力</w>
不可 或缺</w>
读 书</w>
感 激</w>
比 尔</w>
重大 进展</w>
延 续</w>
运 转</w>
输 出</w>
独立 宣言</w>
仪 器</w>
史 密
13 2</w>
全民 投票</w>
增 设</w>
I C
体 验</w>
3 4
制造 业</w>
默 德</w>
哈 根</w>
身份 证</w>
某 种
便 是</w>
所 致</w>
尼日 尔</w>
补救 措施</w>
世界 大战</w>
据 报</w>
容 器</w>
3 6
观 看</w>
质 量
实 践
与 会</w>
r es
E C</w>
农 药</w>
流 感</w>
叛 乱</w>
1 28</w>
镇 压</w>
一 九
靠 近</w>
充 当</w>
公 私</w>
3 8
马拉 维</w>
U n
基 层</w>
资 本
多 种
前 所
不 敢</w>
用 语</w>
书 记
游 泳</w>
卖 方</w>
惠 益</w>
Dist r</w>
敦 士
好 好</w>
支 敦士
列 支敦士
昂 贵</w>
民族 和解</w>
日 报</w>
蛋 白</w>
15 3</w>
逆 转</w>
3 7
19 50</w>
脸 上</w>
色 彩</w>
克 拉</w>
马尔 代
巴 巴
追 回</w>
故 障</w>
伴 随</w>
所 需</w>
主 意</w>
款 额</w>
小组 讨论</w>
斯 蒂
亚 历
瓦 纳</w>
19 .
远 离</w>
牧 师</w>
简 介</w>
3. 1</w>
事务 司</w>
固 有</w>
空 运</w>
费 率</w>
警 卫</w>
无 法
15 5</w>
分 娩</w>
研究 生</w>
创 伤</w>
P O
注 射</w>
荣 幸</w>
病 率</w>
沉 默</w>
第十 九条</w>
这 座</w>
抵 制</w>
ter n
联合国 日内瓦
联合国日内瓦 办事处</w>
民 法</w>
欧 国家</w>
公 安
走 私</w>
切 割</w>
M oh
播 放</w>
回 去</w>
远 程</w>
15 40</w>
水 准</w>
生产 能力</w>
沿 着</w>
样 本</w>
i f
多 人</w>
拆 除</w>
刺 史</w>
高等 法院</w>
13 8</w>
上 周</w>
雷 斯</w>
走 进</w>
困 扰</w>
不 适</w>
电视 剧</w>
存 者</w>
惊 讶</w>
5 9
1 26</w>
公 寓</w>
特别 行政区</w>
1 27</w>
最 小</w>
外 界</w>
债务 人</w>
队 长</w>
自 信</w>
调 集</w>
抢 劫</w>
官 长</w>
马 达
答 应</w>
哥 本
民 用</w>
占领 国</w>
简 直</w>
阵 地</w>
英 译
加 共和国</w>
穆 罕
深 入
婚 礼</w>
分 区</w>
马达 加
一 间</w>
政 策
19 48</w>
点 儿</w>
扣 押</w>
A R
策 划</w>
加勒 比
极端 主义</w>
义 务
血 管</w>
列支敦士 登</w>
中 小型</w>
19 45</w>
日 常
线 性</w>
判 刑</w>
保护 区</w>
第一 阶段</w>
古 老</w>
破 坏
均 等</w>
内 斯堡</w>
到 处</w>
此 案</w>
约翰 内斯堡</w>
招 标</w>
品 种</w>
an a</w>
经 社</w>
辅 导</w>
窗 口</w>
波 多
各项 规定</w>
相 一致</w>
反 而</w>
各种 各样</w>
天 然</w>
抚 养</w>
非洲 大陆</w>
ou n
基 督</w>
马尔代 夫</w>
贩 毒</w>
患 有</w>
尽 量
加 重</w>
举 报</w>
紧张 局势</w>
利 害
19 51</w>
英 语
穆罕 默德</w>
固 定
承 付</w>
金融 市场</w>
中央 银行</w>
第十 三届</w>
空 军</w>
悲 剧</w>
卡 车</w>
黑 色</w>
利 斯</w>
夫 妻</w>
受益 人</w>
出 生
延 伸</w>
地 名</w>
诚 实</w>
哥本 哈根</w>
福 利
居 住
烟 草</w>
正 面</w>
开 幕
广 场</w>
违 约</w>
暂 定</w>
7 0%</w>
. .</w>
斯坦 共和国</w>
维 斯</w>
幸 存者</w>
无 障碍</w>
肿 瘤</w>
朝 着</w>
产 假</w>
从 前</w>
无 辜</w>
不 确定性</w>
第一 条</w>
球 季</w>
十 三</w>
r a</w>
1 29</w>
几 种</w>
侦 查</w>
迈 出</w>
建 制</w>
宽 容</w>
拿 出</w>
相 符</w>
博 茨
桌 子</w>
奴 隶</w>
应 是</w>
大 纲</w>
殴 打</w>
6 0%</w>
吸 毒</w>
不 足
蓝 色</w>
借 助</w>
辩 护
锻 炼</w>
投 标</w>
执 照</w>
法律 顾问</w>
宪 法
多米尼 加共和国</w>
无 力</w>
巴巴 多斯</w>
会 长</w>
这 两项</w>
巴 格达</w>
证 券
次 年</w>
城市 化</w>
参 考
史密 斯</w>
发 育</w>
委 任</w>
保 留
极 为重要</w>
健康 状况</w>
不 良
马达加 斯加</w>
董 事长</w>
不 必要</w>
总 会</w>
波多 黎
运 人</w>
见 面</w>
9 0%</w>
19 69</w>
被 控</w>
回 忆</w>
人 身</w>
生 气</w>
孤 立</w>
资金 来源</w>
对 本</w>
动 用</w>
数 百
开 放
免 除</w>
规 划
判 定</w>
矿 物</w>
养老 金</w>
波多黎 各</w>
浏 览</w>
改 动</w>
e k
沉 重</w>
A s
各 州</w>
附 注</w>
而 易
划 拨</w>
三 方</w>
译 成</w>
反 复</w>
可 疑</w>
犯 人</w>
缴 付</w>
总 的
大 使馆</w>
这 会</w>
链 接</w>
使 人</w>
号 法</w>
可 怜</w>
良 心</w>
空 气
马 丁</w>
宪法 法院</w>
太阳 能</w>
人 选</w>
教育 权</w>
挂 钩</w>
仓 库</w>
六 月</w>
英译 汉</w>
引 擎</w>
律 师
高 达</w>
在 职</w>
修 理</w>
裁 减</w>
独立 国家</w>
再 也</w>
主 导
蔬 菜</w>
er s</w>
裁 判</w>
一 轮</w>
T D</w>
入 选</w>
战略 性</w>
妇女 组织</w>
ation al</w>
水 果</w>
街 道</w>
欧洲 共同体</w>
作出 反应</w>
心 脏</w>
孤 儿</w>
博茨 瓦纳</w>
更 是</w>
通 知
第五十 四届</w>
全国 性</w>
执 政</w>
便 宜</w>
百分 之
明 智</w>
前所 未有</w>
流 动性</w>
区域 间</w>
院 校</w>
联 苏</w>
生命 权</w>
最 早</w>
智 能</w>
编 入</w>
拘 押</w>
上 市</w>
毫 不</w>
讲 座</w>
圭 亚
里 斯</w>
奴 役</w>
人民 代表大会</w>
石 头</w>
往 来</w>
充分 考虑</w>
终 身</w>
新 增</w>
参 谋
调 解
逃 离</w>
里 程
疗 法</w>
中 立</w>
13 5</w>
文化 遗产</w>
指 引</w>
令人 遗憾</w>
他 于</w>
路 易
血 液</w>
主义 者</w>
查 看</w>
M u
闭 幕</w>
房 舍</w>
之 类</w>
心 灵</w>
保护 措施</w>
插 入</w>
平 面</w>
隔离 墙</w>
侧 重</w>
胁 迫</w>
罢 工</w>
长期 以来</w>
二 人</w>
便 利
气 象
服务 业</w>
在 场</w>
诗 人</w>
性 格</w>
早 年</w>
文 学
原 文</w>
典 礼</w>
戈 兰</w>
持 续
氯 化</w>
约 定</w>
睡 眠</w>
几 项</w>
词 汇</w>
不 丹</w>
机器 人</w>
限 额</w>
经 典</w>
本 周</w>
干 部</w>
遥 感</w>
替 换</w>
协商 会议</w>
征 得</w>
讨 厌</w>
可 爱</w>
3 9
社 团</w>
接 种</w>
生产 率</w>
形 状</w>
五 月</w>
13 3</w>
确 性</w>
展 现</w>
源 自</w>
塔 尼亚</w>
联 委会</w>
只 不过</w>
恐 怕</w>
字 母</w>
s p
海 啸</w>
科学 研究</w>
地 向</w>
不 法行为</w>
a j
开发 银行</w>
决 定性</w>
伊拉克 政府</w>
分 组</w>
阿拉伯 国家联盟</w>
感 器</w>
害 人</w>
支 撑</w>
两 国
婚 姻
深 感</w>
体 内</w>
经济 合作
乐 队</w>
认 知</w>
2. 2</w>
联合国 人口
联合国人口 基金</w>
呈 现</w>
飞 行
C om
获 准</w>
很 小</w>
Th e</w>
法 郎</w>
科 学院</w>
互 助</w>
易 于</w>
资 讯
强 劲</w>
偷 运</w>
深 化</w>
拿 到</w>
亿 元</w>
一 整
主管 机构</w>
填 写</w>
不可 分割</w>
t er</w>
特别 法庭</w>
四 月</w>
心 情</w>
交 谈</w>
t s</w>
量 化</w>
仿 真</w>
贫 民
民 政</w>
斡 旋</w>
遵 约</w>
记 录
传 输</w>
短 暂</w>
总 统
无 数</w>
次 世界大战</w>
暴 露</w>
热 带</w>
最 终
面 试</w>
中 东
C M
连 贯</w>
一 向</w>
过 时</w>
议 案</w>
传 达</w>
人 称</w>
讲 述</w>
四 川</w>
1. 2</w>
英 尺</w>
壁 垒</w>
述 及</w>
二 级</w>
机 械
多 重</w>
跟 随</w>
周 知</w>
20 .
麻醉 品</w>
务 部</w>
薄 弱</w>
17 0</w>
身 心</w>
出 席会议</w>
签 约</w>
演 唱</w>
拘 禁</w>
东 方</w>
早 些时候</w>
自 主权</w>
大 程度</w>
蓄 意</w>
物 流</w>
长 度</w>
沃 尔
吃 饭</w>
合 理
一 把</w>
有 毒</w>
交 叉</w>
上 海
时 应</w>
一致 意见</w>
家 乡</w>
第一 款</w>
按 时</w>
传 统
早 就</w>
惊 人</w>
革 新</w>
P S</w>
拖 欠</w>
早 已</w>
大会 决议</w>
圭亚 那</w>
暗 示</w>
毛里 塔尼亚</w>
众 议院</w>
采取 任何</w>
生 日</w>
各 省</w>
运动 会</w>
18 2</w>
在此 期间</w>
尺 寸</w>
富 裕</w>
第一 位</w>
发 病率</w>
着 眼
信 誉</w>
交易 所</w>
公 然</w>
浙 江</w>
公 爵</w>
东 北</w>
人 工</w>
太 空</w>
里 约
年 份</w>
G DP</w>
通知 书</w>
供应 链</w>
生产 者</w>
多 方</w>
名 誉</w>
布雷 顿</w>
不可 避免</w>
高度 重视</w>
订 单</w>
车 队</w>
cl ass</w>
教 材</w>
托 管</w>
an i</w>
调查 表</w>
拍 卖</w>
下 滑</w>
检察 院</w>
13 6</w>
卡 拉</w>
通 胀</w>
似 的</w>
上 班</w>
同 一个</w>
cl ass
第三 章</w>
相 称</w>
5 7
u c
4 8
总 经理</w>
吸 取</w>
保 卫</w>
t e
N A</w>
第 八</w>
门 口</w>
冒 险</w>
努力 实现</w>
高 效率</w>
不 出</w>
有 化</w>
列 表</w>
绝 不</w>
布 拉
修 订
多边 贸易</w>
全 额</w>
虚 拟</w>
学 习
罪 名</w>
开 车</w>
传 感器</w>
否 定</w>
约 会</w>
分 配
as h
致 力</w>
结 核</w>
文 件
严 肃</w>
迫 切</w>
动 产</w>
医疗 保险</w>
液 体</w>
大 陆
硬 件</w>
单 曲</w>
f f
伊斯 坦
从 不</w>
足 球
忧 虑</w>
空 白</w>
常 任
性别 歧视</w>
贝 巴</w>
特 丹</w>
派 驻</w>
制 备</w>
勇 敢</w>
当 事</w>
开 心</w>
三 天</w>
鹿 特丹</w>
审 核</w>
兑 现</w>
总 局</w>
之 为</w>
第十 条</w>
非洲 人</w>
增 加
被 判</w>
从 此</w>
面 包</w>
亚 洲
艰 苦</w>
忍 受</w>
太 多</w>
军 备
谈 谈</w>
该 次</w>
地 质</w>
册 子</w>
一 无
er s
亚 贝巴</w>
a ch
B ar
深 度</w>
样 品</w>
军备 竞赛</w>
金 牌</w>
e y</w>
接 替</w>
古 代</w>
贯 彻</w>
斯 亚贝巴</w>
关 岛</w>
交 存</w>
严格 遵守</w>
祖 国</w>
发 布
药 物
负 面</w>
亚历 山
1 31</w>
哈 马</w>
尼 尔</w>
桥 梁</w>
生产 性</w>
增 效</w>
北 美</w>
年 内</w>
声 援</w>
日常 生活</w>
阿卜 杜
军 方</w>
紧 缩</w>
us t
马 克
C O</w>
游 行</w>
对 面</w>
众 所
明 朝</w>
行 李</w>
14 1</w>
兴 奋</w>
it y</w>
下 属</w>
行政 长官</w>
研究 员</w>
没 什么</w>
外 来</w>
第六十 六</w>
姐 姐</w>
19 46</w>
南 北</w>
亚 的
亚的 斯亚贝巴</w>
搜 查</w>
宣 读</w>
火 器</w>
三 月</w>
除 此
保持 一致</w>
格林 纳
得 起</w>
附 表</w>
表 达
S al
应 收款</w>
点 击</w>
经常 性</w>
同 步</w>
复 审</w>
两 周</w>
众所 周知</w>
差 旅</w>
之 子</w>
饮 料</w>
问 卷</w>
人 会</w>
小 规模</w>
伊斯坦 布尔</w>
急 剧</w>
弹 性</w>
差 不多</w>
扶 贫</w>
牛 奶</w>
自 卫</w>
省 级</w>
支 票</w>
名 叫</w>
大 厦</w>
创 意</w>
措 词</w>
非 统
非统 组织</w>
居 留</w>
瓦 共和国</w>
摩尔多 瓦共和国</w>
句 子</w>
贵 国</w>
预 审</w>
探 测</w>
墨西 哥
公 式</w>
航 班</w>
神 圣</w>
投 降</w>
ti on</w>
r ic
4 7
减 灾</w>
领 事</w>
陪 同</w>
肇 事
德 尔</w>
委 书记</w>
姐 妹</w>
以 免</w>
七 月</w>
拉 姆</w>
舒 适</w>
征 税</w>
含 水
兵 役</w>
关 系
季 节</w>
联合 行动</w>
里程 碑</w>
水 域</w>
利 用
省 份</w>
贵 族</w>
知 名
暴 行</w>
发 动机</w>
毫 不
内 心</w>
住 宿</w>
被 害人</w>
在 家</w>
几 位</w>
执行 机构</w>
答 辩</w>
洪 水</w>
混 凝
保险 公司</w>
人 大
资讯 科技</w>
16 9</w>
非 法
直 布罗
多元 化</w>
小 册子</w>
一 颗</w>
数 以
社 交</w>
大 夫</w>
叫 做</w>
14 2</w>
日 程</w>
不 论
战略 方针</w>
一 大
承担 责任</w>
专 注</w>
不 停</w>
I M
19 63</w>
国 有</w>
o l</w>
环境 影响</w>
玩 具</w>
索 取</w>
希 尔</w>
天 使</w>
弱 点</w>
保 养</w>
拥 挤</w>
扫 描</w>
供 给</w>
疯 狂</w>
犯罪 活动</w>
伯 爵</w>
电 路</w>
汲 取</w>
反 应
共和 党</w>
美 联
揭 示</w>
杀 人</w>
取 向</w>
3. 2</w>
作 证</w>
飞 离</w>
防 护</w>
便利 化</w>
on g</w>
i p
C H
出 场</w>
立法 机构</w>
生 素</w>
走 上</w>
变 为</w>
刑事 犯罪</w>
强 行</w>
利 益
多 样</w>
人 质</w>
第二十 二
愿 景</w>
连 任</w>
历史 性</w>
大 麻</w>
装 饰</w>
尤 为</w>
节 日</w>
种 群</w>
起 义</w>
私 人
M an
合 办</w>
注 销</w>
视 角</w>
发 电</w>
N e
朝 廷</w>
13 9</w>
部长 会议</w>
产 值</w>
沙 特</w>
俄 国</w>
懂 得</w>
车 站</w>
相 成</w>
族 群</w>
干 净</w>
生 育
裁 撤</w>
中央 政府</w>
统计 资料</w>
着眼 于</w>
红十 字</w>
强制 执行</w>
动 画</w>
构 造</w>
电 力
管理 部</w>
罗 伯特</w>
经 由</w>
战略 规划</w>
药物 滥用</w>
客 户
相 辅
选择 性</w>
现 况</w>
饭 店</w>
相辅 相成</w>
相互 作用</w>
克 斯坦共和国</w>
令人 鼓舞</w>
14 3</w>
社会 保险</w>
限 制性</w>
外 汇</w>
前 途</w>
市 镇</w>
雇 佣</w>
丧 生</w>
芝 加
有 效率</w>
平等 权利</w>
肇事 者</w>
蛋 白
变 量</w>
消耗 性</w>
参 议员</w>
亲 王</w>
刊 登</w>
财政 年度</w>
彻 底
出 入</w>
营 业</w>
兵 力</w>
元 区</w>
14 5</w>
潜 能</w>
发言 稿</w>
从 业
暴力 事件</w>
承包 者</w>
以色列 政府</w>
退 役</w>
德 拉</w>
s k
收 获</w>
接 受
混凝 土</w>
欧 元区</w>
16 2</w>
道 歉</w>
侵 权
二 苯
软 件
的 是</w>
多 巴
活 动
市场 经济</w>
曲 线</w>
印 尼</w>
详细 资料</w>
技术 性</w>
升 任</w>
考 验</w>
存 放</w>
学 年</w>
飞 越</w>
4 000</w>
13 7</w>
第二十 届</w>
r y</w>
余 留</w>
很 长</w>
常 委会</w>
免 于</w>
第二十 三届</w>
加 蓬</w>
成 千
u g
注 入</w>
土著 居民</w>
管理 工作</w>
同 盟</w>
16 6</w>
综 述</w>
传 送</w>
i on</w>
我 方</w>
上 万</w>
步 伐</w>
队 员</w>
10 0%</w>
原 子</w>
随 即</w>
纯 粹</w>
洛 杉
厨 房</w>
而 定</w>
原 有</w>
第八 条</w>
14 4</w>
19 66</w>
二苯 醚</w>
应 力</w>
市 政</w>
原 件</w>
P V</w>
多 方面</w>
塑 料</w>
b er
时 尚</w>
反 叛</w>
真 理</w>
一 并</w>
重 量</w>
集 体
e x</w>
挖 掘</w>
发表 意见</w>
糖 尿
现 时</w>
盈 余</w>
高 等</w>
隐 藏</w>
民 航</w>
尽量 减少</w>
15 00</w>
风 暴</w>
泡 沫</w>
停 留</w>
画 家</w>
一 台</w>
六 十
切 尔
避 孕
禁 产</w>
不 清</w>
公 职人员</w>
赋 权</w>
承 办</w>
日 刊</w>
寻 常</w>
天 文
附 有</w>
疗 效</w>
数 字
基 线</w>
视 觉</w>
检 讨</w>
万 名</w>
新闻 稿</w>
密切 相关</w>
多 元</w>
外交 政策</w>
一 对</w>
跨 部门</w>
粮食 计划署</w>
世界 粮食计划署</w>
尔 顿</w>
咱 们</w>
近 来</w>
不 太
事务 所</w>
习惯 法</w>
组 件</w>
传染 性</w>
垄 断</w>
旋 转</w>
2. 5</w>
生物 武器</w>
环境 卫生</w>
四 名</w>
受益 者</w>
把 握</w>
不 限</w>
不 利于</w>
预 报</w>
h m
舞 蹈</w>
介 绍
毒 素</w>
窗 户</w>
油 价</w>
战 士</w>
直布罗 陀</w>
最低 工资</w>
幼 儿
铲 除</w>
情 节</w>
大 致</w>
危险 废物</w>
依 赖于</w>
九 月</w>
五 名</w>
犯罪 者</w>
产 物</w>
全 新</w>
o k
对 照</w>
一 倍</w>
19 68</w>
战略 目标</w>
or g
行 星</w>
校 园</w>
毁 坏</w>
控 告</w>
十 七届</w>
春 天</w>
山 东</w>
财 力</w>
合 同
第 九</w>
发展 部</w>
军 区</w>
c on
14 6</w>
航 天</w>
审 判
r o</w>
5 8
宣 告</w>
土地 利用</w>
侦 察
联合国 粮食
联合国粮食 及
联合国粮食及 农业
联合国粮食及农业 组织</w>
女 王</w>
2 35</w>
注 明</w>
放 缓</w>
不 住</w>
急 性</w>
2 20</w>
波 恩</w>
大 胆</w>
一 番</w>
货币 基金</w>
伯 利</w>
无 可
仆 人</w>
莱 德</w>
休 假</w>
人口 普查</w>
剂 量</w>
毛 泽
树 立</w>
这 句</w>
阿 里</w>
激 发</w>
安全 性</w>
上 网</w>
选 票</w>
这 点</w>
分 项</w>
规 格</w>
筹备 会议</w>
等 到</w>
书记 官</w>
老 鼠</w>
所 定</w>
前 来</w>
联合国 安全
联合国安全 理事会</w>
哈 兹</w>
_ _
新闻 界</w>
所 起</w>
初 始</w>
劳动 法</w>
资 料
届 满</w>
成千 上万</w>
期 徒刑</w>
4 6
职业 生涯</w>
光 绪</w>
旅 行
拉 巴
相 处</w>
简 短</w>
en d
高 速</w>
途 中</w>
草 拟</w>
舆 论</w>
实 况</w>
埃 尔</w>
In tern
里 奥</w>
研 训</w>
特 许</w>
后 期</w>
食 品
实 用
审 视</w>
扭 曲</w>
个 性</w>
服 从</w>
侵权 行为</w>
糖尿 病</w>
实 时</w>
大 于</w>
请 愿</w>
第六 十</w>
结 核
阿布 哈兹</w>
密 码</w>
推 定</w>
4 9
操 纵</w>
电 脑
也 就是说</w>
第十二 条</w>
上 限</w>
百 万美元</w>
时 光</w>
一 职</w>
死 去</w>
阿 曼</w>
附 带</w>
某种 程度</w>
河 流</w>
首 位</w>
获 释</w>
一 次
手 里</w>
邻 居</w>
国家 计划</w>
编 码</w>
纳 尔</w>
医 药</w>
线 路</w>
蒙 古
捕 鱼</w>
独 自</w>
仅 限于</w>
15 6</w>
必要 条件</w>
开 罗</w>
联 盟
审 批</w>
大 声</w>
二 十年</w>
负 担
西 亚
核 心
奴 隶
女 工</w>
性 健康</w>
中 欧</w>
司法 程序</w>
嫌疑 人</w>
加 以
含水 层</w>
东 省</w>
被 告
继续 加强</w>
有 形</w>
宗教 信仰</w>
14 7</w>
出 资</w>
享 年</w>
购 物</w>
漫 长</w>
心 脏
红十字 会</w>
瑞 士
汽 油</w>
特 派</w>
沮 丧</w>
u k
避 孕</w>
长 远</w>
商 标</w>
局 部</w>
民主 化</w>
冷 战</w>
演 唱
误 解</w>
永 久
冬 天</w>
金融 服务</w>
转 入</w>
树 木</w>
前 者</w>
定 价</w>
15 7</w>
表 述</w>
法 制</w>
而 来</w>
今 天
奖 项</w>
智 力</w>
常任 理事</w>
天 内</w>
走 出</w>
公 顷</w>
八 月</w>
迈 克尔</w>
飓 风</w>
露 出</w>
特 立
安 娜</w>
博 士学位</w>
金 伯利</w>
加 利
E l
登 上</w>
系统 性</w>
保 守</w>
保 人</w>
文 盲</w>
V I</w>
已 知</w>
累 计</w>
移 植</w>
常 委</w>
估 值</w>
多巴 哥</w>
加 紧</w>
坦桑 尼亚</w>
最 长</w>
长 子</w>
加 州</w>
应 计</w>
第四 章</w>
总 之</w>
造 林</w>
an t
事 后</w>
佛 教</w>
联 大</w>
建 成</w>
活 着</w>
演 奏</w>
总 监</w>
林 顿</w>
塞浦路 斯
私 有化</w>
实 习</w>
饮 水</w>
炮 弹</w>
r e</w>
四 次</w>
昨 日</w>
切实 有效</w>
不同 于</w>
无 须</w>
无 意</w>
帮 忙</w>
省 委</w>
日本 政府</w>
定 稿</w>
受到 限制</w>
缔 约</w>
健康 权</w>
不 敌</w>
函 件</w>
27 0</w>
座 位</w>
结构 调整</w>
指 望</w>
餐 馆</w>
圣诞 节</w>
硕 士</w>
联络 小组</w>
剧 院</w>
欺 骗</w>
敏 感
an g</w>
2 10</w>
法 学</w>
渐 渐</w>
巴 尔
跨 越</w>
绘 画</w>
处 分</w>
一 声</w>
自 豪</w>
勋 章</w>
19 58</w>
犹 太</w>
资 发</w>
贿 赂</w>
新生 儿</w>
信用 证</w>
走 廊</w>
身 分</w>
采 集</w>
选 区</w>
詹 姆斯</w>
监护 人</w>
脂 肪</w>
竞争 性</w>
发 票</w>
联盟 共和国</w>
基础 教育</w>
南斯拉夫 联盟共和国</w>
创造 性</w>
附 加
印 第
下 届</w>
称 之为</w>
大 门</w>
频 道</w>
该 处</w>
志愿 者</w>
er n
基 石</w>
尽 全力</w>
关键 因素</w>
最 具</w>
降 至</w>
过 多</w>
路 径</w>
爱 德
出 庭</w>
流 域</w>
分析 师</w>
只 好</w>
培训 中心</w>
快 速
魅 力</w>
业 主</w>
战 术</w>
钥 匙</w>
证 明
星期 六</w>
不论 是</w>
日 向</w>
半 数</w>
疼 痛</w>
一 节</w>
多 久</w>
装 箱</w>
两 家</w>
首 个</w>
对 外
之 友</w>
结核 病</w>
参 阅</w>
这 条</w>
挑 战
九 个</w>
第二 款</w>
肌 肉</w>
15 4</w>
显 而易
显而易 见</w>
二 月</w>
为 例</w>
伯 利
雷 达</w>
监督 机构</w>
贸易 协定</w>
头 脑</w>
加 迪
列 报</w>
5 6
慢 性</w>
不 行</w>
电视 节目</w>
战 后</w>
温 暖</w>
头 上</w>
艺 人</w>
仲裁 庭</w>
大陆 架</w>
凯 恩</w>
2 1.
报 价</w>
控制 系统</w>
根 据
文 档</w>
研究 院</w>
联 阿</w>
演 习</w>
特立 尼
议 会
无 线</w>
一 处</w>
西班牙 文</w>
机 密</w>
破坏 性</w>
留 学</w>
交通 运输</w>
索 托</w>
申请 书</w>
开 展
毁 灭</w>
发电 机</w>
十二 月</w>
伪 造</w>
教 室</w>
大会 堂</w>
会 面</w>
仿 佛</w>
致 函</w>
增 大</w>
党 员</w>
一 根</w>
远 地区</w>
敌 方</w>
内 政</w>
激 光</w>
清 朝</w>
应 收</w>
15 1</w>
贫民 窟</w>
舒 服</w>
耐 心</w>
圣 经</w>
否 决</w>
进 出</w>
L A
竞争 法</w>
奉 行</w>
九 龙</w>
高 校</w>
室 内</w>
28 .
领 先</w>
地 方
逾 期</w>
多 尼亚</w>
时 常</w>
国际 贸易
阿拉伯 语</w>
污 水</w>
这 张</w>
巴 哈马</w>
现 金
19 64</w>
卫 队</w>
时 任</w>
洛杉 矶</w>
团 结
正 好</w>
无 罪</w>
新 鲜</w>
不 上</w>
温 和</w>
外 汇
维 尔
纺 织
上 将</w>
第二 节</w>
制 度
沙 漠</w>
管理 员</w>
十 月</w>
意 识
在 外</w>
缺 席</w>
组 成员</w>
全 民</w>
怎么 办</w>
日 志</w>
打 死</w>
特 有</w>
第一 份</w>
第二 项</w>
湖 区</w>
新 几内亚</w>
数 年</w>
制 成</w>
驱 逐
味 道</w>
定居 者</w>
各项 措施</w>
摩 纳
就 任</w>
2 51</w>
资源 分配</w>
普遍 存在</w>
急 需</w>
基 伍</w>
和平 部队</w>
估 价</w>
方 程</w>
贯 穿</w>
履 约</w>
该 案</w>
神 秘</w>
参谋 长</w>
演唱 会</w>
屏 幕</w>
4. 1</w>
艰 巨</w>
眼 前</w>
审计 报告</w>
凭 借</w>
全 力支持</w>
营 造</w>
精 度</w>
主 演</w>
总 收入</w>
性 行为</w>
重 计</w>
结 成</w>
就 此
威 士
ar d
西 撒</w>
合 金</w>
表 决权</w>
加迪 沙</w>
创 新
非 盟</w>
引 人
所 罗
希 族</w>
催 化
an n
学 业</w>
出 租
S ch
规 范
2 26</w>
集 合</w>
国 有
以 使</w>
检查 站</w>
乐 团</w>
殖民 主义</w>
搬 迁</w>
喀 里
据 估计</w>
拓 展</w>
喀里 多尼亚</w>
交流 信息</w>
矿 业</w>
毕 竟</w>
不 时</w>
S C</w>
合理 化</w>
发表 声明</w>
隐 私</w>
纷 纷</w>
录 像</w>
密 集</w>
政 协</w>
至 迟</w>
参与 性</w>
最 有</w>
2 3.
岩 石</w>
逃 避</w>
平 行</w>
侦察 机</w>
米 兰</w>
毛泽 东</w>
创 收</w>
运 载
大 气
椅 子</w>
时 所</w>
射 入</w>
使 团</w>
人 家</w>
边 界
摩 加迪沙</w>
三 角</w>
般 的</w>
淡 水</w>
建 立
国 情</w>
分 成</w>
六 种</w>
减 至</w>
不 能
侵 入</w>
I P
亚历山 大</w>
14 8</w>
参 见</w>
数 十
多 万</w>
这 名</w>
十 一</w>
已 婚</w>
列 明</w>
载 入</w>
臭 氧
移 动
司 马</w>
译 员</w>
红十字 国际
红十字国际 委员会</w>
4. 2</w>
访 者</w>
情 景</w>
本 土</w>
16 1</w>
聘 请</w>
不 太</w>
15 2</w>
侍 郎</w>
提高 效率</w>
射 击</w>
业 界</w>
法 兰
残 酷</w>
启 用</w>
两 倍</w>
意识 形态</w>
平方 米</w>
通 讯
中 为</w>
少 量</w>
师 范
范 例</w>
携 手</w>
消费 量</w>
条 中</w>
严重 性</w>
目 睹</w>
一 新</w>
15 8</w>
病 逝</w>
技术 咨询</w>
将 领</w>
消 极
四 分之一</w>
斯 克</w>
克 莱
等 国</w>
控制 措施</w>
es t
J oh
政 变</w>
履行 职责</w>
19 47</w>
E S</w>
简 称</w>
简 易</w>
特立尼 达
重 债</w>
标 识</w>
德 斯</w>
第七 章</w>
援 国</w>
白 宫</w>
学 士</w>
机 会
复 合</w>
不 懈</w>
评 审</w>
巴布 亚
祈 祷</w>
上 来</w>
撤 消</w>
床 上</w>
嫁 给</w>
19 0</w>
巴布亚 新几内亚</w>
a i</w>
波 黑</w>
预 备</w>
提 示</w>
巴 斯</w>
受 援国</w>
随 函</w>
都 市</w>
此 举</w>
特立尼达 和
特立尼达和 多巴哥</w>
1. 5</w>
咖 啡
值得 注意</w>
保护 环境</w>
臭氧 层</w>
手 指</w>
诞 生</w>
天 津</w>
省 长</w>
南 省</w>
莎 白</w>
帽 子</w>
中 华</w>
S p
零 售
生物 学</w>
导 向</w>
阿 鲁
评 级</w>
形 容</w>
四 周</w>
冈 比亚</w>
外 国
入 球</w>
黄 色</w>
转 为</w>
身 为</w>
总 计</w>
充 满
常务 委员会</w>
阻 挠</w>
越 境</w>
该 股</w>
节 余</w>
务 实</w>
转 达</w>
事务 局</w>
此 处</w>
名 词</w>
火 灾</w>
汇 集</w>
酒 吧</w>
起 飞</w>
斯 顿</w>
货币 政策</w>
极 其
新 喀里多尼亚</w>
缺 口</w>
信用 卡</w>
严重 威胁</w>
天 皇</w>
口 粮</w>
单 个</w>
乃 至</w>
老 挝
冬 季</w>
表 现
随 之</w>
提 问</w>
主管 机关</w>
特别 强调</w>
u m</w>
折 磨</w>
14 9</w>
转 会</w>
绝 望</w>
出版 社</w>
PR ST</w>
政 局</w>
无 家
陪 伴</w>
斯 科
蛋白 质</w>
审 前</w>
加 利</w>
生 病</w>
称 作</w>
过渡 政府</w>
流 产</w>
悲 伤</w>
r ou
表示 满意</w>
封 闭</w>
例 句</w>
审 慎</w>
兰 政府</w>
一次 性</w>
热 线</w>
队 友</w>
A P
访 谈</w>
老挝 人民
无家 可
2. 3</w>
海 运</w>
月 球</w>
筛 选</w>
宪 政</w>
义务 教育</w>
学 历</w>
华 尔
周 一</w>
货 运</w>
篮 球</w>
物 理
传 说</w>
on e</w>
野 生</w>
传 染</w>
变 形</w>
理 事
偶 尔</w>
集 装箱</w>
经营 者</w>
前 体</w>
立 学校</w>
20 8</w>
界 面</w>
理事 国</w>
上 校</w>
除此 之外</w>
分 工</w>
莱 索托</w>
概 括</w>
排 列</w>
扣 除</w>
高 速
深 远</w>
行 列</w>
保 守
继续 执行</w>
永久 性</w>
既 有</w>
表示 遗憾</w>
国家 主权</w>
说 出</w>
一 阵</w>
一 枚</w>
惩 戒</w>
发 援</w>
参 选</w>
起 初</w>
坦 克</w>
3 50</w>
示 威
发布 会</w>
奖 金</w>
五 岁</w>
第二 期</w>
m a</w>
轻 易</w>
敌 军</w>
事 例</w>
转 运</w>
信 仰
发 射
限 定</w>
老挝人民 民主共和国</w>
目 光</w>
以 致</w>
跟 着</w>
可 信
被告 人</w>
直 接
防 卫</w>
总的 来说</w>
驾 驶
联 体</w>
身 体
芝加 哥</w>
美联 储</w>
其 为</w>
公 职</w>
16 5</w>
地 板</w>
储 备金</w>
税 率</w>
时 报</w>
专业 知识</w>
l a</w>
海 域</w>
核 对</w>
停 火
2 2
监 护</w>
容 许</w>
公 营</w>
一 时</w>
拒 绝
受 损</w>
符 号</w>
一 杯</w>
获 胜</w>
巨 大
上 半年</w>
澳 门
接 口</w>
19 54</w>
19 2</w>
无 限</w>
结 算</w>
开 启</w>
现 出</w>
e x
奥 尔
离 子</w>
威 尔</w>
贸易 和
贸易和 发展
贸易和发展 会议</w>
联合国 贸易和发展会议</w>
氯 化
6 000</w>
利害 关系</w>
一 遍</w>
天 下</w>
克 力</w>
优先 权</w>
之 地</w>
c om</w>
第一 批</w>
忠 诚</w>
第二十 四届</w>
血 统</w>
胀 率</w>
激 动</w>
办公 厅</w>
数 码</w>
独 联体</w>
低 成本</w>
鲁 特</w>
放 到</w>
27 .
近 几
哈 利</w>
船 上</w>
振 动</w>
佛 罗
商业 银行</w>
此 基础</w>
敌 对</w>
接 管</w>
少 年
辩护 律师</w>
废 料</w>
程序 性</w>
协 力</w>
伦 理</w>
骄 傲</w>
双 手</w>
以 求</w>
第七 次</w>
侮 辱</w>
澳 洲</w>
平等 待遇</w>
C l
医 务</w>
不 准</w>
有 何</w>
差 额</w>
不 动产</w>
A g
基本 法</w>
薪 水</w>
部 份</w>
3 5
第 一项</w>
B e
处 死刑</w>
我 愿</w>
出 示</w>
钢 琴</w>
武装 力量</w>
en n
牲 畜</w>
极其 重要</w>
亚 共和国</w>
开 枪</w>
次 页</w>
横 向</w>
人 心</w>
民 用
众 人</w>
届 时</w>
每 届</w>
摄 影</w>
抛 弃</w>
余 地</w>
付 给</w>
效 能</w>
分 阶段</w>
太 后</w>
申请 者</w>
原 谅</w>
殖 民</w>
t h</w>
E R
安 南</w>
保 管</w>
廉 价</w>
设计 师</w>
股 权</w>
生育 率</w>
多 达</w>
地 为</w>
包 围</w>
第二十 六条</w>
极 度</w>
P R</w>
公 平
适 应
检 索</w>
奴隶 制</w>
土 族</w>
球 场</w>
19 62</w>
缉 获</w>
保 育</w>
项目 管理</w>
吃 惊</w>
英 国人</w>
一 层</w>
三 年期</w>
一 案</w>
通 往</w>
财 产
河 南</w>
人 工
情 况
P h
少 于</w>
20 1</w>
联络 点</w>
切实 可行</w>
印度 洋</w>
K ar
轰 炸</w>
就 职</w>
地下 水</w>
凡 是</w>
三 人</w>
音乐 会</w>
心脏 病</w>
不 佳</w>
预 警
条 所</w>
第六十 九</w>
人 事
2 40</w>
自 我
两 大</w>
不 合理</w>
o y
16 7</w>
A N
汉 语</w>
单 身</w>
先 例</w>
阿卜 耶
玩 笑</w>
会计 师</w>
15 9</w>
驻 科</w>
注 册
博 客</w>
昨 晚</w>
政治 部</w>
掩 盖</w>
供 其</w>
下 落</w>
19 65</w>
f or</w>
D i
国际 金融</w>
I X</w>
禁 试</w>
深 表</w>
A S
回 事</w>
意大 利
2 13</w>
查 尔斯</w>
文 物</w>
索 偿</w>
2 4.
研究 者</w>
暗 杀</w>
is s
ar y</w>
领 地</w>
愚 蠢</w>
借 贷</w>
法 定
诚 意</w>
虚 假</w>
差 旅费</w>
取 缔</w>
勤 人员</w>
划 定</w>
页 面</w>
所 得
我 来</w>
团 聚</w>
机 理</w>
跳 舞</w>
天 堂</w>
来 讲</w>
总 产值</w>
消 防
阿拉伯 人</w>
增 值</w>
监 测
数 百万</w>
那 边</w>
苏 里
职 者</w>
新 疆</w>
承 运人</w>
广 告
c om
检 疫</w>
巧 克力</w>
出 演</w>
漫 画</w>
亚 军</w>
退休 金</w>
请 问</w>
咨询 机构</w>
E S
第二 次世界大战</w>
管理 制度</w>
外交 官</w>
一 切
18 3</w>
词 语</w>
耳 朵</w>
不 顾</w>
紧急 状态</w>
克 林顿</w>
特 尔</w>
做 些</w>
一 带</w>
乘 坐</w>
生产 商</w>
安 东
其 间</w>
议会 选举</w>
新 政府</w>
模 板</w>
构成 威胁</w>
报 名</w>
土耳 其
议 长</w>
管理 者</w>
或 非</w>
网 球</w>
斯 托
幻 想</w>
该 科</w>
赫 勒</w>
结果 显示</w>
登记 处</w>
布 什
m ent</w>
判 处死刑</w>
氧 化</w>
某 项</w>
更 高</w>
龄 化</w>
第十 七条</w>
V II</w>
零 售</w>
定 型</w>
联络 处</w>
摩纳 哥</w>
舍 尔</w>
6 8
营 利</w>
大 屠杀</w>
玛 丽
树 林</w>
付 诸
16 4</w>
19 55</w>
麦 克</w>
啤 酒</w>
汇 总</w>
无 权</w>
街 上</w>
联 系
19 56</w>
盈 利</w>
榜 样</w>
商品 价格</w>
老 龄化</w>
加利 福
随 意</w>
电 流</w>
负担 得起</w>
四 方</w>
下 达</w>
节 能</w>
安 静</w>
大 力支持</w>
放 置</w>
干 燥</w>
热 烈</w>
工 具
压 迫</w>
即 位</w>
伊 丽
制度 化</w>
一 封</w>
起 点</w>
破 裂</w>
武 器
占 用</w>
18 9</w>
发生 变化</w>
内 向</w>
销 量</w>
国 集团</w>
卓 越</w>
来 临</w>
开 来</w>
礼 貌</w>
适用 范围</w>
之 害</w>
下 半年</w>
生 理</w>
就此 结束</w>
原 告</w>
祝 福</w>
不 定</w>
并 入</w>
就 算</w>
碰 到</w>
着 重于</w>
歌 唱</w>
工作 日</w>
农业 部门</w>
市 政府</w>
2 6.
诗 歌</w>
升 高</w>
见 证</w>
2 11</w>
职 司</w>
教 员</w>
s e
牌 照</w>
血 压</w>
实 施
击 者</w>
码 头</w>
案 文
可 取</w>
产 阶级</w>
商 会</w>
贝 鲁特</w>
高 昂</w>
战 场</w>
介绍 性</w>
到 位</w>
热 爱</w>
速 效</w>
17 5</w>
遥 远</w>
浓 缩</w>
X V</w>
王 朝</w>
3. 3</w>
长 达</w>
圆 满
阿拉伯 文</w>
局 限于</w>
学 费</w>
签 署
塞浦路斯 共和国</w>
千 克</w>
o f
房 地</w>
防 扩散</w>
问 道</w>
调解 人</w>
几 周</w>
信仰 自由</w>
服 役</w>
完全 符合</w>
通 报
过 后</w>
贪 污</w>
缓 和</w>
收 支</w>
区 政府</w>
I C</w>
格 尔</w>
公 正
佛 得
一 艘</w>
总 署</w>
声 誉</w>
东 欧国家</w>
遗 传
签署 国</w>
年 任</w>
积 压</w>
水 泥</w>
图 表</w>
重大 贡献</w>
el l</w>
6 7
证 据
全 氟</w>
评 委</w>
16 3</w>
斯 塔
安 慰</w>
夜 晚</w>
球 迷</w>
以色列 国防军</w>
香港 特别行政区</w>
H ar
动 脉</w>
家 务</w>
在 一起</w>
自然 人</w>
兴 奋
勃 勃</w>
五 次</w>
当 今
英 文
广 阔</w>
船 长</w>
深 深</w>
中 说</w>
t a</w>
肤 色</w>
伊丽 莎白</w>
负 有
美洲 国家
美洲国家 组织</w>
玉 米</w>
法 医</w>
尔 特</w>
un d
安 盟</w>
序 列</w>
a w</w>
资 深</w>
第十 九届</w>
十 一月</w>
科 长</w>
管理 处</w>
福 建</w>
三 世</w>
结 社
年 纪</w>
19 52</w>
容 量</w>
外 情况</w>
例 外情况</w>
结社 自由</w>
摩 罗</w>
单 词</w>
思 路</w>
发 性</w>
本 函</w>
住 户</w>
一 步
奋 斗</w>
法律 依据</w>
汽 车
普遍 认为</w>
萨 赫勒</w>
开 辟</w>
听 众</w>
负有 责任</w>
执行 官</w>
食 用</w>
警 惕</w>
市 区</w>
岛 上</w>
全 都</w>
假 日</w>
西 斯</w>
竟 然</w>
折 扣</w>
坐 下</w>
澳大 利亚
干 什么</w>
追 查</w>
反 过来</w>
i e
租 用</w>
搜 集</w>
调查 员</w>
培 育</w>
2 5.
国 主义</w>
噪 音</w>
创造 条件</w>
再 生</w>
营 业
几 点</w>
擅 长</w>
悲 惨</w>
De c</w>
本 项</w>
教 廷</w>
准 确性</w>
两 类</w>
崇 高</w>
交换 意见</w>
o t</w>
2 30</w>
男 童</w>
微 软</w>
F A
旗 下</w>
外 籍</w>
本 港</w>
贯 彻
交 货</w>
侵 蚀</w>
进 修</w>
海 峡</w>
各 届</w>
合作 项目</w>
总 表</w>
想 想</w>
北 非</w>
水 道</w>
生殖 器</w>
日 军</w>
压 缩</w>
大 家庭</w>
联 发援</w>
阿卜耶 伊</w>
微 生物</w>
千 万</w>
零 件</w>
搜 寻</w>
在 实践
灾 后</w>
专 利
互 利</w>
金融 体系</w>
心理 学</w>
巴勒斯坦 国</w>
写 道</w>
公共 汽车</w>
I CC
17 3</w>
注 目</w>
欢 乐</w>
任 教</w>
错 过</w>
西 北</w>
长 久</w>
c o</w>
7 5%</w>
一 章</w>
所 能</w>
An d
电 站</w>
低 下</w>
A t
部 位</w>
太平 洋
鸿 沟</w>
中 间
等 候</w>
改 良</w>
定 量</w>
教科 书</w>
调 度</w>
巡 逻
相 机</w>
版 权</w>
每 当</w>
夜 间</w>
不 符</w>
力 图</w>
首 领</w>
2 27</w>
新 建</w>
数 学
兑 换</w>
第三 节</w>
即 时</w>
子 弹</w>
多 于</w>
o w</w>
索 引</w>
好 象</w>
与 非</w>
地理 信息系统</w>
村 民</w>
百分 点</w>
历 来</w>
通 行</w>
瑟 夫</w>
庄 严</w>
2 60</w>
进 球</w>
i an</w>
f or
中 介</w>
科 摩罗</w>
此 一</w>
制 定
财务 管理</w>
初 等教育</w>
是 非</w>
5 5
控 诉</w>
误 差</w>
未 曾</w>
尼 奥</w>
说 来</w>
最 少</w>
2 42</w>
分 支</w>
股 价</w>
失 效</w>
贬 值</w>
其 管辖</w>
电 器</w>
扩 充</w>
军 用
p or
m it
四 项</w>
精神 病</w>
下 表</w>
第五 章</w>
薪 资</w>
代 办</w>
交 战</w>
A hm
19 57</w>
御 史</w>
度 假</w>
u r</w>
B an
获 得
大 师</w>
北 极</w>
政 体</w>
党 人</w>
及 早</w>
2 2.
19 9</w>
奇 迹</w>
2 48</w>
双 语</w>
增 添</w>
P A</w>
达 尔</w>
你 好</w>
玫 瑰</w>
其 所</w>
4 4
酒 精</w>
调 用</w>
晚 餐</w>
西 非国家</w>
准 决赛</w>
争 夺</w>
精神 药物</w>
完 毕</w>
医 师</w>
al l</w>
19 37</w>
购 买
移 民
出 国</w>
以 至于</w>
电 信
海 水</w>
ar a</w>
送 往</w>
新 年</w>
在 乎</w>
in t</w>
每 人</w>
公共 秩序</w>
偶 然</w>
陪 审
有 机
当 地
16 8</w>
ic e</w>
缩 减</w>
周 五</w>
银 行业</w>
L O
模 仿</w>
试 验
技术 人员</w>
制 剂</w>
禁 毒
数 次</w>
一 员</w>
利益 冲突</w>
孤 独</w>
19 30</w>
司令 部</w>
日 于</w>
各 界</w>
保留 意见</w>
举 动</w>
重 要
格 局</w>
来 文
感染 者</w>
应 于</w>
em b
轻 微</w>
动 物
法律 法规</w>
罗 姆</w>
球 会</w>
中 等教育</w>
三 国</w>
at h
邻 近</w>
播 出</w>
应 立即</w>
注 视</w>
余 下</w>
2 500</w>
赫 尔
有效 期</w>
弗 朗
访问 团</w>
运 费</w>
语 言
深 受</w>
所 称</w>
高 峰</w>
竞争 对手</w>
不 肯</w>
公 司
各个 领域</w>
代表 作</w>
十 五</w>
偏 离</w>
绘 制</w>
经 纪</w>
手 工</w>
外 勤人员</w>
收 藏</w>
强 烈
此 人</w>
东 非</w>
熟 练</w>
兴 建</w>
R D</w>
17 2</w>
布 林
共 处</w>
机会 均等</w>
姿 态</w>
县 级</w>
丢 失</w>
灌 溉</w>
大 道</w>
史 蒂
喂 养</w>
始 于</w>
之 三</w>
es s
空气 污染</w>
全 年</w>
水 中</w>
安全 措施</w>
中 文
迁 徙</w>
对 称</w>
诺 贝尔
r u
at e</w>
五 日</w>
人员 编制</w>
彻底 消除</w>
20 3</w>
动 词</w>
隧 道</w>
娱 乐
览 会</w>
Su b</w>
18 5</w>
得 多</w>
那 次</w>
RE S</w>
夺 取</w>
刊 物</w>
琼 斯</w>
演 说</w>
人大 常委会</w>
第十 六届</w>
电 讯</w>
谷 歌</w>
浪 漫</w>
佛得 角</w>
开 关</w>
三 级</w>
17 4</w>
营 运</w>
地 球
从业 人员</w>
人身 安全</w>
煤 炭</w>
加 共体</w>
一 期</w>
西 省</w>
布 拉</w>
使用 权</w>
森 特</w>
决 不</w>
五 十</w>
视 听</w>
墙 上</w>
乐 意</w>
p l
发 现
反 抗</w>
19 59</w>
书 院</w>
B l
坚 实</w>
造 福</w>
第十 五届</w>
参 谋</w>
麦 克
高 尔
监督 管理</w>
十 字
在实践 中</w>
重 庆</w>
2 14</w>
有 望</w>
乡 试</w>
赤 道
赛 会</w>
禁毒 署</w>
出 缺</w>
流 失</w>
P et
建立 联系</w>
1 200</w>
压 制</w>
期 刊</w>
个人 资料</w>
友 好
政策 措施</w>
创 始
思 想
略 有</w>
断 定</w>
评 定</w>
中 山</w>
1 29
消极 影响</w>
同 志</w>
武 库</w>
天 基</w>
合 计</w>
各 不
奥林匹 克</w>
光 明</w>
玻 璃
法律 义务</w>
因 子</w>
终 结</w>
第一 年</w>
移 居</w>
会议 厅</w>
率 为</w>
童 年</w>
牙 齿</w>
低 估</w>
稳 步</w>
管 局</w>
第 纳尔</w>
占领 军</w>
案 子</w>
印 机</w>
相关 者</w>
小组 会议</w>
焦 虑</w>
哈 马斯</w>
城 乡</w>
即 决</w>
安 提
国民 经济</w>
一 门</w>
体育 运动</w>
e m</w>
应 从</w>
入 口</w>
i on
写 信</w>
随 机</w>
第十 七届</w>
新 生</w>
教 导</w>
特 里</w>
核 设施</w>
农 发</w>
贝 利</w>
从 来
摄 影
律师 协会</w>
图 书</w>
十 周年</w>
拜 访</w>
乾 隆</w>
纳 斯</w>
得 益于</w>
十 个</w>
第十 八届</w>
CM P</w>
精 算</w>
江 苏</w>
育 儿</w>
京 群岛</w>
继续 下去</w>
一 头</w>
弹 道
不 下</w>
未 成年</w>
口 语</w>
东 北
证 会</w>
最 快</w>
还 给</w>
有所 改善</w>
受 伤害</w>
辞 去</w>
中 应</w>
抵 触</w>
局 局长</w>
各不 相同</w>
印第 安
偿 付</w>
美 属</w>
硕 士学位</w>
走 过</w>
6 9
教育 领域</w>
塑 造</w>
I CE
括 号</w>
增 列</w>
小 国</w>
中 旬</w>
诽 谤</w>
约 法</w>
产 业
规划 系统</w>
艾 哈
科 研</w>
监察 组</w>
庇 护
表 情</w>
描 绘</w>
充 实</w>
逐 字</w>
性 化</w>
er v
进 化</w>
户 主</w>
母 语</w>
欧 共体</w>
泰 勒</w>
1. 3</w>
道 德
转 录</w>
5 3
控制 权</w>
覆盖 面</w>
听 证会</w>
上 级</w>
维尔 京群岛</w>
信 徒</w>
氛 围</w>
性 取向</w>
学 到</w>
伊 尔</w>
经 纪
混 合物</w>
颗 粒</w>
约 瑟夫</w>
期 限
单 纯</w>
中 以</w>
华 人</w>
加拿 大
亲 密</w>
三 位</w>
201 9</w>
维 持
而 成</w>
国民 政府</w>
十二 条</w>
比 较
A T
派 别</w>
它 会</w>
D NA</w>
普 林
I T
富 有
大 为</w>
揭 露</w>
借 款</w>
17 1</w>
18 6</w>
州 长</w>
反 驳</w>
不 该</w>
关键 性</w>
重新 考虑</w>
摆 在</w>
母 婴</w>
话 说</w>
留 给</w>
捷 克</w>
民用 航空</w>
偶 像</w>
古 巴
借 此</w>
节 度
节度 使</w>
M ich
海洋 生物</w>
S a
国际 性</w>
迪 西</w>
极 了</w>
江 西</w>
详细 情况</w>
19 40</w>
评 论
警 务人员</w>
建 议
缅 甸
期限 内</w>
喀 布尔</w>
敏感 性</w>
善 于</w>
m an
自 称</w>
有所 不同</w>
联 伊</w>
奥林匹 克
2. 4</w>
t on</w>
洛 斯</w>
男 生</w>
法律 效力</w>
希 腊
反对 党</w>
屋 顶</w>
何 处</w>
卫 者</w>
从来 不</w>
兴奋 剂</w>
一般 来说</w>
课 堂</w>
发生 率</w>
5. 2</w>
游 说</w>
阴 影</w>
S am
寡 妇</w>
原 名</w>
高 出</w>
匮 乏</w>
改 编</w>
审 案</w>
大 厅</w>
零 部件</w>
倾 听</w>
粒 子</w>
挫 折</w>
讽 刺</w>
小 麦</w>
邪 恶</w>
利 物
投 标
件 事</w>
一 小
综 管</w>
抵 御</w>
节 点</w>
功 率</w>
规范 性</w>
红 新
布什 总统</w>
进 党</w>
宗教 自由</w>
废 水</w>
促 进
千 美元</w>
信息 管理</w>
部 族</w>
媒 体
减 排</w>
甚 么</w>
理 工
交 由</w>
提出 申请</w>
不 及</w>
13 25</w>
订 购</w>
爱德 华</w>
争 辩</w>
迟 到</w>
移动 电话</w>
湖 南</w>
弹道 导弹</w>
e h</w>
卫生 部门</w>
滥 用
装 运</w>
精 英</w>
大 城市</w>
英 联邦</w>
歇 尔</w>
服 兵役</w>
外 聘</w>
充分 发挥</w>
V III</w>
10 000</w>
联合 体</w>
炸 药</w>
免 疫
如 上</w>
is h
点 钟</w>
检 察</w>
托 马斯</w>
午 餐</w>
祝 愿</w>
一 款</w>
死 后</w>
灾 难
当今 世界</w>
意 见
审 定</w>
不 去</w>
石 棉</w>
拘 留
真 实
18 4</w>
预警 系统</w>
所得 税</w>
司 马
联合 声明</w>
对 阵</w>
候 补</w>
物 理学</w>
年 会</w>
分 支
调 任</w>
者 之间</w>
克 制</w>
M on
政 务</w>
天 体</w>
电 压</w>
另 一方</w>
20 6</w>
使 该</w>
越 过</w>
动 力学</w>
令人 担忧</w>
I T</w>
高 风险</w>
新 任</w>
葡萄 酒</w>
萨 米</w>
研究 成果</w>
双 重
白 人</w>
E N
联 索</w>
理 论
N BA</w>
Al i</w>
除 名</w>
反应 堆</w>
两 岸</w>
伯利 兹</w>
年龄 组</w>
野 生
V D</w>
维 多
纳 税
2 18</w>
贝尔 格
贝尔格 莱德</w>
18 1</w>
一 览
纺织 品</w>
湿 地</w>
时 效</w>
n e</w>
来 信</w>
言 语</w>
行 人</w>
经济 衰退</w>
跨 境</w>
升 值</w>
大 鼠</w>
卡 因</w>
服务 提供者</w>
漏 洞</w>
17 7</w>
称 号</w>
逮 捕
y a</w>
闻 名</w>
成 本
果 断</w>
布林 迪西</w>
全 人类</w>
王 后</w>
增 订</w>
橡 胶</w>
无 所
利物 浦</w>
款 人</w>
商业 性</w>
弗 里
容 纳</w>
防 空</w>
赦 免</w>
社 区
当 初</w>
4 3
遇 见</w>
第十 一条</w>
I s
弗 兰
妇 人</w>
鼻 子</w>
尼 科
避 难</w>
极 少</w>
呼 吸
机 票</w>
乐 趣</w>
一 刻</w>
陛 下</w>
无 人
分支 机构</w>
不 然</w>
起 因</w>
全 会</w>
灾难 性</w>
幼儿 园</w>
大 赛</w>
唱 歌</w>
G u
巨 额</w>
2 25</w>
阴 谋</w>
起 码</w>
福 特</w>
周 边</w>
关 节</w>
名 人</w>
加 倍
加倍 努力</w>
批 判</w>
嘉 宾</w>
爱 好</w>
景 观</w>
维 生素</w>
特 勒</w>
文 森特</w>
所 长</w>
正 常
当 日</w>
效 用</w>
任 务
ar t</w>
台 北
多 余</w>
拘留 所</w>
平方 公里</w>
19 1</w>
大 自然</w>
场 景</w>
依 旧</w>
比 重</w>
所 处</w>
任 内</w>
轮 胎</w>
海 地区</w>
法 学院</w>
C T
尚 待</w>
结 婚
所罗 门
加勒比 地区</w>
均 匀</w>
曼 联</w>
回 避</w>
亿 人</w>
与 否</w>
间 隔</w>
主 场</w>
资 企业</w>
战 时</w>
SB I</w>
一 幅</w>
赤道 几内亚</w>
挽 救</w>
分 解</w>
云 南</w>
面 谈</w>
上 所述</w>
查 验</w>
法 例</w>
有 序</w>
尼亚 州</w>
竭 尽全力</w>
18 7</w>
统 治
广播 电台</w>
有 过</w>
负责 管理</w>
普 京</w>
因 于</w>
慈 善
必 将</w>
军 用</w>
上 下</w>
雅 典</w>
子 里</w>
2 33</w>
迈 进</w>
资本 主义</w>
第二 轮</w>
带 给</w>
向 上</w>
上 任</w>
基督 徒</w>
第十 五条</w>
消 息
广 义</w>
存 货</w>
t e</w>
少 将</w>
原 材料</w>
原 定</w>
罕 见</w>
兼 职</w>
上 个月</w>
17 8</w>
7 0
识 字</w>
萨 尔</w>
国家 机关</w>
M IS
领导 层</w>
让 人</w>
一 封信</w>
阿拉 木
贵 方</w>
见 本</w>
节 奏</w>
狮 子</w>
小 小
伤 残</w>
a k</w>
发生 冲突</w>
苏里 南</w>
翻 修</w>
海 滩</w>
短 语</w>
烦 恼</w>
可 预
前 线</w>
19 29</w>
要 说</w>
符合 国际</w>
P D
非 线性</w>
施 加
不结 盟</w>
工 商</w>
辖 市</w>
晚 些时候</w>
尺 度</w>
辍 学</w>
决 书</w>
再 见</w>
角 度
付 诸</w>
中国人民 解放军</w>
er g
20 7</w>
巴 西
时 性</w>
忠 实</w>
现 阶段</w>
天 才</w>
第十 八条</w>
稍 后</w>
催化 剂</w>
19 4</w>
代 人</w>
路易 斯</w>
17 6</w>
大 宗</w>
原 油</w>
停 车
手 法</w>
卢 西亚</w>
产 科</w>
服 刑</w>
散 步</w>
换 句
吸 入</w>
第十 四届</w>
空 调</w>
S ec
真 寺</w>
激 情</w>
c i
善 意</w>
礼 拜</w>
50 000</w>
碰 撞</w>
优 惠
清 真寺</w>
废 止</w>
植 物
保 全</w>
一览 表</w>
扫 雷</w>
负 荷</w>
20 5</w>
考 绩</w>
打 败</w>
解 读</w>
航 运</w>
相 连</w>
日 趋</w>
种族 隔离</w>
反 思</w>
S e
葡萄 牙
并 发
股 票
死 者</w>
宿 舍</w>
公正 性</w>
19 8</w>
有 名</w>
非洲 统一
非洲统一 组织</w>
货 物
疲 劳</w>
起 源</w>
服 用</w>
持 有人</w>
南 极</w>
穿 越</w>
海 事
如 说</w>
转 而</w>
W e
并发 症</w>
依 法
赔偿 金</w>
学 系</w>
推 销</w>
今 年
一整 套</w>
Intern ational</w>
第一 期</w>
周 二</w>
瓦 卢</w>
颁 奖
此 刻</w>
扶 养</w>
化 石</w>
m l</w>
这 段</w>
劫 持</w>
5. 1</w>
联 格</w>
助 手</w>
6 6
瓦 努
不 止</w>
经纪 人</w>
改 正</w>
医 务人员</w>
开 创</w>
办 事</w>
角度 看</w>
法律 咨询</w>
ar i</w>
那 条</w>
热 点</w>
桌 上</w>
承 包</w>
强 加</w>
抗 日
P l
捍 卫者</w>
口 袋</w>
前 锋</w>
优 良</w>
期 满</w>
摩 托
条 约法</w>
十 大</w>
移民 局</w>
侵 权</w>
界 线</w>
持续 增长</w>
纳税 人</w>
激 素</w>
厕 所</w>
不 堪</w>
2 22</w>
基 因
市 委</w>
上 课</w>
电 缆</w>
休 会</w>
发展 局</w>
k a</w>
19 3</w>
票 据</w>
直 辖市</w>
征 服</w>
大 地</w>
图 瓦卢</w>
中 向</w>
杂 项</w>
4. 3</w>
移 送</w>
20 2</w>
之 急</w>
调 拨</w>
土 穆</w>
伙 人</w>
动 乱</w>
预 料</w>
商 讨</w>
变 暖</w>
合 伙</w>
第一 轮</w>
流 向</w>
根据 上述</w>
两 架</w>
新 界</w>
喀 土穆</w>
检查 和</w>
威尔 士</w>
发现 自己</w>
圣 诞</w>
野 蛮</w>
休 闲</w>
换句 话说</w>
冷 静</w>
一 分钟</w>
纽约 市</w>
早 餐</w>
改 名</w>
灰 色</w>
小小 的</w>
十 九</w>
全 职</w>
南 美洲</w>
E d
2 43</w>
讯 息</w>
行 走</w>
腺 癌</w>
预 备
渔 船</w>
小 男孩</w>
可 惜</w>
保护 法</w>
人 中</w>
产 地</w>
a b</w>
外 资</w>
g a</w>
鼓 掌</w>
语 法</w>
挑战 性</w>
感 动</w>
无 限期</w>
十 八</w>
住 院</w>
经济合作 与
经济合作与 发展
经济合作与发展 组织</w>
ic a</w>
翌 年</w>
挑 衅</w>
肥 胖</w>
庇护 所</w>
S S</w>
艾哈 迈
噪 声</w>
刑事 案件</w>
有 利
激 进</w>
得 分</w>
见 表</w>
同 胞</w>
防 守</w>
数 月</w>
后 备</w>
主 力</w>
过 高</w>
幽 默</w>
19 6</w>
驻 扎</w>
谋 生</w>
第四十 九届</w>
公共 安全</w>
二 十</w>
中 毒</w>
19 38</w>
选举 法</w>
一九 九
棉 花</w>
行为 人</w>
口 气</w>
制 服</w>
退 回</w>
矩 阵</w>
20 9</w>
欲 望</w>
特 许
4 5
税 务
星期 天</w>
崛 起</w>
德 国
18 8</w>
瓦努 阿
坚 持
查 访</w>
丁 斯</w>
金 沙
威士 兰</w>
野生 动物</w>
贯 性</w>
眼 镜</w>
论 证</w>
根本 原因</w>
斯 威士兰</w>
公 署</w>
am b
ICE F</w>
密切 联系</w>
大 街</w>
变 性</w>
覆盖 率</w>
司法 部长</w>
MIS C</w>
总 人口</w>
美 军</w>
胜 任</w>
好 友</w>
克 兰
多边 条约</w>
居 民
CA T</w>
逃 跑</w>
8 000</w>
定 向</w>
白 天</w>
惊 奇</w>
报 销</w>
周 转
人 能</w>
N P
赔偿 额</w>
生活 水准</w>
使 者</w>
加 热</w>
亟 需</w>
所罗门 群岛</w>
渐 进</w>
外 表</w>
选 为</w>
工 艺
蛋 糕</w>
永 恒</w>
反 倾
牢 固</w>
撰 文</w>
所 有者</w>
山 西</w>
高 中
信息 中心</w>
互 补</w>
oo k</w>
可 卡因</w>
关 怀</w>
头 衔</w>
阿拉木 图</w>
同 日</w>
仍 旧</w>
俄 文</w>
D av
洁 净</w>
S O
仅 为</w>
格 林</w>
交流 经验</w>
i es</w>
访问 期间</w>
克 隆</w>
d a</w>
高速 公路</w>
外 长</w>
28 0</w>
遗 弃</w>
负 债
开幕 式</w>
百 慕
渗 透</w>
一 是</w>
女 演员</w>
难 度</w>
大气 层</w>
兄 弟
阿鲁 沙</w>
该 段</w>
联 席会议</w>
常 任</w>
相 比
水 源</w>
德 里
圣 卢西亚</w>
W or
这 部分</w>
天 赋</w>
图 案</w>
F ran
读 于</w>
帕 拉</w>
R ob
舰 队</w>
流 浪</w>
太平洋 地区</w>
半 球</w>
现 存</w>
批 准
简 历</w>
改革 方案</w>
8 0
变 换</w>
19 36</w>
7 000</w>
时 才</w>
一 千
接 洽</w>
画 面</w>
理 查
标 明</w>
对 话
宁 愿</w>
潮 流</w>
继承 人</w>
摩 西</w>
外 出</w>
T e
Q u
珍 贵</w>
普 及
2 16</w>
一 首</w>
退 还</w>
微 妙</w>
年度 预算</w>
就 读于</w>
J e
伤 性</w>
书 写</w>
测 试
二 战</w>
i i</w>
被 动</w>
异 性</w>
让 步</w>
物 项</w>
化 管</w>
主 教练</w>
一 眼</w>
D VD</w>
A p
账 目</w>
缅甸 政府</w>
广 为</w>
增 幅</w>
公 会</w>
三 角
影 像</w>
I S</w>
空 前</w>
海 湾</w>
寒 冷</w>
住 房
为 人
海 洛
i j
长 者</w>
百 万
按 钮</w>
意 向</w>
鸦 片</w>
接 收
年 里</w>
e v</w>
全国 人民代表大会</w>
海 关
调查 报告</w>
E R</w>
4 50</w>
过 早</w>
语 音</w>
谨 向</w>
替代 性</w>
大 奖</w>
电话 号码</w>
集 成</w>
非 法行为</w>
接 任</w>
导 师</w>
借 用</w>
通 信
相 等</w>
起 着</w>
科 目</w>
拨 出</w>
乃 是</w>
19 5</w>
ICC D</w>
讨 伐</w>
巴 塞
打 印</w>
2 28</w>
根 深
几 分钟</w>
s c</w>
20 4</w>
艾 伦</w>
文 凭</w>
周 三</w>
六 次</w>
y n
武 帝</w>
商 用</w>
史 上</w>
三 维</w>
诚 信</w>
组织 法</w>
天文 台</w>
17 9</w>
缓 冲
中 是</w>
热 量</w>
创始 人</w>
瓦努阿 图</w>
金 属
郊 区</w>
当 务
包 裹</w>
已 获</w>
善 政</w>
an e</w>
并 行</w>
准 予</w>
注 定</w>
中国 国民党</w>
A c
当务 之急</w>
化 物</w>
金沙 萨</w>
易 受</w>
固 体</w>
皮 特</w>
合 伙人</w>
跟 进</w>
无家可 归</w>
坚 强</w>
M A
贸易 谈判</w>
否 决权</w>
行政 助理</w>
国 旗</w>
阿 克拉</w>
十二 年</w>
顺 利
足 球队</w>
联 苯</w>
收 缴</w>
攻 打</w>
尔 森</w>
失 衡</w>
蒂 固</w>
安 妮</w>
吉 尔</w>
2 15</w>
祖 母</w>
金 山</w>
记 入</w>
看 过</w>
布 斯</w>
根深 蒂固</w>
合法 化</w>
共同 利益</w>
2 21</w>
le y</w>
州 市</w>
19 41</w>
陕 西</w>
逗 留</w>
其 父</w>
所在 国</w>
减 弱</w>
明确 指出</w>
两 条</w>
总 协定</w>
一 点
长期 存在</w>
捕 获</w>
华尔 街</w>
s e</w>
社会 工作者</w>
树 脂</w>
剥 夺
管理 制</w>
短 期内</w>
毫 克</w>
保护 主义</w>
选 用</w>
但 须</w>
B r
3. 5</w>
精 彩</w>
珊 瑚
M or
2 66</w>
有 期徒刑</w>
对 立</w>
诺 斯
真 空</w>
反 洗钱</w>
剥夺 权利</w>
2 41</w>
好 几个</w>
号 召</w>
仲裁 员</w>
预 订</w>
迫 击
身 心
交 道</w>
备 用</w>
4. 5</w>
萨 卡</w>
埃 尔
调 和</w>
日 渐</w>
小 计</w>
塞尔 维
不 像</w>
ht m</w>
百慕 大</w>
晚 会</w>
各项 政策</w>
光 学</w>
眼 光</w>
第二 年</w>
价格 上涨</w>
E l</w>
后 卫</w>
打 击
十 四</w>
19 53</w>
辩 称</w>
敬 意</w>
巴 厘</w>
青 春</w>
密 封</w>
国 界</w>
光 盘</w>
E x
太 守</w>
叔 叔</w>
专业 化</w>
大 力
19 39</w>
为 准</w>
中 场</w>
尼 古
头 部</w>
12 %</w>
马 车</w>
生 人</w>
棘 手</w>
初 中</w>
C ol
饥 荒</w>
领导 者</w>
垃 圾
早 婚</w>
丝 毫</w>
随 便</w>
福 音</w>
查 找</w>
祖 先</w>
萧 条</w>
组 长</w>
浙 江
开 除</w>
意 在</w>
前 夕</w>
大 军</w>
不 易</w>
用 地</w>
太 华</w>
法 则</w>
S P
2 37</w>
率 先</w>
大 事</w>
飞行 员</w>
垂 直</w>
圣 文森特</w>
考 入</w>
厌 恶</w>
都 督</w>
世 上</w>
积极 支持</w>
深 圳</w>
一 律</w>
ht ml</w>
政 客</w>
剧 本</w>
中共 中央</w>
2 69</w>
联 东</w>
沿 岸</w>
民 进党</w>
另 一名</w>
相比 之下</w>
带 走</w>
动 植物</w>
伤 心</w>
领 队</w>
启 发</w>
船 员</w>
莱 坞</w>
大 海</w>
受 雇</w>
渥 太华</w>
共同 市场</w>
u l</w>
非 暴力</w>
集 群</w>
表 中</w>
税 款</w>
步 行</w>
中 型</w>
7 7
经济 援助</w>
M e
鸡 蛋</w>
高 地</w>
拉 里</w>
担 负</w>
开 头</w>
质 素</w>
分 部</w>
黑 兰</w>
伸 出</w>
警 报</w>
进 一步
进一步 提高</w>
扰 乱</w>
分 在</w>
书面 形式</w>
C N
马 舍尔</w>
这 套</w>
西 南</w>
减 小</w>
不可 逆转</w>
刑 期</w>
焊 接</w>
托 人</w>
出口 国</w>
客 观
失 误</w>
各 政党</w>
音 机</w>
通货膨 胀率</w>
德 黑兰</w>
地 铁</w>
亲 戚</w>
每 一项</w>
宏 观</w>
收 缩</w>
备 件</w>
务 必</w>
19 33</w>
布 雷</w>
m a
送 回</w>
专 项</w>
门 户</w>
过 剩</w>
宣 扬</w>
去 除</w>
人 类
19 7</w>
欠 款</w>
同 酬</w>
27 6</w>
城 堡</w>
十 年代</w>
订 阅</w>
本 月</w>
排 定</w>
军事 法庭</w>
朝鲜 半岛</w>
善 良</w>
例 行</w>
狭 窄</w>
后 悔</w>
19 27</w>
铁 路
内 务部</w>
马 尔</w>
放 下</w>
amm ad</w>
撤 退</w>
屋 子</w>
道 尔</w>
科 菲</w>
妊 娠</w>
g e</w>
第一 季度</w>
受 访者</w>
多 层面</w>
商 界</w>
拉 美</w>
无 知</w>
G S</w>
线 索</w>
会 同</w>
示威 者</w>
犯罪 人</w>
军 团</w>
未 获</w>
获 得成功</w>
阿根 廷
喜 剧</w>
免 税</w>
格 拉</w>
增 补</w>
e k</w>
明 显
好 事</w>
难 者</w>
医疗 卫生</w>
服务 质量</w>
月 间</w>
身心 健康</w>
未 满</w>
小 型
UN A
恐怖 活动</w>
不 动</w>
感到 高兴</w>
p h
悬 挂</w>
应 以</w>
出 租</w>
战略 伙伴</w>
发展 趋势</w>
CE RD</w>
成 都</w>
水 质</w>
骨 折</w>
静 止</w>
公 海</w>
人民 共和
高 温</w>
丹 尼尔</w>
6. 2</w>
平 安</w>
国防 部长</w>
拉 德</w>
总体 而言</w>
图 形</w>
出 差</w>
流 亡</w>
引人 注目</w>
降 到</w>
秋 天</w>
深 处</w>
波 利
19 25</w>
最终 目标</w>
2 58</w>
亏 损</w>
万 英镑</w>
以 内</w>
本 章</w>
归 因于</w>
基 文</w>
三 十</w>
国家 有关</w>
代 谢</w>
这 块</w>
多 数
体 检</w>
参 赛</w>
卫 星
不 知
感 冒</w>
集 团
印 制</w>
纳 德</w>
人 性</w>
2 53</w>
空间 科学</w>
电 气</w>
圣 地
哺 乳
29 .
中 请</w>
院 士</w>
钢 铁</w>
抵 销</w>
门 槛</w>
拉 斯
咎 于</w>
复 合
代表 权</w>
联 署</w>
泄 漏</w>
制定 者</w>
致 电</w>
出口 商</w>
归 咎于</w>
c t
潘 基文</w>
责 成</w>
腐 蚀</w>
马尔 维
磺 酸</w>
海洛 因</w>
手 臂</w>
好 转</w>
Y ou
19 35</w>
账 款</w>
价值 链</w>
车 间</w>
ation s</w>
一 股</w>
稳 固</w>
眼 泪</w>
宪 兵</w>
宴 会</w>
耕 地</w>
罪 恶</w>
i k</w>
雨 水</w>
恐怖 袭击</w>
东南 亚
在此 之前</w>
偏 远</w>
温 柔</w>
格林纳 丁斯</w>
曾 祖父</w>
另 见</w>
不 容
民族 团结</w>
看 不见</w>
玛丽 亚</w>
视 力</w>
荣 耀</w>
电 源</w>
月 亮</w>
视 作</w>
大 马
星期 日</w>
教 士</w>
同 伴</w>
勒 斯</w>
这 样
公 益</w>
清 算</w>
2 17</w>
禽 流感</w>
内 涵</w>
特许 权</w>
可 观</w>
圣 马
四 大</w>
吩 咐</w>
关 爱</w>
令人 不安</w>
讲 师</w>
东南 欧</w>
求 助</w>
3. 4</w>
宣 誓</w>
学 士学位</w>
出租 车</w>
盆 地</w>
列 于</w>
B o
装 甲
纳 税</w>
离 去</w>
广 西</w>
周 日</w>
全 家</w>
运载 工具</w>
亦 可</w>
下 雨</w>
立法 机关</w>
改 划</w>
城 里</w>
上 市
H am
谘 询</w>
谎 言</w>
盟 友</w>
物 业</w>
阿 比
菲 利
制 图</w>
ST A</w>
恋 爱</w>
上市 公司</w>
建 模</w>
多 媒体</w>
在 位</w>
军用 飞机</w>
il l</w>
R A
创新 性</w>
十 八
动 摇</w>
缺 失</w>
满 意
火 焰</w>
晚 年</w>
拥 抱</w>
定 制</w>
出 具</w>
养 育</w>
举 例
来 源于</w>
打 交道</w>
住 区</w>
计 入</w>
并 用</w>
这 事</w>
质量 保证</w>
诱 惑</w>
方 位</w>
教 养</w>
康 熙</w>
z a</w>
纳 粹</w>
星 球</w>
族 人</w>
彼 得
失 踪
第一 节</w>
游 击
清 醒</w>
招 待
切 断</w>
3 0.
视 野</w>
教 区</w>
互 联
高 频</w>
主持 会议</w>
定 期
遗 体</w>
十 六</w>
风 雨</w>
电 机</w>
审计 工作</w>
战斗 机</w>
稳 定
复 议</w>
为 首</w>
责 令</w>
新 娘</w>
伯 格</w>
塞 舌
牢 房</w>
广 东省</w>
地 质
运 载</w>
过 失</w>
财政 部长</w>
宝 贝</w>
出 自</w>
13 %</w>
首 歌</w>
担 当</w>
会 试</w>
脾 气</w>
一 共</w>
哈 佛
击 中</w>
底 部</w>
吉 姆</w>
卡 特</w>
生 存
草 地</w>
箱 子</w>
继 任</w>
好 莱坞</w>
处 处长</w>
触 发</w>
境 地</w>
输 送</w>
第四 节</w>
第十 六条</w>
1. 4</w>
诺 夫</w>
吻 合</w>
两 者之间</w>
陷 于</w>
核 武库</w>
日 记</w>
as t
影 子</w>
全 境</w>
荷 兰
医 学院</w>
调 控</w>
猜 测</w>
财 产权</w>
案 中</w>
开 火</w>
全 身</w>
un g</w>
缩 编</w>
纵 向</w>
岁 月</w>
亚 哥</w>
而 未决</w>
旅 程</w>
悬 而未决</w>
萨 拉</w>
合法 权益</w>
创 下</w>
专 职</w>
格 斯</w>
方 可</w>
兴 起</w>
临时 代办</w>
1 1
远 镜</w>
迈 克</w>
营 商</w>
有 益于</w>
巴 士</w>
受 灾
19 44</w>
监督 机制</w>
偏 远地区</w>
用 户
深 海</w>
民间 组织</w>
刑 警</w>
里约 热
望 远镜</w>
四 川
删 去</w>
内 卢</w>
印 刷
谢 您</w>
名 声</w>
一 路</w>
CC W</w>
阿比 让</w>
详 述</w>
rou p</w>
里约热 内卢</w>
衬 衫</w>
加以 解决</w>
四 处</w>
各 次</w>
公 用
人 来</w>
亚 尔</w>
难 过</w>
收 录</w>
搁 置</w>
换 言之</w>
公 立</w>
会议 员</w>
陌 生人</w>
威 慑</w>
万 国
心 态</w>
辛 烷</w>
火 山</w>
供 电</w>
特 朗
掠 夺</w>
女 孩子</w>
停 滞</w>
之 用</w>
F l
入 伍</w>
瘫 痪</w>
有 无</w>
意 志
公开 赛</w>
爱 国</w>
子 孙</w>
坚 定
非 核心</w>
社 群</w>
上 述
w it
卡 拉巴
眼 中</w>
口 译员</w>
三 十年</w>
Joh n</w>
十 六
约翰 逊</w>
主 权
致 辞</w>
紧急 行动</w>
夫 斯基</w>
备 灾</w>
取 得
分 数</w>
政治 化</w>
值得 一
19 20</w>
拉 尔</w>
冲 突
伤 口</w>
事实 证明</w>
如 上所述</w>
克 萨
付 费</w>
2 55</w>
翻 译成</w>
立 大学</w>
盗 窃</w>
润 滑
C T</w>
排 序</w>
经 受</w>
本 署</w>
搭 配</w>
丑 闻</w>
世 人</w>
雷 曼</w>
缘 故</w>
百 年</w>
每 位</w>
棒 球</w>
外国 投资</w>
氯 烃</w>
方 面
周 四</w>
英 超</w>
SB STA</w>
特朗 普</w>
听 从</w>
阿 布</w>
步 枪</w>
心理 健康</w>
喝 酒</w>
为 限</w>
看 不到</w>
广播 公司</w>
相互 尊重</w>
借 调</w>
达 格</w>
分 手</w>
盟 委员会</w>
欧 盟委员会</w>
昆 虫</w>
尼 克</w>
ra h
主 题
追 溯</w>
矿 石</w>
气 温</w>
推 测</w>
连 接
机 动</w>
掌 控</w>
限 性</w>
宠 物</w>
不 容</w>
配 套</w>
配 件</w>
督 察</w>
表示 同意</w>
努力 提高</w>
平 稳</w>
维 拉</w>
成 品</w>
19 42</w>
战略 部署</w>
喀 尔</w>
实 现
5. 3</w>
卡拉巴 赫</w>
入 狱</w>
连 贯性</w>
纪念 活动</w>
俄 语</w>
二 者</w>
胎 儿</w>
核 爆炸</w>
批准 书</w>
佛罗 里
第六 章</w>
珊瑚 礁</w>
格 兰
非常 高兴</w>
第四 个</w>
认 真
巡逻 队</w>
介 石</w>
本 合同</w>
恶 性
全 环</w>
偿 金</w>
G l
之 战</w>
格 里
杀 戮</w>
总体 目标</w>
建议 书</w>
再 说</w>
结 社</w>
南 太平洋</w>
分 化</w>
中 所列</w>
懈 努力</w>
介 质</w>
不 懈努力</w>
ac e</w>
晚 饭</w>
无线 电视</w>
抗日 战争</w>
反 射</w>
二十 世纪</w>
通报 情况</w>
非常 重视</w>
笑 话</w>
水 面</w>
抗 击</w>
医 学
ol d
雄 心
对 冲</w>
情 事</w>
赚 取</w>
楼 宇</w>
射 线</w>
2 36</w>
贫困 人口</w>
放 宽</w>
市 政
镜 头</w>
称 呼</w>
全 盘</w>
计算 方法</w>
差 价</w>
发 掘</w>
纪 要</w>
第十 三条</w>
相 对
驱逐 出境</w>
加 斯</w>
19 28</w>
身 高</w>
惠 及</w>
私 立</w>
油 田</w>
银行 家</w>
生命 周期</w>
来 往</w>
G e
补 充
城市 规划</w>
国家 级</w>
平 时</w>
构成 犯罪</w>
国 会议员</w>
没 错</w>
奉 献</w>
士 革</w>
卸 任</w>
两 届</w>
重 型</w>
远 距离</w>
测 验</w>
多 大</w>
大马 士革</w>
残 割</w>
塞舌 尔</w>
9 0
尚 无</w>
听 力</w>
可 不</w>
G h
来 源
大 将军</w>
2 65</w>
应 予以</w>
骑 士</w>
M ah
货物 运输</w>
张 贴</w>
开展 业务</w>
p res
航天 局</w>
周 转</w>
中 级</w>
数据 处理</w>
好 评</w>
国家 统计局</w>
腐 败
第八 次</w>
光 线</w>
蒋 介石</w>
竭 力</w>
性 传播</w>
劳工 法</w>
3 5%</w>
足 额</w>
明 亮</w>
布 宜
第三 款</w>
祭 司</w>
相 继</w>
民族 主义</w>
君 主</w>
互 相
巡 回
克里 斯</w>
从 小</w>
行 之
紧急 状况</w>
散 布</w>
贝 克</w>
局 限性</w>
体 会</w>
主 计
降 落</w>
致 意</w>
春 季</w>
2 64</w>
美 术
紧 紧</w>
工作 岗位</w>
en c
虫 剂</w>
杭 州</w>
应 享</w>
极 限</w>
收 容
保险 费</w>
体 积</w>
安 第
中 心
降 解</w>
周 边
第四十 八届</w>
开 端</w>
二 次</w>
停 下来</w>
马 绍
犹 豫</w>
ir a</w>
安全 网</w>
邮 箱</w>
英 寸</w>
欧洲 理事会</w>
年 满</w>
B S</w>
预 言</w>
诺斯 艾
布宜 诺斯艾
19 32</w>
自由 贸易</w>
冷 却</w>
公共 事务</w>
红 军</w>
三 日</w>
苹 果
更 生</w>
混 淆</w>
人 发</w>
财 物</w>
武 汉</w>
不良 影响</w>
赚 钱</w>
请 洽</w>
神 话</w>
正常 化</w>
收容 所</w>
过 滤</w>
蒙 受</w>
归 属</w>
年 鉴</w>
ind ex</w>
改 建</w>
聊 天</w>
探 访</w>
农 田</w>
k h
早 先</w>
建设 项目</w>
27 5</w>
酗 酒</w>
主计 长</w>
镜 子</w>
整 整</w>
该 款</w>
切尔 诺
运 气</w>
摩尔多 瓦</w>
推 理</w>
ou r</w>
19 31</w>
争 吵</w>
销 商</w>
3 60</w>
崇 拜</w>
气 味</w>
先 知</w>
非常 任</w>
轮 流</w>
教育 部门</w>
本 应</w>
几 名</w>
12 67</w>
专业 人士</w>
瞬 间</w>
应 邀</w>
8 5
万 个</w>
试 着</w>
老 挝</w>
乙 烯</w>
恶 意</w>
联 布</w>
海 报</w>
W il
2 46</w>
侵 略
高 水平</w>
同 类</w>
芯 片</w>
里 昂</w>
留 下来</w>
根本 上</w>
日 为</w>
从 根本上</w>
被 选为</w>
罚 金</w>
推 移</w>
布 局</w>
参与 方</w>
再 次
一 角</w>
2 23</w>
门 户
系 指</w>
沉 积
两 只</w>
s t</w>
看 守</w>
换 成</w>
平均 数</w>
停车 场</w>
手 上</w>
r i</w>
宽 带</w>
而 后</w>
经济 区</w>
减 损</w>
2 38</w>
选 拔</w>
艾哈迈 德</w>
紧 迫
天 上</w>
公民 投票</w>
菲 尔德</w>
新 近</w>
大 都</w>
周 刊</w>
录 制</w>
发 光</w>
全国 政协</w>
机 能</w>
克 莱</w>
极 力</w>
主 观</w>
盒 子</w>
送 达</w>
脚 注</w>
翻 新</w>
er a</w>
am a</w>
尼亚 共和国</w>
克 里</w>
2 47</w>
装 修</w>
密 集
善 治</w>
ar t
逆 转录</w>
最低 标准</w>
新 人</w>
情况 通报</w>
实现 目标</w>
赶 上</w>
终 端</w>
受 限制</w>
千 名</w>
转 到</w>
天 生</w>
车 子</w>
行之 有效</w>
理查 德</w>
所 获</w>
列 车</w>
不断 扩大</w>
行 驶</w>
日益 增长</w>
拒绝 接受</w>
典 范</w>
八 国集团</w>
终 生</w>
共 存</w>
g u
2 44</w>
祷 告</w>
热 烈
半 个</w>
2 52</w>
舞 弊</w>
法 院
协 理</w>
十 七</w>
2 54</w>
鞋 子</w>
通 过
过渡 期</w>
作 好</w>
开 玩笑</w>
新闻 媒体</w>
北 省</w>
恐怖 组织</w>
忽 然</w>
里约 集团</w>
总 司令</w>
尔 群岛</w>
有 史
2 24</w>
参 看</w>
减 去</w>
our n
有史 以来</w>
宝 宝</w>
喜 悦</w>
一般 而言</w>
第二十二 届</w>
口 头
焚 烧</w>
否 是</w>
结 局</w>
燃 油</w>
天 气
遵 行</w>
是 否是</w>
放 心</w>
亚太 地区</w>
一 副</w>
指 认</w>
信 服</w>
不 详</w>
成 像</w>
人 文</w>
陪审 团</w>
膨 胀</w>
电 网</w>
分 会</w>
查 理</w>
私 权</w>
k o</w>
管 制
款 中</w>
换 取</w>
东 南</w>
法 学家</w>
情 势</w>
带 头</w>
尔 德
利用 率</w>
照 射</w>
公 吨</w>
杀 虫剂</w>
意 味</w>
临 近</w>
O r
夏 威
几 何</w>
ad i</w>
四 分
首 尔</w>
赞 美</w>
哲 学家</w>
主权 国家</w>
e w
速 率</w>
检 控</w>
安全 局</w>
中东 地区</w>
创造 力</w>
克 鲁
汉 堡</w>
斯 塔</w>
底 下</w>
阿塞拜 疆
测 器</w>
挣 扎</w>
装 有</w>
举 例</w>
iy ah</w>
B ro
秋 季</w>
奥斯 陆</w>
v e</w>
重 振</w>
6. 1</w>
宝 石</w>
风 景</w>
边 境
繁 殖</w>
做 事</w>
整 天</w>
数 十年</w>
开 拓</w>
200 00</w>
海 里</w>
传 授</w>
表现 形式</w>
第四十 六届</w>
来 访</w>
归 类</w>
屋 里</w>
不 移</w>
手 下</w>
官 方
不太 可能</w>
弗 拉
2 19</w>
巴布 达</w>
口 号</w>
ra h</w>
额 度</w>
圣地 亚哥</w>
圆 形</w>
6 4
地 形</w>
a el</w>
达 喀尔</w>
聚 力</w>
经济 效益</w>
地理 位置</w>
产 后</w>
维多 利亚</w>
没 能</w>
来源 国</w>
高 压</w>
起 诉
格 丽
时 会</w>
不 许</w>
M c
花 钱</w>
以 防</w>
鉴 别</w>
站 点</w>
汤 加</w>
委 派</w>
一 行</w>
数据 中心</w>
口 径</w>
海 平面</w>
2 31</w>
和平 谈判</w>
CC PR</w>
荣 获</w>
而 应</w>
小 女孩</w>
升 至</w>
5 4
能 为</w>
煤 矿</w>
摩 擦</w>
停 战</w>
不 开</w>
一 看</w>
备 受</w>
莱 斯</w>
光 谱</w>
倾 斜</w>
2 32</w>
宽 松</w>
IM F</w>
引 述</w>
传 播
柴 油</w>
教 派</w>
脑 袋</w>
柬埔 寨
富 人</w>
哈佛 大学</w>
吸 毒
而 言之</w>
江 苏
军事 化</w>
信 赖</w>
归 于</w>
安提 瓜
一 语</w>
S A</w>
Par t</w>
瑟 琳</w>
作 曲
金融 部门</w>
结 盟</w>
恐 慌</w>
就业 率</w>
地 毯</w>
狂 热</w>
涌 入</w>
妇女 儿童</w>
生活 费</w>
扣 留</w>
于 此</w>
解 体</w>
草 原</w>
巴 尔</w>
9 5%</w>
近 代</w>
菜 单</w>
商 学院</w>
国有 企业</w>
第一 天</w>
未 缴</w>
其 子</w>
L u
需 求
辉 煌</w>
算 是</w>
工 商业</w>
同 仁</w>
侦 察</w>
我 家</w>
看 电视</w>
打 造</w>
安提瓜 和
安提瓜和 巴布达</w>
卡 罗
萨 拉
创 业
米 亚</w>
束 缚</w>
摩托 车</w>
阿卜杜 勒</w>
边 防</w>
A L</w>
私 下</w>
王 位</w>
灵 感</w>
患 病</w>
en ce</w>
诉 求</w>
至 多</w>
破 碎</w>
痕 迹</w>
废 弃</w>
es s</w>
照 明</w>
遴 选</w>
p d
迷 人</w>
有 钱</w>
商 务
克 林</w>
上 游</w>
老 婆</w>
厉 害</w>
克 逊</w>
默 认</w>
电 报</w>
迈 向</w>
福 克兰
戈 尔
不 管
科 医生</w>
隐 私权</w>
程 式</w>
牢 记</w>
30 5</w>
警 员</w>
局 限</w>
2 57</w>
小 镇</w>
享 用</w>
28 3</w>
西 安</w>
工 党</w>
司 职</w>
曹 操</w>
卡 斯</w>
似 宜</w>
演 讲
正 直</w>
功 能
纳 克</w>
根本 性</w>
写 信
介 意</w>
29 0</w>
纸 张</w>
斯 卡</w>
数 个</w>
抽 烟</w>
士 顿</w>
一 来</w>
马绍 尔群岛</w>
远 景</w>
处 死</w>
发 誓</w>
七 日</w>
财政 状况</w>
识 字
描 写</w>
判 决书</w>
圣 多
p er
王 室</w>
统治 者</w>
好 多</w>
环 保
轿 车</w>
评 为</w>
旧 金山</w>
放 大</w>
一致 同意</w>
28 9</w>
间 谍</w>
嘉 莉</w>
五 项</w>
2 34</w>
逃 脱</w>
提出 异议</w>
均 收入</w>
p ro
非 传统</w>
大会 常务委员会</w>
信 奉</w>
代表 大会常务委员会</w>
人民 代表大会常务委员会</w>
新 华
倒 退</w>
7 8
子 公司</w>
不 带</w>
第十 次</w>
年 末</w>
沉 积</w>
借 以</w>
森 林
特殊 教育</w>
外 科</w>
可 望</w>
力 争</w>
冰 箱</w>
试 行</w>
种 植
灯 光</w>
共 用</w>
e e</w>
笔 译</w>
我 爱
科技 委</w>
沿 线</w>
居住 地</w>
凯 瑟琳</w>
a in</w>
马 里
打 断</w>
天 主
免 权</w>
运 河</w>
组织 者</w>
巡 抚</w>
发言 权</w>
控制 器</w>
悠 久</w>
平 常</w>
19 34</w>
未 必</w>
日 止</w>
元 件</w>
间 断</w>
哪 怕</w>
福克兰 群岛</w>
盖 茨</w>
在 案</w>
O N
脉 冲</w>
提 法</w>
工 资
各 阶层</w>
神 奇</w>
玛 格丽
杀 伤性</w>
人 以</w>
Moh am
北 平</w>
安 道尔</w>
告 诫</w>
门户 网站</w>
困 惑</w>
印第安 人</w>
19 26</w>
辈 子</w>
理 智</w>
身 亡</w>
睡 着</w>
把 手</w>
4. 4</w>
二 百
政治 犯</w>
安 定</w>
激 增</w>
倘 若</w>
请 参阅</w>
准 军事</w>
净 化</w>
环境 退化</w>
做 成</w>
证明 书</w>
测 性</w>
停 车</w>
话 语</w>
橄 榄
大 革命</w>
落 入</w>
拦 截</w>
2. 6</w>
爱 好
惟 一</w>
巴 拉</w>
人民 检察院</w>
2 61</w>
适 度</w>
数 千</w>
上述 情况</w>
筹 款</w>
报 刊</w>
东南亚 国家联盟</w>
说 明
阿卜杜 拉</w>
对 联</w>
兰 德</w>
i ri
ac k</w>
苏 维
流 传</w>
新闻 记者</w>
指 向</w>
出 血</w>
物 料</w>
海 港</w>
最终 用户</w>
希 特勒</w>
n a</w>
N a
科 尔</w>
管理 信息系统</w>
火 星</w>
骑 兵</w>
第九 次</w>
矿 产</w>
任何 一方</w>
埃 厄</w>
NP T</w>
规 例</w>
行 程</w>
葬 礼</w>
教 皇</w>
建 国</w>
情 人</w>
性 关系</w>
列 名</w>
人 均收入</w>
破 产
景 象</w>
e ar
路 易</w>
始 终
民间 团体</w>
次 要</w>
存 活</w>
哈 尔
罗 斯
房 产</w>
走 路</w>
楼 梯</w>
布 里
R I</w>
高 加
远 处</w>
手 枪</w>
导 则</w>
学 期</w>
决策 机构</w>
国 土</w>
空 袭</w>
方 对</w>
拿 破
备 案</w>
2 45</w>
核 销</w>
操作 系统</w>
分 校</w>
供 参考</w>
选举 权</w>
测 量
凝 聚力</w>
部 将</w>
致 死</w>
圣 保罗</w>
老 化</w>
国 在</w>
鉴 于此</w>
消息 来源</w>
有 鉴于此</w>
尴 尬</w>
司令 员</w>
谷 物</w>
时 有</w>
日 程
剧 团</w>
书 中</w>
法 国
as h</w>
集 资金</w>
筹 集资金</w>
佩 斯</w>
不足 之处</w>
非 凡</w>
坐 标</w>
马 尼
遵 从</w>
星 星</w>
哭 泣</w>
合 资</w>
刑 警
公安 机关</w>
优 雅</w>
E m
情 愿</w>
在 世界
在世界 上</w>
本 信</w>
投 机</w>
令人 震惊</w>
结 案</w>
u e</w>
归 纳</w>
这 本</w>
赞 成
沿 海地区</w>
人力 资本</w>
19 43</w>
更 长</w>
卧 室</w>
不 曾</w>
不 成</w>
权 威
公共 利益</w>
东 北部</w>
施加 压力</w>
抽 象</w>
履行 义务</w>
现 今</w>
18 00</w>
湖 北</w>
乐 器</w>
行 长</w>
著 作
魔 法</w>
布 置</w>
呼 声</w>
不 已</w>
购买 力</w>
社会 学</w>
分 辨
抬 头</w>
态 势</w>
关 税
F or
情报 局</w>
微 小</w>
国务 卿</w>
奶 奶</w>
主 党</w>
真 主党</w>
巴塞 罗
密 克罗
密克罗 尼
适 于</w>
r is
酸 盐</w>
第二 类</w>
瑞 典
长 老</w>
帕 劳</w>
O C</w>
市 值</w>
举 止</w>
演 示</w>
布隆 迪
流 动
不 用
写信 给</w>
业 余</w>
弗 雷
周 六</w>
注 释</w>
识字 率</w>
台北 市</w>
万 亿美元</w>
违 规</w>
负债 表</w>
立 方
拿破 仑</w>
溶 液</w>
共产 主义</w>
Ab u</w>
科威 特
正当 理由</w>
弹 头</w>
场 上</w>
一 双</w>
架 次</w>
待 命</w>
可 予</w>
占领 区</w>
厘 米</w>
核 技术</w>
受 众</w>
隐 瞒</w>
适用 性</w>
票 数</w>
平 原</w>
孙 中山</w>
每 隔</w>
对外 贸易</w>
上 演</w>
绝 不能</w>
目 标
带 动</w>
以 下
it ed</w>
开 口</w>
合 实际</w>
发 病</w>
19 00</w>
连 串</w>
余 力</w>
l y</w>
紧 要</w>
拉 夫</w>
切尔诺 贝利</w>
上 届</w>
6 3
犯罪 集团</w>
减 肥</w>
主 编</w>
a in
身 后</w>
国 贸</w>
作曲 家</w>
践 踏</w>
评 述</w>
弯 曲</w>
布宜诺斯艾 利斯</w>
奥斯 卡</w>
塑 料
O E
10 0000</w>
M us
获 取
联 军</w>
写 下</w>
28 8</w>
国际 刑警
国际刑警 组织</w>
加勒比 海</w>
醒 来</w>
第二十 五条</w>
居 然</w>
传 奇</w>
细 目</w>
女 朋友</w>
分 泌</w>
偏 低</w>
耶 夫</w>
杜 绝</w>
护 送</w>
多边 合作</w>
坚定 不移</w>
人 才
不 大
民事 诉讼</w>
第四十 届</w>
民 选</w>
比 如说</w>
接受 国</w>
微 波</w>
升 为</w>
病 学</w>
技术 培训</w>
中 小学</w>
不 成
PD F</w>
篇 幅</w>
鲜 明</w>
位 数</w>
L C</w>
运 往</w>
既 往</w>
戏 剧
司法 人员</w>
防 备</w>
倾 倒</w>
篇 文章</w>
通 用
拿 下</w>
脖 子</w>
宇 航
同 文
es t</w>
18 %</w>
9 000</w>
口头 报告</w>
27 2</w>
我爱 你</w>
后 于</w>
d i</w>
翅 膀</w>
山 上</w>
型 号</w>
书 店</w>
前 期</w>
b a</w>
骚 乱</w>
空 局</w>
al e</w>
U N</w>
28 4</w>
第二十 条</w>
多种 多样</w>
第二十 一条</w>
猛 烈</w>
抽 样</w>
各 大</w>
互 补
获 利</w>
然 不同</w>
3 38</w>
纺 织</w>
第一 类</w>
植 被</w>
房 价</w>
新 德里</w>
为 时
i h
r ad
马克 思
A C
门 外</w>
罂 粟</w>
天 线</w>
赞成 票</w>
中 起</w>
港 元</w>
没 事</w>
好 消息</w>
短 时间</w>
爱 国
圣马 力
参考 资料</w>
积极 主动</w>
最 新
帐 篷</w>
知名 度</w>
危险 性</w>
人 有</w>
零 零</w>
按 计划</w>
并不 一定</w>
珍 惜</w>
优 异</w>
ur e</w>
谈 及</w>
推 断</w>
拘 捕</w>
辖 区</w>
以 为
集 结</w>
肩 膀</w>
第一 名</w>
市 中心</w>
外 线</w>
可 可</w>
叛 军</w>
南 共体</w>
用 法</w>
一 时期</w>
印度 政府</w>
利 马</w>
有 意思</w>
克 什
盛 行</w>
旗 帜</w>
打 印机</w>
B er
微 观</w>
重 重</w>
玛格丽 特</w>
大 有</w>
北京 大学</w>
3 65</w>
避 开</w>
象 征
美 术</w>
第四十 七届</w>
派 对</w>
吸毒 者</w>
D C</w>
礼 品</w>
受 让人</w>
反 击</w>
ar e</w>
8 5%</w>
点 燃</w>
导 体</w>
超 声</w>
缓冲 区</w>
阿 姆
第一 百</w>
永 不</w>
拨 给</w>
喇 嘛</w>
只 得</w>
传 单</w>
申请 表</w>
S G
颠 覆</w>
深入 研究</w>
字 符</w>
做 过</w>
笔 记
杰 夫</w>
新闻 自由</w>
部 际</w>
查 出</w>
术 后</w>
未 知</w>
就 让</w>
厂 商</w>
体 上</w>
A I
物 价</w>
示 例</w>
检 方</w>
已 故</w>
PO PS</w>
C o</w>
17 01</w>
肺 结核</w>
16 00</w>
进 军</w>
豁 免权</w>
群 组</w>
战 机</w>
哈 里</w>
M at
美国 国会</w>
H er
月 会</w>
水 分</w>
格林纳 达</w>
养 费</w>
已 久</w>
ourn al</w>
L E
周 期
红新 月会</w>
坟 墓</w>
主导 作用</w>
生 化</w>
治 愈</w>
想 着</w>
赫 纳</w>
议 事</w>
当 成</w>
互补 性</w>
可 比</w>
公 立学校</w>
服务 员</w>
胳 膊</w>
执 教</w>
不 久
道 光</w>
精 心</w>
私营 企业</w>
写 入</w>
一 顿</w>
a u</w>
嘲 笑</w>
假 装</w>
电视 机</w>
准 时</w>
玩 家</w>
告 别</w>
山 脉</w>
一 口</w>
谋 杀
征 募</w>
姓 氏</w>
冲 动</w>
不 前</w>
28 5</w>
明 治</w>
大 奖
伤 害
专 委</w>
oc i
R I
6 5
老 虎</w>
长 安</w>
剧 烈</w>
M E
直 线</w>
日益 严重</w>
另 行</w>
临时 性</w>
存 量</w>
同 盟
As s
29 6</w>
鸟 类</w>
登 录</w>
本 节</w>
保持 联系</w>
主导 地位</w>
emb er</w>
解放 运动</w>
置 疑</w>
女 主角</w>
交 响
肯 尼
最 大
抗 日</w>
展 出</w>
保 证
陆 续</w>
第二十 四条</w>
生产 国</w>
灾 区</w>
体 制
改 任</w>
每 种</w>
大奖 赛</w>
出 卖</w>
事 关</w>
海 军
主 旨</w>
重新 部署</w>
编 程</w>
登 进士</w>
卡塔 赫纳</w>
at a</w>
同 工
同 居</w>
H e
2 59</w>
衍 生</w>
知名 人士</w>
动物 园</w>
养 殖</w>
债 权</w>
儿 女</w>
上 司</w>
决 不能</w>
监 核</w>
沦 为</w>
军 营</w>
稍 微</w>
省 政府</w>
生殖 器官</w>
强 硬</w>
博 士
非法 活动</w>
美 妙</w>
第二十 三条</w>
古 典</w>
争 执</w>
触 犯</w>
求 解</w>
卢 萨卡</w>
二 是</w>
普 森</w>
ul l
电 梯</w>
数字 化</w>
平 定</w>
凌 晨</w>
不 遗
看 成</w>
尼科 西亚</w>
同文 信</w>
不遗 余力</w>
高等 学校</w>
能 效</w>
蓝 图</w>
用 处</w>
居 留
l d</w>
掌 管</w>
避孕 药</w>
财产 损失</w>
林 肯</w>
服务 台</w>
佐 证</w>
陷 入
无 聊</w>
攻 读</w>
必 定</w>
公 路
瞻 性</w>
受 惠</w>
一 队</w>
赫 勒
体制 改革</w>
放 入</w>
受 灾</w>
逃 犯</w>
直接 参与</w>
敲 定</w>
摩 根</w>
宽 恕</w>
党 委</w>
三 倍</w>
档 案
旱 灾</w>
不用 说</w>
iv ers
an o</w>
领 养</w>
通 行
表 彰</w>
之 以</w>
断 裂</w>
1 1%</w>
牧 业</w>
十 九
羞 辱</w>
病 情</w>
可预 测性</w>
P er
选 中</w>
近 年</w>
前 瞻性</w>
一点 点</w>
ic k
瞩 目</w>
魔 鬼</w>
并 非
密 性</w>
Mu h
边 际</w>
分 类
武装 集团</w>
蓝 线</w>
登 陆</w>
理 应</w>
正 确
定 位
制 药</w>
产 资源</w>
心理 学家</w>
身 材</w>
带 上</w>
商业 活动</w>
ov a</w>
辆 车</w>
表 扬</w>
巨 人</w>
内 斯</w>
M L</w>
2 49</w>
科学 界</w>
提 琴</w>
功 于</w>
M er
价 钱</w>
议 席</w>
不 合
责 备</w>
试 试</w>
瑙 鲁</w>
乐 于</w>
囚 禁</w>
不 善</w>
着 力</w>
传 来</w>
想 像</w>
广泛 应用</w>
分辨 率</w>
滥 杀</w>
人 人
一 经</w>
雄心 勃勃</w>
社会 科学</w>
格 陵
旱 地</w>
恢复 正常</w>
性 研究</w>
可行 性研究</w>
北京 市</w>
自 足</w>
R es
6 87</w>
re d
轻 重</w>
立 足
无 误</w>
座 谈会</w>
巴 拉克</w>
完 工</w>
历史 学家</w>
交通 工具</w>
上 场</w>
遗 嘱</w>
控 件</w>
缔 造</w>
功 效</w>
19 24</w>
豪 华</w>
澳大利亚 政府</w>
重新 分配</w>
病 假</w>
宗教 团体</w>
安 大
隶 属</w>
自 力
欣 慰</w>
中华 人民共和
七 次</w>
诚 地</w>
管理 司</w>
献 给</w>
时 数</w>
会议 记录</w>
付诸 实施</w>
2 29</w>
石 蜡</w>
安 圭
勉 强</w>
人 间</w>
记 忆
苯 丙
饱 受</w>
纪念 碑</w>
波 罗
归 功于</w>
责任 感</w>
天 天</w>
Moham ed</w>
评 判</w>
论 及</w>
抨 击</w>
份 子</w>
6. 3</w>
酋 长</w>
or d
年 时</w>
居 所</w>
出 发
面 上</w>
配 方</w>
破产 法</w>
四 日</w>
己 烷</w>
眼 下</w>
新 一代</w>
密集 型</w>
生 动</w>
宁 静</w>
内 为</w>
调查 局</w>
珠 宝</w>
天 性</w>
参 政</w>
一 书</w>
达 州</w>
F C</w>
题 材</w>
舞 会</w>
十分 重视</w>
In d
撞 击</w>
外 观</w>
去 过</w>
被 盗</w>
杂 项
优 美</w>
17 %</w>
角 落</w>
视 频
合法 权利</w>
内 有</w>
G ar
雷 区</w>
递 送</w>
自力 更生</w>
五 天</w>
弥 合</w>
价值 观念</w>
泄 露</w>
攻 入</w>
女 友</w>
饲 料</w>
步 兵</w>
敌 意</w>
批 评
吏 部</w>
检查 员</w>
本 协定</w>
买 家</w>
一 会</w>
2 39</w>
个 案
A y
大大 增加</w>
没 法</w>
水 处理</w>
米 歇尔</w>
第 十</w>
积极 性</w>
履行 任务</w>
学 说</w>
A f
赞 助
费 尔
财政 政策</w>
电 联</w>
个案 研究</w>
13 00</w>
雅 各</w>
机 动
互 惠</w>
辍 学率</w>
工作 效率</w>
M in
翰 林
安圭 拉</w>
切 尔</w>
分 销</w>
视 委</w>
自 营</w>
第二十 六届</w>
er t</w>
达 鲁
切 合实际</w>
停火 协定</w>
亲 人</w>
火 箭
海 湾
佣 金</w>
ic h</w>
逍 遥
录 取</w>
传统 习俗</w>
邓 小
矿 产资源</w>
犹 如</w>
来文 方</w>
之 道</w>
9 9
物 质
消 化</w>
次 于</w>
构 架</w>
可信 度</w>
顶 级</w>
赶 到</w>
祸 害</w>
概 率</w>
收 益
G oo
饮 酒</w>
域 外</w>
反倾 销</w>
中东 问题</w>
飞 往</w>
激 起</w>
B u
歌 剧</w>
年 届会</w>
同 上</w>
细 胞
尔 多</w>
第一 部</w>
法 国人</w>
成 功
彼 此
发 作</w>
一小 部分</w>
载 体</w>
第二 号</w>
很 强</w>
夜 里</w>
3 20</w>
集 会
这 话</w>
英 国政府</w>
留 意</w>
塔 尔</w>
土 壤
国际 海事
器 材</w>
建筑 师</w>
十 五年</w>
晋 级</w>
政 委</w>
不 服</w>
当事 国</w>
严重 后果</w>
厅 长</w>
青 春
萨 兰
自 此</w>
消 防</w>
外交 关系</w>
夏威 夷</w>
公 国</w>
通 向</w>
热 门</w>
任务 区</w>
生态 环境</w>
大 众
超 市</w>
疫 情</w>
比 性</w>
师 长</w>
国际 化</w>
可 用
不 在乎</w>
纪 录
和平 共处</w>
一 点儿</w>
非常 感谢</w>
牛 肉</w>
实 证</w>
启 示</w>
h t</w>
欧洲 央行</w>
恪 守</w>
叛 乱
亚 非</w>
oc s</w>
自 愿
上 方</w>
投票 权</w>
弟 兄</w>
周 岁</w>
综合 症</w>
宰 相</w>
天 文</w>
人 大</w>
陈 旧</w>
硬 币</w>
接 入</w>
单 证</w>
军 衔</w>
临 床
不 负
扩 建</w>
农 作物</w>
尚 有</w>
一 线</w>
一 侧</w>
触 及</w>
继承 权</w>
疏 忽</w>
不 致</w>
3 7.
硫 丹</w>
爱 人</w>
不 高</w>
S E
2 56</w>
每 名</w>
过 期</w>
章 制度</w>
布 里</w>
你 方</w>
下 周</w>
拉 萨</w>
可 乐</w>
不 通</w>
轮 调</w>
洛 阳</w>
毛 利
无 情</w>
国 军</w>
全国 人大常委会</w>
更 能</w>
一 至</w>
第二 份</w>
弗兰 克</w>
元 帅</w>
使 本</w>
W h
静 态</w>
重 伤</w>
贫困 线</w>
恩 斯</w>
双重 标准</w>
双边 协定</w>
Ban k</w>
A L
en s
郁 症</w>
辩 解</w>
筹 划</w>
安德 烈</w>
14 %</w>
盲 率</w>
环 己烷</w>
劳 力</w>
P at
3 16</w>
20 30</w>
第四十 三届</w>
文 盲率</w>
妓 女</w>
5. 4</w>
艺术 品</w>
胡 子</w>
显 现</w>
克什 米尔</w>
休 息
5. 5</w>
4 5%</w>
3 4.
积 分</w>
法 委员会</w>
山 谷</w>
右 翼</w>
一 连串</w>
金 斯</w>
边境 地区</w>
收 音机</w>
损 害
损害 赔偿</w>
周转 基金</w>
CO M</w>
德 罗</w>
工作 进展</w>
纳 米</w>
核心 作用</w>
排 行
体 操</w>
亚 斯</w>
严 密</w>
进 驻</w>
第二十 五届</w>
小 孩子</w>
官 至</w>
3 1.
蒙特 塞</w>
苯丙 胺</w>
邮 寄</w>
排行 榜</w>
交 互
进口 国</w>
纪录 片</w>
工商 企业</w>
各 部委</w>
五十 周年</w>
轻 型</w>
殿 试</w>
搭 档</w>
个 省</w>
pd f</w>
3 3.
2 63</w>
正 月</w>
非 营利</w>
国际贸易 中心</w>
出发 点</w>
认 出</w>
两 国政府</w>
经济合作 组织</w>
现 为</w>
政治 上</w>
安全 区</w>
在 政治上</w>
解 析</w>
皮 书</w>
平 息</w>
起 床</w>
萨兰 国</w>
获 选</w>
第三十 八届</w>
知 县</w>
陶 瓷</w>
反 弹</w>
交 出</w>
过 世</w>
日 制</w>
延 至</w>
学 前
达鲁 萨兰国</w>
莱 达鲁萨兰国</w>
波 士顿</w>
无 比</w>
文 莱达鲁萨兰国</w>
一 夫
赌 博</w>
厚 度</w>
今天 上午</w>
不 着</w>
救 护
六 氯</w>
之 时</w>
而 出</w>
不 便</w>
19 21</w>
骨 头</w>
溶 剂</w>
所 犯</w>
发 售</w>
下 调</w>
辛 格</w>
预 付款</w>
笑 容</w>
提供 商</w>
增长 速度</w>
坦 率</w>
即 应</w>
鼓 吹</w>
蒸 汽</w>
欧 空局</w>
俘 虏</w>
住 处</w>
on g
第二十 七条</w>
万 历</w>
分析 方法</w>
农 户</w>
杰 克逊</w>
废 弃
R os
考 生</w>
阿尔及 尔</w>
爷 爷</w>
并 购</w>
行为 准则</w>
航空 器</w>
摄 像
追 究
疲 软</w>
收 拾</w>
器 具</w>
同 于</w>
乳 腺癌</w>
S c
往 返</w>
头 痛</w>
核 扩散</w>
指挥 部</w>
四 种</w>
交 互</w>
可 为</w>
P a
该 校</w>
营 企业</w>
梅 尔</w>
高 血压</w>
第二十 七届</w>
比 起</w>
彩 色</w>
巡 回</w>
圣马力 诺</w>
不足 道</w>
满意 度</w>
导 游</w>
失业 者</w>
电 厂</w>
断 言</w>
男女 之间</w>
对 非</w>
不 合</w>
遗 址</w>
辛 基</w>
航天 器</w>
系统 对</w>
零售 商</w>
安全 部</w>
凯 科</w>
事 业
2 62</w>
14 00</w>
小 于</w>
S im
党 内</w>
欠 缺</w>
高 管</w>
母 乳
母乳 喂养</w>
架 飞机</w>
哀 悼</w>
内 存</w>
Mar t
6. 5</w>
超 级
蒂 纳</w>
普 尔</w>
适应 性</w>
说 是</w>
规 章制度</w>
无 偿</w>
得 主</w>
耻 辱</w>
私 法</w>
格 雷</w>
密切 协作</w>
产品 质量</w>
不 相
置 信</w>
援 用</w>
开 出</w>
升 温</w>
返 还</w>
小 时候</w>
单 据</w>
T V</w>
祖 籍</w>
挪 威
外 贸</w>
难 得</w>
肯尼 迪</w>
显 示
在 校</w>
之 路</w>
一无 二</w>
沉积 物</w>
传 给</w>
调 研</w>
曾 于</w>
安第 斯</w>
g ov</w>
青年 党</w>
第三十 九届</w>
康 复
废弃 物</w>
布隆迪 政府</w>
巴 里</w>
迁 往</w>
引 爆</w>
农业 部</w>
不 算</w>
28 6</w>
奥林匹克 运动会</w>
利 息
西 藏
继 位</w>
尤 为重要</w>
友 善</w>
住 民</w>
苏维 埃</w>
安 徽</w>
8 8
独 一无二</w>
形 资产</w>
原 型</w>
亮 相</w>
连 续
真 诚地</w>
日 元</w>
国际 事务</w>
北 美洲</w>
16 %</w>
躲 避</w>
打 扰</w>
一 下
神 父</w>
香 烟</w>
环境 法</w>
水 量</w>
收 据</w>
地 被</w>
油 气</w>
I N</w>
审 问</w>
S y
人口 比例</w>
e f
同工 同酬</w>
为 数
转 载</w>
19 23</w>
第四 十二届</w>
海 盗
急 救</w>
微 不足道</w>
年龄 段</w>
字 符
全球 战略</w>
19 19</w>
超 支</w>
现实 意义</w>
29 2</w>
印度尼 西亚
获取 信息</w>
助 益</w>
大 片</w>
光 纤</w>
6. 4</w>
金 枪
莱 特</w>
毗 邻</w>
文 第</w>
逮捕 令</w>
澳门 特别行政区</w>
次 日</w>
加 拉</w>
讯 问</w>
纤 维
清 晨</w>
洛 克</w>
墓 地</w>
坚 固</w>
可 比性</w>
先 驱</w>
波 特</w>
左 翼</w>
姿 势</w>
新 设</w>
开 门</w>
初 审</w>
该 厅</w>
补 给</w>
苏 珊</w>
这 片</w>
预算 内</w>
预 约</w>
私 有</w>
普 里
嗣 后</w>
金枪 鱼</w>
涂 料</w>
薄 膜</w>
联合国 国际贸易
联合国国际贸易 法委员会</w>
耕 作</w>
清 偿</w>
方 括号</w>
兼 容</w>
一 等</w>
耗 费</w>
巨 头</w>
取 出</w>
不 远</w>
逍遥 法外</w>
更 为重要</w>
时 起</w>
改革 开放</w>
居 高
唐 朝</w>
D C
转 任</w>
誉 为</w>
年 限</w>
ent s</w>
诺 言</w>
濒 危</w>
A M
诚 挚</w>
自由 权</w>
胜 出</w>
杂项 收入</w>
大 人</w>
四分 之三</w>
结 清</w>
邮 局</w>
国际海事 组织</w>
马其 顿</w>
阿布 贾</w>
逃 亡</w>
从 那
不 宜</w>
15 14</w>
分 布
一 审</w>
较 长</w>
繁 忙</w>
快速 反应</w>
科 研
多 家</w>
油 漆</w>
时 要</w>
德 语</w>
瓦 斯</w>
独 裁
没 想到</w>
性 病</w>
往 年</w>
多 位</w>
o c</w>
解 答</w>
红 外</w>
留 住</w>
混 合
出 兵</w>
词 典</w>
覆盖 范围</w>
从 没</w>
误 导</w>
S ar
E A</w>
直 播</w>
家 禽</w>
造 型</w>
小 鼠</w>
3 30</w>
购 物
虚 拟
新华 社</w>
颁奖 典礼</w>
慰 问</w>
商 事</w>
合 规</w>
该 局</w>
波利 萨</w>
平均 水平</w>
7 9
饲 养</w>
模 糊
中共 中央
榴 弹</w>
er e</w>
精 通</w>
现 正</w>
有所 提高</w>
向 下</w>
本 发明</w>
几 十
一 一</w>
a ir
麦 凯恩</w>
轴 承</w>
残 留</w>
旗 国</w>
备 份</w>
团结 一致</w>
布 兰
非 裔</w>
长 得</w>
整 体
战 俘</w>
我 用</w>
年 幼</w>
阿塞拜疆 共和国</w>
获 奖</w>
手 套</w>
地 狱</w>
五 分钟</w>
通 风</w>
杠 杆</w>
地 步</w>
古 怪</w>
兄 长</w>
乌兹别 克斯坦共和国</w>
犹 大</w>
曾 多次</w>
总统 令</w>
波罗 的
加 班</w>
斯 群岛</w>
快速 增长</w>
蜡 烛</w>
编 剧</w>
结 识</w>
格陵 兰</w>
核 燃料</w>
戈 尔</w>
变 化
前 沿</w>
不 力</w>
整 套</w>
30 4</w>
船 旗国</w>
等 同于</w>
倡 导
轻 轻</w>
听 证</w>
被 忽视</w>
纽约 联合国总部</w>
R am
可 不是</w>
六 方
历 程</w>
h a</w>
膝 盖</w>
有 素</w>
发 出
十 一年</w>
背 叛</w>
四 世</w>
冲突 地区</w>
网 播</w>
国民 大会</w>
六方 会谈</w>
个 州</w>
飞 船</w>
顽 固</w>
嘉 靖</w>
具体 步骤</w>
人 向</w>
系 列
便 会</w>
应 变</w>
工具 包</w>
资 历</w>
午 饭</w>
兵 团</w>
on s</w>
N o</w>
巴塞罗 那</w>
会 为</w>
鸟 儿</w>
mit te
路 口</w>
西 尔</w>
悲 痛</w>
外 语</w>
高 科技</w>
句 话</w>
自 立</w>
数以 千
任何 理由</w>
绝 大部分</w>
及 第</w>
首 张</w>
圣 地</w>
纪念 日</w>
地 缘</w>
作 曲</w>
O L</w>
提 条件</w>
小 伙
u ro
未 清</w>
以 人
运 营商</w>
行 使
大 体上</w>
出 门</w>
全面 实施</w>
中 学
e y
C A</w>
绳 子</w>
近 日</w>
责任 人</w>
意 料</w>
好 奇</w>
发 明
A D</w>
2 67</w>
食品 安全</w>
任 职者</w>
28 7</w>
28 1</w>
立法 委员</w>
特 兰</w>
牧 民</w>
反对 票</w>
非洲 开发银行</w>
耦 合</w>
编 拟</w>
化 解</w>
o o</w>
00 000</w>
越 南
离 任</w>
疑 虑</w>
不 具</w>
走 访</w>
打 入</w>
快 点</w>
救护 车</w>
多 伦
全 权
流 体</w>
W al
Kh al
次 子</w>
不负 责任</w>
上 映</w>
问 候</w>
诠 释</w>
果 说</w>
如 果说</w>
前 提条件</w>
滥 伤</w>
法院 院长</w>
本 名</w>
执 导</w>
孙 子</w>
B en
车 上</w>
自 助</w>
写 出</w>
兔 子</w>
为 生</w>
学 堂</w>
何 塞</w>
Mich ael</w>
预 示</w>
迪 拜</w>
自由 选择</w>
大 幅
载 明</w>
转 动</w>
嫌疑 犯</w>
加 达</w>
人 次</w>
高尔 夫
非 歧视</w>
激 活</w>
切 除</w>
互 动
官 僚</w>
仅 次于</w>
G roup</w>
萎 缩</w>
曼 群岛</w>
开 曼群岛</w>
宾 馆</w>
哈 利
了 不起</w>
裁 研</w>
聆 听</w>
作 文</w>
许 诺</w>
性 感</w>
德 意志
FA O</w>
织 物</w>
公用 事业</w>
湖 泊</w>
格 外</w>
明 文
收 入
学 生
字 典</w>
训练 班</w>
封 面</w>
存 档</w>
今天 下午</w>
世 代</w>
al a</w>
裙 子</w>
协调 会议</w>
ol l
27 7</w>
和 睦</w>
原 住民</w>
逃 往</w>
念 头</w>
养 成</w>
中 所作</w>
瓶 颈</w>
水 下</w>
应 得</w>
人人 平等</w>
授 课</w>
患 上</w>
恰 恰</w>
思 议</w>
塞尔维 亚共和国</w>
优 于</w>
键 盘</w>
7 50</w>
烹 饪</w>
停 顿</w>
水 管</w>
替 补</w>
方 法学</w>
中 产阶级</w>
上 年</w>
尼泊 尔
水 电</w>
随 著</w>
演 化</w>
氯化 石蜡</w>
威 廉
以人 为本</w>
长 沙</w>
趋 于</w>
蔑 视</w>
检察 机关</w>
遗 忘</w>
递 给</w>
处理 器</w>
人 际
训练 有素</w>
教育 法</w>
us s
19 22</w>
较 少</w>
藐 视</w>
美 好
外 包</w>
固 体
两 地</w>
W G
I D</w>
粗 暴</w>
秒 钟</w>
受 审</w>
避 难
维 修
树 枝</w>
哈 尔</w>
之 初</w>
in o</w>
恩 来</w>
匿 名</w>
阻 挡</w>
宣 判</w>
万 吨</w>
五 分之一</w>
小 学生</w>
友好 关系</w>
乌 斯</w>
一个 多</w>
身体 健康</w>
神 学</w>
牧 场</w>
唯 有</w>
凭 证</w>
27 9</w>
跑 步</w>
医疗 机构</w>
静 脉</w>
阻 力</w>
汇 票</w>
成 见</w>
慕 尼
飙 升</w>
院 子</w>
灭 亡</w>
戒 指</w>
ag e</w>
集会 自由</w>
前 去</w>
六 名</w>
qu e</w>
l es</w>
公 信
7. 2</w>
四 十</w>
协 助
会 后</w>
下 游</w>
7. 1</w>
克 拉
克 劳
F PA</w>
结婚 年龄</w>
日 内</w>
半 小时</w>
见 图</w>
装 配</w>
特 克斯</w>
宽 泛</w>
凯 特</w>
减 低</w>
J os
2 2%</w>
an ce</w>
面 孔</w>
C D
罗斯 福</w>
伦 斯</w>
记 者
意 外
公共 场所</w>
树 上</w>
性 侵犯</w>
尾 巴</w>
an c
犯罪 分子</w>
on d
社会 活动</w>
不可 思议</w>
珍 妮</w>
有利 条件</w>
快 要</w>
下 一代</w>
一 流</w>
麻 疹</w>
表示 祝贺</w>
2. 7</w>
自 给
矫 正</w>
奉 命</w>
各 段</w>
下 称</w>
经 管</w>
社会 工作</w>
模 特
重 心</w>
看 似</w>
斯 州</w>
R O
这 支</w>
弹 劾</w>
含 糊</w>
受 训</w>
粉 丝</w>
氯 苯</w>
有 损</w>
文 人</w>
加拿大 政府</w>
L a
大学 毕业</w>
倡导 者</w>
b y</w>
货 车</w>
盲 人</w>
冠 军
马克思 主义</w>
裤 子</w>
细 致</w>
擅 自</w>
带 薪</w>
习 生</w>
主 办
远 见</w>
跟 上</w>
狱 中</w>
专题 组</w>
渔 民</w>
法 域</w>
通 盘</w>
3 10</w>
大 火</w>
加 权</w>
砍 伐</w>
期 货</w>
数以千 计</w>
邓小 平</w>
赫勒 拿</w>
诱 导</w>
惩 教</w>
就 象</w>
外 流</w>
配 有</w>
模 具</w>
收益 率</w>
小伙 子</w>
卡 扎
催 化</w>
健 身</w>
专 心</w>
求 职</w>
en a</w>
才 干</w>
十二 个</w>
下 班</w>
知 晓</w>
推 动力</w>
圣 基
变 异</w>
重 力</w>
因 应</w>
各 有</w>
前 方</w>
第三 阶段</w>
因 数</w>
业务 流程</w>
高 盛</w>
本 期</w>
想 不到</w>
半 场</w>
一 年
D E
每 项</w>
残 暴</w>
销售 额</w>
认 罪</w>
整 编</w>
墙 壁</w>
以 至</w>
J am
肉 体</w>
模 特</w>
德 培</w>
哈 瓦
颇 为</w>
发 酵</w>
信息 安全</w>
浪 费
更 快</w>
好 了</w>
大 笔</w>
表 演
核 动力</w>
本 能</w>
定 额</w>
发 觉</w>
9 9.
特 种</w>
残 余</w>
广泛 传播</w>
可 供</w>
伙 计</w>
S m
B a
转 身</w>
民主 联盟</w>
执 业</w>
偿 债</w>
交通 事故</w>
27 3</w>
门 徒</w>
近 几年</w>
海盗 行为</w>
圆 满</w>
公信 力</w>
优 越</w>
严重 破坏</w>
不大 可能</w>
M al
锁 定</w>
西 比</w>
第三十 七届</w>
t y</w>
2 68</w>
适 时</w>
考 核</w>
妥 当</w>
卡 片</w>
什 蒂纳</w>
件 人</w>
人 造</w>
隶 属于</w>
热 带
死 于</w>
隔 绝</w>
近几 个月</w>
尼 维斯</w>
In c</w>
社会 群体</w>
快 捷</w>
出 名</w>
公 法</w>
生 前</w>
火 炬</w>
十 三年</w>
行 者</w>
盘 子</w>
流 放</w>
某 事</w>
放 射</w>
令人 信服</w>
I t</w>
弟 子</w>
嫉 妒</w>
菲利 普</w>
张 正义</w>
帐 目</w>
县 长</w>
浪 潮</w>
极 具</w>
和 善</w>
潜 艇</w>
掩 饰</w>
拥 护</w>
慕尼 黑</w>
剧 场</w>
充满 活力</w>
方 框</w>
首 批</w>
欧 亚</w>
3 8.
猴 子</w>
存 入</w>
圣基 茨</w>
A K
金 色</w>
白 俄罗斯
白俄罗斯 共和国</w>
消费 品</w>
波 斯</w>
武装 人员</w>
文化 部</w>
接 获</w>
招待 会</w>
图 里</w>
I B
Ch ar
A R</w>
委员 长</w>
结 尾</w>
现 行
浙江 省</w>
总 能</w>
崭 新</w>
及 时性</w>
两 点</w>
F ar
3 67</w>
理工 学院</w>
受 权</w>
全面 解决</w>
惯 常</w>
巴 赫</w>
17 00</w>
违 法
证明 文件</w>
礼 仪</w>
波罗的 海</w>
赛 因</w>
实 地
外 围</w>
国 债</w>
魁 北
皮 埃尔</w>
模特 儿</w>
完 备</w>
各 区</w>
受灾 国</w>
兼 并</w>
据 点</w>
因 果
0. 7%</w>
者 说</w>
无法 控制</w>
媒体 报道</w>
同 一天</w>
血 清</w>
双 打</w>
w or
贫困 者</w>
磁 场</w>
泛 滥</w>
外交 使团</w>
不 复
或 者说</w>
减 量</w>
葡 萄</w>
普里 什蒂纳</w>
叶 子</w>
军 警</w>
6 50</w>
音乐 家</w>
避难 所</w>
调 配</w>
记 名</w>
珊 瑚</w>
更 强</w>
布莱 尔</w>
or e</w>
3 80</w>
载 荷</w>
潮 湿</w>
中 亚
加 密</w>
传 唤</w>
这 批</w>
简 洁</w>
水 手</w>
打 扮</w>
商 务部</w>
预 付</w>
转 给</w>
活 产</w>
暴 风雨</w>
放射 性
抑 郁</w>
展 览会</w>
化 妆
先 锋</w>
一整 天</w>
河 北</w>
埋 葬</w>
G re
真实 性</w>
卜 拉
专 属</w>
磨 损</w>
瞄 准</w>
水 文</w>
常务 副</w>
双 性恋</w>
突 发</w>
上海 市</w>
直 隶</w>
侯 赛因</w>
19 17</w>
19 07</w>
讲 授</w>
脚 步</w>
找 个</w>
恩 德培</w>
四川 省</w>
南 京
es a</w>
网 路</w>
缴 费</w>
1 100</w>
过 量</w>
起诉 书</w>
衷 心</w>
理 所
当地 人</w>
强 壮</w>
天 津
个人 身份</w>
一 如
棕 色</w>
庭 审</w>
周 恩来</w>
规 避</w>
第一 百
电影 节</w>
库 拉</w>
克 利</w>
修 道
12 44</w>
除 去</w>
装 载</w>
改 善
ro s
疏 散</w>
狭 隘</w>
欧洲 议会</w>
Un ivers
雅 加达</w>
视 图</w>
照 看</w>
阵 营</w>
适用 法律</w>
热 心</w>
浏 览
公 允</w>
P BC</w>
年 长</w>
之 角</w>
逃 走</w>
第七 十三</w>
更 替</w>
好 看</w>
自 发</w>
移 民法</w>
开 庭</w>
前 一天</w>
阳 性</w>
蒂 斯</w>
放 进</w>
成 份</w>
双边 合作</w>
裁 员</w>
晶 体</w>
广泛 支持</w>
安 徽
后 方</w>
一如 既往</w>
震 动</w>
这 起</w>
目标 群体</w>
当 场</w>
评论 家</w>
整 顿</w>
27 4</w>
胚 胎</w>
特殊 性</w>
失踪 者</w>
哺乳 动物</w>
第一 任</w>
民 盟</w>
显 出</w>
在 意</w>
i er</w>
Dav id</w>
肉 类</w>
攀 升</w>
总 长</w>
劝 说</w>
存 储
变 迁</w>
一 堂</w>
19 12</w>
顺 便</w>
医 治</w>
主 机</w>
清 华
呈 现出</w>
侨 民</w>
ad a</w>
试 用</w>
特 区政府</w>
毛 病</w>
无 形</w>
投资 银行</w>
交 际</w>
招 待</w>
合 理性</w>
h e
首 任</w>
该 党</w>
议 者</w>
出 局</w>
税 收
时 段</w>
园 里</w>
南 南</w>
加 工
o p</w>
丽 丝</w>
M s</w>
见 度</w>
水 灾</w>
底 层</w>
v en
多 多</w>
8 9
生 子</w>
文 帝</w>
m e</w>
贵 州</w>
遗 失</w>
l as</w>
k e</w>
面 貌</w>
车 祸</w>
绅 士</w>
曝 光</w>
J o
轨 迹</w>
贪 婪</w>
经济 损失</w>
文 艺</w>
富 翁</w>
回 忆
UNA 0
有 赖于</w>
约 组织</w>
男 双</w>
核 计划</w>
太 大</w>
基本 要素</w>
U S
美 德</w>
直 径</w>
最大 化</w>
基 尔</w>
J ul
鲜 花</w>
行政 院</w>
股 长</w>
城 区</w>
居高 不下</w>
家 宝</w>
哈瓦 那</w>
及 格</w>
蒙 特</w>
副 作用</w>
凶 手</w>
见 过</w>
离 境</w>
高 潮</w>
观 者</w>
师范 大学</w>
受 控</w>
谈 判
监 管
海 伦</w>
国际 电联</w>
这 为</w>
希 伯
知识 分子</w>
景 色</w>
化 验</w>
u t</w>
文 艺
大 笑</w>
家 政</w>
第三十 六届</w>
拨 付</w>
商 场</w>
协 会
出 道</w>
截 然不同</w>
轮 换</w>
联 保</w>
歌 词</w>
果 实</w>
嘴 唇</w>
冰 淇
全 日制</w>
海 面</w>
巧 妙</w>
全 时</w>
n er</w>
关键 词</w>
万国 宫</w>
烧 毁</w>
末 尾</w>
吉 他</w>
几 率</w>
不久 前</w>
18 74</w>
太 好了</w>
之 情</w>
高 涨</w>
需 品</w>
时 向</w>
别 无
旅行 社</w>
伸 张正义</w>
严格 执行</w>
近几 年来</w>
胜 过</w>
而 作</w>
文化 大革命</w>
as t</w>
合 乎</w>
兵 部</w>
目 击者</w>
江苏 省</w>
手 表</w>
呼 叫</w>
切尔 西</w>
出 价</w>
s ch
案文 见</w>
妥 善
首 度</w>
J I
19 18</w>
罢 了</w>
火 车站</w>
款 下</w>
杀 人
总统 府</w>
多伦 多</w>
复 出</w>
有 制</w>
字 样</w>
道 义</w>
提 的是</w>
值得一 提的是</w>
低 迷</w>
ub e</w>
5 0.
需求 量</w>
论 据</w>
空间 站</w>
性 犯罪</w>
并 列</w>
难以 置信</w>
降 临</w>
正 统</w>
多 国
克 减</w>
15 000</w>
山 顶</w>
非洲 之角</w>
米 勒</w>
短 信</w>
液 压</w>
名 列</w>
作 风</w>
陷 阱</w>
账 单</w>
口 岸</w>
20 50</w>
黑 龙
环 球</w>
特 兰
工业 部门</w>
顶 部</w>
辨 认</w>
视 察
致 敬</w>
搜 索
投标 书</w>
怀 着</w>
年 终</w>
嫌 犯</w>
翰林 院</w>
繁 重</w>
征 召</w>
复 活</w>
周期 性</w>
一 视
C C</w>
领 事
是 如此</w>
加 元</w>
书面 通知</w>
之 旅</w>
一视 同仁</w>
肢 体</w>
网 格</w>
损 于</w>
倒 闭</w>
3 5.
华 丽</w>
化学 物质</w>
助 攻</w>
事 变</w>
探 测器</w>
干 活</w>
吉 普
相互 合作</w>
杜 古</w>
列 示</w>
低 温</w>
人 节</w>
3 3%</w>
正 选</w>
如 能</w>
圆 桌</w>
R S</w>
责任 制</w>
热烈 欢迎</w>
SG B</w>
民主 政体</w>
卡扎 菲</w>
修订 本</w>
精 密</w>
一 分</w>
27 8</w>
节 性</w>
想 象
编 撰</w>
简 述</w>
改 叙
寄 宿</w>
分 离
M il
通行 证</w>
眼 里</w>
德 里克</w>
前 款</w>
关 上</w>
高 尚</w>
安 宁</w>
身 子</w>
科 夫</w>
克里 斯蒂
4 8.
齿 轮</w>
慕 容</w>
奥 委会</w>
勤 奋</w>
问 及</w>
租 借</w>
哈 里
利息 收入</w>
ay a</w>
胞 胎</w>
简 便</w>
柜 台</w>
条 目</w>
方 在</w>
卡 拉
两 部</w>
自然 环境</w>
耗 氧</w>
有 助</w>
中国人民 银行</w>
黑 海</w>
都 是</w>
身 处</w>
感 知</w>
多 长时间</w>
例 证</w>
专 栏</w>
斯 大
抗 战</w>
冰淇 淋</w>
体育 馆</w>
5 50</w>
肚 子</w>
爱 心</w>
入 围</w>
促 销</w>
佣 工</w>
27 1</w>
组 装</w>
监 委</w>
想象 力</w>
坚持 不懈</w>
ac k
3 9.
全 是</w>
编 辑
头 号</w>
大 米</w>
为人 知</w>
M O
G O</w>
证券 公司</w>
要 件</w>
循 环
基 薪</w>
便 携
过 得</w>
两 用</w>
三 份</w>
赤 道</w>
紧迫 性</w>
r en
该 届</w>
晋 升为</w>
安 援</w>
奖 章</w>
勒 索</w>
7. 5</w>
内政 部长</w>
al i</w>
R o
士 气</w>
几 百
团 体
人 于</w>
之 手</w>
工 人
陆 上</w>
迎 来</w>
第一 句</w>
We b</w>
3 2.
玩 耍</w>
悲 观</w>
依 赖
男 士</w>
照 管</w>
格 雷
多数 票</w>
加 特</w>
l er</w>
法律 责任</w>
政治 处</w>
不 向</w>
贡 士</w>
耽 搁</w>
名 录</w>
世界 性</w>
感染 率</w>
存 有</w>
分析 表明</w>
克 森</w>
达 姆</w>
减 税</w>
经济 上</w>
福利 部</w>
校 正</w>
手 提
强 奸
在 经济上</w>
卫生 系统</w>
.. ..</w>
香 蕉</w>
螺 旋</w>
网 友</w>
积 金</w>
民 意
斟 酌</w>
农 民
偏 向</w>
信息 化</w>
壮 大</w>
放 映</w>
上 调</w>
I b
29 5</w>
编 排</w>
国 营</w>
详 见</w>
签 下</w>
官 兵</w>
下 台</w>
香港 特区</w>
提 早</w>
高加 索</w>
长 寿</w>
美 学</w>
美 味</w>
显 微
A B
多国 部队</w>
同 性</w>
东 方
ul t
高 原</w>
阿 尔</w>
迪 克</w>
赶 走</w>
约 瑟</w>
抗 力</w>
三 岁</w>
p e</w>
走 开</w>
不 大</w>
调 入</w>
荒 谬</w>
卖 出</w>
协助 执行</w>
譬 如</w>
笼 统</w>
强 加
肝 脏</w>
在 我
作 客</w>
以 北</w>
亚 当</w>
28 2</w>
锦 涛</w>
样 式</w>
戈 马</w>
哥伦比亚 大学</w>
厨 师</w>
卫生 署</w>
初 稿</w>
西亚 联邦</w>
滞 后</w>
帕 特
密克罗尼 西亚联邦</w>
毁 林</w>
摄 入</w>
小 心
吸 附</w>
下 级</w>
一夫 多
CA P</w>
福 建
润滑 油</w>
攻 击
希 拉里</w>
单 打</w>
傲 慢</w>
00 1</w>
单 击</w>
匆 匆</w>
分 派</w>
驾 车</w>
坎 帕拉</w>
亲 切</w>
一 辈子</w>
3 500</w>
第八 章</w>
普通 法</w>
之 久</w>
起 步</w>
经 销商</w>
南 海</w>
交 涉</w>
M o
I P</w>
抗 体</w>
微 额</w>
定期 存款</w>
世 俗</w>
霍 乱</w>
甲 烷</w>
灿 烂</w>
本 款</w>
在 短期内</w>
M V</w>
2 200</w>
打 发</w>
场 面</w>
T O</w>
CH W</w>
怀 特</w>
工商 界</w>
售 价</w>
两 场</w>
酌 处</w>
P r
成 人
强 力</w>
造 就</w>
中 性</w>
学 龄
场 址</w>
事务 部长</w>
自 觉</w>
第三十 四届</w>
安东 尼奥</w>
取 样</w>
亚 马
乐 坛</w>
说 谎</w>
聚 焦</w>
瓶 子</w>
晚 期</w>
悲 哀</w>
区 别
体 力</w>
主 任
ur a</w>
C L
蒙 德</w>
扼 要</w>
一 小</w>
A k
赐 给</w>
流 血</w>
普 鲁
股 本</w>
演 艺</w>
一 十</w>
联络 官</w>
耶 稣
紧 密
土地 改革</w>
区 议会</w>
这 篇</w>
男 朋友</w>
摩 根
利 政府</w>
修 缮</w>
海洋 资源</w>
归 入</w>
假 释</w>
两 起</w>
危 急</w>
东 道</w>
自给 自足</w>
4 0.
报 率</w>
好 运</w>
农 夫</w>
亚 伯
一下 子</w>
J ab
D A</w>
讲 解</w>
沙 发</w>
总 支出</w>
集体 行动</w>
活动 家</w>
富 国</w>
固定 翼</w>
不 锈
w e
P ol
门 前</w>
退休 年龄</w>
著 称</w>
私 立学校</w>
相 关联</w>
未 作</w>
厌 倦</w>
卡 洛斯</w>
闯 入</w>
问 问</w>
组 办</w>
很 棒</w>
劳 资
邮 政局</w>
悉 尼</w>
全 方位</w>
F ac
卡 特尔</w>
s c
阿 拉</w>
辛 苦</w>
学前 教育</w>
外 套</w>
坚 称</w>
ev el
R A</w>
贸易 中心</w>
着 陆</w>
混 双</w>
七 名</w>
G E</w>
菲 尔</w>
看 护</w>
瓦 解</w>
普 里</w>
戈尔 诺</w>
候 选</w>
环境 部</w>
探 视</w>
丹 利</w>
个 世纪</w>
柔 软</w>
野 心</w>
理所 当然</w>
依法 追究</w>
与 众
第二十二 条</w>
私人 资本</w>
杀 手</w>
日 出</w>
技术 员</w>
可 谓</w>
亚 人</w>
附加 值</w>
礼 部</w>
教 宗</w>
嘴 里</w>
叛乱 分子</w>
剧 中</w>
编 制
经 理
鲨 鱼</w>
足 轻重</w>
请 求
求 职者</w>
正 教</w>
戴 维</w>
u el</w>
拆 毁</w>
成 形</w>
仔 细
面 部</w>
所 设</w>
回 头</w>
以 补</w>
6 5%</w>
紧急 措施</w>
技术 开发</w>
总 和</w>
富有 成效</w>
天 晚上</w>
原 产地</w>
写 成</w>
内 所</w>
干 细胞</w>
就 学</w>
大 豆</w>
乒 乓
与众 不同</w>
er o</w>
飞行 器</w>
男 子
瑞士 法郎</w>
天 后</w>
加 尔
到 困难</w>
集中 精力</w>
节 约
籍 法</w>
坦 诚</w>
电影 院</w>
温 家宝</w>
欢 迎
少数 几个</w>
学 徒</w>
国 籍法</w>
因果 关系</w>
世 凯</w>
盼 望</w>
留 存</w>
恒 星</w>
天 文学</w>
充分 就业</w>
蜜 蜂</w>
火 山
比 照</w>
少年 犯</w>
连 带</w>
美 的</w>
价格 指数</w>
霍 尔</w>
关 联
范 本</w>
水 库</w>
智 能
廉 正</w>
希 德</w>
克 拉克</w>
人 手</w>
钱 包</w>
衣 物</w>
苍 白</w>
声 望</w>
3. 6</w>
香港 大学</w>
首 要
青 睐</w>
较 差</w>
软 弱</w>
虚 弱</w>
胡 锦涛</w>
第二 位</w>
离 岸</w>
清华 大学</w>
保 有</w>
中央 委员会</w>
上 以</w>
游击 队</w>
年 头</w>
贝 拉</w>
萨 德</w>
答 道</w>
招 收</w>
户 部</w>
四 岁</w>
保守 党</w>
中 长期</w>
世 纪
这 边</w>
莎 士
投资 人</w>
居 于</w>
参 军</w>
亚洲 开发银行</w>
青春 期</w>
转 变成</w>
消 毒</w>
下 旬</w>
19 11</w>
青 岛</w>
裂 缝</w>
莎士 比亚</w>
滞 留</w>
洛 夫</w>
家 用</w>
资料 库</w>
课 本</w>
空 中
书 法</w>
金 正
处 方</w>
葡萄牙 语</w>
直 觉</w>
暴 动</w>
并 会</w>
工作 室</w>
回 报率</w>
器 件</w>
歪 曲</w>
v a</w>
节 制</w>
聚 合物</w>
对 受</w>
商业 化</w>
右 手</w>
口 味</w>
信 封</w>
权 衡</w>
朱 巴</w>
右 边</w>
但 愿</w>
记录 在案</w>
航 海</w>
自由 主义</w>
牵 连</w>
正 值</w>
摒 弃</w>
工 地</w>
Ahm ed</w>
斯拉 夫</w>
夸 大</w>
发展 前景</w>
一 岁</w>
航 线</w>
现金 流量</w>
所 为</w>
乔 治
物 件</w>
差 别
保障 制度</w>
袁 世凯</w>
第二 季度</w>
小 儿
4 9.
雷 尔</w>
蝴 蝶</w>
相 似
出 路</w>
新闻 报道</w>
投 掷</w>
宽 度</w>
系 主任</w>
投 保</w>
安 曼</w>
竞 技</w>
今 世</w>
不 间断</w>
el a</w>
S il
30 3</w>
路 面</w>
淹 没</w>
山 东省</w>
多种 形式</w>
里 斯
绝 不会</w>
成 因</w>
客观 性</w>
十 五日</w>
7 5
非 正常</w>
第二十 八届</w>
立 足</w>
未 婚</w>
幼 年</w>
州 政府</w>
自 杀
更 进一步</w>
拓 跋</w>
惊 喜</w>
大 体</w>
哈萨 克斯坦共和国</w>
30 1</w>
区别 对待</w>
X X</w>
采 购
爆炸 性</w>
流 利</w>
所 持</w>
罗 伯
短 片</w>
公 升</w>
临时 政府</w>
一 读</w>
长 江</w>
笔 记</w>
稀 少</w>
圆满 成功</w>
参 演</w>
Com m
身 旁</w>
跨 文化</w>
毫无 意义</w>
映 射</w>
行政 拘留</w>
第三十 五届</w>
由 该</w>
户 外</w>
人 气</w>
爱好 者</w>
p a</w>
里 夫</w>
路 边</w>
先 是</w>
现实 情况</w>
渡 过</w>
极 好</w>
日 增</w>
4 25</w>
越来 越
氟 氯烃</w>
太 宗</w>
天 地</w>
领事 馆</w>
心 协力</w>
枢 纽</w>
巴 德</w>
驱 动
革命 军</w>
自 私</w>
渔 业
新 颖</w>
安全 感</w>
大 意</w>
M ed
行 进</w>
派 系</w>
气 息</w>
劳 务</w>
R od
行为 能力</w>
左 边</w>
定位 系统</w>
安东 尼</w>
大 象</w>
一 谈</w>
无 期徒刑</w>
战 事</w>
宇航 员</w>
基 加利</w>
分 居</w>
苏 州</w>
抗 拒</w>
受 人</w>
修 女</w>
一 夜</w>
长 短</w>
特 质</w>
恋 者</w>
汇 总表</w>
填 充</w>
受 邀</w>
G E
正 规
杯 子</w>
平均 值</w>
实 话</w>
大大 减少</w>
击 退</w>
修道 院</w>
自 尊</w>
篇 小说</w>
熊 猫</w>
未 遂</w>
位 居</w>
不 分
V al
联 接</w>
比 喻</w>
外汇 储备</w>
oo d</w>
at t
K am
钢 铁
投 了</w>
同 性
召 回</w>
加 杜古</w>
a o</w>
阿姆 斯特
维 吾
推 导</w>
中 风</w>
运 到</w>
瓦 加杜古</w>
死 因</w>
传 闻</w>
说 服
布 达
不 禁</w>
贮 存</w>
拉 罕</w>
托 运人</w>
姊 妹</w>
大大 提高</w>
压 倒
阵 容</w>
相 遇</w>
教育 工作者</w>
匆 忙</w>
钓 鱼</w>
贫 民</w>
管 控</w>
普林 西比</w>
发电 厂</w>
加 固</w>
选 秀</w>
节 省
方 言</w>
分 隔</w>
W ind
JI U</w>
Com p
维 权</w>
牙 科</w>
木 头</w>
受害 国</w>
7 6
黎 明</w>
饱 和</w>
部 下</w>
特 拉
使用 寿命</w>
面 对面</w>
身 穿</w>
负 载</w>
客 厅</w>
上 一年</w>
马克 思</w>
并非 如此</w>
em ent</w>
滴 滴
法 国政府</w>
太 高</w>
千 人</w>
无 遗</w>
改叙 为</w>
水 稻</w>
事 儿</w>
C P
氯 联苯</w>
巴 萨</w>
尖 锐</w>
多 氯联苯</w>
域 网</w>
几 家</w>
毛 利</w>
上 作</w>
3 40</w>
细 分</w>
生 日
模 拟
标 的</w>
备 有</w>
化 工</w>
加利福 尼亚州</w>
公 诉</w>
说服 力</w>
汉 族</w>
末 期</w>
太 子
主管 人员</w>
6. 6</w>
里斯 本</w>
电 极</w>
海 员</w>
又 称</w>
便携 式</w>
为 数</w>
首 选</w>
立足 于</w>
机 枪</w>
战 线</w>
全民 教育</w>
企业 界</w>
第三十 三届</w>
所 受</w>
上 层</w>
30 2</w>
j ournal</w>
递 延</w>
海 边</w>
年 于</w>
尼 诺</w>
卖 掉</w>
升 起</w>
w h
安 非
发 音</w>
保 释</w>
4 20</w>
选 取</w>
福 德</w>
分 包</w>
中国 科学院</w>
A P</w>
遇 到困难</w>
无 核
慎 重</w>
长 城</w>
攻 占</w>
再 也
主 宰</w>
M C</w>
西 北
第二 种</w>
杆 菌</w>
古巴 政府</w>
An t
盲 目</w>
掩 护</w>
图 象</w>
雕 像</w>
美 和
第十 二</w>
服 饰</w>
必 需品</w>
各种 因素</w>
环 卫</w>
特 等</w>
牙 医</w>
毫无 根据</w>
报 警</w>
情报 机构</w>
字符 串</w>
副 总裁</w>
这 辆</w>
最 迟</w>
建筑 工程</w>
哈 德</w>
产 权
防 务</w>
肺 癌</w>
红 利</w>
恢复 性</w>
开幕 词</w>
字 体</w>
好 人</w>
国 共</w>
各 处</w>
滥用 权力</w>
攻 势</w>
互 信</w>
中 正</w>
肺 炎</w>
职 守</w>
文件 系统</w>
开展 调查</w>
巴 克</w>
陌 生</w>
浪费 时间</w>
斯 敦</w>
才 华</w>
驳 斥</w>
安非 他
卡 尔
紫 色</w>
偏 好</w>
马 路</w>
评 分</w>
积极 开展</w>
本 科</w>
一 堆</w>
短 链</w>
公民 权</w>
19 14</w>
联 会</w>
抑 郁症</w>
开 销</w>
地 表</w>
亚 特兰
深 深
开 业</w>
麦 当
迟 迟</w>
流行 病学</w>
散 文</w>
库 克
围 困</w>
C ent
继 而</w>
最 易</w>
应 聘</w>
闪 电</w>
第十 一</w>
知 府</w>
水 流</w>
故 乡</w>
同性 恋者</w>
专 案</w>
道 而
终 点</w>
极 高</w>
带 回</w>
外 商
轮 廓</w>
慈善 机构</w>
德 国人</w>
年 老</w>
墨西哥 政府</w>
合 资企业</w>
军事 装备</w>
促进 作用</w>
一 页</w>
l i</w>
马尼 拉</w>
门 将</w>
渗 透
最 优</w>
惧 怕</w>
大 力度</w>
商 议</w>
加 大力度</w>
买 下</w>
语 气</w>
知 悉</w>
正当 程序</w>
抗 生素</w>
库克 群岛</w>
i p</w>
那 年</w>
联 想</w>
福利 金</w>
滑 雪</w>
泳 池</w>
忙 碌</w>
征 用</w>
并 称</w>
定 律</w>
大 雨</w>
此 地</w>
执法 机关</w>
些 年来</w>
证据 规则</w>
美和 普林西比</w>
留 守</w>
歌 声</w>
斯大 林</w>
小 偷</w>
圣多 美和普林西比</w>
军 长</w>
亲 近</w>
g le</w>
P e
退 学</w>
花 园里</w>
朝 向</w>
效 仿</w>
开 通</w>
单 边</w>
i z</w>
核 电站</w>
新 一轮</w>
斯 托</w>
工业 界</w>
公共 财政</w>
第三 十二届</w>
完 成
C I
佩 克</w>
1. 6</w>
跑 道</w>
贫困 家庭</w>
恶性 循环</w>
大 法官</w>
后 任</w>
R ich
观察 站</w>
第五 节</w>
数据 交换</w>
摄影 师</w>
微 弱</w>
库 尔德
小型 企业</w>
共同 点</w>
交通 管制</w>
追 随</w>
绘 图</w>
撤 军</w>
复合 材料</w>
兄弟 姐妹</w>
肌 肤</w>
扎 伊尔</w>
希 亚</w>
万 一</w>
10 0
离 散</w>
半 导体</w>
充分 认识</w>
两 侧</w>
一 到</w>
麻 醉</w>
滴滴 涕</w>
上 下文</w>
约 旦
社区 服务</w>
拉 政府</w>
Je an</w>
质量 标准</w>
立 委</w>
登 场</w>
承包 人</w>
in i</w>
互联 网
之 多</w>
三 类</w>
os s
驾驶 员</w>
门 诊</w>
违 规
浴 室</w>
威尔 逊</w>
保持 稳定</w>
交 织</w>
调 停</w>
褐 色</w>
更 是如此</w>
拿 走</w>
台 风</w>
修 饰</w>
面 具</w>
第十 一次</w>
光 芒</w>
亚伯 拉罕</w>
贸易 区</w>
经验 丰富</w>
d er</w>
身份 证件</w>
行政 法院</w>
病 变</w>
模 范</w>
夸 张</w>
冗 长</w>
充 斥</w>
不锈 钢</w>
集团 军</w>
视察 员</w>
干 嘛</w>
力 气</w>
储 备
随 身
捕 捉</w>
士 丹利</w>
北 朝鲜</w>
从 句</w>
用 力</w>
保护 性</w>
面 向
第三十 届</w>
偏 差</w>
侵 占</w>
七 岁</w>
离 子
票 房</w>
奥 古
大 利</w>
北 韩</w>
再次 发生</w>
这 台</w>
转 送</w>
科 斯</w>
副 局长</w>
雷 特</w>
遍 布</w>
近 地</w>
聚 合</w>
氟 碳</w>
地方 法院</w>
边 远地区</w>
蒙 罗
热 窝</w>
海 岸
成 型</w>
德 勒</w>
订 于</w>
第二 句</w>
畅 销</w>
更 糟</w>
摩根 士丹利</w>
恶 心</w>
已 登记</w>
博 拉</w>
娃 娃</w>
3 6.
转 发</w>
D E</w>
首 届</w>
V ol</w>
追究 责任</w>
奥 塞
详细 信息</w>
源 泉</w>
温 度
格 勒</w>
枢 密
大 阪</w>
初 年</w>
中 学生</w>
eb ook</w>
银 河</w>
轮 值</w>
脚 下</w>
班 级</w>
当 量</w>
外 借</w>
航空 安全</w>
村 子</w>
会 场</w>
一 丝</w>
8 7
市政 当局</w>
两 张</w>
不 公</w>
# #</w>
蒙罗 维亚</w>
网 民</w>
气 管</w>
R EP</w>
M A</w>
迟 于</w>
投 手</w>
库 克</w>
兽 医</w>
2 3%</w>
放 慢</w>
埃塞俄 比亚
偷 窃</w>
亵 渎</w>
负 起</w>
谨 此</w>
总 面积</w>
劫 持
专 制</w>
上 台</w>
胸 部</w>
立法 者</w>
求 助于</w>
旷 日
新 来</w>
想 念</w>
E L
逐 出</w>
排 队</w>
低 廉</w>
传 教士</w>
贫困 地区</w>
谥 号</w>
科学 知识</w>
全 港</w>
充 作</w>
不 列颠</w>
铺 平
铺平 道路</w>
近 乎</w>
膳 食</w>
新闻 处</w>
教 义</w>
r ist
开放 式</w>
声 波</w>
l os</w>
记者 会</w>
规 管</w>
睦 邻
病 理</w>
旷日 持久</w>
投 入
戴 维斯</w>
巴尔 干</w>
审 美</w>
N or
28 %</w>
美 食</w>
社 长</w>
港 币</w>
南 美</w>
保 安
mitte e</w>
说 家</w>
著作 权</w>
粉 碎</w>
持续 时间</w>
录 像
六 十</w>
欢 呼</w>
最 受</w>
十 多年</w>
人民 解放军</w>
7. 3</w>
该 市</w>
竞争 者</w>
建筑 业</w>
历 届</w>
克罗地 亚共和国</w>
主题 曲</w>
j a</w>
雕 刻</w>
警 卫队</w>
糖 果</w>
烟 雾</w>
旅 途</w>
古 典
公共 交通</w>
达 赖</w>
诋 毁</w>
滞 不前</w>
其 他
拓 宽</w>
融 化</w>
续 约</w>
安非他 明</w>
借 给</w>
au l</w>
起 身</w>
房 租</w>
北 欧</w>
ov e</w>
e h
道 路
证 责任</w>
数学 模型</w>
刑 院</w>
举 证责任</w>
D a
维护 和平</w>
推 选</w>
年 青
布 政
五 大</w>
罢 免</w>
有 幸</w>
失 调</w>
召 集
包 装
e i</w>
重新 安排</w>
良 好
能源 安全</w>
立方 米</w>
布拉 格</w>
ic k</w>
阀 门</w>
打 扫</w>
大 败</w>
同 意
剧 集</w>
id e</w>
2 1%</w>
递 解</w>
这 才</w>
赶 快</w>
贯彻 执行</w>
溯 到</w>
条 对</w>
市场 份额</w>
午 夜</w>
制 片
停 滞不前</w>
下 车</w>
贪 污
求 学</w>
org an</w>
O P
M P
帝 国主义</w>
Ch ina</w>
金融 资产</w>
金融 公司</w>
率 高</w>
封 为</w>
副 教授</w>
宫 殿</w>
助 产
一 号</w>
3 11</w>
联邦 共和国</w>
江 南</w>
复杂 化</w>
叶 片</w>
不 好
M ad
2 100</w>
哺 乳</w>
分 公司</w>
p er</w>
29 7</w>
苯 酚</w>
脚 本</w>
基 亚</w>
印度尼西亚 政府</w>
前 走</w>
别 墅</w>
元 前</w>
修订 案</w>
五 年期</w>
谢 赫</w>
英文 版</w>
年青 人</w>
卢 比</w>
留 出</w>
循 证</w>
小 船</w>
东 正教</w>
19 16</w>
萨 拉姆</w>
沙 滩</w>
春 节</w>
实用 性</w>
固 然</w>
双 向</w>
助产 士</w>
刚 好</w>
牵 涉
染 色
华盛 顿
五 百</w>
罗 夫</w>
屡 次</w>
厄 尔
Th om
权威 性</w>
有 损于</w>
成 套</w>
当地 政府</w>
哨 所</w>
全国 人民代表大会常务委员会</w>
外 侨</w>
表达 式</w>
来 回</w>
握 手</w>
成人 教育</w>
弗 雷</w>
衷 心
获 知</w>
确 有</w>
暴 雨</w>
方 同意</w>
婚 后</w>
双 方同意</w>
m d
虔 诚</w>
机 组</w>
2. 8</w>
腹 泻</w>
按 摩</w>
四 人</w>
讲 台</w>
经理 人</w>
物理 学家</w>
固体 废物</w>
加利福 尼亚</w>
腹 部</w>
敞 开</w>
搜索 引擎</w>
常 务</w>
听 闻</w>
党 组</w>
伊 斯</w>
萨拉 热窝</w>
本 年度</w>
普 罗
内 陆
被 誉为</w>
与会 代表</w>
LO S</w>
饮 用</w>
谣 言</w>
规 程</w>
步 入</w>
抗 议者</w>
Un ited</w>
花 朵</w>
测 绘</w>
天 数</w>
听 听</w>
厂 家</w>
波 里</w>
巴 马
召集 人</w>
9 8.
活 泼</w>
比 利</w>
普 选</w>
多米尼 加</w>
印 件</w>
留 言</w>
淋 巴
援 会</w>
喀 什</w>
凸 显</w>
不 法</w>
顾 问
赫 斯</w>
西 西
确 凿</w>
层 级</w>
尔 科</w>
寄 给</w>
寂 寞</w>
华 德</w>
上 岗</w>
Ne w
考 古</w>
电子 邮箱</w>
沙 龙</w>
很 久
康复 中心</w>
双边 关系</w>
IC C</w>
接 著</w>
忙 于</w>
子 宫</w>
卓 有
别 处</w>
光 辉</w>
青 蛙</w>
签 订
爱 因
爱因 斯坦</w>
沙 田</w>
拟 设</w>
招 呼</w>
归 国</w>
季 节性</w>
J un
贯彻 落实</w>
福 克斯</w>
执 政党</w>
引 诱</w>
就 绪</w>
威 尼斯</w>
乏 味</w>
银行 业务</w>
牛 津
托 尼</w>
成 名</w>
建筑 材料</w>
及 后</w>
兰 人</w>
验 收</w>
见 于</w>
赛 车</w>
盘 存</w>
牵涉 到</w>
先 行</w>
一 时间</w>
I F
狩 猎</w>
时 分</w>
全 美</w>
老 是</w>
美 金</w>
经 贸
巴基 斯坦
全体 成员</w>
主 打</w>
29 9</w>
项目 表</w>
赫尔 辛基</w>
贸易 壁垒</w>
石油 价格</w>
未 付</w>
关税 壁垒</w>
储 蓄
C o
4 1.
19 %</w>
街 区</w>
流 出</w>
水 产</w>
合同 规定</w>
an t</w>
高 危</w>
银 牌</w>
载 述</w>
游 览</w>
挫 败</w>
差别 待遇</w>
做 生意</w>
信息 网</w>
蚊 帐</w>
精 灵</w>
管辖 区</w>
片 段</w>
源 头</w>
挪 用</w>
广播 节目</w>
加 油</w>
制 宪</w>
克 朗</w>
五 位</w>
19 13</w>
避孕 套</w>
立 法院</w>
泥 土</w>
枪 击</w>
急 于</w>
山 羊</w>
尽 头</w>
st it
小儿 麻
30 000</w>
雕 塑</w>
趋 向</w>
环境 污染</w>
民 法典</w>
大 理
可用 性</w>
候 补
A S</w>
第四 季度</w>
禁 区</w>
征 询</w>
上 尉</w>
27 %</w>
官 僚
evel op
篮 子</w>
湾 仔</w>
未 经
工 会
商 谈</w>
J an
29 1</w>
该 书</w>
舌 头</w>
氧 气</w>
小 提琴</w>
器 械</w>
G on
航空 航天</w>
滥用 职权</w>
浏览 器</w>
大 将</w>
地 面
法 特</w>
废 墟</w>
就 座</w>
家庭 收入</w>
后 世</w>
E 4</w>
Am er
猎 人</w>
政治 局势</w>
拉 尼</w>
全 局</w>
使用 率</w>
Wind ow
雨 量</w>
较 强</w>
评 选</w>
莎 拉</w>
d o</w>
Y ou</w>
铜 牌</w>
第五 号</w>
探 究</w>
上 星期</w>
s s
修 补</w>
依赖 性</w>
诈 骗</w>
科 科长</w>
必 然
分 裂
公共 信息</w>
会 员
A N</w>
货 品</w>
羊 毛</w>
第三 世界</w>
海洋 学</w>
沈 阳</w>
固 醇</w>
调 试</w>
打 进</w>
在我 看来</w>
博 览会</w>
加 州
ov i</w>
高 大</w>
钱 财</w>
礼 服</w>
格 里</w>
构 件</w>
小 事</w>
停 下</w>
九 次</w>
ES CAP</w>
转 播</w>
肮 脏</w>
粹 主义</w>
怎么 回事</w>
嫌 疑</w>
信 守</w>
代 行</w>
G er
部 厅</w>
过 错</w>
调 往</w>
独 裁</w>
晚 间</w>
召 唤</w>
创 始</w>
任 一</w>
顺 应</w>
公 子</w>
29 4</w>
联 手</w>
领 海</w>
近 似</w>
笔 者</w>
人工 流产</w>
还 原</w>
矿 床</w>
吸 纳</w>
新 能源</w>
文件 夹</w>
弗 吉
面 粉</w>
那 场</w>
敏 捷</w>
安 抚</w>
地 区
内 载</w>
仿 效</w>
人际 关系</w>
中 途</w>
一 则</w>
B us
服务 处</w>
可 笑</w>
观 光</w>
被 称作</w>
能 以</w>
ec t
辽 宁
经 贸</w>
稳 健</w>
改 叙</w>
捷 克
熟 练
民 党</w>
有 害
戒 烟</w>
奖 牌</w>
出生 率</w>
东 南部</w>
Pet er</w>
O z
A z
阿 里
裨 益</w>
萨 克</w>
英 属
猜 想</w>
物 价
显微 镜</w>
学 问</w>
太 过</w>
双 胞胎</w>
之 声</w>
it a</w>
9 8
连 结</w>
路 军</w>
桌 面</w>
很 差</w>
外 阴</w>
再 循环</w>
等 同</w>
确 保
旋 风</w>
控 股</w>
德 国政府</w>
保证 金</w>
英属 维尔京群岛</w>
暑 假</w>
纪 律
皇 室</w>
强 国</w>
太 原</w>
分 从</w>
amm ed</w>
D D</w>
育 有</w>
男 友</w>
所 欠</w>
外商 投资</w>
参 赞</w>
u d</w>
逐 年</w>
滚 动</w>
国 对</w>
台 上</w>
二十 五</w>
下 设</w>
幕 府</w>
叶 派</w>
勇 士</w>
神经 网络</w>
特 工</w>
滑 冰</w>
外 围
别 于</w>
保险 人</w>
诉 状</w>
系统 化</w>
增 值
什 叶派</w>
阿富 汗
阿富汗 人</w>
进口 商</w>
起 兵</w>
积极 行动</w>
法 老</w>
堵 塞</w>
oc k</w>
起 始</w>
萨 姆</w>
若 有</w>
提 拔</w>
拥 有者</w>
固定 资产</w>
ou d</w>
4. 6</w>
3 15</w>
部 在</w>
月 度</w>
多米尼 克</w>
嘉 庆</w>
十 足</w>
候选 国</w>
说明 书</w>
撒 谎</w>
非洲 地区</w>
解放 组织</w>
报告 期</w>
哈 佛</w>
冷 漠</w>
以 东</w>
At las</w>
演 艺
渊 源</w>
多 部</w>
X L
租 约</w>
熟 知</w>
光 荣</w>
乐 园</w>
主 要
两 边</w>
9 8%</w>
销售 量</w>
赏 识</w>
水 生</w>
加 薪</w>
三 周</w>
深深 地</w>
支 架</w>
在 上文</w>
人 要</w>
辅 助
有 偿</w>
明文 规定</w>
衔 接</w>
耕 种</w>
第三十 一条</w>
空间 数据</w>
深 造</w>
其 下</w>
公 元</w>
w a</w>
it e</w>
S an
肝 炎</w>
毛利 人</w>
八 次</w>
体育 场</w>
骑 马</w>
有 别于</w>
料 到</w>
摩 尔</w>
2 4%</w>
硫 化物</w>
特 罗</w>
激 光
伊 利
任 满</w>
课 程
浮 动</w>
转 基因</w>
各 司</w>
中 药</w>
3 70</w>
露 天</w>
第七 十
灌 输</w>
暴力 犯罪</w>
年 仅</w>
传 教</w>
产 前</w>
呼吸 道</w>
事 迹</w>
两 组</w>
访 客</w>
学 童</w>
劣 势</w>
伊拉克 人</w>
举例 来说</w>
错 误
转 账</w>
自愿 性</w>
求 意见</w>
标 示</w>
来 得</w>
征 求意见</w>
吸 取
面 包
西 北部</w>
深 层</w>
暗 中</w>
新 疆
幸 福
四 位</w>
双 眼</w>
勾 结</w>
出 手</w>
畏 惧</w>
损 耗</w>
所 生</w>
历 时</w>
卓有 成效</w>
不 尽
S H
高 得</w>
重 罪</w>
论 者</w>
第三 季度</w>
绝 对
清 洁
折 旧</w>
工艺 品</w>
居民 区</w>
分 权</w>
不能 不</w>
硬 化</w>
服务 费</w>
放 牧</w>
2 6%</w>
维持 费</w>
特别 行政
按 规定</w>
厄尔 尼诺</w>
饼 干</w>
积极 合作</w>
狐 狸</w>
向 导</w>
侦 探</w>
着重 强调</w>
文 集</w>
供应 国</w>
两国 之间</w>
m on
甜 蜜</w>
特 拉</w>
安德 鲁</w>
一 棵</w>
M as
转 折
羽 毛</w>
打击 犯罪</w>
恶 魔</w>
大 洋</w>
相 邻</w>
皮 革</w>
添 加
所 含</w>
年 均</w>
域 名</w>
临 界</w>
齐 兹</w>
难 忘</w>
小 岛</w>
小 子</w>
创 纪录</w>
主席 国</w>
该 署</w>
政 界</w>
por t</w>
阿 斯
股票 市场</w>
水 利</w>
成 化</w>
愈 来
录 音
中 世纪</w>
阐 释</w>
派 往</w>
执行 长</w>
德 军</w>
傻 瓜</w>
该 死</w>
班 吉</w>
汉 姆</w>
最 先</w>
无 记名</w>
兵 库</w>
不管 怎样</w>
男 孩子</w>
民族 自治</w>
接 见</w>
公 投</w>
N O
5 5%</w>
部 级</w>
窗 外</w>
电 动</w>
古 迹</w>
用 具</w>
协商 会</w>
t i</w>
E v
B O
之 心</w>
万 物</w>
M organ</w>
30 6</w>
巴 哈</w>
奶 酪</w>
29 3</w>
风 俗</w>
那 座</w>
瑞 克</w>
猛 虎</w>
淀 粉</w>
按 揭</w>
境 界</w>
驻 留</w>
阿 密</w>
第十 三</w>
完全 同意</w>
运输 系统</w>
东 京
爱 滋
消 化
十 分钟</w>
迁 居</w>
苏 尔</w>
时 装</w>
un g
N E
注 射
忠 告</w>
告 终</w>
追 溯到</w>
牛津 大学</w>
咳 嗽</w>
十 天</w>
4 5.
配 音</w>
资金 不足</w>
爱 上</w>
洗 衣
并不 认为</w>
子 孙
大 桥</w>
功 夫</w>
体 外</w>
传 记</w>
之 日</w>
队 部</w>
金 矿</w>
应 适当</w>
产 能</w>
上 报</w>
30 7</w>
3 13</w>
清 新</w>
拼 命</w>
家 务
as e</w>
礼 堂</w>
田 野</w>
泛 美</w>
各 派</w>
保持 沉默</w>
29 8</w>
迈 阿密</w>
矿 工</w>
技术 上</w>
哈 桑</w>
法 学
感 谢您</w>
减 速</w>
公 益
丰 厚</w>
达 赖
达赖 喇嘛</w>
长 的</w>
西 区</w>
率 军</w>
炮 击</w>
怜 悯</w>
参与 率</w>
冒 犯</w>
没 人</w>
黄 河</w>
高尔夫 球</w>
驯 鹿</w>
基 里
人身 自由</w>
il e</w>
风 力</w>
经 合</w>
分 子
一 百</w>
us t</w>
金 字
湖 南省</w>
四 天</w>
一 女</w>
谨 请</w>
该 省</w>
市 委书记</w>
台 阶</w>
加 倍</w>
G A</w>
遇 害</w>
正 视</w>
新生 力量</w>
国家 足球队</w>
候补 委员</w>
高 额</w>
猖 獗</w>
往 常</w>
奇 妙</w>
太 祖</w>
压 器</w>
出 访</w>
Muh ammad</w>
2 300</w>
领 水</w>
郎 中</w>
电信 联盟</w>
无 私</w>
新加 坡
打 工</w>
孕 产</w>
复 会</w>
国际 电信联盟</w>
南 方
赶 紧</w>
深 厚</w>
9 17</w>
枯 竭</w>
政治 局</w>
探 望</w>
un d</w>
ig ht</w>
捐 献</w>
归 化</w>
不复 存在</w>
l and</w>
露 面</w>
球 赛</w>
库 尔德</w>
历 年</w>
身 于</w>
综合 征</w>
太子 港</w>
虫 害</w>
蒸 发</w>
时 为</w>
散 会</w>
宏 伟</w>
用 到</w>
环 绕</w>
战斗 员</w>
傍 晚</w>
A sh
入 手</w>
保 健
u k</w>
自由 党</w>
统计 学</w>
满 足
格 拉
树 叶</w>
举 起</w>
I O
筹 办</w>
甲 状
有限 元</w>
律 法</w>
华 沙</w>
L t
香 味</w>
转 让
激 怒</w>
亲 眼
关键 时刻</w>
L a</w>
环境 治理</w>
明 示</w>
利 安</w>
决 不会</w>
五 世</w>
严 谨</w>
美 女</w>
民 防</w>
挽 回</w>
战 败</w>
墨西哥 城</w>
铸 造</w>
第三 项</w>
税务 局</w>
政治 委员</w>
40 1</w>
金融 体制</w>
排 出</w>
契 机</w>
i f</w>
3 18</w>
清 偿
清偿 债务</w>
浓 缩
9 6
随 者</w>
直升 飞机</w>
畜 牧业</w>
暴 乱</w>
不 言
奥塞 梯</w>
长 途
这 时候</w>
特 纳</w>
民主 选举</w>
哪 些
卫生 条件</w>
劫持 人质</w>
7 4
该 区</w>
衰 竭</w>
氧化 物</w>
尼亚 人</w>
同 位
第 一种</w>
妻 制</w>
多 国</w>
入 账</w>
瓦 拉</w>
法 师</w>
恳 求</w>
实际 行动</w>
太 平</w>
使用 暴力</w>
4. 7</w>
音 频</w>
阿 巴斯</w>
监护 权</w>
土 豆</w>
割 礼</w>
传 出</w>
il a</w>
牛 津</w>
恫 吓</w>
工程 项目</w>
天文 学家</w>
国 产</w>
乒乓 球</w>
P ap
锅 炉</w>
迟 交</w>
耗 尽</w>
波 罗</w>
受 阻</w>
反对 者</w>
卫 视</w>
储 量</w>
代 之</w>
主 人
中 书</w>
8 6
雅 虎</w>
运载 火箭</w>
森 纳</w>
暖 和</w>
房 委会</w>
刚果 共和国</w>
个 子</w>
紫 外线</w>
管理 科</w>
小 农</w>
鼠 标</w>
黑 夜</w>
遍 及</w>
试验 性</w>
相互 了解</w>
总 有</w>
尼古 拉</w>
察 觉</w>
写 给</w>
邦 特</w>
纽 带</w>
社会 各界</w>
台湾 省</w>
M I</w>
自由 贸易区</w>
肥 料</w>
畸 形</w>
理 事长</w>
最 高级别</w>
减 刑</w>
一无 所知</w>
追 逐</w>
极 有</w>
岛 国</w>
向 来</w>
吉 斯</w>
受 命</w>
a c</w>
重 用</w>
贺 卡</w>
围 攻</w>
哈 特</w>
华 语</w>
不 至于</w>
气 球</w>
婚姻 状况</w>
I m
藏 族</w>
生产 线</w>
照 亮</w>
情 人节</w>
化 肥</w>
制 冷</w>
足 迹</w>
视 线</w>
战 区</w>
国际 协会</w>
化妆 品</w>
全面 落实</w>
钞 票</w>
政 令</w>
十 字</w>
迫击 炮</w>
违规 行为</w>
流 浪
正 要</w>
施 压</w>
客户 服务</w>
围 栏</w>
发 起
人 文
ing s</w>
高 雄
营 救</w>
更 广</w>
应 使</w>
好 吃</w>
奢 侈</w>
增值 税</w>
三角 洲</w>
一 端</w>
爵 夫人</w>
Univers ity</w>
纽约 州</w>
突 显</w>
监督 制度</w>
敦 请</w>
东 区</w>
4 7.
基 辅</w>
吸 收
北 欧国家</w>
五 十年</w>
30 8</w>
期 盼</w>
搬 运</w>
勘 查</w>
公 用</w>
充 沛</w>
仁 慈</w>
一百 一十</w>
足球 赛</w>
灰 尘</w>
涂 层</w>
比 索</w>
技术 创新</w>
射 手</w>
增 拨</w>
仇 视</w>
Fran c
30 9</w>
那 不
继 任
痹 症</w>
同 名</w>
军 阀</w>
ri s</w>
道而 驰</w>
背 道而驰</w>
猩 猩</w>
打 下</w>
公 元前</w>
佩 林</w>
伤 亡
五 氯</w>
迄今 已</w>
系统 管理</w>
水 晶</w>
好 坏</w>
地方 性</w>
同 侪</w>
刑 部</w>
5 20</w>
4 3.
联 安</w>
没 关系</w>
有 条
总 管</w>
大 埔</w>
加 入
矿 山</w>
水 事</w>
构 思</w>
ic s</w>
3 8%</w>
河 水</w>
园 区</w>
口 腔</w>
凝 聚</w>
量 子</w>
珍 珠</w>
取 胜</w>
en g
帐 单</w>
协 同
附 文</w>
辐 射
联 运</w>
求 偿</w>
冷 冻</w>
C F
爱滋 病</w>
未 交</w>
文 斯</w>
19 15</w>
尔 曼</w>
劳动 部</w>
位 移</w>
烈 士</w>
比 分</w>
武器 弹药</w>
心 血管</w>
同 情
减 半</w>
下 个月</w>
Lt d</w>
第二十 九届</w>
特 拉特</w>
每 桶</w>
景 点</w>
奏 效</w>
声 优</w>
国务 秘书</w>
十 四年</w>
之 而来</w>
Moh ammed</w>
F a
4 30</w>
项 中</w>
车 道</w>
环境 监测</w>
星 系</w>
战略 武器</w>
人民 军</w>
b e
3 26</w>
雅 克</w>
过 重</w>
所 订</w>
在 下文</w>
但 应</w>
一百 零
黄 金
炸 死</w>
森林 资源</w>
斯 勒</w>
提 具</w>
年 青</w>
17 18</w>
竞 选
电子 地图</w>
密切 关系</w>
宣传 教育</w>
哥 华</w>
合 力</w>
入 境
专 属
am p
阿 方
过 滤
自 有</w>
电 气
温 哥华</w>
怎 样
待 定</w>
各 异</w>
南斯拉夫 联邦</w>
道 夫</w>
轮 船</w>
船 队</w>
瓦 利</w>
an s</w>
M S</w>
4 6.
老 朋友</w>
管 教</w>
礼 宾</w>
演 技</w>
洛 尔科</w>
推 举</w>
J u
3 6%</w>
象 是</w>
背 上</w>
方面 面</w>
方 方面面</w>
崇 祯</w>
同意 书</w>
维 克</w>
失 控</w>
大 连</w>
自 制</w>
而 论</w>
网络 安全</w>
灾 民</w>
政 见</w>
忧 郁</w>
专属 经济区</w>
资 格
激 进
概 念
招 致</w>
售 出</w>
sk i</w>
高 技术</w>
降 雨</w>
电 离
怎样 才能</w>
尽 职</w>
守 卫</w>
规 模
第二 名</w>
沥 青</w>
楼 上</w>
性 命</w>
国际 收支</w>
去 掉</w>
公 交
障 碍
迷 你</w>
轻 轻
摄像 机</w>
e a</w>
比 利亚</w>
屋 子里</w>
哥伦比亚 政府</w>
北 魏</w>
ou t</w>
i ra
D S</w>
金字 塔</w>
物 力</w>
新 世纪</w>
峡 谷</w>
土地 权</w>
四 十年</w>
军事 力量</w>
人 生
不 均</w>
rah im</w>
K O
G r
踏 上</w>
战 队</w>
在 座</w>
商 标
六 日</w>
主任 委员</w>
ev a</w>
Ahm ad</w>
提 要</w>
子孙 后代</w>
城市 论坛</w>
回 升</w>
十字 架</w>
订 婚</w>
警 觉</w>
确 度</w>
短 期
分配 资源</w>
高 山</w>
象征 性</w>
界 人士</w>
男 主角</w>
殿 下</w>
最 起码</w>
恶 性</w>
年 春</w>
吉 米</w>
Sh ar
禁 用</w>
看 望</w>
无 常</w>
圣 母</w>
分 局</w>
以 利</w>
遣 散</w>
迫击 炮弹</w>
赖 斯</w>
特别行政 区政府</w>
活 性
女 歌手</w>
奇 异</w>
出 面</w>
金融 业</w>
西 蒙</w>
外 壳</w>
复 核</w>
刺 杀</w>
2 400</w>
进 步
艺 名</w>
脂 肪
考 试
缩 写</w>
支 部</w>
持 有者</w>
幕 后</w>
对 准</w>
参加 国</w>
分 辨</w>
电 磁</w>
率 部</w>
标 志
拿 来</w>
怀 有</w>
在 发言
在发言 中</w>
出生 日期</w>
军 政府</w>
M ag
驱 使</w>
施 以</w>
发出 通知</w>
反 腐</w>
c a</w>
转折 点</w>
费尔 南
投标 人</w>
N ational</w>
重新 启动</w>
突 变</w>
磁 盘</w>
es e</w>
as p</w>
跨 学科</w>
观 测
盟 军</w>
彼此 之间</w>
小儿麻 痹症</w>
困 苦</w>
化 为</w>
募 集</w>
劝 告</w>
储 藏</w>
英 勇</w>
笑 声</w>
现 役</w>
板 块</w>
小 屋</w>
D I</w>
集中 营</w>
荆 州</w>
疲 倦</w>
更 名</w>
斯洛伐 克共和国</w>
招 生</w>
微 粒</w>
巴西 政府</w>
宫 廷</w>
多 尔
共 振</w>
im e</w>
河 谷</w>
指 纹</w>
德 利</w>
中 医</w>
C ap
迷 惑</w>
扫 除</w>
微 克</w>
取 而
世界 纪录</w>
3 12</w>
拍 照</w>
抚 恤金</w>
开 立</w>
Goo gle</w>
开发 新</w>
布 琼
入 睡</w>
一 口气</w>
迪 斯
视频 会议</w>
窒 息</w>
加 班
内 蒙古</w>
依 次</w>
五 千</w>
二十 四</w>
首 席
软 禁</w>
衰 落</w>
三 家</w>
语 句</w>
装 甲</w>
罗 德</w>
研 讨</w>
昔 日</w>
时 地</w>
山 地</w>
多 半</w>
倒 塌</w>
一 身</w>
CO 2</w>
托 斯</w>
取而 代之</w>
主 修</w>
中 未</w>
3 14</w>
校 舍</w>
感 应</w>
尼 克
唤 醒</w>
加 载</w>
余 时间</w>
会 话</w>
个人 电脑</w>
陈 水
纯 洁</w>
拷 贝</w>
史蒂 夫</w>
历 经</w>
做 饭</w>
五 人</w>
金 子</w>
脸 色</w>
相互 理解</w>
爵 士
源 代码</w>
张 学
压 缩
充分 反映</w>
个 性化</w>
1 10.
爆炸 事件</w>
教育 家</w>
共 和</w>
丛 林</w>
逐 步
背 离</w>
复 发</w>
交互 式</w>
二十 周年</w>
马尔维 纳
马尔维纳 斯群岛</w>
饮 食
道路 交通</w>
许 多年</w>
时 髦</w>
刘 备</w>
PO P
相 适应</w>
抗 辩</w>
工 序</w>
人身 保护</w>
首 府</w>
重 启</w>
遇 上</w>
派 出
无 理</w>
女 神</w>
增 速</w>
基 数</w>
团结 起来</w>
几 份</w>
上 表</w>
追 赶</w>
这 有</w>
苏丹 共和国</w>
本 性</w>
动 手</w>
准 备
电 线</w>
悼 念</w>
工业 部</w>
客户 端</w>
围 墙</w>
分 队</w>
予 以
ma il</w>
OE WG</w>
陈水 扁</w>
行 业
福建 省</w>
林 业
未 予</w>
排 水</w>
项 工作</w>
比 拉</w>
此 项工作</w>
款 次</w>
推 向</w>
当 下</w>
义 大利</w>
0. 5</w>
警 戒</w>
舞 台
改 成</w>
分 机</w>
人 因</w>
P aul</w>
第二十 九条</w>
称 职</w>
布 尔
化 成</w>
中 均</w>
防 灾</w>
铺 设</w>
起 伏</w>
相 差</w>
受 聘</w>
勋 爵</w>
办 学</w>
切 实际</w>
伍 德</w>
a f</w>
T O
M SP</w>
H ass
骨 骼</w>
果 然</w>
i er
黎 波里</w>
预 留</w>
送 入</w>
近 海</w>
突 击</w>
税 法</w>
的 黎波里</w>
敏 锐</w>
对话 者</w>
奢 侈
埃 及
国民 军</w>
游 戏
普及 教育</w>
收 复</w>
折 衷</w>
寄 养</w>
合 唱</w>
防 御
调查 小组</w>
荧 光</w>
筛 查</w>
极端 分子</w>
捐 赠
委 托人</w>
亚美 尼亚共和国</w>
S ol
4 80</w>
至 此</w>
第三 期</w>
挑 起</w>
安 葬</w>
圣 灵</w>
吉 隆
一 例</w>
那不 勒斯</w>
文化 背景</w>
1. 8</w>
阿根廷 共和国</w>
虚 构</w>
百 计</w>
有 线
拍 卖
小 鸟</w>
中 作</w>
马 哈
莫 斯</w>
年 纪念</w>
初 级
阈 值</w>
石 块</w>
拆 卸</w>
其 能</w>
共 青
谢 意</w>
誓 言</w>
施 用</w>
坎 昆</w>
土耳其 共和国</w>
周边 地区</w>
传 到</w>
or y</w>
3 19</w>
缺 乏
经济 制裁</w>
简 明</w>
关联 性</w>
光 滑</w>
传 承</w>
oo l</w>
Fac ebook</w>
海岸 线</w>
救 济
常 识</w>
全面 性</w>
丞 相</w>
运 算</w>
显示 器</w>
辖 下</w>
行政 事务</w>
染色 体</w>
伦 西亚</w>
不 理</w>
下 向</w>
And re
根 基</w>
文 法</w>
延 安</w>
平 壤</w>
布政 使</w>
莉 亚</w>
离 不开</w>
气象 组织</w>
柔 和</w>
德 川</w>
当 晚</w>
建 构</w>
尼日 利亚
世界 气象组织</w>
T r
B el
惩 罚
这样 的话</w>
缓 刑</w>
管理 工具</w>
搅 拌</w>
吉隆 坡</w>
ber g</w>
过 敏</w>
转让 技术</w>
该 地</w>
萨 达姆</w>
度 量</w>
E r
自然 界</w>
眼 神</w>
热 衷
波 及</w>
旅游 组织</w>
剑 桥
六 世</w>
世界 旅游组织</w>
m e
ay s
高 空</w>
长期 投资</w>
透 彻</w>
添加 剂</w>
布达 佩斯</w>
孟 买</w>
创 设</w>
公平 竞争</w>
T A</w>
高 贵</w>
长 长的</w>
照 相机</w>
打 伤</w>
大 院</w>
努力 争取</w>
军 中</w>
中 称</w>
不得 已</w>
M BA</w>
钢 琴
自 幼</w>
罗马 帝国</w>
第一 副</w>
竣 工</w>
接 壤</w>
大 面积</w>
分配 情况</w>
新 泽
后 赛</w>
o j
美 分</w>
奥 利
静 下来</w>
羡 慕</w>
明 斯克</w>
实 在
园 艺</w>
高 新
泪 水</w>
指 着</w>
t ra
4 4.
笔 名</w>
景 气</w>
日 以</w>
季 后赛</w>
口 中</w>
偏 不
一 如</w>
阿 什</w>
诅 咒</w>
维吾 尔
直 属</w>
抽 签</w>
屋 宇</w>
17 37</w>
花 旗
联系 人</w>
白 皮书</w>
格 拉斯</w>
权 票</w>
掌 权</w>
人 则</w>
精 致</w>
期 末</w>
接 连</w>
弃 权票</w>
多 份</w>
地 处</w>
兵 营</w>
a a</w>
领导 力</w>
远 东</w>
过 往</w>
语 义</w>
线 程</w>
更 为
布琼 布拉</w>
中 等
H RI</w>
3 33</w>
边界 地区</w>
民事 责任</w>
归 根
国 应</w>
创 办
京 师</w>
L in
电子 政务</w>
太 郎</w>
亲 吻</w>
O p
F ed</w>
7. 4</w>
电 磁
伤害 力</w>
高级 法院</w>
领 带</w>
言 辞</w>
蓬 勃
夺 冠</w>
士 们</w>
口 服</w>
偏不 倚</w>
借 款人</w>
专业 培训</w>
不 偏不倚</w>
逐 一</w>
总 公司</w>
实 习生</w>
压 抑</w>
赛 人</w>
毛 派</w>
日 间</w>
心 思</w>
天 花
动 向</w>
共和 党人</w>
组织 部</w>
精 算
河 内</w>
H IV</w>
3 25</w>
男 演员</w>
本 专题</w>
听 询</w>
具体 地说</w>
起 源于</w>
触 摸</w>
粗 糙</w>
汇 聚</w>
奥 斯</w>
喜 好</w>
党 籍</w>
九 名</w>
A I</w>
预 支</w>
顺 差</w>
追 随者</w>
大 肆</w>
原 创</w>
丢 弃</w>
大 洲</w>
垒 打</w>
吸 烟
区域 开发</w>
克 族</w>
公 安</w>
之 意</w>
De p
4 2%</w>
经 商</w>
新 鲜
H um
输 给</w>
美洲 开发银行</w>
相 近</w>
点 头</w>
平 凡</w>
多 彩</w>
利 性</w>
不成 比例</w>
不 敢
齐 全</w>
衰 老</w>
精 美</w>
私 隐</w>
总 而言之</w>
帝 力</w>
堕 落</w>
举 人</w>
不 切实际</w>
一 代人</w>
on y</w>
难 受</w>
随 之而来</w>
阿方 索</w>
缓 冲</w>
热衷 于</w>
揭 发</w>
奇 特</w>
大 队</w>
司法 官员</w>
oc um
M y
鲍 勃</w>
惩罚 性</w>
学 派</w>
副 产品</w>
克萨 斯州</w>
n d
28 00</w>
错 综
错综 复杂</w>
费 城</w>
独 有</w>
深 刻
月 刊</w>
时 空</w>
中 西部</w>
8 50</w>
4 2.
非 军事化</w>
阿 勒
罹 患</w>
摇 摇
手 持</w>
对 峙</w>
剑 桥</w>
专 责</w>
ol a</w>
ic t
R u
F in
达 到
机 油</w>
心 目</w>
奢侈 品</w>
伊 德</w>
介 于</w>
交 替</w>
乙 醇</w>
重 复
每 季度</w>
我 刚</w>
大 叫</w>
可信 性</w>
不 休</w>
ak h
种 姓</w>
武 士</w>
平 价</w>
商 量</w>
党 委书记</w>
中华人民共和 国
迪 亚
留 学生</w>
获 颁</w>
涨 幅</w>
原 体</w>
中 来</w>
规 矩</w>
考 量</w>
海 豚</w>
斯科 特</w>
惠 国</w>
性 生活</w>
定 论</w>
埃 德
供 词</w>
补 偿金</w>
组 别</w>
相互 信任</w>
疲 力
党 校</w>
为 名</w>
os t
P ro</w>
麻 管局</w>
金融 交易</w>
琳 娜</w>
国家 标准</w>
发 型</w>
不 怕</w>
Sec t</w>
相 识</w>
煤 气</w>
普通 人</w>
对 口</w>
H al
高 宗</w>
马 丁
父 子</w>
平 衡
差 点</w>
2 5000</w>
马尔维 纳斯</w>
良 知</w>
排 行</w>
孔 子</w>
名 将</w>
俄 亥
进 攻
赛 尔</w>
有限 责任</w>
无 益</w>
住 院
id a</w>
萨 科
矿 区</w>
玛 利亚</w>
深入 分析</w>
并不 需要</w>
并 作</w>
8. 1</w>
通过 培训</w>
精算 师</w>
发 援会</w>
军 校</w>
佩 戴</w>
霍 华德</w>
要 花</w>
考 古
政治 学</w>
北 伐</w>
信 号
非 关税壁垒</w>
老 实</w>
服 装
晓 得</w>
日 语</w>
4 40</w>
陆 路</w>
特 里
水 土
军 控</w>
军 委</w>
B ur
3. 7</w>
3 7%</w>
该 行</w>
西 雅
纽约 时报</w>
第五 十</w>
病 房</w>
洞 穴</w>
有 不同</w>
投 放</w>
各个 部门</w>
主 妇</w>
P o
组 书记</w>
得 来</w>
党 组书记</w>
亲 身</w>
不 吃</w>
闪 烁</w>
纵 队</w>
改 性</w>
引 领</w>
头 来</w>
__ __
4 10</w>
铁 矿石</w>
研究 进展</w>
无 助于</w>
应 邀
屁 股</w>
入 籍</w>
代表 队</w>
iv e</w>
过 大</w>
考 虑
掀 起</w>
式 化</w>
开发 商</w>
康 乐</w>
少 校</w>
大 区</w>
地 主</w>
59 35</w>
编制 工作</w>
明 日</w>
想 过</w>
太 小</w>
地下 室</w>
国际 奥委会</w>
T C</w>
IS O</w>
管理 条例</w>
无 尽</w>
整 洁</w>
政治 性</w>
出 狱</w>
乙 方</w>
一 家人</w>
org e</w>
童 婚</w>
以下 内容</w>
精 明</w>
武 术</w>
两 族</w>
轮 椅</w>
议 论</w>
屏 障</w>
安 卡拉</w>
和 谐
Wil li
R E</w>
深 夜</w>
明 尼
征 兵</w>
复 查</w>
伽 利
专 科
若 能</w>
历 次</w>
加 尼</w>
世界 市场</w>
h i</w>
N H
3 2%</w>
讲习 会</w>
而 生</w>
简 单
政 务
增加 额</w>
各 族
迟 延</w>
南 下</w>
北 极
冰 川</w>
萨 利
罗 德里
第十 四</w>
小 狗</w>
周 年纪念</w>
丽 莎</w>
流 逝</w>
欧 美</w>
地 以</w>
劳工 部</w>
m ar
T a
连 锁</w>
进 食</w>
并 存</w>
用 量</w>
牛 仔
攻 克</w>
失 利</w>
埃 拉</w>
反 感</w>
人民 党</w>
9 7
8. 2</w>
相 爱</w>
栅 栏</w>
斯 图
改 写</w>
扬 州</w>
已 达</w>
在 押</w>
发射 器</w>
别无 选择</w>
丹 麦
b o
N g
19 10</w>
迟 缓</w>
这样 一来</w>
返 国</w>
窗 子</w>
滋 生</w>
沙 拉</w>
无 能
抢 救</w>
技术 厅</w>
州 立大学</w>
学 界</w>
同 等
中间 人</w>
k er</w>
an y</w>
I E</w>
27 00</w>
给 定</w>
索 尼</w>
磁 带</w>
怀 念</w>
幽 灵</w>
巴 比
别 国</w>
分 量</w>
轻轻 地</w>
诚 然</w>
校 友</w>
不 齐</w>
N as
更为 严重</w>
大 衣</w>
国 语</w>
叫 声</w>
关 头</w>
使用 费</w>
中 山
C S</w>
宣传 材料</w>
大西 洋
分 级</w>
保 佑</w>
侍 中</w>
人 种</w>
v an</w>
n et</w>
and a</w>
自然 科学</w>
林 斯</w>
懒 惰</w>
吉尔吉斯 共和国</w>
发 扬</w>
伊 科</w>
由 此
海 滨</w>
柬埔寨 政府</w>
国 立大学</w>
关 掉</w>
迁 至</w>
而 上</w>
放射性 物质</w>
制 成品</w>
人 格
间 隙</w>
递 增</w>
操作 性</w>
怪 物</w>
关键 所在</w>
佛罗里 达</w>
锦 赛</w>
蓬勃 发展</w>
生 平</w>
爵 位</w>
源 码</w>
意大利 政府</w>
巴拿 马
台湾 大学</w>
野 外</w>
通 缉</w>
解放 阵线</w>
太 久</w>
大 公</w>
住房 问题</w>
不 胜
符合 国家</w>
无 故</w>
彼得 堡</w>
安大 略
关键 在于</w>
修 读</w>
以 西</w>
b e</w>
这 一
解 剖</w>
英 军</w>
汇 辑</w>
帕 克</w>
居留 证</w>
同位 素</w>
六 项</w>
保 住</w>
A B</w>
驱 回</w>
联合国 安理会</w>
立 案</w>
宾 夕
别 忘
鼓 动</w>
突 袭</w>
损 失
扫 描
年 薪</w>
处 所</w>
分 行</w>
内 尔</w>
IB M</w>
这 门</w>
未经 许可</w>
各族 人民</w>
y ah</w>
evelop ment</w>
1. 7</w>
香港 中文
香港中文 大学</w>
第二十 八条</w>
突 出
彩 虹</w>
安徽 省</w>
名 誉
事 中</w>
i el
3 90</w>
西班牙 政府</w>
维 克
颤 抖</w>
资料 袋</w>
第一 次世界大战</w>
地 去</w>
向 本</w>
人员 伤亡</w>
D O
B ou
有效 途径</w>
别忘 了</w>
入 量</w>
临 到</w>
重大 意义</w>
致 以</w>
火箭 弹</w>
抬 起</w>
抗 灾</w>
感 恩
第四十 条</w>
看 好</w>
河 南省</w>
楼 房</w>
日程 表</w>
旋 律</w>
批 发</w>
埃 米尔</w>
加 里</w>
到 访</w>
不 决</w>
Wor ld</w>
金 银</w>
订 定</w>
续 费</w>
组 在</w>
强 势</w>
官方 语言</w>
向 往</w>
前 例</w>
3 1%</w>
结 为</w>
复 印件</w>
国 境</w>
吊 销</w>
参 赛
前 列</w>
不 介意</w>
一 瓶</w>
赛 后</w>
甲 方</w>
品 尝</w>
POP RC</w>
马 诺
还 好</w>
洪 灾</w>
投入 使用</w>
伐 木</w>
达 斯</w>
巴 士
呈 交</w>
受 制
俱 增</w>
调查 组</w>
装 满</w>
致 残</w>
投 身</w>
情 节
劳工 市场</w>
5. 6</w>
胡 安</w>
登 载</w>
珍 视</w>
海 尔</w>
栽 培</w>
时 钟</w>
承 租
哥伦比亚 特区</w>
不 觉</w>
2 600</w>
面 板</w>
请求 书</w>
能源 供应</w>
用 心</w>
抽 屉</w>
门 下</w>
研究 会</w>
婚姻 关系</w>
又 名</w>
中 小</w>
课 税</w>
电 文</w>
地 基</w>
变 通</w>
全 心
伽利 略</w>
螺 旋
第三 名</w>
款 式</w>
忠 于</w>
德 州</w>
坏 事</w>
K P</w>
F er
辩 方</w>
经验 交流</w>
果 汁</w>
普 拉
整 修</w>
成功 经验</w>
地 层</w>
不 难</w>
门 票</w>
落 败</w>
抽 出</w>
得 意</w>
发 行
越 发</w>
该 组</w>
警 队</w>
落 到</w>
湿 度</w>
接 手</w>
所 作
客 气</w>
威 斯
人口 老龄化</w>
4 60</w>
马 萨
解 脱</w>
最低 水平</w>
成 瘾</w>
归 档</w>
弄 清</w>
多 德</w>
塔 拉</w>
加入 书</w>
加 德
书 目</w>
乡 下</w>
丰 田</w>
B as
瑞士 政府</w>
水 系统</w>
大学 士</w>
s en</w>
通 力
报 案</w>
后 人</w>
p p
活 佛</w>
河 北省</w>
奶 油</w>
侧 重点</w>
3 23</w>
蚂 蚁</w>
多 岁</w>
地 盘</w>
加班 费</w>
不 感兴趣</w>
职业 道德</w>
紊 乱</w>
符合 条件</w>
强 盗</w>
屈 服</w>
型 飞机</w>
前 言</w>
克 利
佛罗里 达州</w>
中 尉</w>
非 人</w>
自 备</w>
胶 囊</w>
政策 性</w>
弗 里</w>
布鲁 斯</w>
静 静
辨 别</w>
语言 学</w>
立陶 宛
父 母亲</w>
浓缩 铀</w>
洄 游</w>
普 拉</w>
小 说家</w>
受 体</w>
作 贡献</w>
ill a</w>
Rich ard</w>
D ar
裂 纹</w>
职业 病</w>
第二 任</w>
打 出</w>
多 功能</w>
务 处</w>
全权 代表</w>
0 3
逼 近</w>
通 话</w>
过 长</w>
数百 名</w>
引 信</w>
亚特兰 大</w>
T ar
S U
隐 含</w>
相 片</w>
沿 用</w>
外交 人员</w>
分 遣队</w>
b l
阻 塞</w>
收 率</w>
前 身</w>
主 页</w>
为 力</w>
M ac
钻 井</w>
最新 进展</w>
旅行 者</w>
和平 奖</w>
上 衣</w>
P al
袋 子</w>
波 尔</w>
手 续费</w>
所作 所为</w>
友 人</w>
剑桥 大学</w>
最 佳
技术 标准</w>
怨 恨</w>
外 资企业</w>
因 果</w>
付 清</w>
万 多</w>
l aw</w>
音乐 学院</w>
跳 跃</w>
接 待
增 援</w>
u a</w>
3 17</w>
这 所</w>
证据 不足</w>
福 州</w>
知 觉</w>
情 侣</w>
夺 走</w>
受 托人</w>
一 手</w>
顶 峰</w>
追 赠</w>
施 暴</w>
摇 滚</w>
律 平等</w>
堪 称</w>
后 退</w>
受制 于</w>
书 信</w>
一 律平等</w>
能 见度</w>
相互 之间</w>
波 器</w>
期 中</w>
扼 杀</w>
宾夕 法
家庭 事务</w>
头 顶</w>
失 明</w>
大 王</w>
古 希腊</w>
军 舰</w>
人大 代表</w>
人 应</w>
上 周五</w>
一切 都是</w>
遣 送</w>
确保 安全</w>
正 确性</w>
愈 合</w>
威 力</w>
关键 技术</w>
上 期</w>
龙 头</w>
表 态</w>
荷 兰政府</w>
校 内</w>
收 藏
拟 于</w>
实施 者</w>
保守 派</w>
顺 着</w>
生产 量</w>
生 母</w>
z i</w>
m in
K af
风 气</w>
神 情</w>
枢密 院</w>
最 坏</w>
抉 择</w>
再 有</w>
魁北 克</w>
阿根廷 政府</w>
邮 政
谚 语</w>
西雅 图</w>
标 本</w>
效 忠</w>
外 人</w>
同 治</w>
南 极
免 得</w>
克 罗</w>
人类 学</w>
S erv
50 7</w>
高中 毕业</w>
百万 计</w>
炎 热</w>
德 森</w>
实在 在</w>
实 实在在</w>
全 书</w>
健 身
J os</w>
进行 性</w>
葬 于</w>
民 生</w>
斯蒂 芬</w>
4 3%</w>
16 12</w>
诸 位</w>
索 要</w>
疲 惫</w>
即 审</w>
举 出</w>
三 点</w>
馆 长</w>
行政 处罚</w>
敬 畏</w>
巴马 科</w>
吉 林
ro m</w>
放射 源</w>
客 车</w>
读 取</w>
绿 化</w>
竞 标</w>
棵 树</w>
德 曼</w>
带 入</w>
岛 民</w>
基里 巴斯</w>
分 散
里 奇</w>
载 人</w>
致 于</w>
手 语</w>
强 档</w>
季 军</w>
南 奥塞梯</w>
仙 奴</w>
东道 主</w>
D el
辅 导
派出 所</w>
无能 为力</w>
帮 派</w>
二零零 六年</w>
B P</w>
抵 押
审计 长</w>
奥 马尔</w>
司法 独立</w>
冻 结
互动 式</w>
不 快</w>
服务 提供商</w>
有 否</w>
宇 宙
大 名</w>
军事 基地</w>
下 个</w>
采 样</w>
而 异</w>
无 关
店 铺</w>
尔 克</w>
再 三</w>
争 斗</w>
过渡 性</w>
本 分</w>
数 码
妨 害</w>
如 欲</w>
圣 城</w>
加 之</w>
以 赴</w>
ec t</w>
4 4%</w>
爱 丽丝</w>
广 岛</w>
T ra
贝 格</w>
当 做</w>
卡塔 尔
养 老</w>
al d</w>
预 先
走 到</w>
第十二 次</w>
模 样</w>
天花 板</w>
p e
根据 地</w>
养 活</w>
优 秀
世 间</w>
一 阵
被 俘</w>
落 成</w>
终 年</w>
林 地</w>
婚 前</w>
坚 守</w>
sk y</w>
韦 斯</w>
车 臣</w>
电 阻</w>
幸 存</w>
力 以赴</w>
全 力以赴</w>
保 卫
0. 7</w>
长 处</w>
讲 究</w>
行 了</w>
现 成</w>
文 革</w>
数据 分析</w>
就 行了</w>
大 通</w>
传 言</w>
诺 维奇</w>
结 晶</w>
比 勒
本 级</w>
天 府</w>
2. 9</w>
张 力</w>
店 里</w>
全 垒打</w>
阿 仙奴</w>
虚 伪</w>
本 部</w>
教学 大纲</w>
批 发
W TO</w>
降 级</w>
贬 低</w>
绰 号</w>
粮食 价格</w>
管理 体系</w>
形 容
J av
CE O</w>
获得 者</w>
药 性</w>
群 落</w>
条 至</w>
服务 部</w>
全球 定位系统</w>
专 有</w>
ac h</w>
舞台 剧</w>
来 时</w>
摇 滚
恰 好</w>
富 兰
外 币</w>
吞 并</w>
原 状</w>
ut e</w>
ig ht
E uro
5 1.
蜂 蜜</w>
美国 公司</w>
浓 厚</w>
治 罪</w>
枪 杀</w>
定 决心</w>
动 者</w>
下 定决心</w>
Window s</w>
默 默
量 刑</w>
纵 容</w>
祈 求</w>
演 绎</w>
染 料</w>
昆 明</w>
宣 布
婴 幼儿</w>
可 口
初 等</w>
一 大批</w>
Cor p</w>
陀 利亚</w>
阮 福
走 势</w>
比勒 陀利亚</w>
圣诞 老人</w>
绝 育</w>
秘 鲁
基 层
偷 走</w>
伦 敦
B BC</w>
钦 佩</w>
胰 岛
结 转</w>
纳 尔
流 落</w>
亨 特</w>
中 介
一 团</w>
防 火</w>
自 传</w>
猪 肉</w>
推 销
打 着</w>
基因 组</w>
反 正</w>
半 天</w>
住 宅
SP LOS</w>
19 04</w>
马 格里
路 程</w>
日 俱增</w>
损 毁</w>
霉 素</w>
重 重
追 击</w>
迪 斯</w>
观 赏</w>
第三十 六条</w>
空 军
十 八年</w>
为数 不多</w>
与 日俱增</w>
七 十
丁 堡</w>
P C
编 织</w>
第三十 三条</w>
庆 典</w>
一 宗</w>
顺 从</w>
贷 项</w>
女 士们</w>
七 十</w>
高 高
阵 列</w>
肥 沃</w>
绕 过</w>
引 致</w>
习惯 于</w>
走 近</w>
行政 法</w>
萝 卜</w>
经济 体制</w>
球 衣</w>
氨 酸</w>
国 度</w>
前 南</w>
海 拔</w>
恐 龙</w>
十 几
专题 报告</w>
r on
a z</w>
资 质</w>
行 道</w>
更 深</w>
广 东
叔 父</w>
判 罪</w>
内部 事务</w>
全 能</w>
保险 业</w>
住 脚</w>
代理 商</w>
陷入 困境</w>
若干 次</w>
租 户</w>
毛 坯</w>
挤 压</w>
师 资</w>
养 人</w>
修订 版</w>
AI G</w>
A w
雨 季</w>
车 厢</w>
留 用</w>
用 药</w>
水 坝</w>
无 一
峰 值</w>
十 六年</w>
T P</w>
重 演</w>
英 冠</w>
秘 诀</w>
意见 分歧</w>
思 念</w>
当 前
弗 洛
家 居</w>
回 顾
中央 人民政府</w>
车 手</w>
海湾 合作
海湾合作 委员会</w>
推 进
控制 中心</w>
感恩 节</w>
性别 差异</w>
大西洋 公
大西洋公 约组织</w>
北 大西洋公约组织</w>
副 会长</w>
出 人
全 程</w>
供 养</w>
以 示</w>
E C
9 7.
正 文</w>
方 形</w>
政府 军</w>
思 索</w>
庄 园</w>
ir e</w>
B al
转 用</w>
贵 妃</w>
财 经</w>
无 异议</w>
am e</w>
C an
监 制</w>
困 难
参与 权</w>
不 小</w>
D an
骗 子</w>
顾 虑</w>
缺 损</w>
气 质</w>
期 权</w>
40 000</w>
退 款</w>
计算机 设备</w>
装 卸</w>
灵 顿</w>
潜 水</w>
曼 哈
文 摘</w>
数 最多</w>
家庭 环境</w>
国 名</w>
三 明治</w>
i al</w>
高等 院校</w>
违 犯</w>
管 治</w>
竞选 活动</w>
求 婚</w>
核心 内容</w>
教学 方法</w>
已 使</w>
侵略 者</w>
低 价</w>
钟 头</w>
都 御史</w>
甲 板</w>
政 坛</w>
回 信</w>
出 赛</w>
N y
血 腥</w>
尼泊尔 政府</w>
实际 意义</w>
和 准</w>
侦 测</w>
F re
能源 价格</w>
登 基</w>
战 争
可 悲</w>
十 七年</w>
保护 局</w>
侧 面</w>
落 不明</w>
暴 跌</w>
攻 下</w>
山 西省</w>
女 议员</w>
八 十</w>
下 落不明</w>
d el</w>
I L
菲 特</w>
第二 代</w>
移 除</w>
盗 版</w>
杰 明</w>
无 用</w>
悄 悄</w>
总 括</w>
性 工作者</w>
如 实</w>
创办 人</w>
re z</w>
in s</w>
G o
该 名</w>
聪 明
美国 国务院</w>
科 尔多
瀑 布</w>
滑 坡</w>
培 养
便 捷</w>
予以 考虑</w>
路 障</w>
流行 音乐</w>
干 脆</w>
侵 袭</w>
野 兽</w>
连 通</w>
眉 睫</w>
放 大
多 为</w>
功 课</w>
切 换</w>
三十 日</w>
遇 难</w>
迎 战</w>
氟 化</w>
欧 佩克</w>
植 入</w>
形容 词</w>
出 入境</w>
交 叉
师 从</w>
各项 任务</w>
r an</w>
9. 1</w>
4 500</w>
3 87</w>
量 级</w>
追 捕</w>
苦 恼</w>
社会 关系</w>
证券 交易</w>
继任 者</w>
梯 度</w>
巴 巴</w>
家 康</w>
从 未
仍 会</w>
T P
P ri
粗 鲁</w>
普 斯</w>
摩洛 哥
奖 赏</w>
图 画</w>
只 用</w>
会 以</w>
iy a</w>
高新 技术</w>
配 角</w>
过滤 器</w>
自 在</w>
热 器</w>
深 圳
成 败</w>
外 形</w>
各 方对</w>
决 议案</w>
以 向</w>
二 个</w>
il y</w>
犯罪 率</w>
梅 托</w>
最 惠国</w>
提供 方便</w>
抗 争</w>
平 民
合 成
可 达</w>
公务 人员</w>
二 日</w>
说 完</w>
知识 产权
大 部份</w>
各 人</w>
七 天</w>
T or
O l
3 28</w>
重 庆
管理 费用</w>
拳 击</w>
巨 星</w>
双 亲</w>
他 用</w>
之 乱</w>
送 来</w>
请 假</w>
订 货</w>
犹太 教</w>
摩洛哥 王国</w>
总 兵</w>
墨 尔
几 句</w>
X ML</w>
H el
邀 请
大 坝</w>
在 眉睫</w>
加 油
分 立</w>
中 曾</w>
不 全</w>
M ay
29 %</w>
这 届</w>
补充 性</w>
结 实</w>
洛 伊</w>
汉 斯</w>
内陆 国</w>
交 所</w>
3 27</w>
肩 上</w>
暴力 行动</w>
拼 写</w>
太 空
受 损害</w>
发 送给</w>
发 烧</w>
刊 载</w>
伊 比利亚</w>
N ov
稳 妥</w>
甲 型</w>
横 跨</w>
党 中央</w>
13 53</w>
质 询</w>
诺贝尔 奖</w>
尖 叫</w>
s a</w>
重 现</w>
运输 工具</w>
片 刻</w>
多 月</w>
任 意
In stit
滑 稽</w>
来 函</w>
图 谋</w>
1 2000</w>
转 换成</w>
生命 力</w>
消 逝</w>
投 机
审计 师</w>
两 套</w>
ur i</w>
遗 骸</w>
T S</w>
H en
陆 军
迭 代</w>
迫 在眉睫</w>
托 儿
托儿 所</w>
地 段</w>
取 自</w>
他 家</w>
逼 迫</w>
数 学家</w>
排 挤</w>
录 用</w>
入 住</w>
业 经</w>
世 宗</w>
补 选</w>
盟 国</w>
整 齐</w>
尼 派</w>
尼 斯
几 届</w>
H u
表达 意见</w>
水 体</w>
捷克 斯洛伐克</w>
托 运</w>
富有 成果</w>
专利 权</w>
5 6.
高 棉</w>
边 上</w>
胰岛 素</w>
现实 生活</w>
燃 料
投票 站</w>
动 画
主 语</w>
et h</w>
高 丽</w>
自 定义</w>
繁 多</w>
第三 十二条</w>
求 得</w>
变 压器</w>
世纪 末</w>
p ub
铅 笔</w>
邮 报</w>
篮 板</w>
清 军</w>
款 待</w>
所 有制</w>
富兰 克林</w>
努 尔</w>
兰 州</w>
Moh ammad</w>
降 低成本</w>
那 州</w>
道 义
迪 亚</w>
水 井</w>
吃 掉</w>
Oz L</w>
顺 治</w>
零 星</w>
隐 蔽</w>
联 机</w>
联 席</w>
漫 步</w>
游 泳池</w>
敌 视</w>
开发 区</w>
庄 稼</w>
n e
魔 术</w>
蒙古 国</w>
署 理</w>
机械 化</w>
服务 供应商</w>
时 装
探 险</w>
振 奋</w>
挪威 政府</w>
屯 门</w>
发 交</w>
与 其
w e</w>
那 件事</w>
脑 子里</w>
用 意</w>
提供 数据</w>
国民 革命军</w>
D on</w>
3 37</w>
营业 执照</w>
繁 琐</w>
油 画</w>
沙 巴</w>
原 始
十 日</w>
务 局</w>
体育 部</w>
k s</w>
g r
C S
赠 送</w>
方面 军</w>
农 历</w>
公共 关系</w>
T V
解 开</w>
欧 文</w>
情报 部门</w>
副 校长</w>
仓 储</w>
严 酷</w>
b i</w>
金融 中心</w>
腐败 问题</w>
爆 破</w>
灾 祸</w>
涉 足</w>
手 头</w>
守 护</w>
好 玩</w>
好 几
千 百万</w>
互 不</w>
s u
阿 森纳</w>
银行 贷款</w>
电子 产品</w>
民意 调查</w>
正 向</w>
断 绝</w>
总 书记</w>
土耳其 政府</w>
迎 合</w>
藤 原</w>
粉 末</w>
校 准</w>
无 能</w>
实施 方案</w>
坦 白</w>
君 子</w>
上 书</w>
R ad
雨 林</w>
难 点</w>
这 人</w>
甲 组</w>
犯罪 现场</w>
时 代
技 经</w>
哈 姆
名 下</w>
受 不了</w>
Ne w</w>
B ern
说 起</w>
用 人
手 动</w>
复 制
五 种</w>
二 维</w>
O ff
H a
通力 合作</w>
这 么
诗 集</w>
警 卫
胜 地</w>
热 水</w>
厂 房</w>
劳资 关系</w>
3 21</w>
马拉 喀什</w>
西 州</w>
稿 件</w>
搭 乘</w>
影 视</w>
小 行星</w>
交易 成本</w>
St an
5 3.
3 35</w>
里 亚尔</w>
苛 刻</w>
短 短</w>
汉 字</w>
未 用</w>
敢 于</w>
战 死</w>
很 多年</w>
小 队</w>
基 建</w>
同 级</w>
史 无
仇 敌</w>
致 词</w>
本 会</w>
最 能</w>
戈 登</w>
并 视</w>
中国 香港</w>
d es</w>
隔离 区</w>
附 则</w>
逊 尼派</w>
水 位</w>
平 线</w>
属 实</w>
受 贿</w>
一 栋</w>
E M</w>
D ec
茶 叶</w>
无 阻</w>
先 发</w>
中 日</w>
H us
0. 5%</w>
额 贷款</w>
问 答</w>
第十 四次</w>
破 灭</w>
水 池</w>
小 额贷款</w>
城市 居民</w>
后 勤
加 仑</w>
人 意</w>
Ma c</w>
A A</w>
阿 联
阿联 酋</w>
甘 肃</w>
心 想</w>
尔 夫</w>
宗 室</w>
嘴 巴</w>
下 一
re t
X VII</w>
违 禁</w>
电 动
德 兰</w>
往 后</w>
巴 博</w>
多 变</w>
史无 前例</w>
5 2.
驱 散</w>
满 洲</w>
有线 电视</w>
口 音</w>
买 入</w>
两 度</w>
U R
SA T</w>
赛 场</w>
该 文</w>
表 二</w>
用 电</w>
溶 解</w>
无 助</w>
所 要</w>
卡 斯
西 方
海 中</w>
权 主义</w>
手 无
徘 徊</w>
尽 情</w>
定 理</w>
卫星 通信</w>
千 万
A F
离 家</w>
牺 牲
港 岛</w>
打 字
大 同</w>
地 使</w>
一年 一度</w>
St at
新 秀</w>
官 职</w>
天 正</w>
加 强
专 科</w>
ab le</w>
M ak
这 首</w>
孙 女</w>
复 习</w>
圣 战</w>
吕 斯</w>
高 龄</w>
都 统</w>
遗 漏</w>
统计 调查</w>
给 与</w>
应用 软件</w>
年 收入</w>
司 在</w>
可 言</w>
厌 烦</w>
低 级</w>
d on</w>
阵 亡</w>
海 牙
抱 负</w>
年 秋</w>
利 润
休 养</w>
人 用</w>
举 足轻重</w>
远 程
欢 喜</w>
无 损</w>
拟 将</w>
归 来</w>
并不 知道</w>
帆 船</w>
婚 内</w>
失业 问题</w>
天主 教徒</w>
大 帝</w>
外 展</w>
可 知</w>
列 斯</w>
代表 处</w>
一 千</w>
一 中</w>
U S</w>
Al ex
驻 守</w>
遏 止</w>
贝 卡</w>
记录 员</w>
西藏 自治区</w>
维 和
维和 部队</w>
徐 州</w>
塑 性</w>
先 令</w>
in t
3 46</w>
预算 赤字</w>
赐 予</w>
莫 里斯</w>
理工 大学</w>
无 可</w>
很 漂亮</w>
失 灵</w>
各 款</w>
减 除</w>
偏 高</w>
举例 说明</w>
马诺 河</w>
闭 幕
货币 联盟</w>
肾 脏</w>
而 行</w>
第四十 一条</w>
湖 北省</w>
星 座</w>
批 量</w>
急 速</w>
奥 会</w>
佩 尔</w>
何 况</w>
i g</w>
T er
预 制</w>
集 邮</w>
遗 迹</w>
蒂 尔</w>
用 餐</w>
污 水处理</w>
数以 百万计</w>
戏剧 性</w>
寄 生
其 余
其余 部分</w>
于 本</w>
为时 过早</w>
不 在</w>
防 线</w>
身 着</w>
第三十 条</w>
第三 类</w>
无人 驾驶</w>
无 礼</w>
情节 严重</w>
唤 起</w>
全 意</w>
从 头
色 素</w>
看 得
法兰 西</w>
月 光</w>
普 惠
斯特 拉
收入 水平</w>
孟 加拉</w>
下 议院</w>
角 逐</w>
莱 尔</w>
用人 单位</w>
每 星期</w>
思想 家</w>
帕 尔
坏 消息</w>
县 人</w>
事 由</w>
S ou
首要 任务</w>
阿拉 法特</w>
牵 涉</w>
循 序
循序 渐进</w>
卡塔尔 国</w>
默 许</w>
艺 员</w>
林 丹</w>
所 学</w>
总 结
室 外</w>
复 仇</w>
出 走</w>
光 灯</w>
CE R</w>
麦当 劳</w>
顺利 完成</w>
窗 帘</w>
水 上</w>
收 紧</w>
平 反</w>
国 务</w>
卡 利</w>
冲 洗</w>
互 换</w>
5 8.
绿 色
南 非洲</w>
九 十年代</w>
为 的是</w>
下 方</w>
一大 堆</w>
5 40</w>
全心 全意</w>
金 像
金像 奖</w>
迷 信</w>
说 得
译 本</w>
自治 州</w>
特 征
总 决赛</w>
大 有
共 谋</w>
买 主</w>
阿 勒</w>
能 干</w>
第三十 五条</w>
母 乳</w>
本 金</w>
手 势</w>
室 内
创 性</w>
全 套</w>
乔 丹</w>
野 战
笼 罩</w>
水 利
反 之</w>
劳动 合同</w>
伯 明
en s</w>
Ph il
Ch rist
7 6.
知识 库</w>
改 装</w>
探 矿</w>
才 智</w>
成 就
各 点</w>
副 省长</w>
五 国</w>
下 于</w>
一 年级</w>
8 9.
第五 个</w>
相 传</w>
甚 微</w>
武 断</w>
学习 者</w>
咨 委</w>
半 决赛</w>
东北 亚</w>
一 分
至 上</w>
精 细</w>
极 化</w>
期 为</w>
有 空</w>
有 意识</w>
教育 局</w>
放 开</w>
尽 可能
国 库</w>
两 座</w>
祖 父母</w>
真 心</w>
地 人</w>
o k</w>
进攻 性</w>
美 阿</w>
烧 伤</w>
普 斯卡</w>
惨 重</w>
大 洋
入 门</w>
at i</w>
5 2%</w>
强烈 建议</w>
大学 教授</w>
到 场</w>
冷 淡</w>
Mah m
5 4.
骆 驼</w>
阿 斯</w>
记忆 力</w>
炫 耀</w>
应 征</w>
师 生</w>
山 坡</w>
太 晚</w>
圈 子</w>
南极 洲</w>
出 处</w>
不 怎么</w>
5 7.
5 60</w>
16 24</w>
详细 分析</w>
所 附</w>
马 吕斯</w>
看 重</w>
溢 出</w>
之 名</w>
还 价</w>
跌 倒</w>
请 拨</w>
生 长
杰 出
机 床</w>
收 支
按 察
他 任</w>
两国 人民</w>
IS BA</w>
都 柏林</w>
血 糖</w>
网 膜</w>
杜 夫</w>
宁 可</w>
填 补
关系 密切</w>
乡 镇</w>
九 龙
R a
Ib rahim</w>
站 立</w>
病 院</w>
日 及</w>
喊 道</w>
含 糊
位 列</w>
Rob ert</w>
8 52</w>
3 24</w>
雄 性</w>
被 遗弃</w>
米 拉</w>
略 微</w>
捐赠 者</w>
承租 人</w>
开 拓
居住 区</w>
主 审</w>
顺利 进行</w>
长 久
自 主
核 生化</w>
据 信</w>
寄 送</w>
咸 丰</w>
和谐 社会</w>
司 将</w>
台 南</w>
al es</w>
4 7%</w>
巴比 伦</w>
巴基斯坦 政府</w>
名 片</w>
t re
音乐 剧</w>
禁 忌</w>
年 计划</w>
同盟 会</w>
化 武</w>
分 层</w>
充 电</w>
停 止
供应 量</w>
一 任</w>
f o</w>
G old
黄 油</w>
自 相
斯特 罗</w>
很 感兴趣</w>
基本 原理</w>
圣 彼得堡</w>
前 后
一夫多 妻制</w>
美 元
编 译</w>
牛仔 裤</w>
无关 紧要</w>
教 于</w>
挨 饿</w>
总统 大选</w>
安全 法</w>
埃塞俄比亚 政府</w>
在 世</w>
借 着</w>
p s</w>
3 75</w>
解 救</w>
自 来
稀 缺</w>
旅游 者</w>
和 表</w>
d uc
S k
3 4%</w>
透 社</w>
诱 发</w>
水 泵</w>
教 程</w>
扣 减</w>
品 味</w>
之 夜</w>
这 幅</w>
轮 机</w>
经济 繁荣</w>
管理 程序</w>
歌 迷</w>
显 著
日 托</w>
断 层</w>
政 和</w>
提 前
外 籍
保障 部</w>
l a
酸 性</w>
给 事中</w>
小 小</w>
单 车</w>
做 梦</w>
r y
退 伍
研究 组</w>
皇 太后</w>
油 价格</w>
境 遇</w>
区域 环境</w>
副 手</w>
信息 网络</w>
乳 房</w>
A M</w>
餐 饮</w>
轻 而易
职 棒</w>
秘 密
最 差</w>
小 路</w>
埃 里克</w>
六 岁</w>
中 外</w>
5 5.
3 49</w>
阿姆斯特 丹</w>
轻而易 举</w>
票 价</w>
环境 因素</w>
核 军备</w>
外 衣</w>
协调 局</w>
众 议员</w>
高 低</w>
那 人</w>
联合国 教科文组织</w>
罗德里 格斯</w>
散 播</w>
安 达</w>
国际 商会</w>
3. 8</w>
缺 水</w>
组 分</w>
秀 吉</w>
普 敦</w>
数 位</w>
宣传 部</w>
s o</w>
I R
赌 场</w>
总 预算</w>
德 文</w>
巴 特</w>
四 国</w>
供 职</w>
N ations</w>
B 型</w>
顶 端</w>
耗 资</w>
疏 远</w>
教 官</w>
排 名
忧 伤</w>
如 前
外交 事务</w>
单 项</w>
之 苦</w>
不 相称</w>
You T
鲁 迅</w>
都 灵</w>
左 手</w>
守 门
不 道德</w>
4 70</w>
香 水</w>
调解 员</w>
签 定</w>
社会 化</w>
男 单</w>
可 图</w>
可 变</w>
军 民</w>
从那 时起</w>
镇 上</w>
研究 生
现实 主义</w>
奶 粉</w>
图 标</w>
er y</w>
E N</w>
驱动 器</w>
维 系</w>
率 地</w>
殖民 统治</w>
如 需</w>
伸 手</w>
伪 装</w>
人 命</w>
买 进</w>
40 6</w>
电 费</w>
理 财</w>
活动 分子</w>
标 书</w>
嵌 入</w>
基 米尔</w>
卡 纳克</w>
努 美阿</w>
利 特</w>
分 明</w>
八 名</w>
供 选择</w>
不 起
隐 居</w>
弹 簧</w>
大 怒</w>
地 道</w>
在 历史
在历史 上</w>
信 长</w>
3 36</w>
路 透社</w>
程序 法</w>
日 到</w>
心 意</w>
延 缓</w>
如 对</w>
同 其</w>
可 得</w>
伸 展</w>
E B</w>
职 期间</w>
缓 急</w>
立陶宛 共和国</w>
石 化</w>
清 点</w>
民族 解放</w>
标 界</w>
强加 于</w>
外 加</w>
基 桑
四 军</w>
伤 员</w>
任 职期间</w>
一 想</w>
S M</w>
选 入</w>
贫困 率</w>
蜘 蛛</w>
落 下</w>
胆 固醇</w>
旷 野</w>
抓 获</w>
同情 心</w>
凯 文</w>
难 于</w>
金融 工具</w>
谢 谢您</w>
如前 所述</w>
奔 跑</w>
事 事</w>
中央 委员</w>
许 许
许许 多多</w>
装 饰
社会 党</w>
极 易</w>
他 国</w>
D j
闪 光</w>
西 蒙
西 南部</w>
终 审</w>
第一 场</w>
知 情
牛 顿</w>
中 环</w>
逻 辑
迷 失</w>
称 道</w>
看 一看</w>
特 曼</w>
极 少数</w>
曼哈 顿</w>
数 千
布莱 克</w>
堡 垒</w>
退伍 军人</w>
空 洞</w>
瑞典 政府</w>
公 屋</w>
下 才</w>
0. 0
赎 金</w>
精 华</w>
直 观</w>
本 科
数 千名</w>
展 现出</w>
密切 注意</w>
从 纳</w>
有害 物质</w>
中 载列</w>
上 传</w>
万 分</w>
O b
酬 金</w>
通信 卫星</w>
贫 血</w>
言 人</w>
联合 政府</w>
每 份</w>
更 佳</w>
明 智
改善 生活</w>
如 表</w>
初 始
再 现</w>
共青 团</w>
公共 开支</w>
二 等</w>
事 前</w>
O m
突 发
梅 纳</w>
掘 业</w>
所 行</w>
忍 耐</w>
宫 颈
客 运</w>
国际 联盟</w>
助 学金</w>
分析 员</w>
公 墓</w>
信 任
估 量</w>
传 动</w>
en g</w>
S ant
转 会费</w>
贡 献
范 式</w>
罗 拉
片 剂</w>
征 集</w>
安全 形势</w>
四 强</w>
力 所
偏 爱</w>
D es
19 05</w>
15 72</w>
采 掘业</w>
精 心
盛 大</w>
平 安
宦 官</w>
多 式</w>
交通 部</w>
3 29</w>
金 币</w>
肥 皂</w>
考虑 一下</w>
索 尔</w>
就是 指</w>
国 公</w>
哲 学
不可 否认</w>
ol d</w>
长 女</w>
翻 译
第二 卷</w>
海牙 公约</w>
气 旋</w>
提 款
增加 一倍</w>
能 及</w>
看 不出</w>
独 家</w>
河 边</w>
戴 尔</w>
展 开
基桑 加尼</w>
卡 路
人 造
之 家</w>
T H
隔 壁</w>
生 下</w>
没 用</w>
有 点儿</w>
明 朗</w>
新 书</w>
意 想不到</w>
恰 恰
夺 回</w>
处理 厂</w>
城 镇
优惠 待遇</w>
互联网 安全</w>
邮 戳</w>
近 距离</w>
谢 尔
核 弹头</w>
找 寻</w>
参 差
厦 门</w>
以 利于</w>
M ur
L im
5 6%</w>
4. 8</w>
最 强</w>
搭 建</w>
推 崇</w>
售 货
可 喜</w>
中 度</w>
中 原</w>
腾 出</w>
注 资</w>
宝 座</w>
大 主教</w>
分 期</w>
代 言人</w>
亚马 逊</w>
专 用
ad o</w>
高级 顾问</w>
腐败 现象</w>
背 部</w>
摩 斯</w>
归 者</w>
参 议</w>
中 美</w>
in c
赛 特</w>
纯 属</w>
液 化</w>
权 责</w>
大 得多</w>
图 斯</w>
出版 商</w>
光 彩</w>
代 尔</w>
也 好</w>
aw a</w>
T R
3 45</w>
联络 人</w>
画 像</w>
爱国 者</w>
急 切</w>
一 惊</w>
wit h</w>
im ana</w>
3 54</w>
相 吻合</w>
相 位</w>
热 切</w>
服务 公司</w>
开发 利用</w>
多 夫</w>
国际 公法</w>
合作 者</w>
内 务</w>
共 事</w>
轻 重
落 实
知识产权 组织</w>
伊拉 克共和国</w>
仪 表</w>
世界 知识产权组织</w>
X VI</w>
顶 尖</w>
附 于</w>
跌 幅</w>
粪 便</w>
州 府</w>
孤 儿
城 内</w>
合 用</w>
十字 路口</w>
二 百</w>
不好 意思</w>
不 来</w>
is t</w>
货 人</w>
讲 坛</w>
弗朗 西斯</w>
弊 端</w>
开发 人员</w>
家 臣</w>
复 活
之 力</w>
拇 指</w>
急 诊</w>
开 着</w>
伤 风</w>
Abd ul
感 官</w>
大洋 洲</w>
传播 媒介</w>
第九 十
田 地</w>
王 储</w>
清 晰
急 忙</w>
F O
8 4
纠 缠</w>
李 克
不断 加强</w>
组织 协调</w>
水 污染</w>
无 声</w>
恰恰 相反</w>
尼 特</w>
外 部
关 门</w>
il d
谈 起</w>
老 年
瑜 伽</w>
民主 党人</w>
晚 宴</w>
打 个</w>
工业 生产</w>
信息 管理系统</w>
传 真
不 计</w>
还 须</w>
计算机 系统</w>
莫 过于</w>
比 前</w>
无家可 归者</w>
手 腕</w>
伤 者</w>
纪念 品</w>
因 在</w>
双边 条约</w>
八 日</w>
二 烯</w>
3 22</w>
摄 政</w>
德意志 联邦共和国</w>
原子 弹</w>
6 6.
19 08</w>
首 发</w>
平民 百姓</w>
回忆 录</w>
司法 权</w>
一 趟</w>
XX I</w>
I A</w>
调 制</w>
神经 元</w>
湖 南
机 体</w>
末 年</w>
场 主</w>
国 为</w>
仍 为</w>
md ash</w>
P D</w>
L ove</w>
5 9.
高 位</w>
非常 复杂</w>
问 卷
问卷 调查</w>
逆 向</w>
荒 唐</w>
手 榴弹</w>
忘 掉</w>
式 各样</w>
小 区</w>
各 式各样</w>
兑 换
伯明 翰</w>
伤 势</w>
V er
N GO</w>
蚊 子</w>
肆 意</w>
新 教</w>
定 点</w>
安哥 拉政府</w>
士 尼</w>
动 人</w>
免疫 系统</w>
金正 日</w>
栏 目</w>
服务 项目</w>
普鲁 士</w>
收 受</w>
喉 咙</w>
哈 龙</w>
出 行</w>
停 泊</w>
中 仅</w>
阿 萨德</w>
迁 离</w>
若干 项</w>
空气 质量</w>
弗拉 基米尔</w>
可 危</w>
五 分</w>
之 女</w>
y an</w>
翼 翼</w>
检察 署</w>
本 杰明</w>
摊 派</w>
护 卫</w>
优 越
万 张</w>
An g
队 列</w>
草 莓</w>
脑 部</w>
班 机</w>
班 上</w>
法 尔</w>
文化 交流</w>
差 错</w>
尽 责</w>
寺 庙</w>
友 情</w>
凌 辱</w>
丰 富
J ac
迪 士尼</w>
罪 案</w>
梅 斯</w>
推销 员</w>
探 险
不 如
e p</w>
糊 涂</w>
毁 掉</w>
残 障</w>
染 色</w>
成 绩
害 羞</w>
大 胜</w>
劝 阻</w>
内 乱</w>
R om
逮捕 证</w>
通 性</w>
足球 联赛</w>
玫 瑰
在 册</w>
单 亲
光 电</w>
伯 利亚</w>
enc y</w>
G N
震 撼</w>
脑 子</w>
立 体</w>
有所 改进</w>
会 合</w>
中华 民族</w>
不 朽</w>
Sm art</w>
首 场</w>
震 荡</w>
萨 马</w>
编 修</w>
管理 法</w>
暗 淡</w>
年 增长率</w>
劳 资</w>
以 备</w>
之 称</w>
C al
A ug
A T</w>
细 微</w>
横 滨</w>
卷 宗</w>
卡 梅
偷 偷</w>
金融 时报</w>
重 塑</w>
第一 夫人</w>
短 文</w>
排 球</w>
小心 翼翼</w>
复 印</w>
参差 不齐</w>
免 职</w>
7 80</w>
阴 道</w>
逼 供</w>
足 联</w>
真 菌</w>
相互 间</w>
班 子</w>
流 泪</w>
学生 会</w>
单亲 家庭</w>
is e</w>
i b</w>
第一 手</w>
病 症</w>
火 力</w>
性 交</w>
处 处</w>
卫生 局</w>
4 8%</w>
莱 曼</w>
联系 国</w>
籍 贯</w>
波 利斯</w>
权 重</w>
巴勒 莫</w>
各种 类型</w>
剧 作家</w>
保持 警惕</w>
ell a</w>
V i
6 1.
耶稣 基督</w>
普及 率</w>
封 建</w>
呼 唤</w>
中 校</w>
警 署</w>
索 瓦</w>
第七 十届</w>
星 光</w>
改 用</w>
姚 明</w>
四 氯化
利 奥</w>
o z
谋杀 案</w>
肆 虐</w>
维 度</w>
犹 豫
江 户</w>
无 国界</w>
得 上</w>
巨 型</w>
光 临</w>
从 业</w>
ic al</w>
5 10</w>
19 06</w>
改 派</w>
挣 钱</w>
扰 动</w>
得 当</w>
实 情</w>
夺 去</w>
台 式</w>
一 万
ol og
驻 外</w>
蒂 娜</w>
膜 炎</w>
缓 存</w>
病 毒
比 勒</w>
富 含</w>
安大略 省</w>
N d
Mar ia</w>
陕 西省</w>
诸 葛
衣 着</w>
纷 争</w>
穆 萨</w>
无 奈</w>
截 获</w>
宫颈 癌</w>
安 放</w>
地区 性</w>
司 徒</w>
列 宁</w>
Abd el
60 000</w>
金 曲</w>
货 款</w>
统 领</w>
率 兵</w>
慕 容
处理 程序</w>
公 尺</w>
ir o</w>
2. 5%</w>
达尔 文</w>
师范 学校</w>
城 墙</w>
合作 部</w>
S D
P LC</w>
E X</w>
5 7%</w>
高尔 夫</w>
马拉 松</w>
通讯 社</w>
轻 视</w>
荒 漠</w>
ren ch</w>
额 外
那 辆</w>
连续 剧</w>
车 轮</w>
诺贝尔 和平奖</w>
简 言之</w>
报 废</w>
幽 默
岌 岌
小 费</w>
天气 预报</w>
四氯化 碳</w>
Ma j
黑 洞</w>
铺 平</w>
轻重 缓急</w>
萨 斯</w>
美 化</w>
维 加斯</w>
早 上
早上 好</w>
岌岌 可危</w>
在 技术上</w>
区 法院</w>
ad e</w>
M ut
A ra
鸽 子</w>
重 任</w>
足 总
足总 杯</w>
虽 说</w>
组 和</w>
线 条</w>
笔记 本
着 想</w>
平 日</w>
失 常</w>
团 在</w>
两 党</w>
is a</w>
Sh a</w>
昆 士
文 本
前 几次</w>
露 西</w>
装甲 车</w>
签订 合同</w>
碰 巧</w>
染 上</w>
国际 私法</w>
卜拉 欣</w>
刑事 警察</w>
入 点</w>
9 4
过 夜</w>
种植 园</w>
福 克</w>
甄 别</w>
状 况
法 中</w>
欧安 会</w>
新 兴
侄 子</w>
G GE</w>
频 谱</w>
美术 馆</w>
笔记 本</w>
科 比</w>
监 会</w>
戈 兰
尖 端</w>
大幅 度
句 型</w>
力所 能及</w>
前 列
借 钱</w>
交 纳</w>
东 京都</w>
不可 抗力</w>
X IX</w>
6 8.
高 官</w>
驱逐 令</w>
香港 电影</w>
阿 马</w>
走 来</w>
行政 处分</w>
反 响</w>
不 平</w>
遥 控</w>
计算 结果</w>
补 偿
相互 依赖</w>
斜 坡</w>
拜 托</w>
客 场</w>
南 非政府</w>
出生 地</w>
pres id
YouT ube</w>
给 付</w>
深 表
昂 山</w>
抽 取</w>
开发 者</w>
孙 权</w>
回 落</w>
喜 剧
气 流</w>
格 勒
最 深</w>
指 针</w>
山 姆</w>
和 尚</w>
卫 兵</w>
化 疗</w>
助 教</w>
9 9%</w>
离 心
看 书</w>
皮 肤
狱 警</w>
正规 化</w>
巴勒斯坦 解放组织</w>
工商 行政</w>
可 耻</w>
ak e</w>
7 9.
5 30</w>
邮 品</w>
孤 单</w>
克里 斯托
莫 罗</w>
肠 道</w>
福 尔</w>
生活 费用</w>
悄 悄
全 场</w>
3 48</w>
群 众
站 不
标 定</w>
提 振</w>
归根 结
出 家</w>
K B</w>
A v
那 本书</w>
那 家</w>
第十 五次</w>
游 艇</w>
并 发</w>
对 照
妇 幼
女 单</w>
亚 利
违 宪</w>
说 实话</w>
若干 年</w>
纪 委</w>
第十 五</w>
第三十 四条</w>
电 车</w>
攻 陷</w>
徒 劳</w>
刻 意</w>
上 载</w>
or s</w>
T ri
说 些</w>
整 治</w>
心 跳</w>
巧 合</w>
冰 冷</w>
K al
青年 队</w>
还 于</w>
怂 恿</w>
吉 利</w>
即 刻</w>
军事 委员会</w>
k i</w>
ch n
P E</w>
K im</w>
Ant on
4 6%</w>
适应 能力</w>
本 世纪</w>
明 知</w>
局 域网</w>
威 尔斯</w>
ec os
靠 着</w>
财政 赤字</w>
研 所</w>
理 想
浑 身</w>
欠 佳</w>
其 一</w>
两国 关系</w>
蹂 躏</w>
ad d
P CN
L aw</w>
航空 运输</w>
册 封</w>
停止 使用</w>
伦 堡</w>
15 59</w>
马 英
阿 齐兹</w>
通 胀率</w>
还 同</w>
要 不是</w>
洗 澡</w>
早 点</w>
巴 库</w>
大理 石</w>
吉 卜
S ab
60 3</w>
辽宁 省</w>
转 过</w>
贩 子</w>
留 物</w>
新 郎</w>
应 负</w>
实地 考察</w>
大 类</w>
一 心</w>
3 47</w>
齐 下</w>
笔记本 电脑</w>
尘 埃</w>
富 于</w>
土 木
高 手</w>
超 重</w>
痛 惜</w>
时 而</w>
微 风</w>
平均 年龄</w>
受 限</w>
ard o</w>
200 000</w>
该 片</w>
荃 湾</w>
琉 球</w>
犹太 主义</w>
感 恩</w>
囊 括</w>
冶 金</w>
传 票</w>
严格 控制</w>
非 军事
非军事 区</w>
金 星</w>
赫 尔</w>
费 力</w>
空 闲</w>
疑 似</w>
炸 毁</w>
强制 措施</w>
平 板</w>
大 腿</w>
上 门</w>
三 百
T y
维 察</w>
区 间</w>
僧 侣</w>
保险 金</w>
黄 昏</w>
顽 强</w>
达 卡</w>
研究 室</w>
安德 森</w>
图 像
元 朗</w>
风 味</w>
防 火
良 机</w>
扎 根</w>
展开 讨论</w>
同 月</w>
伊朗 政府</w>
不 景气</w>
Hass an</w>
音 员</w>
连 载</w>
美 容</w>
等 奖</w>
汇 报
曼 德拉</w>
既 定
友 谊
A D
重 金属</w>
行政 区域</w>
收 割</w>
播 种</w>
惊 恐</w>
复活 节</w>
国际 舞台</w>
免 去</w>
作 主</w>
之 作</w>
中 立
难以 获得</w>
远 远
精 力
治 疗
河 道</w>
保留 地</w>
3 66</w>
语 种</w>
第二十 三</w>
戒 毒</w>
慈 爱</w>
寂 静</w>
完 结</w>
孤儿 院</w>
高 档</w>
这 比</w>
终 端
精神 病院</w>
米 德</w>
最 合适</w>
放 电</w>
愉 悦</w>
分布 式</w>
l v
it al</w>
马英 九</w>
重 整</w>
深 水</w>
德 意志</w>
巨大 贡献</w>
他 妈
人 日</w>
R um
风 能</w>
畜 牧</w>
水 务</w>
教 师
唐 纳</w>
单 是</w>
副 处长</w>
不同 寻常</w>
d h
L L</w>
D e</w>
高 端</w>
镇 静</w>
这 要</w>
越 大</w>
花旗 集团</w>
绝 非</w>
精 子</w>
海 龟</w>
更 少</w>
属 下</w>
奥 尔</w>
卡 罗</w>
他妈 的</w>
一 圈</w>
h k</w>
行政 诉讼</w>
治 安
格 伦</w>
未 婚
市 级</w>
壮 观</w>
副 司长</w>
利害 攸关</w>
6 0.
被 困</w>
科 罗拉
淡 化</w>
沉 思</w>
揭 开</w>
投 向</w>
婚 约</w>
动 身</w>
了 结</w>
m m</w>
ir st</w>
越 狱</w>
耗 时</w>
科 维奇</w>
祭 祀</w>
无线 电台</w>
接 轨</w>
接 再
报告 书</w>
店 员</w>
再 接再
低 声</w>
man n</w>
O s
K u
B ri
釜 山</w>
赞 誉</w>
综 艺
第六 节</w>
武 汉
易 卜拉欣</w>
技 师</w>
师 师长</w>
安 理
如 期</w>
塔吉 克斯坦共和国</w>
关键 字</w>
PCN ICC</w>
纳 州</w>
督 导</w>
开 具</w>
和 谈</w>
听 觉</w>
初 选</w>
I V
7 0.
金 刚
走 动</w>
满 贯</w>
总的 说来</w>
委 常委</w>
多 层</w>
叙 事</w>
专题 会议</w>
d is
甲 基
势 必</w>
刚 开始</w>
刚 刚开始</w>
五 年计划</w>
诊 治</w>
讲 演</w>
自 学</w>
洛 特</w>
息 息
廉 署</w>
带 宽</w>
带 头
偿 还
体 制性</w>
低 调</w>
亲 友</w>
乘 数</w>
随 机
认真 对待</w>
社会 保障部</w>
火 炮</w>
所 负</w>
平均 工资</w>
困难 重重</w>
专科 学校</w>
重大 成就</w>
远 方</w>
贸易 条件</w>
社会 制度</w>
楚 国</w>
敌 国</w>
折 算</w>
公 牛</w>
资 产阶级</w>
罗 宾
紧密 联系</w>
第十 六</w>
商 贸</w>
会员 卡</w>
个 星期</w>
东 海</w>
音 像</w>
沉 降</w>
成 语</w>
应 同</w>
好 些</w>
国 与
凝 胶</w>
为 患</w>
p ol
j i</w>
_ _</w>
陆 战队</w>
里 尼</w>
这 应</w>
能 耗</w>
耐 用</w>
旋 转
宏 大</w>
前 行</w>
别 名</w>
分析 法</w>
冷 却
会 前</w>
伊 万</w>
亦 然</w>
o th
B ak
5 3%</w>
综艺 节目</w>
空间 信息</w>
特 此</w>
密 歇
发 疯</w>
二 号</w>
第一 代</w>
相互 支持</w>
犯罪 团伙</w>
死亡 威胁</w>
心 智</w>
市场 竞争</w>
合同 法</w>
付 钱</w>
ra m</w>
H an
普通 教育</w>
握 住</w>
存 取</w>
娱乐 活动</w>
四 级</w>
中央 电视台</w>
不 懂</w>
西 南亚</w>
摘 录</w>
如 本</w>
古 柯</w>
储 存
偏 袒</w>
人 满
一 匹</w>
驻 军</w>
雷 场</w>
连接 起来</w>
辨 识</w>
责任 者</w>
留 有</w>
拖 拉
底 线</w>
师 傅</w>
审判 权</w>
夏 日</w>
圣 人</w>
受 访</w>
一 环</w>
T al
西 伯利亚</w>
皈 依</w>
正 试图</w>
悬 崖</w>
就 医</w>
会 令</w>
九 日</w>
S er
雷 诺</w>
酸 化</w>
纳 森</w>
打 动</w>
悖 于</w>
当 家
合 共</w>
十九 世纪</w>
与此 相反</w>
M ik
9 0.
稀 释</w>
科威特 政府</w>
女 婿</w>
公交 车</w>
之 物</w>
X 光</w>
重 构</w>
威廉 斯</w>
地 里</w>
口 处</w>
中 外
丝 绸</w>
it h</w>
20 25</w>
美利坚合众 国政府</w>
筹 建</w>
第十 九</w>
社会 秩序</w>
生产 工艺</w>
村 里</w>
所罗 门</w>
价 款</w>
丢 掉</w>
10 6.
推 论</w>
墨 水</w>
单 亲</w>
伯利 恒</w>
4 1%</w>
马格里 布</w>
法兰 克
换 算</w>
墨尔 本</w>
ecos oc</w>
3 31</w>
颇 具</w>
宵 禁</w>
外 科
卡路 里</w>
以色列 国</w>
从业 者</w>
三 千</w>
g h
3 34</w>
里 德</w>
足 协</w>
现 值</w>
尼 罗</w>
尔 瓦</w>
加拿大 人</w>
人 行道</w>
3 51</w>
食 堂</w>
见 性</w>
老 太太</w>
确 诊</w>
技 合</w>
女 子
商 船</w>
农 用</w>
世界 冠军</w>
L ar
7 1.
长久 以来</w>
英 雄
督 府</w>
电子 设备</w>
生物 体</w>
有 悖于</w>
无 形资产</w>
巴 拉
客 房</w>
回 籍</w>
听 讯</w>
华 裔</w>
刷 新</w>
一个 个</w>
赶 出</w>
订 有</w>
西 奥</w>
表 征</w>
答 卷</w>
第四十 六</w>
第十 六次</w>
油 脂</w>
氏 度</w>
日程 安排</w>
批评 者</w>
完全 相同</w>
国与 国</w>
华 北</w>
低 碳</w>
五 周年</w>
el le</w>
D on
请 愿
第十 三次</w>
新闻 媒介</w>
于 本周</w>
6 31</w>
阿 兰</w>
财政 危机</w>
袜 子</w>
第三十 九条</w>
生态 旅游</w>
班 加
版 权
无 休
干 旱
国 与</w>
原 产</w>
刘 邦</w>
保 姆</w>
伊 夫</w>
人满 为患</w>
D ocs</w>
镇 守</w>
途 经</w>
赛 跑</w>
财政 困难</w>
背 诵</w>
经济 秩序</w>
权 势</w>
指 甲</w>
微 量</w>
台 南
会议 纪要</w>
ep h
M un
霸 权</w>
车 票</w>
著 名
罗 河</w>
紧 接着</w>
拉 丹</w>
帕特 里克</w>
市 议会</w>
对话 框</w>
出 错</w>
不 信</w>
6 9.
4 26</w>
谋杀 罪</w>
精 选</w>
战 绩</w>
工会 组织</w>
因 病</w>
写 字母</w>
公 义</w>
亚利 桑
7 8.
6 60</w>
首 轮</w>
能源 部</w>
突发 事件</w>
或 经</w>
不 解</w>
en e</w>
辅 之以</w>
电子 版</w>
生命 危险</w>
独裁 者</w>
报 社</w>
居 室</w>
学术 研究</w>
从 属</w>
书 本</w>
Gl ob
Al l
9 4.
野 餐</w>
记 述</w>
第十 七次</w>
波 浪</w>
数十 亿美元</w>
市场 需求</w>
吸烟 者</w>
内 特</w>
雍 正</w>
记 账</w>
禁 核
无 穷
弗雷 德</w>
决策 权</w>
再 用</w>
争 议
特 斯</w>
涌 现</w>
数 周</w>
扫 射</w>
廉 政</w>
布 赖
决 算</w>
伊斯兰 堡</w>
一 站
d ocum
50 9</w>
重 创</w>
采 伐</w>
诺 斯</w>
误 会</w>
美洲 国家</w>
毛 巾</w>
每 晚</w>
更 有
无 从</w>
基督 教徒</w>
公 演</w>
保 费</w>
人 去</w>
航 道</w>
自 家</w>
维 网</w>
纳 特</w>
溶 性</w>
昏 迷</w>
常 有</w>
大不 相同</w>
变 数</w>
受 托</w>
加州 大学</w>
乐 曲</w>
不 尽</w>
4 97</w>
项 链</w>
采 矿业</w>
越 界</w>
第一 段</w>
王 妃</w>
户 口</w>
幽默 感</w>
基 斯</w>
信息 学</w>
7 500</w>
3 9%</w>
颁 布
部 副</w>
郡 王</w>
见 证人</w>
能源 需求</w>
固 执</w>
卡 萨
供应 品</w>
主 唱</w>
上 天</w>
e f</w>
5. 7</w>
香港 政府</w>
飞 翔</w>
迈 尔</w>
稻 米</w>
生物 量</w>
时 能</w>
弄 清楚</w>
不 需</w>
万 维网</w>
ou s</w>
C oun
阳 市</w>
速 器</w>
最 高级</w>
支 队</w>
捆 绑</w>
打 球</w>
守门 员</w>
加油 站</w>
交 代</w>
7 7.
购物 中心</w>
特 务</w>
牛 排</w>
池 塘</w>
新 车</w>
再 者</w>
P S
I n</w>
适 量</w>
败 给</w>
示威 游行</w>
哥 大</w>
单 调</w>
内 衣</w>
钢 筋</w>
股 东
着 迷</w>
热 潮</w>
毅 力</w>
抑 或</w>
两 院</w>
开 工</w>
座 标</w>
列 有</w>
八 路军</w>
党 部</w>
保障 人权</w>
人员 培训</w>
亚 伦</w>
业 者</w>
15 21</w>
食 物
辛 勤
总 有
忌 惮</w>
底 特
商 家</w>
受 苦</w>
反 向</w>
卫生 部长</w>
制 冷
中 低收入</w>
it ies</w>
K or
B en</w>
过 半数</w>
赡 养费</w>
调 到</w>
秦 国</w>
洗 手</w>
拮 据</w>
彰 显</w>
去 向</w>
做 个</w>
举 证</w>
ak i</w>
颈 部</w>
这 些年来</w>
言 不
绝 缘</w>
怎 能</w>
得 罪</w>
布 满</w>
几 小时</w>
信 道</w>
M el
韧 性</w>
长 远
越 是</w>
艰 辛</w>
精神 疾病</w>
架 子</w>
扔 掉</w>
师 范</w>
增 量</w>
咖啡 馆</w>
合 唱
还 款</w>
社 交
看 管</w>
提 单</w>
授 权
宾 客</w>
医 护
兰 经</w>
u p</w>
i x</w>
腰 带</w>
港 府</w>
河 里</w>
杂 货
戴 上</w>
性别 角色</w>
工 时</w>
响 起</w>
伊朗 核</w>
一 旁</w>
and er</w>
预 见到</w>
该 是</w>
等 值</w>
第三 位</w>
百 货
滤 波器</w>
残疾 者</w>
残 害</w>
察 看</w>
坚 硬</w>
公安 部</w>
G L
这 天</w>
花 瓶</w>
美国 银行</w>
抵 抗
我 该</w>
往 事</w>
七 项</w>
f er
采 掘</w>
行 车</w>
正 为</w>
早 饭</w>
方 向
总有 一天</w>
弗朗 索瓦</w>
富 豪</w>
呈 件</w>
充 裕</w>
低 水平</w>
Joh n
9 5
遗传 学</w>
请愿 书</w>
蒸 气</w>
李 宗
时 速</w>
收 件人</w>
大 地
发 货</w>
半 夜</w>
公 诉人</w>
下 星期</w>
XX VI</w>
3 74</w>
皇 太子</w>
病 因</w>
必 备</w>
常 备</w>
布莱 恩</w>
增 派</w>
农 产</w>
踢 球</w>
财 团</w>
联 阵</w>
经 过
第 比利
第比利 斯</w>
收 成</w>
同 伙</w>
另 一边</w>
佐 夫</w>
ri l</w>
A K</w>
高 价</w>
非 官方</w>
邻 近
邻近 地区</w>
赡 养</w>
行 贿</w>
管 齐下</w>
向 外</w>
名 气</w>
伦 萨</w>
马 普
蒂 姆</w>
自由 市场</w>
法兰克 福</w>
成 员
成 交</w>
工程 学</w>
威士 忌</w>
含 汞</w>
南 半球</w>
利益 集团</w>
凯 利</w>
伤 病</w>
中国 队</w>
贝 克
自来 水</w>
演 进</w>
扎 伊</w>
恶 人</w>
恋 人</w>
尔 格</w>
外 郎</w>
员 外郎</w>
医护 人员</w>
写 明</w>
丹 尼</w>
V ict
阿 让</w>
撕 裂</w>
床 位</w>
地 平线</w>
厄瓜 多尔
办事 员</w>
制片 人</w>
养 子</w>
世界 卫生</w>
p p</w>
那 段</w>
戴 着</w>
息息 相关</w>
开 国</w>
底特 律</w>
在 生活
余 年</w>
N 1</w>
泰 国政府</w>
法律 系</w>
正 以</w>
有 违</w>
度 假
小 朋友</w>
具体 任务</w>
以 致于</w>
高 点</w>
金 边</w>
辱 骂</w>
简 而言之</w>
生 死</w>
特 大</w>
春 秋</w>
停火 协议</w>
ven tion</w>
R es</w>
4 32</w>
香港 特别行政区政府</w>
苏 黎
百分 之</w>
瘘 管</w>
有 形资产</w>
安 的
塔 什
com mittee</w>
Z h
重 回</w>
省 略</w>
商业 界</w>
其他 费用</w>
a p</w>
9. 2</w>
6 61</w>
5 8%</w>
高 标准</w>
风 景
长期 有效</w>
破 伤风</w>
尼 罗河</w>
和 约</w>
军 政</w>
6 40</w>
谈 一谈</w>
衷心 感谢</w>
油 井</w>
机动 车</w>
散 射</w>
市场 营销</w>
巡回 演唱</w>
巡 视</w>
安全 带</w>
个人 卫生</w>
不 惜</w>
XX IX</w>
7 20</w>
第三 轮</w>
沙 子</w>
弘 扬</w>
对外 开放</w>
密 不可
密不可 分</w>
多 处</w>
十 名</w>
兑换 率</w>
代 际</w>
中亚 国家</w>
T el
3 43</w>
15 03</w>
问 到</w>
詹 姆
行 文</w>
空 虚</w>
登 机</w>
污 泥</w>
托 雷斯</w>
忍 不住</w>
危地 马拉
保持 良好</w>
万 公顷</w>
e ed</w>
ak a</w>
9 50</w>
文 物
政治 危机</w>
引 起
开 会
启 蒙</w>
合 乎
劳 伦斯</w>
分 给</w>
份 文件</w>
不 利
M it
M et
资金 短缺</w>
薄 弱
熟 虑</w>
提 炼</w>
承 受
平 坦</w>
好 战</w>
夹 克</w>
呈 报</w>
同 僚</w>
z e</w>
I r
B E
角 落
表 层</w>
节 食</w>
立 宪</w>
田 径</w>
清 廷</w>
奥 多</w>
增 无
可口 可乐</w>
人事 管理</w>
亚 瑟</w>
g o</w>
Pat ric
阿 瑟</w>
评 估
血 病</w>
肯 尼亚
满 都</w>
智 商</w>
我 以</w>
失 散</w>
周 到</w>
华 侨</w>
十 分之一</w>
加德 满都</w>
50 0000</w>
逆 差</w>
计算机 化</w>
经 国</w>
波 长</w>
心 肌
太 保</w>
地理 信息</w>
哈 拉
B h
连 锁
相 匹配</w>
溃 疡</w>
手 机
录像 带</w>
填补 空缺</w>
卡 比拉</w>
下一 阶段</w>
三 百</w>
ar m
红新 月</w>
第十 八</w>
特 人</w>
欺 凌</w>
文化 教育</w>
意 甲</w>
废 气</w>
工作 站</w>
塔什 干</w>
君 王</w>
印第 安</w>
令人 吃惊</w>
3 94</w>
3 32</w>
默 克尔</w>
风 筝</w>
进步 党</w>
联邦 调查局</w>
老 百姓</w>
第五十 五</w>
监 狱
点 名</w>
灌 木</w>
光 泽</w>
供 货</w>
丁 二烯</w>
一 子</w>
S ing
鲁 大学</w>
达 巴</w>
车 库</w>
越来越 少</w>
薄弱 环节</w>
第三 者</w>
有 增无
昨 天晚上</w>
拖 车</w>
打 仗</w>
占 多数</w>
俄亥 俄
人 解</w>
3 55</w>
美国 联邦</w>
篇 章</w>
水 里</w>
武 昌</w>
并 处</w>
佩 德罗</w>
何 人</w>
伊 特</w>
U R</w>
St ev
4 9%</w>
路 德</w>
觉 醒</w>
苔 丝</w>
第一 张</w>
教育 者</w>
微 薄</w>
平 权</w>
各 有不同</w>
参赛 者</w>
om e</w>
G al
6 5.
背 面</w>
硬 盘</w>
接 触
布 卢
崇 高
尘 土</w>
农 场主</w>
冉 阿让</w>
二零零 四年</w>
f rom</w>
19 09</w>
装 船</w>
社会 阶层</w>
知识 经济</w>
无 处
斯 马
憎 恶</w>
左 派</w>
地 貌</w>
半 个世纪</w>
入 读</w>
低 落</w>
N ot
7 51</w>
领导 职务</w>
颁 奖</w>
转 化成</w>
营养 素</w>
独立 自主</w>
氨 基
机 密
明 帝</w>
十 岁</w>
包 机</w>
依 循</w>
Kh an</w>
铁路 运输</w>
辞 退</w>
袭 击者</w>
肩 负</w>
机 车</w>
推 动者</w>
得 票</w>
圆满 完成</w>
使用 量</w>
中 要</w>
严重 不足</w>
万 至</w>
管理 机制</w>
有 功</w>
农村 居民</w>
关 节
世 行</w>
高雄 市</w>
集中 力量</w>
重大 事件</w>
规模 较</w>
猎 物</w>
点 心</w>
深 思
护 者</w>
打 猎</w>
很 久</w>
办公 楼</w>
下 巴</w>
上 风</w>
一 两年</w>
en ko</w>
N et
B 48</w>
首席 法官</w>
避 免
逃 到</w>
贾 梅纳</w>
谱 法</w>
角 奖</w>
病 媒</w>
理 查</w>
法 制
护 理
打 字</w>
人口 统计</w>
预备 役</w>
购 入</w>
而 知</w>
大 师
印度 人</w>
公 决</w>
进 制</w>
热 闹</w>
渗 入</w>
憎 恨</w>
协 约</w>
动 荡
re n</w>
Lu is</w>
F S</w>
Al ma</w>
3 39</w>
警 力</w>
解 职</w>
恩 贾梅纳</w>
工商 管理</w>
再接再 厉</w>
传 导</w>
订 明</w>
英 才</w>
罗 杰</w>
无 动
无动 于
教 益</w>
支持 性</w>
接 力</w>
帐 款</w>
卫 士</w>
创新 能力</w>
主 播</w>
下 而上</w>
鱼 种</w>
非 农业</w>
酝 酿</w>
深思 熟虑</w>
同 谋</w>
叹 息</w>
再也 不能</w>
一 朵</w>
一 幕</w>
C ST</w>
5 4%</w>
1 160</w>
马丁 内斯</w>
雌 性</w>
西方 人</w>
血 症</w>
甲状 腺</w>
生 机</w>
滤 波</w>
渔 获</w>
托 儿</w>
很 广</w>
年 制</w>
工 委</w>
天 真</w>
国际 会计</w>
发 抖</w>
仆 射</w>
上 瘾</w>
P E
H ab
3 41</w>
马 达</w>
野战 军</w>
迪 奥</w>
称 帝</w>
混 沌</w>
油 厂</w>
接 头</w>
归根结 底</w>
反 省</w>
公 关</w>
停 职</w>
佛罗 伦萨</w>
g in
X I</w>
D G
5 1%</w>
那 一刻</w>
超 声波</w>
警察 局长</w>
样 板</w>
摄 取</w>
完成 学业</w>
大 方</w>
am s</w>
高 层次</w>
绵 羊</w>
沉 没</w>
望 未来</w>
最 穷</w>
展 望未来</w>
完全 一致</w>
中间 商</w>
驱 动力</w>
芭 蕾
监管 者</w>
治 国</w>
极 小</w>
扎 克</w>
恋 情</w>
学 前</w>
十分 复杂</w>
剖 析</w>
他 来</w>
两国 间</w>
b ur
预 后</w>
殊 荣</w>
挑 剔</w>
廉 洁</w>
宣 誓
官方 网站</w>
伊 拉</w>
领 先
第一 卷</w>
永 乐</w>
接收 国</w>
快 餐</w>
平 面
平 和</w>
向 着</w>
吉 士</w>
吃 晚饭</w>
另 一半</w>
不 为
M os
C it
黑 客</w>
鲜 艳</w>
新 高</w>
技 艺</w>
小 儿</w>
外科 手术</w>
外交 大臣</w>
不尽 相同</w>
N ic
Le e</w>
烟 囱</w>
洛 克
民 调</w>
开放 性</w>
多 芬</w>
外 科医生</w>
土 机</w>
阿拉 斯加</w>
重 审</w>
自 律</w>
画 廊</w>
电力 系统</w>
电力 供应</w>
灯 塔</w>
或 愿</w>
守 法</w>
如 其
几 条</w>
亚洲 地区</w>
义 词</w>
三 者</w>
st r
药 剂
罪 责</w>
终 极</w>
突 厥</w>
积 蓄</w>
生物 学家</w>
民 营</w>
X IV</w>
阿拉伯 联盟</w>
退 伍</w>
视 网膜</w>
营养 状况</w>
移 至</w>
画 作</w>
家庭 主妇</w>
塔 赫</w>
区 长</w>
8. 3</w>
3 59</w>
肺 部</w>
火 花</w>
案 卷</w>
无动于 衷</w>
旅 长</w>
征 兆</w>
庸 置疑</w>
少 有</w>
失 落</w>
大 吃
出 使</w>
京 剧</w>
静静 地</w>
阿 姆</w>
远 比</w>
贵 重</w>
第二 百</w>
瘟 疫</w>
民 解</w>
最高 人民法院</w>
故 此</w>
弗里 敦</w>
害 虫</w>
共 鸣</w>
六 周</w>
中 约</w>
下 水道</w>
下 半场</w>
or a</w>
Kaf r</w>
4 14</w>
高 雄</w>
赢 家</w>
西 装</w>
耶 鲁大学</w>
绑 架
点 火</w>
消耗 量</w>
托 勒
很久 以前</w>
土木 工程</w>
努 埃尔</w>
霍 姆斯</w>
遗 属</w>
界 别</w>
特别 感谢</w>
松 散</w>
无 不</w>
新 军</w>
悬 殊</w>
小 姑娘</w>
基本 概念</w>
以下 几点</w>
X 射线</w>
4 15</w>
3 44</w>
香 料</w>
阿 德</w>
防 水</w>
配 给</w>
稳 步
献 上</w>
条 所载</w>
有 近</w>
放 学</w>
哮 喘</w>
功 劳</w>
刹 车</w>
八 十年代</w>
价 还价</w>
一 两个</w>
页 数</w>
防 疫</w>
问 世</w>
金 斯敦</w>
讨 价还价</w>
角落 里</w>
汉 城</w>
文 科</w>
席 卷</w>
布 尼亚</w>
丑 陋</w>
不知 所
iss ion</w>
鲸 鱼</w>
注册 处</w>
收 敛</w>
冥 想</w>
克 雷
犯 错</w>
洛 美</w>
失 学</w>
多 出</w>
城 乡
交 火</w>
一 战</w>
那 件</w>
通 则</w>
边 远</w>
贝 勒</w>
西 贡</w>
英 亩</w>
深 为</w>
民 粹主义</w>
无 缘</w>
攀 登</w>
导 出</w>
剧 情</w>
击 手</w>
一 笑</w>
P or
In sp
IP O</w>
4 90</w>
除 术</w>
阅 读
证券 市场</w>
苍 蝇</w>
美 貌</w>
消 遣</w>
控 方</w>
前 述</w>
会 于</w>
亿 英镑</w>
ber t</w>
辐 照</w>
贫民 区</w>
而 设</w>
编 造</w>
温 馨</w>
沉 重
曲 折</w>
掌 声</w>
当 心</w>
共同 行动</w>
候 审</w>
中 转</w>
s ec
莉 莉</w>
留 任</w>
文 号</w>
情 绪
微 博</w>
废 水处理</w>
利 雅
两 所</w>
不 加</w>
X III</w>
3 86</w>
3 64</w>
3 57</w>
雄 心</w>
真 主</w>
痊 愈</w>
牛 仔</w>
污 名</w>
支 派</w>
把 门</w>
布鲁 克</w>
外 貌</w>
半 数
一 举</w>
都 会</w>
祸 患</w>
生活 状况</w>
核 电</w>
日 夜</w>
新 式</w>
尽 其
字 眼</w>
取得 胜利</w>
ull ah</w>
E con
言 行</w>
裁 判
自 该</w>
羞 愧</w>
法 塔赫</w>
好 奇
医 药
丙 烯
6 3.
3 56</w>
3 52</w>
19 03</w>
麻 省
胜 者</w>
知情 权</w>
真 是
相似 之处</w>
沼 泽</w>
欠 发达</w>
扮 演
巴 厘
妇幼 保健</w>
十分 必要</w>
Na qu
达 西</w>
辽 宁</w>
肯尼亚 政府</w>
死 伤</w>
城 中</w>
受 难者</w>
反 革命</w>
云 南省</w>
专门 从事</w>
ust af
g an
选择 地</w>
逃 出</w>
谋 反</w>
该 剧</w>
设计 方案</w>
毯 子</w>
此 以后</w>
履 历</w>
咨询 组</w>
凯 莉</w>
代 为</w>
仅 如此</w>
an ci
驾驶 执照</w>
陆 运</w>
时 年</w>
改 观</w>
我 必</w>
婚姻 法</w>
外 活动</w>
卫生 领域</w>
兵 车</w>
作 弊</w>
伦 理学</w>
In v
A G
齐 心协力</w>
阳 县</w>
贝 基</w>
诛 杀</w>
疑 惑</w>
电 能</w>
湖 广</w>
想 方
引 出</w>
国家 银行</w>
书面 材料</w>
中 之
H y
18 20</w>
马 赛</w>
进 取</w>
贫 富
病 原体</w>
用 不着</w>
法律 条文</w>
反 复
出 众</w>
公 司法</w>
仍 应</w>
Pap er
P re
激 动
斯 利</w>
政治 经济</w>
巴士 拉</w>
功能 性</w>
俄亥俄 州</w>
N ik
K r
6 20</w>
里 根</w>
赞助 者</w>
访 华</w>
裁 缝</w>
荷 属</w>
联 卢</w>
病 患</w>
拉 登</w>
想方 设法</w>
惟 有</w>
巴厘 岛</w>
多 克</w>
向 量</w>
另 一人</w>
句 意</w>
军事 演习</w>
以 待</w>
乞 丐</w>
ol e</w>
重 开</w>
考 察
绍 兴</w>
矿 井</w>
宣布 独立</w>
好奇 心</w>
可 追溯</w>
分析 家</w>
乙 型</w>
不知 不觉</w>
一 季</w>
一 块
th at</w>
饭 菜</w>
败 坏</w>
热 情
期 付款</w>
承 保</w>
定 购</w>
全国 代表大会</w>
会 否</w>
今年 年底</w>
个 区</w>
o g</w>
Paper Smart</w>
长 于</w>
逐 案</w>
读 完</w>
评估 所</w>
英语 口语</w>
自主 性</w>
第二 段</w>
济 南</w>
愈来 愈</w>
异 构
优 质
任 教于</w>
亲 节</w>
Naqu rah</w>
6 3%</w>
50 3</w>
3 200</w>
2 1
鲁 斯</w>
钉 子</w>
聘 为</w>
水 器</w>
店 主</w>
广 为人知</w>
常 见
岸 边</w>
参 战</w>
上 床</w>
am i</w>
B ra
6 7.
滋 味</w>
格 言</w>
创业 精神</w>
代 数</w>
举 报
世 家</w>
轰 动</w>
腐 烂</w>
美 林</w>
机 密性</w>
批 出</w>
尽可能 减少</w>
女 郎</w>
哈尔 滨</w>
临 界
不敢 相信</w>
O n
I d
3 85</w>
3 53</w>
颁 授</w>
普 勒</w>
增 建</w>
不 及格</w>
一 幢</w>
d ep
Mart in</w>
防火 墙</w>
米 特里</w>
片 中</w>
炎 症</w>
因 其</w>
可 受</w>
卑 鄙</w>
刀 具</w>
一 文</w>
K an
3 71</w>
马 铃
非 同
签 字
电话 会议</w>
待 审</w>
影 带</w>
客 机</w>
如 图</w>
保 密性</w>
T E
Pa ul
I R</w>
马 会</w>
陪审 员</w>
详 情
详情 请</w>
穆 沙
积 聚</w>
科 托
科托 努</w>
照 护</w>
新 城</w>
开放 源码</w>
小组 赛</w>
处 女
基 调</w>
取 证</w>
取 用</w>
乌 萨马</w>
中央 军委</w>
中 书
两 件</w>
不 仅如此</w>
一 派</w>
T om
8 0.
.. ...</w>
混 蛋</w>
来 访者</w>
想 一想</w>
巴 菲特</w>
大大 的</w>
主 帅</w>
不 经
隐 喻</w>
镇 定</w>
细 心</w>
第三 代</w>
澳 元</w>
曼 城</w>
慢 性病</w>
小 节</w>
尊 贵</w>
增 高</w>
各 家</w>
他 俩</w>
书 上</w>
上 加
一 说</w>
W C</w>
马萨 诸
蒋 中正</w>
第二 张</w>
来 宾</w>
排名 第</w>
扩 大
友谊 赛</w>
内 置</w>
M ou
Jab al</w>
G i
高度 评价</w>
香 气</w>
铁 矿</w>
蒋 经国</w>
自相 矛盾</w>
纳 粹
特 意</w>
每 股</w>
次 访问</w>
枕 头</w>
条 纹</w>
扎 实</w>
太 快</w>
南 朝鲜</w>
UN CT
R ah
表现 出色</w>
药 剂</w>
职业 者</w>
考 官</w>
结 交</w>
绑 定</w>
等 离子
梦 见</w>
挥 霍</w>
扶 助</w>
打 赌</w>
工 伤</w>
发 来</w>
北 方
u b</w>
c c
6 30</w>
6 2%</w>
4 17</w>
逃 税</w>
见 识</w>
福 岛</w>
犯罪 案件</w>
母 公司</w>
好 比</w>
好 极了</w>
发 怒</w>
兰 特</w>
争 取
T ur
操 控</w>
家 协会</w>
因 涉嫌</w>
受 援</w>
全面 实现</w>
之 大</w>
两 难</w>
两 岁</w>
一 俟</w>
b o</w>
额 为</w>
管 人</w>
等离子 体</w>
目 击</w>
棺 材</w>
我 敢</w>
导 入</w>
al s</w>
DC 2</w>
Car los</w>
飞 去</w>
赢 利</w>
米 尔
对 系统</w>
元 朝</w>
H ay
40 8</w>
1. 5%</w>
隐 患</w>
长期 性</w>
通讯 员</w>
该 州</w>
童 话</w>
穆沙 拉夫</w>
理 案件</w>
某种 意义</w>
审 理案件</w>
K y
说 不出</w>
该 所</w>
突 破
曲 面</w>
总 费用</w>
基督 山</w>
圣 公会</w>
克莱 尔</w>
非 成员国</w>
运 兵车</w>
职业 妇女</w>
粮食 供应</w>
策 略
穷 困</w>
抽 样
密 钥</w>
二 苯</w>
S ay
In t
道 格拉斯</w>
落 选</w>
案 人</w>
收 听</w>
取得 联系</w>
凯 撒</w>
7 30</w>
渔业 资源</w>
海 道</w>
洽 谈</w>
法兰 克</w>
有 的是</w>
摇 晃</w>
悬 浮</w>
夜 班</w>
坐 落</w>
史 料</w>
R aj
黎巴 嫩
高 素质</w>
那 份</w>
计 画</w>
荷 载</w>
节 俭</w>
沃尔 特</w>
教 书</w>
张 开</w>
安 迪</w>
大 写字母</w>
养 殖
e in</w>
S an</w>
鸡 肉</w>
贝 多芬</w>
诱 人</w>
芳 香</w>
航天 飞机</w>
条 下</w>
无 耻</w>
b er</w>
瓦 德</w>
独 特性</w>
歉 意</w>
承 载</w>
哈姆 雷特</w>
不言 而
H as
6 7%</w>
第五十 一条</w>
税务 机关</w>
斯特拉 斯堡</w>
斥 责</w>
攻 破</w>
孕 育</w>
劳 务
人 队</w>
量 权</w>
裁 量权</w>
行 不通</w>
站不 住脚</w>
液 相</w>
应 付款</w>
塞 拉</w>
后 台</w>
同 化</w>
僵 硬</w>
世界 级</w>
ic o</w>
IN C</w>
8. 5</w>
表 面
着 装</w>
爵士 乐</w>
新 兵</w>
折 叠</w>
尔 蒙</w>
大 炮</w>
产 期</w>
3 89</w>
静 电</w>
超 人</w>
穿 梭</w>
清 水</w>
波 哥大</w>
林 中</w>
拉斯 维加斯</w>
截 面</w>
常 数</w>
市场 机制</w>
后 继</w>
北 南</w>
事业 单位</w>
一 卷</w>
Econ om
自 民党</w>
而 不见</w>
狠 狠</w>
洗 手
毫不 犹豫</w>
新 法</w>
新 机制</w>
合同 条款</w>
只 见</w>
北 条</w>
出 对</w>
中 年</w>
i Ph
解放 军
美 观</w>
第四 款</w>
第一 组</w>
没 见</w>
大 增</w>
原则 立场</w>
先 天性</w>
借 助于</w>
使 徒</w>
任意 性</w>
交易 商</w>
le z</w>
G ra
F ed
1. 9</w>
需 在</w>
防 止
新西 兰政府</w>
插 件</w>
投 奔</w>
在生活 中</w>
公安 局</w>
克里斯蒂 安</w>
充分 行使</w>
偷 渡</w>
en d</w>
W at
18 60</w>
英 俊</w>
皱 纹</w>
炼 油厂</w>
沃 斯</w>
有 如</w>
南方 共同市场</w>
冷 水</w>
伤 痕</w>
人民 代表</w>
人员 配备</w>
ou n</w>
马里 人</w>
迅 猛</w>
贵 宾</w>
要 紧</w>
裸 体</w>
维 利</w>
累 斯
索 马里人</w>
粉 红色</w>
社会 变革</w>
波 兰
榜 首</w>
奢 华</w>
塔 尼亚
关 乎</w>
B or
4 12</w>
马铃 薯</w>
道义 上</w>
这 就是说</w>
评 议</w>
装 入</w>
申 领</w>
检 举</w>
携 带
宪 会议</w>
制 宪会议</w>
候 任</w>
ch e</w>
CR IC</w>
Ass oci
3 58</w>
高 职</w>
转 子</w>
赏 赐</w>
离 队</w>
王 上</w>
有利 可图</w>
有 种</w>
J al
高 处</w>
顶 点</w>
逐 个</w>
这 颗</w>
色 谱</w>
照 相</w>
完 好</w>
孕 期</w>
值得 称赞</w>
事 无
须 要</w>
通报 会</w>
说 成</w>
语 境</w>
胜 诉</w>
时 事</w>
塔 尼</w>
喷 洒</w>
乌兹别 克</w>
车 里</w>
诺 贝尔</w>
肖 像</w>
矢 量</w>
疯 子</w>
演 奏
明尼 苏
找 回</w>
托勒 密</w>
延 到</w>
固 化</w>
另 据</w>
另 一家</w>
公 债</w>
全 然</w>
举 行
D T
辅助 性</w>
登记 簿</w>
浪 漫
歌 剧院</w>
日 落</w>
文学 奖</w>
手 稿</w>
剪 辑</w>
制 动</w>
冻结 资产</w>
公平 性</w>
b u
选择 权</w>
象 棋</w>
英国 广播公司</w>
花 儿</w>
艺术 作品</w>
男 爵</w>
拉 迪
投 靠</w>
升 迁</w>
剪 切</w>
信 使</w>
优 缺点</w>
9 3.
4 87</w>
阿拉伯 王国</w>
表 水</w>
纳 赛尔</w>
科尔多 凡</w>
泰 尔</w>
沙特 阿拉伯王国</w>
工 件</w>
大大 降低</w>
塔 克</w>
伤 痛</w>
丹 尼斯</w>
n y</w>
40 2</w>
4 13</w>
随 同</w>
错 失</w>
达 累斯
达累斯 萨拉姆</w>
粗 体</w>
环保 署</w>
沉 淀</w>
旁 观</w>
倒 霉</w>
一 顶</w>
ti s</w>
Re v
讨 论
衡 平</w>
虫 病</w>
萃 取</w>
职 场</w>
督 促</w>
每 件</w>
插 图</w>
抚 养费</w>
城 县</w>
何 地</w>
交 还</w>
高 性能</w>
自然 保护区</w>
增 益</w>
化学 家</w>
连 通性</w>
转 售</w>
贝 蒂</w>
老 家</w>
美 景</w>
美 人</w>
深 知</w>
根本 无法</w>
慈善 事业</w>
地 表水</w>
君 主
勘 察</w>
于 世</w>
不言而 喻</w>
on d</w>
and o</w>
UNCT AD</w>
自 评</w>
考 取</w>
犹豫 不决</w>
查 封</w>
提款 权</w>
尼克 松</w>
实践 证明</w>
利 弊</w>
八 项</w>
两 面</w>
丝 网</w>
一 桩</w>
h a
ch in
4 56</w>
预 想</w>
附加 条件</w>
过 身</w>
脑 海</w>
易 事</w>
打 听</w>
或 作</w>
山 县</w>
失 败
埃 德</w>
台 币</w>
只 应</w>
印刷 品</w>
利雅 得</w>
ach s</w>
4 23</w>
驱 赶</w>
雅 温
讨 好</w>
永 生</w>
早 前</w>
战 火</w>
意见 书</w>
孩 童</w>
合 一</w>
切 入点</w>
餐 桌</w>
谦 虚</w>
识 别
西 甲</w>
比 特</w>
朱 元
期 货
明 文</w>
拉 丁</w>
布 卡
学龄 儿童</w>
头 巾</w>
刘 裕</w>
京 城</w>
不足 为
不 规则</w>
三 子</w>
40 5</w>
13 0
首 饰</w>
采取 相应</w>
辩 论会</w>
罪 孽</w>
第二 十</w>
眼 球</w>
常 设
妥善 处理</w>
两 支</w>
f f</w>
视 而不见</w>
接 生</w>
常 年</w>
天 国</w>
勘 测</w>
击 落</w>
净 增</w>
克里 米亚</w>
L ou
集 成
诸 侯</w>
衰 弱</w>
获得 性</w>
监督 员</w>
暴 者</w>
尼日利亚 政府</w>
奥斯 曼</w>
套 房</w>
先 到</w>
3 81</w>
默 示</w>
词 组</w>
设计 者</w>
翌 日</w>
神经 系统</w>
活 化</w>
新 举措</w>
拷 打</w>
分 组
决 定
优 待</w>
av e</w>
该 类</w>
物 色</w>
润 滑</w>
泉 水</w>
毛 衣</w>
检 校</w>
查 理
弱 小</w>
存 续</w>
国民 收入</w>
团 团长</w>
哈 里斯</w>
协调 性</w>
Jam es</w>
魔 力</w>
雷 德</w>
那 双</w>
海关 总署</w>
此 信</w>
施 暴者</w>
按察 使</w>
拉 伸</w>
年 出</w>
寺 院</w>
宫 中</w>
妇 联</w>
奖 者</w>
坦 率地</w>
名 言</w>
列 宁
Thom as</w>
颜 料</w>
集团 公司</w>
里 程</w>
辛 亥
脱 落</w>
米 格尔</w>
竞争 能力</w>
消 亡</w>
海 浪</w>
楼 下</w>
标 语</w>
普 顿</w>
头 疼</w>
外围 赛</w>
乾 隆
wit ter</w>
Man s
4 75</w>
3 69</w>
香港 特区政府</w>
磁 性</w>
挡 住</w>
兼 容性</w>
五 点</w>
一 段
Sh e
4 36</w>
首 部</w>
长 足
赛 义
贝 特</w>
积极 分子</w>
火 鸡</w>
江 省</w>
朱元 璋</w>
新 版</w>
数百 人</w>
德里 希</w>
二 次
中学 毕业</w>
不 容许</w>
4 22</w>
4 16</w>
3 79</w>
防 护
足球 比赛</w>
育 龄
深 感
深 层次</w>
明显 改善</w>
方 案
恳 请</w>
总 算</w>
性 情</w>
吵 架</w>
i el</w>
ang e</w>
R af
A ri
难 免</w>
隐 性</w>
西 南
武器 化</w>
得 益</w>
希 米</w>
宾 语</w>
名 昭
剔 除</w>
保持 平衡</w>
了 当</w>
S w
长 征</w>
油 墨</w>
录 影带</w>
实 基础</w>
头 盔</w>
坚 实基础</w>
S B</w>
钢 笔</w>
皇 子</w>
数 日</w>
把 头</w>
意外 事故</w>
巴尔 干
审判 程序</w>
夫 妻
吐 蕃</w>
化 妆</w>
功 臣</w>
之 争</w>
三 是</w>
ion al</w>
T ran
A BC</w>
迟 钝</w>
臀 部</w>
牟 利</w>
情 境</w>
反 常</w>
全国 人大</w>
会 外</w>
il i</w>
D u
3 600</w>
2 60
跳 动</w>
第十 九次</w>
灯 泡</w>
客 串</w>
回 收率</w>
四 肢</w>
分配 原则</w>
光 亮</w>
aw i</w>
3 77</w>
非 婚
至 终</w>
缩 水</w>
穿 著</w>
扩 张
征 讨</w>
并 进</w>
单 元
依 附</w>
ig n</w>
4 28</w>
茂 德</w>
第十 七</w>
神 学院</w>
特 委会</w>
机动 车辆</w>
拉巴 特</w>
开 明</w>
国际 惯例</w>
四 倍</w>
右 派</w>
利润 率</w>
充分 说明</w>
雅温 得</w>
管理 费</w>
甘 肃
片 面</w>
方案 设计</w>
德 甲</w>
循环 基金</w>
害 性</w>
出人 意料</w>
出 新</w>
公 证</w>
S M
赞 许</w>
第十 八次</w>
孩 儿</w>
垄 断
受到 破坏</w>
入 口处</w>
俄罗斯 联邦政府</w>
湿 润</w>
核 战争</w>
奥尔 良</w>
基金 项目</w>
吉 林</w>
你 家</w>
任 地</w>
二 恶
Sch ool</w>
J on
8 8.
钢 板</w>
超 额</w>
起 草
翻 了
翻了 一番</w>
甲 级
图 纸</w>
呈 文</w>
另 类</w>
功 绩</w>
减 让</w>
决定 权</w>
具体 来说</w>
二 元</w>
15 91</w>
10 0.
飞 快</w>
致 富</w>
联 尼</w>
着 急</w>
甜 美</w>
灵 敏
民 权</w>
母 国</w>
梵 蒂
木 板</w>
料 理</w>
报 答</w>
呕 吐</w>
向 东</w>
印 章</w>
六 点</w>
6 2.
路 德
规范 化</w>
看 清</w>
更 难</w>
无 几</w>
捏 造</w>
影 展</w>
将 来临</w>
大 满贯</w>
坏 人</w>
国际 航空</w>
即 将来临</w>
加 西亚</w>
光 明
从 速</w>
i ro
P L</w>
A G</w>
除此 以外</w>
阴 暗</w>
重要 途径</w>
跟 前</w>
穆 巴拉克</w>
生物 资源</w>
泽 民</w>
家务 劳动</w>
唱 名</w>
军事 法院</w>
二 读</w>
阿 特
较 弱</w>
路 由</w>
负 于</w>
认 明</w>
广 度</w>
工 匠</w>
少 见</w>
售货 员</w>
化 铀</w>
二恶 英</w>
5 500</w>
西班牙 人</w>
第三十 八条</w>
盘 问</w>
法 人
新 星</w>
摄 氏度</w>
打 碎</w>
工具 箱</w>
定 时</w>
去 年
印度 教</w>
军事 设施</w>
L i
D om
除 掉</w>
防止 出现</w>
联 营</w>
编 队</w>
漫 画家</w>
切 除术</w>
内 容
3 68</w>
13 90</w>
瑕 疵</w>
暑 期</w>
旺 盛</w>
文 具</w>
数 名</w>
撒 上</w>
控制 区</w>
总 冠军</w>
总 价值</w>
已 成</w>
导 管</w>
安全 套</w>
塔吉 克</w>
地 站</w>
前 辈</w>
出 院</w>
八 强</w>
人 时</w>
乌 兰
丛 书</w>
6 4.
骨 髓</w>
预 处理</w>
阿尔 贝</w>
落实 工作</w>
苦 苦</w>
真是 太</w>
甚 为</w>
献 身</w>
合 营</w>
及 时
再次 出现</w>
八 岁</w>
何 等</w>
东 汉</w>
G ir
高 斯</w>
酒 类</w>
电 荷</w>
张学 良</w>
少年 儿童</w>
基 点</w>
li c</w>
ay s</w>
S af
F P</w>
行 情</w>
红 柿</w>
游 击</w>
检 视</w>
枪 手</w>
库尔德 人</w>
填 妥</w>
告 发</w>
万 能</w>
r at
M is
辛亥 革命</w>
财政 管理</w>
萨 格勒
萨格勒 布</w>
自行 决定</w>
统 筹
狭 义</w>
星 际</w>
序 号</w>
希腊 人</w>
围 着</w>
分离 主义</w>
不 以</w>
et a</w>
29 00</w>
难 堪</w>
赔 款</w>
深 渊</w>
布 料</w>
国务 部长</w>
北 上</w>
几 句话</w>
党 组织</w>
位 子</w>
中国 银行</w>
不断 更新</w>
9. 3</w>
9 2.
4 39</w>
轻 度</w>
自 下而上</w>
股 份
海 南</w>
有 事</w>
怪 异</w>
心 爱</w>
建筑 群</w>
已 为</w>
夜 总会</w>
品 格</w>
南 克</w>
停 产</w>
e c</w>
O P</w>
3 82</w>
3 72</w>
节 中</w>
致 开幕词</w>
聘 任</w>
社 署</w>
相 干</w>
接 过</w>
原 判</w>
凭 单</w>
op h
K at
遗 孀</w>
证 言</w>
老 妇人</w>
社 论</w>
熄 灭</w>
气 愤</w>
有 点
支持 率</w>
拉 图</w>
急 剧
急剧 下降</w>
布卡 武</w>
外交 代表</w>
发 自</w>
二零零 五年</w>
乱 伦</w>
不同 之处</w>
阿 美</w>
近 平</w>
调查 者</w>
衬 衣</w>
莫 尔</w>
米 特</w>
火 烧</w>
数 组</w>
政 事</w>
家庭 作业</w>
君 士
动 态
创业 者</w>
仅 以</w>
交易 员</w>
丹麦 政府</w>
不 稳定性</w>
一 票</w>
50 1</w>
纪 事</w>
点 球</w>
求 是</w>
弗吉 尼亚</w>
常 侍</w>
尤 指</w>
实用 新型</w>
农民 工</w>
习 近平</w>
两 段</w>
C am
9 86</w>
药剂 师</w>
维 特</w>
电 台
电台 节目</w>
沿 岸
杯 赛</w>
新 约</w>
搬 家</w>
已 到</w>
宽 阔</w>
嫁 妆</w>
大 都会</w>
伊 莎
通用 汽车</w>
超级 大国</w>
西 红柿</w>
舞 蹈
比 赛
此 时
拜 仁</w>
拓 扑</w>
拉 开</w>
把 戏</w>
古 屋</w>
凤 凰</w>
入 息</w>
充满 希望</w>
下 挫</w>
for d</w>
X VIII</w>
C ast
莱 昂</w>
荷 尔蒙</w>
第十二 章</w>
民 政
打 架</w>
应邀 参加</w>
布 干
安 东</w>
去年 同期</w>
不 入</w>
40 9</w>
3 73</w>
马 赫</w>
跳 水</w>
礼 拜
由 衷</w>
特 赦</w>
正 交</w>
妇女 节</w>
夫 斯</w>
多 氯</w>
塔 那
动 力
书面 报告</w>
隔 年</w>
辩护 人</w>
罗姆 族</w>
糊 口</w>
管 弦
笼 子</w>
第一 件</w>
数以 百计</w>
战 车</w>
干 得</w>
可 视
公 有</w>
债务 国</w>
交 接</w>
W ar
9 6.
请 教</w>
法 对</w>
投 行</w>
手 术
付 出
不太 好</w>
不 由
Mar c
面 纱</w>
陷入 僵局</w>
那 会</w>
运 公司</w>
警 示</w>
纹 理</w>
盘 点</w>
皂 白</w>
电视 广播</w>
用 手</w>
湄 公
流 感
曲 子</w>
当 着</w>
平 稳
协 办</w>
信 条</w>
三角 形</w>
f t</w>
5 80</w>
阿尔巴 尼亚
杂 交</w>
山 东
坠 毁</w>
园 林</w>
十 九年</w>
专业 技能</w>
c ol
S C
D is
隔 开</w>
银 子</w>
缴 获</w>
渗 漏</w>
民 意</w>
橄榄 球</w>
曲 目</w>
属 地</w>
外 务
哪 种</w>
初始 化</w>
再 造</w>
G ab
高 品质</w>
避免 出现</w>
理 发
标志 性</w>
故 事
广播 电视</w>
工业 区</w>
四 点</w>
t a
4 88</w>
被 保险人</w>
星 人</w>
放 贷</w>
战 功</w>
录 得</w>
堆 积</w>
卡 斯特罗</w>
供 求</w>
九 十</w>
一 滴</w>
S in
8 3.
6 6%</w>
记 下</w>
红 色
稀 有</w>
男女 比例</w>
用 词</w>
海 床</w>
据 悉</w>
彻 斯特</w>
开 花</w>
凯 尔</w>
丰 收</w>
f l
H C
9 7%</w>
黑龙 江</w>
鸭 子</w>
遗传 算法</w>
记 号</w>
监测 员</w>
匈 奴</w>
再 婚</w>
伴 有</w>
会计 制度</w>
马 匹</w>
防 范
表达 方式</w>
纸 币</w>
程序 员</w>
洗 涤</w>
方 便
斯托 克</w>
废 旧</w>
宁 波</w>
太阳 系</w>
外 来
塞 特</w>
刑事 管辖</w>
公 社</w>
光 子</w>
交换 所</w>
ight s</w>
5 12</w>
贸易 部</w>
读 过</w>
西 岛</w>
美 奖</w>
素 材</w>
沉 浸</w>
执 勤</w>
巴 托</w>
实质 问题</w>
太 尉</w>
和平 时期</w>
吸 血
九 岁</w>
G O
7 3.
违法 者</w>
轮 子</w>
要 地</w>
脸 部</w>
绳 索</w>
约 合</w>
生产 成本</w>
末 日</w>
智 者</w>
或 多
愈 加</w>
悄悄 地</w>
屏 蔽</w>
声 响</w>
地 用</w>
售 卖</w>
发 运</w>
单 单</w>
十分 困难</w>
修 筑</w>
体 系
im a</w>
i ii</w>
身体 状况</w>
财务 处</w>
粤 语</w>
科威特 国</w>
特 种
火 柴</w>
摆 放</w>
德 鲁</w>
多 层次</w>
古巴 共和国</w>
受 挫</w>
体 能</w>
上 车</w>
o a</w>
M ic
5 70</w>
雷 拉</w>
细 小</w>
穆 尔</w>
援 救</w>
打 倒</w>
并 论</w>
干 吗</w>
层 楼</w>
实 业
奋 力</w>
国际 争端</w>
压倒 性</w>
北 区</w>
不 耐
iPh one</w>
阿 波罗</w>
里 士
绝 食</w>
照 着</w>
流 畅</w>
普通 话</w>
总 参谋长</w>
开 战</w>
威 德</w>
厂 长</w>
下 院</w>
一 席
违 反
轻 罪</w>
转 过身</w>
路 过</w>
计 价</w>
第四十 五</w>
氯 丁二烯</w>
就业 人数</w>
失 眠</w>
协同 效应</w>
十二 岁</w>
上 千</w>
L uc
随 从</w>
防范 措施</w>
责任 人员</w>
蚀 性</w>
纪律 处分</w>
湄公 河</w>
涉 案</w>
沙 姆
柔 性</w>
无 名</w>
操 练</w>
对 以</w>
孤 身</w>
嗓 音</w>
哈 斯</w>
吸血 鬼</w>
君士 坦
史蒂 芬</w>
可预 见性</w>
几 类</w>
g er</w>
课 文</w>
花 旗</w>
秘鲁 政府</w>
斯 主义</w>
摇 摆</w>
摄 入量</w>
批评 家</w>
建 和
娜 塔
地 震
哈里 里</w>
军事 顾问</w>
内 分泌</w>
兴 旺</w>
人 听闻</w>
二 手
之 母</w>
o y</w>
Man ag
L U
这 艘</w>
衡 量
短 篇小说</w>
滑 动</w>
构 筑</w>
服务 局</w>
戈兰 高地</w>
布 伦
六十 周年</w>
债 权
下 层</w>
18 88</w>
转 诊</w>
西 山</w>
犯 法</w>
汇 兑</w>
官 邸</w>
基层 组织</w>
喷 射</w>
右 侍郎</w>
内 心
儿 科</w>
以 新</w>
主要 职责</w>
ang a</w>
G U
要 约</w>
行 军</w>
自 已</w>
监 视
幸 免</w>
干 练</w>
加 丹
r el
第九 章</w>
深 受
廉 政
小 贩</w>
卫生 间</w>
体 质</w>
一站 式</w>
ou se</w>
b an
B ut
Ad ob
5 90</w>
闪 闪
远 影响</w>
调 阅</w>
草 药</w>
深 远影响</w>
法定 人数</w>
法 西斯</w>
格 利</w>
安全 事件</w>
南 北
出 国
中亚 地区</w>
严 禁</w>
上 扬</w>
n o</w>
in tern
for m
e en</w>
e b</w>
H T
衡量 标准</w>
游 牧</w>
清 白</w>
无 穷</w>
假 冒</w>
交 错</w>
二 中</w>
乔 纳森</w>
风 度</w>
辣 椒</w>
碳 氢
玷 污</w>
法律 委员会</w>
持 节</w>
巫 师</w>
备 抵</w>
发 送
五 百
书 房</w>
乞 讨</w>
S us
黑龙 江省</w>
饮食 习惯</w>
观察 家</w>
真 想</w>
晶 体
投 影</w>
偏 僻</w>
伊 达</w>
代 号</w>
互 通</w>
两 分钟</w>
世 锦赛</w>
S ul
H SP</w>
韩 国政府</w>
青 海</w>
经济 基础</w>
招 聘
德 尔
启 程</w>
吉 奥</w>
发 器</w>
匹 马</w>
之 位</w>
远程 教育</w>
碳氢 化合物</w>
真 话</w>
真 人</w>
热 忱</w>
清 末</w>
洗 衣</w>
柱 子</w>
日 晚</w>
应 许</w>
常设 机构</w>
十二 日</w>
伙伴 国</w>
不 驱</w>
S i
4 11</w>
进 城</w>
荣 誉
管 家</w>
第二十 四</w>
燃 烧
核 可
曾 一度</w>
房 东</w>
如 一</w>
太 远</w>
囊 团</w>
先 进
付出 代价</w>
不 堪
e o</w>
AK B48</w>
40 4</w>
预 知</w>
金刚 石</w>
纳尔 逊</w>
智 囊团</w>
时 宜</w>
文学 作品</w>
散 居</w>
应 能</w>
埋 设</w>
券 市场</w>
切 斯特</w>
债 券市场</w>
倒 下</w>
New s</w>
达 标</w>
调 节
葡萄 糖</w>
置 之
精力 充沛</w>
科 伦
满 怀</w>
清 代</w>
干 线</w>
取 暖</w>
公 使</w>
ag a</w>
3 92</w>
追 寻</w>
身 影</w>
观 主义</w>
湖 人</w>
江 西省</w>
开 阔</w>
审 阅</w>
安 纳
地质 学</w>
办公 时间</w>
初 衷</w>
Ar t
5 21</w>
3 63</w>
精 卫</w>
性 爱</w>
得 其
名 是</w>
切 合</w>
何 不</w>
钻 探</w>
通 奸</w>
苏黎 世</w>
破 损</w>
留 心</w>
新 世界</w>
播 放
库 斯</w>
场 馆</w>
会 因</w>
S oci
S and
统计 分析</w>
穿 透</w>
校 园
柏 拉图</w>
明 晰</w>
日 才</w>
方 程式</w>
异构 体</w>
学习 网</w>
压 倒</w>
刑事 法</w>
养 院</w>
不 见
3 62</w>
重 点
精 品</w>
根 于</w>
服务 水平</w>
无法 忍受</w>
打 量</w>
总 则</w>
应 付
巡 演</w>
判 断
划 一</w>
体 型</w>
住宅 区</w>
优越 性</w>
伏 击</w>
os h
m i</w>
L A</w>
B DE</w>
骨 干</w>
领导 权</w>
降 水</w>
自 大</w>
联 名</w>
略 高于</w>
瑞 德</w>
爱 情
沙 尔</w>
操作 员</w>
接受 者</w>
导 航
大众 传媒</w>
另 行
做 点</w>
下 决心</w>
ep t
N at
高 分辨率</w>
诸葛 亮</w>
格 拉斯
最 小
支 出
挤 出</w>
御 史
徒 劳
开 普敦</w>
宇 文
学习 成绩</w>
多元 性</w>
发起 人</w>
南 华</w>
分 将</w>
份 量</w>
一 概</w>
硬 度</w>
浮 现</w>
歌 星</w>
欣 喜</w>
救 治</w>
手 脚</w>
战 地</w>
并 肩</w>
子 系统</w>
奥 托</w>
塞 建</w>
各 条</w>
压 低</w>
丰富 多彩</w>
专 为</w>
X II</w>
韦 伯</w>
雅 各
辜 负</w>
辅导 员</w>
腓 特
管理 体制</w>
水 晶
民主 运动</w>
拟 出</w>
手 铐</w>
或 少</w>
年 数</w>
大师 赛</w>
司令 官</w>
击 出</w>
其 妻</w>
克里斯托 弗</w>
克莱 斯勒</w>
作 词</w>
与此 相关</w>
r on</w>
透明 性</w>
胃 口</w>
联合 公报</w>
照 样</w>
流动 资金</w>
沃尔 玛</w>
描 绘
怀 里</w>
郊 野</w>
趁 机</w>
苏 人解</w>
热 能</w>
残 留物</w>
有 色
愤 慨</w>
宣誓 就职</w>
官 司</w>
女 皇</w>
大 风</w>
双 臂</w>
具体 办法</w>
克里斯蒂 娜</w>
i en</w>
Jul y</w>
3 42</w>
驾 驭</w>
近 期内</w>
自 卫
育龄 妇女</w>
相 提
相提 并论</w>
烹 调</w>
炮 兵</w>
温 泉</w>
扇 门</w>
大幅 提高</w>
医 务
作 一</w>
ol o</w>
ist a</w>
2 A</w>
风 光</w>
脱 贫</w>
罪 人</w>
紧 凑</w>
稠 密</w>
洋 葱</w>
泰 山</w>
无 上</w>
救济 金</w>
固 态</w>
净 值</w>
亮 点</w>
非 但</w>
话 剧</w>
要 塞</w>
结 壳</w>
敲 门</w>
捐 给</w>
心 愿</w>
尚 存</w>
周 密</w>
华 纳</w>
分裂 主义</w>
亚 特</w>
世 子</w>
老 汇</w>
灵敏 度</w>
法律 界</w>
杜 马</w>
未 受</w>
新 四军</w>
实 业</w>
大 举</w>
哈 克</w>
具体 内容</w>
亚美 尼亚人</w>
P an
马 里兰
血 浆</w>
编 成</w>
结构 化</w>
结 石</w>
空军 基地</w>
短期 投资</w>
现 年</w>
狡 猾</w>
灵 敏</w>
想 得到</w>
影 视
垮 台</w>
名 前</w>
合唱 团</w>
凯 蒂</w>
之 变</w>
义 军</w>
1 28.
联 塞建</w>
百 老汇</w>
正 轨</w>
正 义
数 项</w>
承担 义务</w>
布 道</w>
尾 声</w>
安 息</w>
奥 运
名 古屋</w>
南 昌</w>
18 63</w>
须 知</w>
署 名</w>
献 出</w>
炮 火</w>
民主 改革</w>
有增无 减</w>
无休 止</w>
幻 觉</w>
喝 一杯</w>
协 联</w>
传 道</w>
乔 布斯</w>
y n</w>
40 7</w>
4 43</w>
4 38</w>
黑 板</w>
车 路</w>
账 务</w>
比利 时
斯 蒂</w>
头 等
塑料 袋</w>
商业 部门</w>
台 大</w>
前 不久</w>
体系 结构</w>
人 及</w>
J P</w>
雄 厚</w>
精 湛</w>
第五十 二</w>
科 隆</w>
狂 欢</w>
横 扫</w>
核 反应堆</w>
柠 檬
杂 质</w>
恼 火</w>
心 头</w>
往 前</w>
巴 伐
宠 爱</w>
安大 略</w>
喇 叭</w>
受 难</w>
S G</w>
M P</w>
银行 存款</w>
配 量</w>
评论 员</w>
老 爸</w>
监 理</w>
江 泽民</w>
来 港</w>
期 所</w>
晋 国</w>
折 断</w>
平 滑</w>
大 使
地面 站</w>
制 衡</w>
具体 做法</w>
专业 性</w>
et s</w>
N ab
Amer ic
9 5.
6 8%</w>
管理 模式</w>
神 职人员</w>
省 市</w>
生命 科学</w>
杂货 店</w>
搜 救</w>
挑战 赛</w>
扑 灭</w>
彩 票</w>
实验 性</w>
奶 牛</w>
台 词</w>
发 热</w>
D evelopment</w>
说 不
耶 律
罗 拉</w>
第三 份</w>
潜 意识</w>
每 逢</w>
拉 动</w>
感 性</w>
合 署</w>
公 理</w>
Comp any</w>
9 73</w>
麻 风
饿 死</w>
长 春</w>
荒 凉</w>
洗 钱
暂 缓</w>
接 通</w>
对照 组</w>
塞 米</w>
同 业</w>
劳 拉</w>
乌 龟</w>
一 再
e j
K ab
阳 台</w>
长 史</w>
退 税</w>
登 山</w>
氨基 酸</w>
普 雷</w>
提 取
恢复 原状</w>
家 畜</w>
喝 水</w>
几 起</w>
体 温</w>
二 条</w>
中 美
XX VII</w>
Bro w
说 不定</w>
米 斯</w>
符合 规定</w>
客户 关系</w>
始 至终</w>
国家 所有</w>
休 战</w>
世界 观</w>
U F
C AC</w>
7 5.
面 目</w>
炸 机</w>
当 面</w>
发 脾气</w>
4 18</w>
重 负</w>
过渡 阶段</w>
营 办</w>
美联 社</w>
纬 度</w>
模糊 不清</w>
扮演 着</w>
定 下</w>
双 赢</w>
公路 网</w>
一般 说来</w>
一 出</w>
li v
c il</w>
W e</w>
R iv
6. 7</w>
臭 名昭
瓦 罗</w>
液 态</w>
每 一件</w>
桂 林</w>
攻 击者</w>
带头 作用</w>
天津 市</w>
可 汗</w>
南 韩</w>
修 剪</w>
一 班</w>
ep h</w>
顿 大学</w>
肥 胖
篡 改</w>
盾 牌</w>
此 书</w>
普惠 制</w>
数 十</w>
历 代</w>
值 班</w>
中 继
世界 遗产</w>
ric a</w>
il le</w>
Off ice</w>
D CP</w>
3 61</w>
马普 托</w>
难 关</w>
阿勒 颇</w>
越 高</w>
第四 十二条</w>
牺牲 品</w>
旗 舰</w>
搬 进</w>
提 督</w>
号 称</w>
军事 训练</w>
r es</w>
3 83</w>
0. 1</w>
骑 车</w>
退 缩</w>
转 介</w>
明显 增加</w>
弗 莱</w>
奏 曲</w>
四 季</w>
各 行
到 此
克萨 斯</w>
先 天</w>
事 发</w>
三 边</w>
6 1%</w>
2. 0</w>
麻 黄
绝 佳</w>
波 德</w>
彗 星</w>
应 否</w>
工 部</w>
同 该</w>
司 空</w>
区域 化</w>
克 洛
但 据</w>
之 于</w>
诱 拐</w>
管制 系统</w>
第四十 三条</w>
端 口</w>
流 氓</w>
气象 卫星</w>
新 政</w>
斯坦 福
整 数</w>
布干 维尔</w>
大 山</w>
基 拉</w>
图 示</w>
募 捐</w>
列 述</w>
出 产</w>
党 的
不能 容忍</w>
上 诉人</w>
docum ents</w>
40 3</w>
百分之 百</w>
混 杂</w>
油 机</w>
林 区</w>
工 事</w>
中 式</w>
不 定期</w>
一 曲</w>
H S</w>
4. 9</w>
革命 党</w>
远 征</w>
苏 莱曼</w>
耽 误</w>
破 旧</w>
直 流</w>
生态 学</w>
现 场
泊 车</w>
正 由</w>
梵蒂 冈</w>
格 莱
核 威胁</w>
往 前走</w>
当家 作主</w>
天 鹅</w>
同 感</w>
吉林 省</w>
压 力
减 慢</w>
准备 就绪</w>
专 员
3 91</w>
装甲 运兵车</w>
血 流</w>
科 特</w>
硫 酸</w>
白 血病</w>
测 定
油 轮</w>
本 赛季</w>
寄生 虫</w>
合法 利益</w>
叛 变</w>
光 碟</w>
nd ez</w>
ear ch</w>
Abd ul</w>
转 投</w>
融 洽</w>
自 负</w>
沃尔 夫</w>
模 块
查 获</w>
昼 夜</w>
战略 重点</w>
当 斯</w>
底 薪</w>
尼 西亚</w>
定 出</w>
太 极</w>
叙 级</w>
为 一体</w>
id i</w>
1 15.
费 尔</w>
证 交所</w>
要 死</w>
虚 会</w>
苹果 公司</w>
自 上</w>
税 额</w>
照 明
棒 了</w>
打字 机</w>
太 棒了</w>
天 子</w>
亚 州</w>
中华人民共和 国政府</w>
In ter
1 10
频 频</w>
长 篇</w>
轰 炸机</w>
白 痴</w>
掏 出</w>
情 书</w>
大使 级</w>
务 虚会</w>
制 卡</w>
利 纳</w>
亚 运会</w>
一 排</w>
om en</w>
18 96</w>
配 制</w>
谦 卑</w>
第三 年</w>
状 语</w>
棕 榈
末 端</w>
抵 挡</w>
微 微</w>
多 一点</w>
增加 收入</w>
圣 洁</w>
二十 一年</w>
S mit
Mar k
D ra
钢 管</w>
辅 以</w>
调 派</w>
脱 水</w>
王 星</w>
爱 国主义</w>
海军 陆战队</w>
核 国家</w>
必 有</w>
尼古 拉斯</w>
倾 弃</w>
G B
面 条</w>
零售 业</w>
职 称</w>
纪念 馆</w>
牵 引</w>
海 区</w>
欺 负</w>
戏 院</w>
实 事
实事 求是</w>
妇 科</w>
外 派</w>
围 巾</w>
吉普 赛人</w>
制造 厂</w>
关 照</w>
公民 自由</w>
住 址</w>
事 是</w>
一 条
6 10</w>
4 57</w>
银行 帐户</w>
过 敏
起 重
贝 里</w>
解 说</w>
职 能
经常 出现</w>
欧洲 法院</w>
朱 利安</w>
时 日</w>
斩 首</w>
教 唆</w>
奇 怪
十八 岁</w>
化 身</w>
偿还 债务</w>
健身 房</w>
不 一</w>
it t
铁路 网</w>
贝 尔斯</w>
蝙 蝠</w>
良 性</w>
约束 性</w>
甚 高频</w>
甘 地</w>
查 谟</w>
晴 朗</w>
救 出</w>
扎 尔</w>
实 录</w>
可 贵</w>
协会 主席</w>
北 海</w>
儿童 教育</w>
ri d
ot o</w>
U B</w>
L e</w>
鬼 魂</w>
非常 规</w>
矩 形</w>
正 本</w>
封 建
安 心</w>
城市 贫民</w>
回 响</w>
可视 化</w>
印 有</w>
占 有
其 时</w>
住 在一起</w>
乘 车</w>
一 夜
8 2%</w>
采 行</w>
警察 署</w>
羊 群</w>
矿 物质</w>
番 茄</w>
电视 会议</w>
恐 惧
出 乎
u ra
4 19</w>
1 A</w>
陈 列</w>
那 块</w>
轻 蔑</w>
环 礁</w>
干旱 地区</w>
倒 数</w>
丰 盛</w>
不耐 烦</w>
不断 改进</w>
oc k
B ab
1 13
雪 花</w>
罗 先生</w>
笨 拙</w>
疲力 尽</w>
灭 火</w>
树 干</w>
拉 法</w>
恶性 肿瘤</w>
已 同</w>
在此 之后</w>
含糊 不清</w>
分 卡</w>
仓 促</w>
ri c</w>
Instit ute</w>
阿 伦</w>
训练 营</w>
计 值</w>
罗 兰</w>
洗 礼</w>
正 德</w>
战 舰</w>
希 特</w>
布 加勒
喝 咖啡</w>
半 月</w>
倍 增</w>
二十 五年</w>
s i</w>
高 估</w>
重 担</w>
诀 窍</w>
第四 项</w>
福 尔
示 意</w>
相 符合</w>
田 间</w>
犯 错误</w>
爱 丁堡</w>
果 树</w>
布加勒 斯特</w>
对 账</w>
出口 商品</w>
o is</w>
Jun e</w>
8. 4</w>
1 14
经 典
盐 类</w>
现 在
现在 起</w>
流 层</w>
毒 药</w>
本 意</w>
新 奇</w>
打 乱</w>
巴 伦西亚</w>
小 猫</w>
从 现在起</w>
oo d
3 97</w>
青年 团</w>
阿尔 马</w>
迷 恋</w>
运 抵</w>
资 会</w>
计 时</w>
莱 恩</w>
第十 一部分</w>
福利 制度</w>
海 豹</w>
次 长</w>
植 树
最高 层</w>
半 径</w>
几 分</w>
Jos eph</w>
3 78</w>
1 15
领 馆</w>
辽 阔</w>
赎 回</w>
葡 语</w>
罗 伊</w>
系列 赛</w>
查 清</w>
新闻 简报</w>
抽 查</w>
抢 劫
总体 规划</w>
居留 权</w>
公共 事业</w>
交流 会</w>
争取 和平</w>
w an</w>
of t</w>
S l
P ow
4 35</w>
1 27
过 份</w>
经济 部</w>
电力 公司</w>
海 上
活 塞</w>
母 鸡</w>
栖 息
拉 马拉</w>
总 付</w>
外 援</w>
处 女</w>
基 质</w>
周边 国家</w>
可 选</w>
前 次</w>
伤亡 人数</w>
与 世
v ir
10 9.
边界 线</w>
萨科 齐</w>
痛 心</w>
当 值</w>
一 氧化
o ch
4 55</w>
魔 术
酸 奶</w>
诚 恳</w>
色 调</w>
病 床</w>
沐 浴</w>
村 落</w>
机 智</w>
早 起</w>
指 示
庭 院</w>
大学 校长</w>
反倾 销
刺 激
se in</w>
T an
C as
6 4%</w>
预 科</w>
降 价</w>
血 型</w>
科伦 坡</w>
演 变成</w>
无 所谓</w>
放 在
戏 曲</w>
唐 纳德</w>
后 处理</w>
危地马拉 政府</w>
冷 藏</w>
决 意</w>
乘 船</w>
专 访</w>
E X
5 25</w>
联 结</w>
独 资</w>
法 拉
或多 或少</w>
保护 者</w>
之 事</w>
雇 工</w>
难 说</w>
采购 计划</w>
植 根于</w>
持 平</w>
抗 旱</w>
性 状</w>
德 纳</w>
开 垦</w>
平均 收入</w>
市 内</w>
左 侧</w>
壁 画</w>
半数 以上</w>
出租 人</w>
二 审</w>
不 迟于</w>
y s
贸易 商</w>
甲级 联赛</w>
模块 化</w>
是 非
拖拉 机</w>
成员 名单</w>
应 请</w>
师范 学院</w>
就 职
安 倍</w>
侍 者</w>
传 入</w>
三 司</w>
4 24</w>
阿鲁 巴</w>
迷 路</w>
见 惯</w>
老 式</w>
私 生活</w>
点 子</w>
文 献
推 展</w>
所 欲</w>
十 一大</w>
创 新型</w>
冲 击
充 资</w>
代 管</w>
逾 越</w>
诺 尔</w>
计 量
英国 首相</w>
脑 筋</w>
联络 员</w>
缓 减</w>
立 下</w>
眼 看</w>
球 星</w>
战 乱</w>
广 州
射 杀</w>
密 谋</w>
基 多</w>
高 祖</w>
道 教</w>
还 称</w>
计算 公式</w>
花 生</w>
筹 委会</w>
福 克兰</w>
碱 性</w>
武 田
检察 厅</w>
曼 努埃尔</w>
布 设</w>
尔 尼</w>
利 伯
分 界线</w>
做 起</w>
保安 人员</w>
以 上
九 州</w>
4 77</w>
谋 取</w>
爱 是</w>
水 力</w>
果 子</w>
方 说</w>
搞 笑</w>
富 足</w>
埃及 政府</w>
咖啡 因</w>
南 瓜</w>
养 分</w>
入 式</w>
克鲁 斯</w>
中非 国家</w>
中 全会</w>
S um
马 克斯</w>
顿 时</w>
财政 收入</w>
波 段</w>
未 见</w>
式 样</w>
岸 上</w>
回 想</w>
器 皿</w>
动 因</w>
亚太经 合组织</w>
Stan ley</w>
M ill
H or
Anton io</w>
等 效</w>
沉 闷</w>
汪 精卫</w>
机 电</w>
抓 住
总 指挥</w>
密 尔顿</w>
前 妻</w>
o ff
马哈 茂德</w>
风 俗
鄙 视</w>
轮 社</w>
营业 额</w>
罐 头</w>
玄 宗</w>
格拉斯 哥</w>
无 愧</w>
拥 立</w>
密切 配合</w>
大吃 一惊</w>
原 油价格</w>
十几 岁</w>
助 产</w>
出 动</w>
不 在此
Re g
3 84</w>
藏 匿</w>
聆 讯</w>
现 率</w>
爱 护</w>
无处 不在</w>
一 国
v i</w>
高 雅</w>
银 色</w>
还 愿</w>
自 如</w>
能源 技术</w>
材 质</w>
未 爆</w>
戴 维
总 务
威廉 姆斯</w>
奥地 利政府</w>
吞 噬</w>
其 向</w>
万 桶</w>
一 回</w>
7 1%</w>
6 80</w>
阿尔 弗雷</w>
跻 身</w>
清 扫</w>
海 鲜</w>
栖息 地</w>
怀 抱</w>
宣 告
切 勿</w>
击 毙</w>
伊 始</w>
交响 乐团</w>
h e</w>
gu ez</w>
V an</w>
9 11</w>
骑 师</w>
软件 开发</w>
该 会</w>
触 动</w>
血 管
甚 远</w>
极 低</w>
执行 主席</w>
巴 希尔</w>
实地 调查</w>
变 质</w>
南 区</w>
凯 恩斯</w>
交 界</w>
丝 特</w>
难 看</w>
金 斯克</w>
贷 记</w>
计算机 辅助</w>
脊 椎
皇 马</w>
牌 子</w>
扶 轮社</w>
始终 如一</w>
噩 梦</w>
冯 玉
依 托</w>
于 众</w>
事务 股</w>
两 辆</w>
XX X</w>
50 6</w>
麻省 理工学院</w>
领导 小组</w>
译 者</w>
要 务</w>
组 人员</w>
米 纳</w>
正确 方向</w>
机 组人员</w>
本 体</w>
当 其
后 天</w>
各 族</w>
他 称</w>
三 省</w>
7 2%</w>
鲍 尔森</w>
飞 跃</w>
脱 节</w>
肾 上
聚 在一起</w>
皇 宫</w>
总 编辑</w>
宗 派</w>
夭 折</w>
城 门</w>
向 南</w>
可 再生</w>
全 部
不知所 措</w>
一 试</w>
一 棵树</w>
b in</w>
Con vention</w>
4 37</w>
非常 低</w>
长 途</w>
芝加 哥
肠 癌</w>
职 工
简 陋</w>
激 励
按 期</w>
抗 性</w>
工作 坊</w>
好 几年</w>
南 洋</w>
单 人</w>
不 及
一 动</w>
h an</w>
9 6%</w>
5 29</w>
黑 白</w>
飞 过</w>
露 丝</w>
闻 到</w>
该 软件</w>
统 帅</w>
病 死</w>
沙 皇</w>
沙 漠化</w>
本 领</w>
携带 者</w>
搬 到</w>
拉 赫</w>
战略 意义</w>
奉 天</w>
哥伦 布</w>
叫 作</w>
公 文</w>
保 定</w>
一席 之地</w>
T re
T R</w>
Gon z</w>
4 45</w>
高 超</w>
高 层
这 三项</w>
趣 味</w>
赞助 商</w>
贾 德</w>
罗 德
纵 火</w>
粗 略</w>
算 术</w>
残 骸</w>
撒 下</w>
摆 动</w>
平稳 过渡</w>
小 丑</w>
定期 检查</w>
奇怪 的是</w>
塞 州</w>
发 泄</w>
博 尔
关节 炎</w>
供 水系统</w>
伯 恩</w>
二零零 三年</w>
两 枚</w>
8 3%</w>
50 5</w>
贴 现率</w>
质 问</w>
肆 无
第三 种</w>
欧洲 各国</w>
早 早</w>
引 来</w>
幼 时</w>
学龄 前</w>
妓 院</w>
复 方</w>
复 印机</w>
县 委</w>
办 案</w>
儒 家</w>
低 利率</w>
两 期</w>
3 76</w>
谢尔 盖</w>
经济 指标</w>
激进 分子</w>
汇报 工作</w>
水 泥
毫无 保留</w>
来 得
未 向</w>
无 证</w>
平方 英尺</w>
尽其 所能</w>
司 空
反 射
凉 爽</w>
信 片</w>
亲 手</w>
书记 处</w>
中 所起</w>
东 亚
T im
Ma z
重 度</w>
解放 后</w>
角 膜</w>
离 破碎</w>
石油 换</w>
易 斯</w>
居 家</w>
宣 战</w>
失败 者</w>
天 安
司空 见惯</w>
台湾 人</w>
副 司令员</w>
凯 西</w>
何 在</w>
中 枢</w>
T witter</w>
50 8</w>
醒 过来</w>
达 拉斯</w>
查 证</w>
旧 约</w>
数 万</w>
应 变
市 价</w>
字 节</w>
塔尼亚 胡</w>
名 人
发 件人</w>
卡 里</w>
内 塔尼亚胡</w>
余 人</w>
仍 须</w>
主人 公</w>
XX V</w>
K l
K e
随身 携带</w>
金 曲
艾 尔
联 同</w>
渺 茫</w>
执行 公务</w>
季 刊</w>
卡 卡</w>
博士 生</w>
争议 性</w>
为人 所知</w>
y e</w>
L ib
请 来</w>
空 地</w>
相互 影响</w>
火山 爆发</w>
澳大利亚 人</w>
日 趋
放 款</w>
失业 人数</w>
吸取 教训</w>
停 用</w>
万 象</w>
et t</w>
B on
高 精度</w>
靴 子</w>
闻 名
衰 减</w>
自由 行动</w>
肆无 忌惮</w>
班 长</w>
日 致</w>
排 污</w>
平 章</w>
峰 期</w>
叙利亚 人</w>
信 贷
休息 时间</w>
买 受人</w>
之 势</w>
10. 2</w>
1 16
韧 带</w>
重 写</w>
造 访</w>
罗 列</w>
第四十 四条</w>
相 隔</w>
杰 作</w>
改 称</w>
怒 气</w>
工 伤
复杂 程度</w>
咨询 中心</w>
吉尔吉斯 斯坦共和国</w>
可 于</w>
劳工 处</w>
专员 公署</w>
st at
6 9%</w>
10. 1</w>
预备 会议</w>
重 病</w>
木 炭</w>
抓 紧</w>
愚 昧</w>
布 伦</w>
制定 方案</w>
别 说</w>
全 过程</w>
催 生</w>
一 扇</w>
风 云</w>
转 弯</w>
臭名昭 著</w>
由此 可见</w>
此时 此刻</w>
樱 桃</w>
强奸 罪</w>
廉政 公署</w>
小 学
大 都市</w>
双边 协议</w>
养老 保险</w>
以 较</w>
乎 其
酵 母</w>
谊 会</w>
第二 批</w>
疆 界</w>
海 德
法 兰</w>
有 钱
担 负起</w>
对 前</w>
嘲 弄</w>
善 后</w>
受到 重视</w>
危 难</w>
决策 人员</w>
l d
Th e
Te chn
S ah
3 95</w>
10 6
马萨诸 塞州</w>
词 义</w>
罗 素</w>
纸 质</w>
畅 销
比 方说</w>
梅 德
曾 孙</w>
支 离破碎</w>
成 文法</w>
性 人</w>
两 岸
D L
香港 电台</w>
首 当其
连 线</w>
腓 力</w>
脚 踝</w>
缺 勤</w>
沙 伊
时间 段</w>
收 货人</w>
得 救</w>
圣诞 树</w>
同 比</w>
可 恶</w>
印 地
区 块</w>
加以 改进</w>
令人 兴奋</w>
代 顿</w>
今年 夏天</w>
产 生
二 年级</w>
被 关</w>
盗 贼</w>
无 机</w>
徒 步</w>
尼 察</w>
对 外部</w>
宇 航</w>
催 促</w>
ur y</w>
P res
O K</w>
篱 笆</w>
第二 组</w>
灌 木
收 看</w>
接 吻</w>
复 国主义</w>
国际 货物</w>
命 题</w>
出口 额</w>
净 收入</w>
停火 线</w>
60 5</w>
音 响</w>
里 尔</w>
贸易 顺差</w>
要 职</w>
行政 命令</w>
私 家
直 截
直截 了当</w>
环 发</w>
玉 米
得 体</w>
应 急
存储 器</w>
好 感</w>
填 埋</w>
修 好</w>
一百 万</w>
S achs</w>
都 市
篮 球队</w>
碳 酸
河 岸</w>
明 信片</w>
既定 目标</w>
房 客</w>
就 诊</w>
实 权</w>
喝 醉</w>
合 体</w>
卢 卡斯</w>
勒 姆</w>
冯玉 祥</w>
一 栏</w>
ie w</w>
骑 常侍</w>
诺 德</w>
解 密</w>
而 然</w>
而 不
终 将</w>
无 罪
按 本</w>
年轻 一代</w>
巫 术</w>
减 债</w>
ow n</w>
S el
风 机</w>
零 年</w>
随 行</w>
违 纪</w>
责 怪</w>
洗手 间</w>
梦 中</w>
新 手</w>
救 护</w>
宝 贵
安全 检查</w>
品 位</w>
听 懂</w>
共同 商定</w>
义 工</w>
个人 专辑</w>
con t
8 6%</w>
3 300</w>
辽 东</w>
蔓 延到</w>
股 息</w>
美国 市场</w>
磁 共振</w>
照 登</w>
持 股</w>
恩 典</w>
头 角</w>
党 魁</w>
令 其</w>
从那 以后</w>
ad er</w>
V A</w>
较 之</w>
赛 马</w>
诺 曼</w>
老 院</w>
统一 性</w>
穿 戴</w>
无人 机</w>
放 出</w>
指导 意义</w>
承 载
弃 置</w>
发展 观</w>
凡 事</w>
休 斯顿</w>
为 难</w>
三 章</w>
驾 崩</w>
领 军</w>
讲 课</w>
衍 生物</w>
环 形</w>
犯 规</w>
灌 溉
法国 巴黎</w>
新兴 国家</w>
得 奖</w>
in ter
闲 置</w>
赖 以</w>
调查 队</w>
育 种</w>
联 谊会</w>
经济 犯罪</w>
死 神</w>
效 率高</w>
提出 诉讼</w>
右 侧</w>
可 不
发展 潜力</w>
反倾销 税</w>
努力 学习</w>
交响 曲</w>
之 星</w>
世 袭</w>
TV B</w>
A H
3 98</w>
3 88</w>
福 布斯</w>
火 炉</w>
污 辱</w>
毫不 含糊</w>
日 文</w>
技术 革新</w>
尔 哈
倾 销</w>
保 单</w>
亚 当斯</w>
th e
S L
B WC</w>
首当其 冲</w>
金融 监管</w>
郊 外</w>
逆 境</w>
远 期</w>
深 陷</w>
数据 资料</w>
攻击 性</w>
推 土机</w>
幸 好</w>
四 份</w>
同 步
可 循</w>
到 任</w>
兵 变</w>
乘 以</w>
3 93</w>
马 西</w>
郑 重</w>
脊 髓</w>
罗 尔</w>
渔 夫</w>
毒 气</w>
机 关
复 数</w>
内 务
住 家</w>
ion s</w>
19 02</w>
风 雪</w>
难 怪</w>
财务 科</w>
老 公</w>
激 战</w>
洛 桑</w>
格 纳</w>
待 决</w>
年 版</w>
伟 人</w>
中 西</w>
T rad
S erg
CO SP</w>
C E</w>
5 57</w>
资源 配置</w>
裁 武</w>
管 子</w>
沃 尔</w>
杀 掉</w>
指 标
履行 合同</w>
填 料</w>
埃 里
喷 气
像 素</w>
储 层</w>
in k
IS H</w>
8 60</w>
7 7%</w>
猜 疑</w>
期 初</w>
弱 者</w>
国际 米兰</w>
代 言</w>
乘 飞机</w>
4 58</w>
飞 来</w>
泰 晤
柠 檬</w>
斯 拉</w>
换 器</w>
当 即</w>
帐 号</w>
委 托
可 视</w>
仅 靠</w>
亲 信</w>
g ar
0 5
阿 族</w>
赎 罪</w>
警 长</w>
英 格兰
自 其</w>
维 纳</w>
私人 机构</w>
睦邻 关系</w>
派 兵</w>
洗衣 机</w>
收 集
摸 索</w>
挤 满</w>
忏 悔</w>
定 会</w>
奥 克兰</w>
响 声</w>
佩 雷斯</w>
伦敦 大学</w>
人 奖</w>
ik a</w>
c m</w>
Mar ch</w>
鲁 莽</w>
透 视</w>
表 一</w>
血 性</w>
藏 书</w>
脂肪 酸</w>
测 算</w>
射 程</w>
天 主</w>
地 问</w>
卢 布</w>
专 项
XX VIII</w>
U r
U m
Insp ira</w>
高中 生</w>
风俗 习惯</w>
阶 梯</w>
金曲 奖</w>
路 段</w>
赌 注</w>
资源 部</w>
若干 个</w>
羞 耻</w>
红 旗</w>
漆 黑</w>
极 地</w>
手 提</w>
开 朗</w>
坚 果</w>
哈 哈</w>
原 地</w>
分 流</w>
军 法</w>
公 款</w>
低 头</w>
伦 比</w>
不足为 奇</w>
4 29</w>
离 异</w>
然 无
热 处理</w>
漂 浮</w>
洪 武</w>
氰 胺</w>
武器 装备</w>
欲 了解</w>
探 亲</w>
广 州市</w>
奥斯 卡
多 所</w>
取 名</w>
友好 合作</w>
刚 度</w>
僵 化</w>
亿 多</w>
4 83</w>
4 78</w>
高 企</w>
贫 富</w>
调查 过程</w>
该 分</w>
老 兵</w>
法 证</w>
沾 染</w>
探 寻</w>
德 克萨斯州</w>
建和 办</w>
布鲁 克林</w>
塔 什</w>
发 指</w>
凝 固</w>
关 在</w>
先 于</w>
风险 投资</w>
阻 断</w>
而 下</w>
相互 竞争</w>
沿 途</w>
标 注</w>
李 登
服 于</w>
心 声</w>
头 目</w>
合 剂</w>
利 害</w>
人口 总数</w>
不 振</w>
不 分</w>
m y</w>
4 53</w>
纯 度</w>
相 貌</w>
日益 加剧</w>
振 荡</w>
抽样 调查</w>
愈 烈</w>
总 线</w>
奥斯 汀</w>
哪些 方面</w>
先 发
Or gan
Ap p
4 44</w>
趋 同</w>
维吾尔 自治区</w>
用户 界面</w>
瓦 特</w>
正当 性</w>
旅游 局</w>
新疆 维吾尔自治区</w>
故 障
拖 累</w>
强 暴</w>
巨大 变化</w>
密 封
卜拉 希米</w>
优质 服务</w>
付 息</w>
中央 军事委员会</w>
不相 容</w>
不 明智</w>
一 大部分</w>
En erg
5 65</w>
费 利
警 报
若 要</w>
自然 而然</w>
童 子
已 作</w>
失 事</w>
太 低</w>
喜 马拉
乌 姆</w>
三 重</w>
y m
i um</w>
T ay
4 33</w>
高 音</w>
面 料</w>
起 用</w>
语 调</w>
致 信</w>
素 养</w>
石 墨</w>
球 菌</w>
曲 直</w>
施加 影响</w>
摧 残</w>
技术 手段</w>
征 战</w>
容 貌</w>
十 国集团</w>
三 至</w>
r al</w>
7 4%</w>
马 歇尔</w>
马 伊</w>
顺 序
造 影</w>
跨 过</w>
累 累</w>
照 灯</w>
泛 非</w>
武 将</w>
有 理</w>
暂 时性</w>
文 字
投 射</w>
微 乎其
微乎其 微</w>
十 四条</w>
医 保</w>
力 行</w>
前后 一致</w>
冈 萨
促进 会</w>
之 命</w>
丰 度</w>
on a</w>
G PS</w>
11. 2</w>
软 骨</w>
花 卉</w>
职能 部门</w>
百万 富翁</w>
我 本</w>
大 树</w>
历史 悠久</w>
协 作
动 脉
六 位</w>
不 经</w>
三 聚
ap p
all ah</w>
E li
7 8%</w>
骑 士
颠 倒</w>
配 对</w>
过 热</w>
英国 伦敦</w>
玫瑰 花</w>
淮 南</w>
易 懂</w>
心 上</w>
弗里 德里希</w>
开 庭
庆 幸</w>
广 受</w>
妇女 运动</w>
外籍 人</w>
古 罗马</w>
前 向</w>
冗 余</w>
书面 资料</w>
中 东欧</w>
一 波</w>
美 方</w>
缴 交</w>
管 线</w>
根本 利益</w>
建立 健全</w>
已 达成</w>
封 闭
大力 发展</w>
善 待</w>
令人 发指</w>
er t
诱 使</w>
营 利性</w>
演 愈烈</w>
拳 头</w>
抛 售</w>
巴 达</w>
家 门</w>
大 权</w>
外 贸
地球 物理</w>
商 机</w>
参谋 部</w>
全民 公决</w>
入 院</w>
兆 瓦</w>
他 命</w>
it h
ell o</w>
M ot
Char les</w>
4 200</w>
首 歌曲</w>
这 款</w>
购 单</w>
红色 高棉</w>
第三十 七条</w>
殆 尽</w>
意大利 人</w>
愈 演愈烈</w>
开放 市场</w>
幻 灯
大 哈</w>
外 向</w>
墓 碑</w>
内 核</w>
一 连</w>
8 4.
量 度</w>
邀 约</w>
演 练</w>
无 止
巴 顿</w>
工 夫</w>
史 记</w>
台 中
千 里</w>
修 理
T s
7. 6</w>
50 2</w>
缺 血</w>
监测 中心</w>
生物 医学</w>
理论 依据</w>
活 儿</w>
新 台币</w>
摔 倒</w>
幼 稚</w>
幸 运
天主 教会</w>
品 德</w>
印 记</w>
制 人</w>
分 期付款</w>
充分 体现</w>
产业 政策</w>
u h
e B
踢 足球</w>
茅 斯</w>
第七十 六条</w>
演讲 者</w>
来 电</w>
无 意识</w>
数十 万</w>
开 往</w>
工作 日内</w>
定 语</w>
大 堂</w>
凯 克</w>
之 人</w>
Ge orge</w>
E st
4 65</w>
4 21</w>
面 值</w>
非常 简单</w>
闲 暇</w>
酰 胺</w>
艾 德</w>
胡 萝卜</w>
睦邻 友好</w>
环保 局</w>
燃 气</w>
灌 注</w>
深 沉</w>
法 是</w>
河 东</w>
应 答</w>
希腊 政府</w>
国 土
只 想</w>
博 弈</w>
免 责</w>
上 岸</w>
o on</w>
麾 下</w>
防 洪</w>
购买 者</w>
设 辩护</w>
李登 辉</w>
旨 意</w>
新闻 社</w>
执 掌</w>
常 态</w>
各 节</w>
公 设辩护</w>
允 诺</w>
任 由</w>
乡 间</w>
乙 烷</w>
举 办
中文 系</w>
一 球</w>
D ou
8 20</w>
19 01</w>
& #</w>
通讯 设备</w>
膀 胱</w>
结 束
物价 指数</w>
族 长</w>
执 委会</w>
并 任</w>
展 品</w>
况 且</w>
下 图</w>
l ad
骚 动</w>
难以 实现</w>
陈 代谢</w>
陆 港</w>
遵 守
缉 毒</w>
私人 生活</w>
新 陈代谢</w>
救 生
拨 电话</w>
拒绝 给予</w>
折 合</w>
可 口</w>
os a</w>
it s</w>
et te</w>
8 64</w>
4 59</w>
食 谱</w>
预 选</w>
预 告</w>
雪 莉</w>
舍 人</w>
胸 前</w>
续 设</w>
皮 带</w>
歌 舞
有 位</w>
方 济
放 过</w>
宝 藏</w>
坎 大哈</w>
南 宋</w>
中 英文</w>
下 限</w>
三 场</w>
Smit h</w>
J enn
6 500</w>
3 400</w>
马 特</w>
贫 乏</w>
负 着</w>
见 习</w>
维 新</w>
纤维 素</w>
登 入</w>
用 过</w>
架 上</w>
日 圆</w>
拨 打</w>
兵 队</w>
似 地</w>
人 到</w>
中国 日报</w>
一 月份</w>
高 强度</w>
领 受</w>
贴 近</w>
自杀 式</w>
耐 力</w>
禁 止
甜 点</w>
橡 树</w>
有机 物</w>
斯 联</w>
审判 庭</w>
好 意</w>
女 巫</w>
分类 账</w>
几 百万</w>
其 于</w>
ir i</w>
gr amm
e ch
L ab
4 31</w>
革命 性</w>
那 间</w>
详细 审查</w>
素 季</w>
粮 价</w>
租 房</w>
电视 广告</w>
电子 化</w>
清 算
流 水</w>
植树 造林</w>
极 佳</w>
本 该</w>
寸 铁</w>
口 感</w>
列 斯联</w>
全 数</w>
便 士</w>
作 响</w>
人 体
re y</w>
B i
9 3%</w>
6 90</w>
餐 具</w>
领 兵</w>
限 值</w>
调 味
街 日报</w>
联 危</w>
相 伴</w>
热 点
沙伊 赫</w>
救 赎</w>
大 型
华尔 街日报</w>
会 社</w>
专 著</w>
马 德
探 照灯</w>
报 称</w>
托 尔</w>
惠 给</w>
唐 太
吸 食</w>
单 靠</w>
化学 反应</w>
人 性化</w>
亚洲 电视</w>
个 别
4 85</w>
3 96</w>
起重 机</w>
突 尼斯
电脑 化</w>
海 丝特</w>
报 送</w>
报 盘</w>
学 好</w>
增 殖</w>
圣 者</w>
公共 资源</w>
举报 人</w>
三聚 氰胺</w>
一切 顺利</w>
z o</w>
ti ons</w>
SA S</w>
P H
M e</w>
4 48</w>
鼓 舞
螺 栓</w>
素 福</w>
盖 尔</w>
招 牌</w>
官 吏</w>
奶 制品</w>
双 人</w>
即 以</w>
共同 财产</w>
事 件
两 处</w>
不 作</w>
ti v
I E
Dep ts</w>
3 700</w>
阿尔 法</w>
遗 留下来</w>
脚 踏
第四十 九条</w>
相 悖</w>
浮 标</w>
时 所作</w>
手无 寸铁</w>
安 然</w>
如 意</w>
外部 环境</w>
团体 之间</w>
命 中
参 观者</w>
十 万</w>
冠军 联赛</w>
亿 吨</w>
Ap ril</w>
边 区</w>
芬 兰政府</w>
着 火</w>
电 动机</w>
炸 伤</w>
源 性</w>
游 离</w>
法 西
必 行</w>
张 国
弗雷 德里克</w>
小 汽车</w>
呼 应</w>
取 水</w>
北 宋</w>
债权 国</w>
P M</w>
Glob al</w>
C os
高 峰期</w>
领 到</w>
认 清</w>
纯 净</w>
淹 死</w>
比 上</w>
战 前</w>
城 外</w>
光 是</w>
企 鹅</w>
乌 鲁
世界 排名</w>
不为 过</w>
一 有</w>
7 60</w>
闹 钟</w>
适 得其
适得其 反</w>
辅 佐</w>
结构 图</w>
濒 临</w>
潜 入</w>
法 军</w>
比 拟</w>
杰 里
日 光</w>
无 忧</w>
政 司</w>
惨 败</w>
应 可</w>
帕 斯</w>
塔 纳</w>
刑事 法律</w>
仰 望</w>
些 许</w>
二 楼</w>
F A</w>
8 6.
躯 体</w>
诱 因</w>
澳 新</w>
海洋 污染</w>
担 保人</w>
想 像
座 椅</w>
展 览
审 结</w>
南 非
伴 奏</w>
伯 里</w>
上 路</w>
一 味</w>
N A
7 3%</w>
4 34</w>
迪 生</w>
这 能</w>
罗 宾</w>
神 秘
标 出</w>
斯洛文 尼亚共和国</w>
房 门</w>
感 谢
受 其</w>
反应 器</w>
双 腿</w>
博 会</w>
劳 斯</w>
其 母</w>
代 之以</w>
O ct
Mar y</w>
7 15</w>
4 42</w>
18 94</w>
预 设</w>
源 地</w>
治疗 师</w>
李 氏</w>
放 逐</w>
捷 径</w>
徽 章</w>
应 向</w>
向 前走</w>
创 建
内 所载</w>
光 源</w>
伊 恩</w>
人格 尊严</w>
乌 鸦</w>
之 差</w>
Mahm oud</w>
7 6%</w>
联 队</w>
私营 化</w>
涨 价</w>
昭 宗</w>
明确 要求</w>
旺 角</w>
摩 天
心理 咨询</w>
宽 大</w>
天 黑</w>
天 下
初 步
an ish</w>
Sec ur
IC M</w>
18 89</w>
预 售</w>
贷 款人</w>
相 冲突</w>
瑞士 联邦</w>
测量 师</w>
沙姆 沙伊赫</w>
橙 色</w>
撤 职</w>
报 章</w>
大 致
受 力</w>
出 击</w>
入 场</w>
充满 信心</w>
个人 信息</w>
业 内</w>
oun d
T om</w>
首 份</w>
降 温</w>
过 低</w>
维 德</w>
红 树林</w>
物 业
思 潮</w>
巴 黎
家 督</w>
基 准
刘 易斯</w>
公 事</w>
仲裁 条款</w>
举 个</w>
4 86</w>
1 17
现行 政策</w>
气 泡</w>
[...]
