{
  "<EOS>": 0,
  "<GO>": 1,
  "<UNK>": 2,
  "the": 3,
  ",": 4,
  ".": 5,
  "of": 6,
  "and": 7,
  "in": 8,
  "to": 9,
  "a": 10,
  "&quot;": 11,
  "for": 12,
  "@-@": 13,
  "on": 14,
  "was": 15,
  "that": 16,
  "as": 17,
  "with": 18,
  "he": 19,
  "by": 20,
  "is": 21,
  "&apos;s": 22,
  "his": 23,
  "at": 24,
  ")": 25,
  "(": 26,
  "be": 27,
  "from": 28,
  "it": 29,
  "an": 30,
  "/": 31,
  ":": 32,
  "this": 33,
  "are": 34,
  ";": 35,
  "had": 36,
  "which": 37,
  "its": 38,
  "or": 39,
  "not": 40,
  "their": 41,
  "have": 42,
  "also": 43,
  "I": 44,
  "has": 45,
  "were": 46,
  "United": 47,
  "all": 48,
  "her": 49,
  "she": 50,
  "been": 51,
  "one": 52,
  "but": 53,
  "you": 54,
  "first": 55,
  "they": 56,
  "other": 57,
  "after": 58,
  "Nations": 59,
  "will": 60,
  "would": 61,
  "who": 62,
  "Committee": 63,
  "States": 64,
  "General": 65,
  "time": 66,
  "-": 67,
  "international": 68,
  "two": 69,
  "more": 70,
  "we": 71,
  "work": 72,
  "when": 73,
  "during": 74,
  "under": 75,
  "made": 76,
  "The": 77,
  "should": 78,
  "up": 79,
  "such": 80,
  "&apos;": 81,
  "into": 82,
  "1": 83,
  "development": 84,
  "against": 85,
  "out": 86,
  "there": 87,
  "including": 88,
  "him": 89,
  "new": 90,
  "year": 91,
  "years": 92,
  "countries": 93,
  "rights": 94,
  "can": 95,
  "Council": 96,
  "report": 97,
  "well": 98,
  "women": 99,
  "2": 100,
  "over": 101,
  "State": 102,
  "some": 103,
  "about": 104,
  "where": 105,
  "no": 106,
  "only": 107,
  "national": 108,
  "between": 109,
  "support": 110,
  "through": 111,
  "these": 112,
  "human": 113,
  "so": 114,
  "3": 115,
  "people": 116,
  "information": 117,
  "if": 118,
  "than": 119,
  "?": 120,
  "while": 121,
  "them": 122,
  "most": 123,
  "any": 124,
  "three": 125,
  "said": 126,
  "before": 127,
  "resolution": 128,
  "New": 129,
  "many": 130,
  "those": 131,
  "A": 132,
  "then": 133,
  "could": 134,
  "children": 135,
  "being": 136,
  "law": 137,
  "system": 138,
  "my": 139,
  "later": 140,
  "country": 141,
  "Assembly": 142,
  "4": 143,
  "number": 144,
  "both": 145,
  "do": 146,
  "may": 147,
  "Government": 148,
  "following": 149,
  "per": 150,
  "Secretary": 151,
  "implementation": 152,
  "activities": 153,
  "session": 154,
  "$": 155,
  "second": 156,
  "however": 157,
  "our": 158,
  "part": 159,
  "5": 160,
  "use": 161,
  "became": 162,
  "10": 163,
  "what": 164,
  "season": 165,
  "Commission": 166,
  "International": 167,
  "University": 168,
  "public": 169,
  "Convention": 170,
  "your": 171,
  "since": 172,
  "article": 173,
  "meeting": 174,
  "&apos;t": 175,
  "team": 176,
  "6": 177,
  "take": 178,
  "world": 179,
  "right": 180,
  "based": 181,
  "American": 182,
  "members": 183,
  "economic": 184,
  "December": 185,
  "security": 186,
  "World": 187,
  "did": 188,
  "like": 189,
  "held": 190,
  "party": 191,
  "June": 192,
  "order": 193,
  "level": 194,
  "further": 195,
  "measures": 196,
  "life": 197,
  "social": 198,
  "family": 199,
  "make": 200,
  "same": 201,
  "efforts": 202,
  "non": 203,
  "shall": 204,
  "me": 205,
  "financial": 206,
  "2008": 207,
  "political": 208,
  "2010": 209,
  "within": 210,
  "member": 211,
  "Conference": 212,
  "cooperation": 213,
  "role": 214,
  "high": 215,
  "draft": 216,
  "organizations": 217,
  "need": 218,
  "programme": 219,
  "July": 220,
  "process": 221,
  "Mr.": 222,
  "2009": 223,
  "among": 224,
  "National": 225,
  "now": 226,
  "President": 227,
  "man": 228,
  "several": 229,
  "September": 230,
  "must": 231,
  "issues": 232,
  "resources": 233,
  "education": 234,
  "7": 235,
  "May": 236,
  "provide": 237,
  "used": 238,
  "period": 239,
  "2011": 240,
  "2007": 241,
  "October": 242,
  "services": 243,
  "2006": 244,
  "end": 245,
  "played": 246,
  "regional": 247,
  "cent": 248,
  "15": 249,
  "management": 250,
  "received": 251,
  "because": 252,
  "12": 253,
  "November": 254,
  "until": 255,
  "health": 256,
  "January": 257,
  "2012": 258,
  "working": 259,
  "March": 260,
  "very": 261,
  "Group": 262,
  "b": 263,
  "Republic": 264,
  "set": 265,
  "provided": 266,
  "four": 267,
  "group": 268,
  "important": 269,
  "Development": 270,
  "i": 271,
  "decision": 272,
  "government": 273,
  "training": 274,
  "how": 275,
  "2005": 276,
  "de": 277,
  "day": 278,
  "China": 279,
  "ensure": 280,
  "place": 281,
  "8": 282,
  "took": 283,
  "staff": 284,
  "York": 285,
  "way": 286,
  "11": 287,
  "age": 288,
  "born": 289,
  "assistance": 290,
  "Security": 291,
  "early": 292,
  "April": 293,
  "won": 294,
  "20": 295,
  "own": 296,
  "called": 297,
  "Rights": 298,
  "us": 299,
  "see": 300,
  "school": 301,
  "un@@": 302,
  "action": 303,
  "2013": 304,
  "30": 305,
  "each": 306,
  "long": 307,
  "just": 308,
  "areas": 309,
  "August": 310,
  "South": 311,
  "Office": 312,
  "related": 313,
  "developing": 314,
  "son": 315,
  "without": 316,
  "policy": 317,
  "known": 318,
  "9": 319,
  "local": 320,
  "2004": 321,
  "14": 322,
  "special": 323,
  "career": 324,
  "back": 325,
  "paragraph": 326,
  "taken": 327,
  "legal": 328,
  "another": 329,
  "established": 330,
  "million": 331,
  "last": 332,
  "continued": 333,
  "o": 334,
  "good": 335,
  "community": 336,
  "particular": 337,
  "13": 338,
  "general": 339,
  "S@@": 340,
  "began": 341,
  "third": 342,
  "full": 343,
  "even": 344,
  "five": 345,
  "released": 346,
  "16": 347,
  "still": 348,
  "T@@": 349,
  "relevant": 350,
  "February": 351,
  "field": 352,
  "programmes": 353,
  "agenda": 354,
  "&#91;": 355,
  "18": 356,
  "led": 357,
  "review": 358,
  "case": 359,
  "re@@": 360,
  "A@@": 361,
  "d": 362,
  "major": 363,
  "home": 364,
  "Special": 365,
  "best": 366,
  "death": 367,
  "served": 368,
  "left": 369,
  "given": 370,
  "much": 371,
  "upon": 372,
  "B@@": 373,
  "adopted": 374,
  "father": 375,
  "persons": 376,
  "military": 377,
  "2003": 378,
  "continue": 379,
  "protection": 380,
  "&#93;": 381,
  "Human": 382,
  "2014": 383,
  "situation": 384,
  "off": 385,
  "state": 386,
  "men": 387,
  "parties": 388,
  "17": 389,
  "album": 390,
  "effective": 391,
  "John": 392,
  "next": 393,
  "former": 394,
  "capacity": 395,
  "K@@": 396,
  "C": 397,
  "again": 398,
  "G@@": 399,
  "P@@": 400,
  "2002": 401,
  "s": 402,
  "present": 403,
  "able": 404,
  "!": 405,
  "due": 406,
  "2000": 407,
  "global": 408,
  "II": 409,
  "according": 410,
  "film": 411,
  "various": 412,
  "access": 413,
  "area": 414,
  "died": 415,
  "peace": 416,
  "Board": 417,
  "included": 418,
  "reports": 419,
  "went": 420,
  "Africa": 421,
  "found": 422,
  "business": 423,
  "D@@": 424,
  "21": 425,
  "item": 426,
  "regard": 427,
  "down": 428,
  "19": 429,
  "L@@": 430,
  "building": 431,
  "considered": 432,
  "making": 433,
  "view": 434,
  "2001": 435,
  "play": 436,
  "service": 437,
  "child": 438,
  "series": 439,
  "European": 440,
  "project": 441,
  "become": 442,
  "control": 443,
  "position": 444,
  "Court": 445,
  "include": 446,
  "developed": 447,
  "having": 448,
  "data": 449,
  "term": 450,
  "k@@": 451,
  "School": 452,
  "in@@": 453,
  "progress": 454,
  "signed": 455,
  "25": 456,
  "respect": 457,
  "final": 458,
  "trade": 459,
  "although": 460,
  "recommendations": 461,
  "African": 462,
  "technical": 463,
  "possible": 464,
  "band": 465,
  "N@@": 466,
  "different": 467,
  "help": 468,
  "go": 469,
  "company": 470,
  "nuclear": 471,
  "accordance": 472,
  "land": 473,
  "old": 474,
  "cases": 475,
  "worked": 476,
  "2015": 477,
  "groups": 478,
  "violence": 479,
  "research": 480,
  "future": 481,
  "game": 482,
  "name": 483,
  "published": 484,
  "great": 485,
  "E": 486,
  "e": 487,
  "Organization": 488,
  "League": 489,
  "C@@": 490,
  "basis": 491,
  "22": 492,
  "small": 493,
  "days": 494,
  "24": 495,
  "F@@": 496,
  "show": 497,
  "Department": 498,
  "total": 499,
  "music": 500,
  "budget": 501,
  "named": 502,
  "Member": 503,
  "gender": 504,
  "married": 505,
  "around": 506,
  "returned": 507,
  "addition": 508,
  "issue": 509,
  "M@@": 510,
  "E@@": 511,
  "H@@": 512,
  "society": 513,
  "noted": 514,
  "necessary": 515,
  "police": 516,
  "six": 517,
  "1999": 518,
  "23": 519,
  "came": 520,
  "get": 521,
  "war": 522,
  "water": 523,
  "change": 524,
  "R@@": 525,
  "available": 526,
  "proposed": 527,
  "institutions": 528,
  "High": 529,
  "City": 530,
  "increase": 531,
  "policies": 532,
  "result": 533,
  "region": 534,
  "together": 535,
  "often": 536,
  "record": 537,
  "current": 538,
  "31": 539,
  "private": 540,
  "Union": 541,
  "Programme": 542,
  "al": 543,
  "know": 544,
  "every": 545,
  "joined": 546,
  "s@@": 547,
  "English": 548,
  "moved": 549,
  "free": 550,
  "needs": 551,
  "er": 552,
  "1998": 553,
  "never": 554,
  "taking": 555,
  "account": 556,
  "plan": 557,
  "meetings": 558,
  "specific": 559,
  "British": 560,
  "civil": 561,
  "America": 562,
  "d@@": 563,
  "study": 564,
  "large": 565,
  "O@@": 566,
  "particularly": 567,
  "book": 568,
  "y@@": 569,
  "months": 570,
  "young": 571,
  "appropriate": 572,
  "Law": 573,
  "production": 574,
  "26": 575,
  "War": 576,
  "concerned": 577,
  "performance": 578,
  "wife": 579,
  "W@@": 580,
  "&apos;@@": 581,
  "co": 582,
  "office": 583,
  "am": 584,
  "es": 585,
  "%": 586,
  "27": 587,
  "put": 588,
  "required": 589,
  "Social": 590,
  "few": 591,
  "note": 592,
  "line": 593,
  "28": 594,
  "&amp;": 595,
  "key": 596,
  "post": 597,
  "appointed": 598,
  "organization": 599,
  "projects": 600,
  "--": 601,
  "consideration": 602,
  "started": 603,
  "does": 604,
  "Women": 605,
  "promote": 606,
  "win": 607,
  "Parties": 608,
  "attention": 609,
  "election": 610,
  "London": 611,
  "main": 612,
  "address": 613,
  "mother": 614,
  "therefore": 615,
  "decided": 616,
  "wrote": 617,
  "head": 618,
  "en": 619,
  "club": 620,
  "provisions": 621,
  "towards": 622,
  "t@@": 623,
  "technology": 624,
  "better": 625,
  "conflict": 626,
  "form": 627,
  "others": 628,
  "V@@": 629,
  "results": 630,
  "College": 631,
  "along": 632,
  "authorities": 633,
  "force": 634,
  "reported": 635,
  "operations": 636,
  "Party": 637,
  "single": 638,
  "power": 639,
  "levels": 640,
  "above": 641,
  "person": 642,
  "sector": 643,
  "additional": 644,
  "importance": 645,
  "agreed": 646,
  "don": 647,
  "himself": 648,
  "Chinese": 649,
  "means": 650,
  "give": 651,
  "side": 652,
  "conditions": 653,
  "once": 654,
  "Economic": 655,
  "involved": 656,
  "especially": 657,
  "framework": 658,
  "whether": 659,
  "less": 660,
  "contract": 661,
  "French": 662,
  "East": 663,
  "point": 664,
  "come": 665,
  "market": 666,
  "29": 667,
  "Fund": 668,
  "interest": 669,
  "games": 670,
  "participation": 671,
  "appeared": 672,
  "care": 673,
  "approach": 674,
  "sustainable": 675,
  "history": 676,
  "population": 677,
  "round": 678,
  "lost": 679,
  "elected": 680,
  "food": 681,
  "impact": 682,
  "match": 683,
  "2016": 684,
  "return": 685,
  "submitted": 686,
  "poverty": 687,
  "status": 688,
  "No.": 689,
  "Minister": 690,
  "delegation": 691,
  "requirements": 692,
  "late": 693,
  "house": 694,
  "might": 695,
  "already": 696,
  "despite": 697,
  "too": 698,
  "ing": 699,
  "fact": 700,
  "regular": 701,
  "e@@": 702,
  "practice": 703,
  "rule": 704,
  "n@@": 705,
  "increased": 706,
  "subject": 707,
  "y": 708,
  "professional": 709,
  "o@@": 710,
  "problems": 711,
  "using": 712,
  "bodies": 713,
  "lead": 714,
  "title": 715,
  "times": 716,
  "announced": 717,
  "t": 718,
  "statement": 719,
  "author": 720,
  "foreign": 721,
  "g@@": 722,
  "terms": 723,
  "question": 724,
  "US": 725,
  "thus": 726,
  "systems": 727,
  "goals": 728,
  "S": 729,
  "met": 730,
  "z@@": 731,
  "official": 732,
  "least": 733,
  "m": 734,
  "court": 735,
  "works": 736,
  "All": 737,
  "al@@": 738,
  "points": 739,
  "humanitarian": 740,
  "document": 741,
  "goal": 742,
  "J@@": 743,
  "stated": 744,
  "art": 745,
  "1997": 746,
  "West": 747,
  "4@@": 748,
  "weapons": 749,
  "Secretariat": 750,
  "city": 751,
  "domestic": 752,
  "environment": 753,
  "risk": 754,
  "attended": 755,
  ".@@": 756,
  "u": 757,
  "establishment": 758,
  "little": 759,
  "short": 760,
  "playing": 761,
  "agencies": 762,
  "request": 763,
  "money": 764,
  "growth": 765,
  "re": 766,
  "body": 767,
  "example": 768,
  "improve": 769,
  "living": 770,
  "application": 771,
  "away": 772,
  "recent": 773,
  "forces": 774,
  "soon": 775,
  "list": 776,
  "Working": 777,
  "er@@": 778,
  "k": 779,
  "cost": 780,
  "Mission": 781,
  "Act": 782,
  "fully": 783,
  "significant": 784,
  "self": 785,
  "common": 786,
  "an@@": 787,
  "entitled": 788,
  "...": 789,
  "h@@": 790,
  "2017": 791,
  "quality": 792,
  "representatives": 793,
  "England": 794,
  "b@@": 795,
  "Affairs": 796,
  "treatment": 797,
  "l@@": 798,
  "I@@": 799,
  "en@@": 800,
  "5@@": 801,
  "u@@": 802,
  "half": 803,
  "personnel": 804,
  "response": 805,
  "North": 806,
  "throughout": 807,
  "always": 808,
  "concern": 809,
  "regarding": 810,
  "representative": 811,
  "Europe": 812,
  "j@@": 813,
  "yet": 814,
  "rules": 815,
  "Division": 816,
  "discrimination": 817,
  "think": 818,
  "France": 819,
  "ers": 820,
  "legislation": 821,
  "live": 822,
  "1996": 823,
  "U.S.": 824,
  "requested": 825,
  "here": 826,
  "expressed": 827,
  "i@@": 828,
  "justice": 829,
  "context": 830,
  "supported": 831,
  "Executive": 832,
  "funds": 833,
  "currently": 834,
  "50": 835,
  "date": 836,
  "experience": 837,
  "p@@": 838,
  "costs": 839,
  "m@@": 840,
  "light": 841,
  "reporting": 842,
  "rate": 843,
  "sent": 844,
  "India": 845,
  "top": 846,
  "debut": 847,
  "space": 848,
  "criminal": 849,
  "concerning": 850,
  "media": 851,
  "past": 852,
  "energy": 853,
  "Institute": 854,
  "daughter": 855,
  "active": 856,
  "ar@@": 857,
  "responsibility": 858,
  "6@@": 859,
  "open": 860,
  "though": 861,
  "today": 862,
  "low": 863,
  "brother": 864,
  "going": 865,
  "contained": 866,
  "consider": 867,
  "existing": 868,
  "gave": 869,
  "paper": 870,
  "follow": 871,
  "ar": 872,
  "c@@": 873,
  "ch@@": 874,
  "environmental": 875,
  "run": 876,
  "previous": 877,
  "Director": 878,
  "fourth": 879,
  "B": 880,
  "success": 881,
  "letter": 882,
  "close": 883,
  "Z@@": 884,
  "lack": 885,
  "contributions": 886,
  "develop": 887,
  "ever": 888,
  "Service": 889,
  "agreement": 890,
  "requests": 891,
  "monitoring": 892,
  "written": 893,
  "Action": 894,
  "mandate": 895,
  "standards": 896,
  "asked": 897,
  "ate": 898,
  "Governments": 899,
  "remained": 900,
  "House": 901,
  "cultural": 902,
  "comprehensive": 903,
  "students": 904,
  "resolutions": 905,
  "adoption": 906,
  "scored": 907,
  "Ministry": 908,
  "recorded": 909,
  "course": 910,
  "want": 911,
  "annual": 912,
  "far": 913,
  "strong": 914,
  "analysis": 915,
  "Australia": 916,
  "Cup": 917,
  "provision": 918,
  "mission": 919,
  "table": 920,
  "Award": 921,
  "promotion": 922,
  "leading": 923,
  "problem": 924,
  "Association": 925,
  "income": 926,
  "say": 927,
  "amount": 928,
  "actions": 929,
  "U@@": 930,
  "1995": 931,
  "a@@": 932,
  "Central": 933,
  "Russian": 934,
  "brought": 935,
  "created": 936,
  "successful": 937,
  "focus": 938,
  "armed": 939,
  "Democratic": 940,
  "ed": 941,
  "let": 942,
  "presented": 943,
  "needed": 944,
  "practices": 945,
  "Protocol": 946,
  "III": 947,
  "providing": 948,
  "produced": 949,
  "meet": 950,
  "knowledge": 951,
  "television": 952,
  "v@@": 953,
  "investment": 954,
  "Canada": 955,
  "Israel": 956,
  "strengthen": 957,
  "property": 958,
  "administrative": 959,
  "7@@": 960,
  "matter": 961,
  "principles": 962,
  "described": 963,
  "responsible": 964,
  "campaign": 965,
  "Rapporteur": 966,
  "Japan": 967,
  "40": 968,
  "coordination": 969,
  "president": 970,
  "medical": 971,
  "challenges": 972,
  "100": 973,
  "r@@": 974,
  "procedures": 975,
  "stage": 976,
  "individual": 977,
  "relating": 978,
  "establish": 979,
  "got": 980,
  "effect": 981,
  "planning": 982,
  "provides": 983,
  "reform": 984,
  "section": 985,
  "O": 986,
  "King": 987,
  "hand": 988,
  "n": 989,
  "air": 990,
  "seven": 991,
  "near": 992,
  "P": 993,
  "William": 994,
  "love": 995,
  "degree": 996,
  "month": 997,
  "player": 998,
  "1994": 999,
  "implement": 1000,
  "find": 1001,
  "organized": 1002,
  "start": 1003,
  "certain": 1004,
  "senior": 1005,
  "mechanisms": 1006,
  "week": 1007,
  "German": 1008,
  "Y@@": 1009,
  "value": 1010,
  "design": 1011,
  "strategy": 1012,
  "Asia": 1013,
  "crime": 1014,
  "overall": 1015,
  "notes": 1016,
  "evidence": 1017,
  "independent": 1018,
  "dis@@": 1019,
  "rather": 1020,
  "addressed": 1021,
  "clear": 1022,
  "documents": 1023,
  "governmental": 1024,
  "Declaration": 1025,
  "deal": 1026,
  "George": 1027,
  "on@@": 1028,
  "decisions": 1029,
  "2018": 1030,
  "spent": 1031,
  "plans": 1032,
  "employment": 1033,
  "victims": 1034,
  "Al@@": 1035,
  "football": 1036,
  "followed": 1037,
  "done": 1038,
  "finished": 1039,
  "Germany": 1040,
  "f@@": 1041,
  "face": 1042,
  "expected": 1043,
  "issued": 1044,
  "laws": 1045,
  "serious": 1046,
  "economy": 1047,
  "language": 1048,
  "real": 1049,
  "Advisory": 1050,
  "equipment": 1051,
  "officials": 1052,
  "reached": 1053,
  "Centre": 1054,
  "natural": 1055,
  "event": 1056,
  "job": 1057,
  "personal": 1058,
  "assessment": 1059,
  "primary": 1060,
  "parents": 1061,
  "&apos;m": 1062,
  "loss": 1063,
  "call": 1064,
  "matters": 1065,
  "California": 1066,
  "carried": 1067,
  "indigenous": 1068,
  "60": 1069,
  "song": 1070,
  "coach": 1071,
  "director": 1072,
  "across": 1073,
  "nature": 1074,
  "strengthening": 1075,
  "saw": 1076,
  "at@@": 1077,
  "joint": 1078,
  "James": 1079,
  "funding": 1080,
  "workers": 1081,
  "obligations": 1082,
  "industry": 1083,
  "whose": 1084,
  "pay": 1085,
  "ended": 1086,
  "forward": 1087,
  "l": 1088,
  "Army": 1089,
  "Arab": 1090,
  "completed": 1091,
  "ten": 1092,
  "act": 1093,
  "woman": 1094,
  "writing": 1095,
  "release": 1096,
  "performed": 1097,
  "ation": 1098,
  "limited": 1099,
  "g": 1100,
  "de@@": 1101,
  "Bank": 1102,
  "studies": 1103,
  "0": 1104,
  "Palestinian": 1105,
  "poor": 1106,
  "1993": 1107,
  "original": 1108,
  "hours": 1109,
  "sexual": 1110,
  "le": 1111,
  "potential": 1112,
  "prevent": 1113,
  "higher": 1114,
  "basic": 1115,
  "administration": 1116,
  "exchange": 1117,
  "8@@": 1118,
  "UNDP": 1119,
  "commitment": 1120,
  "inter": 1121,
  "capital": 1122,
  "material": 1123,
  "el@@": 1124,
  "terrorism": 1125,
  "prior": 1126,
  "eight": 1127,
  "Chairman": 1128,
  "introduced": 1129,
  "leave": 1130,
  "whole": 1131,
  "Washington": 1132,
  "missions": 1133,
  "whom": 1134,
  "articles": 1135,
  "vote": 1136,
  "events": 1137,
  "told": 1138,
  "outside": 1139,
  "arms": 1140,
  "changes": 1141,
  "equality": 1142,
  "raised": 1143,
  "statements": 1144,
  "w@@": 1145,
  "greater": 1146,
  "fight": 1147,
  "initiatives": 1148,
  "To": 1149,
  "el": 1150,
  "objective": 1151,
  "ability": 1152,
  "9@@": 1153,
  "girls": 1154,
  "committed": 1155,
  "helped": 1156,
  "Iraq": 1157,
  "seen": 1158,
  "F": 1159,
  "schools": 1160,
  "acts": 1161,
  "prevention": 1162,
  "consultations": 1163,
  "class": 1164,
  "crisis": 1165,
  "almost": 1166,
  "c": 1167,
  "why": 1168,
  "look": 1169,
  "relationship": 1170,
  "annex": 1171,
  "16@@": 1172,
  "secretariat": 1173,
  "communication": 1174,
  "operation": 1175,
  "promoting": 1176,
  "San": 1177,
  "eventually": 1178,
  "dialogue": 1179,
  "forms": 1180,
  "achieve": 1181,
  "D": 1182,
  "model": 1183,
  "conducted": 1184,
  "thought": 1185,
  "purpose": 1186,
  "century": 1187,
  "People": 1188,
  "companies": 1189,
  "marriage": 1190,
  "&apos;re": 1191,
  "Representative": 1192,
  "opportunity": 1193,
  "recommended": 1194,
  "please": 1195,
  "disarmament": 1196,
  "officers": 1197,
  "st@@": 1198,
  "remains": 1199,
  "peacekeeping": 1200,
  "A.": 1201,
  "3@@": 1202,
  "strategic": 1203,
  "anti": 1204,
  "wide": 1205,
  "manager": 1206,
  "it@@": 1207,
  "transfer": 1208,
  "rural": 1209,
  "king": 1210,
  "discussion": 1211,
  "affected": 1212,
  "partners": 1213,
  "cannot": 1214,
  "books": 1215,
  "County": 1216,
  "program": 1217,
  "In@@": 1218,
  "approved": 1219,
  "critical": 1220,
  "bring": 1221,
  "remain": 1222,
  "behalf": 1223,
  "le@@": 1224,
  "room": 1225,
  "awarded": 1226,
  "night": 1227,
  "things": 1228,
  "understanding": 1229,
  "league": 1230,
  "#": 1231,
  "Justice": 1232,
  "ad@@": 1233,
  "recognized": 1234,
  "Ar@@": 1235,
  "di@@": 1236,
  "products": 1237,
  "hit": 1238,
  "ts": 1239,
  "awareness": 1240,
  "am@@": 1241,
  "Society": 1242,
  "trafficking": 1243,
  "direct": 1244,
  "tour": 1245,
  "principle": 1246,
  "keep": 1247,
  "construction": 1248,
  "priority": 1249,
  "Mar@@": 1250,
  "es@@": 1251,
  "create": 1252,
  "similar": 1253,
  "safety": 1254,
  "ated": 1255,
  "1992": 1256,
  "recommendation": 1257,
  "treaty": 1258,
  "operational": 1259,
  "movement": 1260,
  "or@@": 1261,
  "climate": 1262,
  "p": 1263,
  "fifth": 1264,
  "Royal": 1265,
  "instead": 1266,
  "increasing": 1267,
  "HIV": 1268,
  "reduction": 1269,
  "conduct": 1270,
  "views": 1271,
  "prepared": 1272,
  "placed": 1273,
  "lived": 1274,
  "peoples": 1275,
  "beginning": 1276,
  "opportunities": 1277,
  "communities": 1278,
  "para": 1279,
  "procedure": 1280,
  "winning": 1281,
  "culture": 1282,
  "David": 1283,
  "finally": 1284,
  "authority": 1285,
  "offices": 1286,
  "Force": 1287,
  "ton": 1288,
  "ad": 1289,
  "conference": 1290,
  "evaluation": 1291,
  "*": 1292,
  "steps": 1293,
  "science": 1294,
  "claims": 1295,
  "positive": 1296,
  "move": 1297,
  "facilities": 1298,
  "financing": 1299,
  "Kingdom": 1300,
  "ia": 1301,
  "effort": 1302,
  "ways": 1303,
  "selected": 1304,
  "1990": 1305,
  "Ms.": 1306,
  "traditional": 1307,
  "G": 1308,
  "Paris": 1309,
  "freedom": 1310,
  "St.": 1311,
  "shows": 1312,
  "board": 1313,
  "religious": 1314,
  "Hall": 1315,
  "Chief": 1316,
  "youth": 1317,
  "instruments": 1318,
  "Championship": 1319,
  "paid": 1320,
  "difficult": 1321,
  "individuals": 1322,
  "ag@@": 1323,
  "allow": 1324,
  "subsequently": 1325,
  "says": 1326,
  "forced": 1327,
  "protect": 1328,
  "aimed": 1329,
  "Commissioner": 1330,
  "trial": 1331,
  "strategies": 1332,
  "informed": 1333,
  "itself": 1334,
  "implemented": 1335,
  "First": 1336,
  "friend": 1337,
  "words": 1338,
  "z": 1339,
  "behind": 1340,
  "violations": 1341,
  "et": 1342,
  "essential": 1343,
  "questions": 1344,
  "leaders": 1345,
  "experts": 1346,
  "average": 1347,
  "Ireland": 1348,
  "assist": 1349,
  "invited": 1350,
  "th@@": 1351,
  "friends": 1352,
  "achieved": 1353,
  "studied": 1354,
  "range": 1355,
  "formed": 1356,
  "entered": 1357,
  "St@@": 1358,
  "delegations": 1359,
  "complete": 1360,
  "leadership": 1361,
  "kind": 1362,
  "as@@": 1363,
  "themselves": 1364,
  "effects": 1365,
  "below": 1366,
  "Management": 1367,
  "method": 1368,
  "referred": 1369,
  "Year": 1370,
  "Public": 1371,
  "drug": 1372,
  "Pacific": 1373,
  "ab@@": 1374,
  "either": 1375,
  "mechanism": 1376,
  "sh@@": 1377,
  "methods": 1378,
  "equal": 1379,
  "35": 1380,
  "songs": 1381,
  "ley": 1382,
  "ly": 1383,
  "collection": 1384,
  "proposal": 1385,
  "victory": 1386,
  "Hong": 1387,
  "Thomas": 1388,
  "Australian": 1389,
  "contribution": 1390,
  "believe": 1391,
  "race": 1392,
  "biennium": 1393,
  "Academy": 1394,
  "relations": 1395,
  "enhance": 1396,
  "benefits": 1397,
  "Western": 1398,
  "defeated": 1399,
  "1991": 1400,
  "earned": 1401,
  "structure": 1402,
  "radio": 1403,
  "TV": 1404,
  "agreements": 1405,
  "Charles": 1406,
  "interests": 1407,
  "reference": 1408,
  "designed": 1409,
  "implementing": 1410,
  "ating": 1411,
  "posts": 1412,
  "In": 1413,
  "ac@@": 1414,
  "AIDS": 1415,
  "leader": 1416,
  "college": 1417,
  "B.": 1418,
  "founded": 1419,
  "Kong": 1420,
  "Article": 1421,
  "central": 1422,
  "text": 1423,
  "allowed": 1424,
  "share": 1425,
  "Israeli": 1426,
  "something": 1427,
  "hard": 1428,
  "is@@": 1429,
  "twenty": 1430,
  "serve": 1431,
  "negotiations": 1432,
  "promoted": 1433,
  "An@@": 1434,
  "families": 1435,
  "&apos;ll": 1436,
  "identified": 1437,
  "informal": 1438,
  "Treaty": 1439,
  "arrangements": 1440,
  "ant": 1441,
  "Robert": 1442,
  "female": 1443,
  "cover": 1444,
  "internal": 1445,
  "Mexico": 1446,
  "elections": 1447,
  "15@@": 1448,
  "states": 1449,
  "ro@@": 1450,
  "concerns": 1451,
  "includes": 1452,
  "aspects": 1453,
  "Church": 1454,
  "Ch@@": 1455,
  "Indian": 1456,
  "manner": 1457,
  "Health": 1458,
  "objectives": 1459,
  "ti@@": 1460,
  "enough": 1461,
  "pursuant": 1462,
  "competition": 1463,
  "adequate": 1464,
  "travel": 1465,
  "proposals": 1466,
  "ri@@": 1467,
  "hold": 1468,
  "source": 1469,
  "processes": 1470,
  "calls": 1471,
  "parts": 1472,
  "claim": 1473,
  "os": 1474,
  "reduce": 1475,
  "Re@@": 1476,
  "ine": 1477,
  "popular": 1478,
  "investigation": 1479,
  "labour": 1480,
  "positions": 1481,
  "functions": 1482,
  "aid": 1483,
  "materials": 1484,
  "officer": 1485,
  "story": 1486,
  "wish": 1487,
  "facilitate": 1488,
  "Paul": 1489,
  "heart": 1490,
  "dated": 1491,
  "opening": 1492,
  "activity": 1493,
  "read": 1494,
  "cause": 1495,
  "failed": 1496,
  "attack": 1497,
  "2@@": 1498,
  "items": 1499,
  "connection": 1500,
  "rest": 1501,
  "becoming": 1502,
  "weeks": 1503,
  "la": 1504,
  "exercise": 1505,
  "oil": 1506,
  "husband": 1507,
  "physical": 1508,
  "32": 1509,
  "ting": 1510,
  "mind": 1511,
  "really": 1512,
  "im@@": 1513,
  "visit": 1514,
  "Henry": 1515,
  "Federation": 1516,
  "caused": 1517,
  "communications": 1518,
  "55": 1519,
  "killed": 1520,
  "sources": 1521,
  "build": 1522,
  "modern": 1523,
  "accepted": 1524,
  "Los": 1525,
  "majority": 1526,
  "style": 1527,
  "Panel": 1528,
  "ensuring": 1529,
  "recently": 1530,
  "ran": 1531,
  "mentioned": 1532,
  "ground": 1533,
  "participated": 1534,
  "Information": 1535,
  "network": 1536,
  "lives": 1537,
  "influence": 1538,
  "Civil": 1539,
  "Smith": 1540,
  "permanent": 1541,
  "car": 1542,
  "Covenant": 1543,
  "33": 1544,
  "directly": 1545,
  "numerous": 1546,
  "hope": 1547,
  "town": 1548,
  "Millennium": 1549,
  "character": 1550,
  "commercial": 1551,
  "scientific": 1552,
  "resource": 1553,
  "earlier": 1554,
  "serving": 1555,
  "highest": 1556,
  "featured": 1557,
  "um": 1558,
  "Tribunal": 1559,
  "integrated": 1560,
  "God": 1561,
  "guidelines": 1562,
  "directed": 1563,
  "fifty": 1564,
  "rates": 1565,
  "34": 1566,
  "nine": 1567,
  "prison": 1568,
  "der": 1569,
  "wanted": 1570,
  "UN": 1571,
  "associated": 1572,
  "elements": 1573,
  "big": 1574,
  "represented": 1575,
  "Global": 1576,
  "army": 1577,
  "contribute": 1578,
  "IV": 1579,
  "Geneva": 1580,
  "li@@": 1581,
  "crimes": 1582,
  "provisional": 1583,
  "Agency": 1584,
  "benefit": 1585,
  "Congress": 1586,
  "il@@": 1587,
  "starting": 1588,
  "Education": 1589,
  "claimed": 1590,
  "Trade": 1591,
  "longer": 1592,
  "committee": 1593,
  "participants": 1594,
  "De@@": 1595,
  "fundamental": 1596,
  "previously": 1597,
  "Plan": 1598,
  "supporting": 1599,
  "effectively": 1600,
  "58": 1601,
  "36": 1602,
  "added": 1603,
  "offered": 1604,
  "participate": 1605,
  "summer": 1606,
  "scale": 1607,
  "recommends": 1608,
  "r": 1609,
  "coming": 1610,
  "h": 1611,
  "territory": 1612,
  "Car@@": 1613,
  "Review": 1614,
  "regions": 1615,
  "undertaken": 1616,
  "45": 1617,
  "Sh@@": 1618,
  "press": 1619,
  "57": 1620,
  "applied": 1621,
  "infrastructure": 1622,
  "receive": 1623,
  "collaboration": 1624,
  "ates": 1625,
  "preparation": 1626,
  "standard": 1627,
  "graduated": 1628,
  "award": 1629,
  "improved": 1630,
  "growing": 1631,
  "launched": 1632,
  "R": 1633,
  "Al": 1634,
  "likely": 1635,
  "charge": 1636,
  "doing": 1637,
  "test": 1638,
  "immediately": 1639,
  "65": 1640,
  "site": 1641,
  "Italy": 1642,
  "judicial": 1643,
  "video": 1644,
  "chief": 1645,
  "regulations": 1646,
  "injury": 1647,
  "opened": 1648,
  "T": 1649,
  "Forum": 1650,
  "compliance": 1651,
  "built": 1652,
  "ill": 1653,
  "goods": 1654,
  "ha@@": 1655,
  "Mary": 1656,
  "turned": 1657,
  "demand": 1658,
  "Mo@@": 1659,
  "leaving": 1660,
  "sound": 1661,
  "fire": 1662,
  "improving": 1663,
  "Great": 1664,
  "step": 1665,
  "Services": 1666,
  "artist": 1667,
  "enforcement": 1668,
  "se@@": 1669,
  "sessions": 1670,
  "&apos;ve": 1671,
  "indicated": 1672,
  "1@@": 1673,
  "Korea": 1674,
  "Criminal": 1675,
  "offer": 1676,
  "fund": 1677,
  "initial": 1678,
  "price": 1679,
  "detention": 1680,
  "executive": 1681,
  "debt": 1682,
  "turn": 1683,
  "circumstances": 1684,
  "Foreign": 1685,
  "billion": 1686,
  "Art": 1687,
  "suggested": 1688,
  "Con@@": 1689,
  "x": 1690,
  "64": 1691,
  "ka": 1692,
  "59": 1693,
  "ations": 1694,
  "try": 1695,
  "Chicago": 1696,
  "combat": 1697,
  "heard": 1698,
  "Michael": 1699,
  "p.m.": 1700,
  "records": 1701,
  "Angeles": 1702,
  "reason": 1703,
  "Company": 1704,
  "se": 1705,
  "Center": 1706,
  "refugees": 1707,
  "expert": 1708,
  "acting": 1709,
  "Latin": 1710,
  "53": 1711,
  "version": 1712,
  "ak@@": 1713,
  "Le@@": 1714,
  "Second": 1715,
  "continues": 1716,
  "52": 1717,
  "Constitution": 1718,
  "ongoing": 1719,
  "assets": 1720,
  "supply": 1721,
  "focused": 1722,
  "M": 1723,
  "om@@": 1724,
  "ina": 1725,
  "Di@@": 1726,
  "writer": 1727,
  "em@@": 1728,
  "fellow": 1729,
  "encouraged": 1730,
  "37": 1731,
  "Unit": 1732,
  "62": 1733,
  "estimated": 1734,
  "partnership": 1735,
  "type": 1736,
  "Permanent": 1737,
  "creation": 1738,
  "appearances": 1739,
  "sixth": 1740,
  "films": 1741,
  "takes": 1742,
  "48": 1743,
  "road": 1744,
  "citizens": 1745,
  "Code": 1746,
  "Lord": 1747,
  "Music": 1748,
  "UK": 1749,
  "61": 1750,
  "outcome": 1751,
  "ur@@": 1752,
  "believed": 1753,
  "beyond": 1754,
  "sold": 1755,
  "nothing": 1756,
  "Spanish": 1757,
  "red": 1758,
  "lower": 1759,
  "retired": 1760,
  "faced": 1761,
  "56": 1762,
  "reasons": 1763,
  "integration": 1764,
  "felt": 1765,
  "commitments": 1766,
  "purposes": 1767,
  "base": 1768,
  "net": 1769,
  "Zealand": 1770,
  "ic": 1771,
  "da": 1772,
  "39": 1773,
  "balance": 1774,
  "17@@": 1775,
  "institutional": 1776,
  "opinion": 1777,
  "ter": 1778,
  "governance": 1779,
  "Charter": 1780,
  "54": 1781,
  "Day": 1782,
  "suffered": 1783,
  "front": 1784,
  "legislative": 1785,
  "comments": 1786,
  "Sir": 1787,
  "core": 1788,
  "apply": 1789,
  "host": 1790,
  "debate": 1791,
  "reach": 1792,
  "sister": 1793,
  "C.": 1794,
  "38": 1795,
  "You": 1796,
  "Texas": 1797,
  "si@@": 1798,
  "abuse": 1799,
  "Bar@@": 1800,
  "agency": 1801,
  "student": 1802,
  "idea": 1803,
  "teaching": 1804,
  "lot": 1805,
  "Parliament": 1806,
  "appearance": 1807,
  "guidance": 1808,
  "urban": 1809,
  "news": 1810,
  "duty": 1811,
  "advice": 1812,
  "UNICEF": 1813,
  "require": 1814,
  "discussed": 1815,
  "minutes": 1816,
  "Britain": 1817,
  "track": 1818,
  "ic@@": 1819,
  "border": 1820,
  "tax": 1821,
  "ist": 1822,
  "saying": 1823,
  "distribution": 1824,
  "multilateral": 1825,
  "players": 1826,
  "ler": 1827,
  "discussions": 1828,
  "civilian": 1829,
  "submit": 1830,
  "bank": 1831,
  "entities": 1832,
  "black": 1833,
  "thing": 1834,
  "transport": 1835,
  "carry": 1836,
  "V": 1837,
  "66": 1838,
  "continuing": 1839,
  "63": 1840,
  "makes": 1841,
  "fall": 1842,
  "ap@@": 1843,
  "Arts": 1844,
  "substantive": 1845,
  "factors": 1846,
  "ah": 1847,
  "initiative": 1848,
  "skills": 1849,
  "White": 1850,
  "Mc@@": 1851,
  "op@@": 1852,
  "Sudan": 1853,
  "covered": 1854,
  "mainly": 1855,
  "paragraphs": 1856,
  "mid": 1857,
  "entire": 1858,
  "scope": 1859,
  "sixty": 1860,
  "Team": 1861,
  "firm": 1862,
  "tried": 1863,
  "Research": 1864,
  "cut": 1865,
  "Be@@": 1866,
  "Canadian": 1867,
  "Red": 1868,
  "proceedings": 1869,
  "ship": 1870,
  "target": 1871,
  "generally": 1872,
  "command": 1873,
  "ul@@": 1874,
  "Foundation": 1875,
  "Best": 1876,
  "41": 1877,
  "revised": 1878,
  "join": 1879,
  "contributed": 1880,
  "ted": 1881,
  "1989": 1882,
  "ard": 1883,
  "challenge": 1884,
  "highly": 1885,
  "Japanese": 1886,
  "Pakistan": 1887,
  "42": 1888,
  "Ro@@": 1889,
  "compared": 1890,
  "ch": 1891,
  "educational": 1892,
  "recognition": 1893,
  "passed": 1894,
  "planned": 1895,
  "teams": 1896,
  "yards": 1897,
  "markets": 1898,
  "furthermore": 1899,
  "L": 1900,
  "housing": 1901,
  "over@@": 1902,
  "UNCTAD": 1903,
  "Richard": 1904,
  "establishing": 1905,
  "Federal": 1906,
  "Park": 1907,
  "enable": 1908,
  "gold": 1909,
  "effectiveness": 1910,
  "co@@": 1911,
  "welcomed": 1912,
  "feel": 1913,
  "conclusion": 1914,
  "running": 1915,
  "51": 1916,
  "managed": 1917,
  "cross": 1918,
  "delivery": 1919,
  "threat": 1920,
  "L.@@": 1921,
  "concluded": 1922,
  "Spain": 1923,
  "Co@@": 1924,
  "practical": 1925,
  "disabilities": 1926,
  "units": 1927,
  "birth": 1928,
  "et@@": 1929,
  "tell": 1930,
  "owned": 1931,
  "Street": 1932,
  "10@@": 1933,
  "con@@": 1934,
  "centres": 1935,
  "District": 1936,
  "learning": 1937,
  "learned": 1938,
  "maintenance": 1939,
  "sometimes": 1940,
  "universal": 1941,
  "arrested": 1942,
  "giving": 1943,
  "true": 1944,
  "seek": 1945,
  "teacher": 1946,
  "Vice": 1947,
  "draw": 1948,
  "relation": 1949,
  "Bo@@": 1950,
  "Chair": 1951,
  "Republican": 1952,
  "sea": 1953,
  "be@@": 1954,
  "Middle": 1955,
  "It": 1956,
  "Summit": 1957,
  "44": 1958,
  "technologies": 1959,
  "candidate": 1960,
  "maintain": 1961,
  "67": 1962,
  "situations": 1963,
  "figure": 1964,
  "singer": 1965,
  "Meeting": 1966,
  "aircraft": 1967,
  "efficiency": 1968,
  "Labour": 1969,
  "task": 1970,
  "actors": 1971,
  "ings": 1972,
  "avoid": 1973,
  "ke": 1974,
  "sectors": 1975,
  "Asian": 1976,
  "ling": 1977,
  "N": 1978,
  "unit": 1979,
  "Political": 1980,
  "pre": 1981,
  "1988": 1982,
  "Prime": 1983,
  "emergency": 1984,
  "torture": 1985,
  "Agreement": 1986,
  "nearly": 1987,
  "inter@@": 1988,
  "intended": 1989,
  "ya": 1990,
  "46": 1991,
  "Afghanistan": 1992,
  "latter": 1993,
  "Protection": 1994,
  "encourage": 1995,
  "Regional": 1996,
  "ethnic": 1997,
  "Peter": 1998,
  "Children": 1999,
  "engaged": 2000,
  "Science": 2001,
  "stability": 2002,
  "ner": 2003,
  "widely": 2004,
  "Iran": 2005,
  "Records": 2006,
  "sex": 2007,
  "resulted": 2008,
  "achieving": 2009,
  "70": 2010,
  "responsibilities": 2011,
  "scoring": 2012,
  "developments": 2013,
  "49": 2014,
  "Peace": 2015,
  "contact": 2016,
  "master": 2017,
  "Beijing": 2018,
  "didn": 2019,
  "identify": 2020,
  "receiving": 2021,
  "Report": 2022,
  "judge": 2023,
  "nor": 2024,
  "recording": 2025,
  "extent": 2026,
  "confirmed": 2027,
  "regime": 2028,
  "Club": 2029,
  "independence": 2030,
  "troops": 2031,
  "47": 2032,
  "Air": 2033,
  "Christian": 2034,
  "Islamic": 2035,
  "alia": 2036,
  "concept": 2037,
  "Officer": 2038,
  "quickly": 2039,
  "sought": 2040,
  "shown": 2041,
  "En@@": 2042,
  "theory": 2043,
  "formal": 2044,
  "changed": 2045,
  "presence": 2046,
  "Grand": 2047,
  "resulting": 2048,
  "indicators": 2049,
  "magazine": 2050,
  "stakeholders": 2051,
  "peaceful": 2052,
  "sons": 2053,
  "shared": 2054,
  "compensation": 2055,
  "chapter": 2056,
  "Cooperation": 2057,
  "roles": 2058,
  "transition": 2059,
  "recovery": 2060,
  "function": 2061,
  "studio": 2062,
  "Administration": 2063,
  "appointment": 2064,
  "extended": 2065,
  "couple": 2066,
  "shot": 2067,
  "Russia": 2068,
  "ans": 2069,
  "Support": 2070,
  "remaining": 2071,
  "te@@": 2072,
  "plays": 2073,
  "grew": 2074,
  "pre@@": 2075,
  "assistant": 2076,
  "ol@@": 2077,
  "Vienna": 2078,
  "obtained": 2079,
  "detailed": 2080,
  "43": 2081,
  "appeal": 2082,
  "musical": 2083,
  "attempt": 2084,
  "Sch@@": 2085,
  "professor": 2086,
  "department": 2087,
  "addressing": 2088,
  "seventh": 2089,
  "80": 2090,
  "runs": 2091,
  "ons": 2092,
  "initially": 2093,
  "failure": 2094,
  "raise": 2095,
  "approval": 2096,
  "subsequent": 2097,
  "90": 2098,
  "lo@@": 2099,
  "district": 2100,
  "68": 2101,
  "ot@@": 2102,
  "white": 2103,
  "Police": 2104,
  "prices": 2105,
  "ous": 2106,
  "Festival": 2107,
  "word": 2108,
  "product": 2109,
  "showed": 2110,
  "kept": 2111,
  "Italian": 2112,
  "clearly": 2113,
  "via": 2114,
  "write": 2115,
  "looking": 2116,
  "voice": 2117,
  "qu@@": 2118,
  "credit": 2119,
  "famous": 2120,
  "mass": 2121,
  "temporary": 2122,
  "largest": 2123,
  "sub@@": 2124,
  "ana": 2125,
  "interested": 2126,
  "sp@@": 2127,
  "Caribbean": 2128,
  "priorities": 2129,
  "Man@@": 2130,
  "entry": 2131,
  "older": 2132,
  "follows": 2133,
  "unable": 2134,
  "shortly": 2135,
  "H": 2136,
  "Har@@": 2137,
  "refused": 2138,
  "Brazil": 2139,
  "illegal": 2140,
  "settlement": 2141,
  "voluntary": 2142,
  "interview": 2143,
  "summary": 2144,
  "partner": 2145,
  "rock": 2146,
  "ice": 2147,
  "Technology": 2148,
  "ne@@": 2149,
  "14@@": 2150,
  "advance": 2151,
  "200": 2152,
  "Brown": 2153,
  "external": 2154,
  "church": 2155,
  "listed": 2156,
  "courts": 2157,
  "moreover": 2158,
  "Museum": 2159,
  "affairs": 2160,
  "trust": 2161,
  "insurance": 2162,
  "rise": 2163,
  "fell": 2164,
  "Prince": 2165,
  "Room": 2166,
  "percent": 2167,
  "granted": 2168,
  "stop": 2169,
  "Senate": 2170,
  "declared": 2171,
  "Headquarters": 2172,
  "sense": 2173,
  "replaced": 2174,
  "UNEP": 2175,
  "Supreme": 2176,
  "pressure": 2177,
  "vulnerable": 2178,
  "per@@": 2179,
  "industrial": 2180,
  "university": 2181,
  "specialized": 2182,
  "determined": 2183,
  "artists": 2184,
  "morning": 2185,
  "13@@": 2186,
  "attacks": 2187,
  "Goals": 2188,
  "Governor": 2189,
  "seat": 2190,
  "island": 2191,
  "Louis": 2192,
  "achievement": 2193,
  "judges": 2194,
  "involvement": 2195,
  "1986": 2196,
  "U": 2197,
  "solution": 2198,
  "Dr.": 2199,
  "adopt": 2200,
  "aim": 2201,
  "station": 2202,
  "closely": 2203,
  "setting": 2204,
  "us@@": 2205,
  "Northern": 2206,
  "phase": 2207,
  "Johnson": 2208,
  "website": 2209,
  "determination": 2210,
  "operating": 2211,
  "Times": 2212,
  "Cuba": 2213,
  "é": 2214,
  "federal": 2215,
  "als": 2216,
  "ian": 2217,
  "stay": 2218,
  "Crime": 2219,
  "One": 2220,
  "finance": 2221,
  "complex": 2222,
  "raising": 2223,
  "defeat": 2224,
  "politics": 2225,
  "transferred": 2226,
  "nation": 2227,
  "OF": 2228,
  "intergovernmental": 2229,
  "content": 2230,
  "Open": 2231,
  "involving": 2232,
  "speaking": 2233,
  "Joseph": 2234,
  "reduced": 2235,
  "sharing": 2236,
  "accused": 2237,
  "centre": 2238,
  "taught": 2239,
  "located": 2240,
  "agricultural": 2241,
  "UNHCR": 2242,
  "les": 2243,
  "ago": 2244,
  "appreciation": 2245,
  "recalling": 2246,
  "violation": 2247,
  "terrorist": 2248,
  "1987": 2249,
  "computer": 2250,
  "Jones": 2251,
  "usually": 2252,
  "Bill": 2253,
  "Me@@": 2254,
  "worth": 2255,
  "statistics": 2256,
  "confidence": 2257,
  "x@@": 2258,
  "disaster": 2259,
  "retirement": 2260,
  "cash": 2261,
  "Virginia": 2262,
  "matches": 2263,
  "moving": 2264,
  "f": 2265,
  "languages": 2266,
  "understand": 2267,
  "charges": 2268,
  "girl": 2269,
  "opposition": 2270,
  "produce": 2271,
  "negative": 2272,
  "ism": 2273,
  "alternative": 2274,
  "consensus": 2275,
  "direction": 2276,
  "12@@": 2277,
  "Congo": 2278,
  "sufficient": 2279,
  "La": 2280,
  "Lee": 2281,
  "THE": 2282,
  "creating": 2283,
  "sign": 2284,
  "te": 2285,
  "stand": 2286,
  "periodic": 2287,
  "=": 2288,
  "me@@": 2289,
  "increasingly": 2290,
  "accounts": 2291,
  "Island": 2292,
  "Jewish": 2293,
  "reflected": 2294,
  "spoke": 2295,
  "holding": 2296,
  "novel": 2297,
  "Southern": 2298,
  "alone": 2299,
  "Environment": 2300,
  "economies": 2301,
  "tournament": 2302,
  "ec@@": 2303,
  "measure": 2304,
  "1985": 2305,
  "&apos;d": 2306,
  "proliferation": 2307,
  "export": 2308,
  "destruction": 2309,
  "requires": 2310,
  "Non": 2311,
  "applications": 2312,
  "deep": 2313,
  "corruption": 2314,
  "improvement": 2315,
  "consistent": 2316,
  "absence": 2317,
  "77": 2318,
  "electronic": 2319,
  "seasons": 2320,
  "ker": 2321,
  "alongside": 2322,
  "El@@": 2323,
  "welcomes": 2324,
  "Se@@": 2325,
  "fields": 2326,
  "indeed": 2327,
  "aged": 2328,
  "ge": 2329,
  "Internet": 2330,
  "ed@@": 2331,
  "ds": 2332,
  "ir@@": 2333,
  "D.": 2334,
  "places": 2335,
  "arrived": 2336,
  "star": 2337,
  "1980": 2338,
  "submission": 2339,
  "trying": 2340,
  "Martin": 2341,
  "alleged": 2342,
  "Community": 2343,
  "Mon@@": 2344,
  "Egypt": 2345,
  "relief": 2346,
  "damage": 2347,
  "0@@": 2348,
  "obligation": 2349,
  "Section": 2350,
  "actual": 2351,
  "res": 2352,
  "actually": 2353,
  "sure": 2354,
  "titled": 2355,
  "uses": 2356,
  "é@@": 2357,
  "payment": 2358,
  "Catholic": 2359,
  "newspaper": 2360,
  "consultation": 2361,
  "causes": 2362,
  "Georgia": 2363,
  "appear": 2364,
  "actively": 2365,
  "separate": 2366,
  "chairman": 2367,
  "ou@@": 2368,
  "Th@@": 2369,
  "Child": 2370,
  "producer": 2371,
  "ator": 2372,
  "ideas": 2373,
  "Bureau": 2374,
  "System": 2375,
  "Administrative": 2376,
  "actor": 2377,
  "noting": 2378,
  "Florida": 2379,
  "Williams": 2380,
  "he@@": 2381,
  "expenditure": 2382,
  "hands": 2383,
  "Deputy": 2384,
  "closed": 2385,
  "respectively": 2386,
  "owing": 2387,
  "safe": 2388,
  "Q@@": 2389,
  "Soviet": 2390,
  "middle": 2391,
  "break": 2392,
  "assigned": 2393,
  "captain": 2394,
  "disease": 2395,
  "gained": 2396,
  "multi": 2397,
  "Syrian": 2398,
  "mo@@": 2399,
  "eighth": 2400,
  "division": 2401,
  "tools": 2402,
  "Saint": 2403,
  "enterprises": 2404,
  "jurisdiction": 2405,
  "1984": 2406,
  "1.@@": 2407,
  "twice": 2408,
  "visited": 2409,
  "combined": 2410,
  "I.": 2411,
  "ma": 2412,
  "River": 2413,
  "ey": 2414,
  "Emperor": 2415,
  "ordered": 2416,
  "encourages": 2417,
  "th": 2418,
  "approximately": 2419,
  "Joint": 2420,
  "conferences": 2421,
  "ay": 2422,
  "instrument": 2423,
  "ay@@": 2424,
  "ak": 2425,
  "ra": 2426,
  "buried": 2427,
  "weapon": 2428,
  "Eastern": 2429,
  "bad": 2430,
  "returning": 2431,
  "membership": 2432,
  "broad": 2433,
  "era": 2434,
  "ing@@": 2435,
  "losing": 2436,
  "publication": 2437,
  "gas": 2438,
  "Implementation": 2439,
  "championship": 2440,
  "Su@@": 2441,
  "heavy": 2442,
  "bilateral": 2443,
  "types": 2444,
  "applicable": 2445,
  "ong": 2446,
  "attend": 2447,
  "observations": 2448,
  "soldiers": 2449,
  "respective": 2450,
  "treaties": 2451,
  "immediate": 2452,
  "difficulties": 2453,
  "Ma@@": 2454,
  "daily": 2455,
  "1982": 2456,
  "dollars": 2457,
  "medal": 2458,
  "quite": 2459,
  "talk": 2460,
  "agent": 2461,
  "solo": 2462,
  "episode": 2463,
  "ren@@": 2464,
  "accountability": 2465,
  "boy": 2466,
  "academic": 2467,
  "banks": 2468,
  "X": 2469,
  "probably": 2470,
  "editor": 2471,
  "69": 2472,
  "audit": 2473,
  "double": 2474,
  "governments": 2475,
  "partnerships": 2476,
  "J.": 2477,
  "St": 2478,
  "El": 2479,
  "Queen": 2480,
  "Irish": 2481,
  "size": 2482,
  "defence": 2483,
  "sub": 2484,
  "75": 2485,
  "figures": 2486,
  "occupied": 2487,
  "movie": 2488,
  "introduction": 2489,
  "efficient": 2490,
  "displaced": 2491,
  "ks": 2492,
  "camp": 2493,
  "Football": 2494,
  "K": 2495,
  "ie": 2496,
  "younger": 2497,
  "fair": 2498,
  "Cor@@": 2499,
  "useful": 2500,
  "commission": 2501,
  "candidates": 2502,
  "tr@@": 2503,
  "religion": 2504,
  "letters": 2505,
  "getting": 2506,
  "multiple": 2507,
  "hi@@": 2508,
  "des": 2509,
  "honour": 2510,
  "procurement": 2511,
  "v": 2512,
  "Netherlands": 2513,
  "approaches": 2514,
  "Par@@": 2515,
  "Disarmament": 2516,
  "Boston": 2517,
  "defined": 2518,
  "cast": 2519,
  "stock": 2520,
  "survey": 2521,
  "hospital": 2522,
  "choice": 2523,
  "village": 2524,
  "percentage": 2525,
  "2.@@": 2526,
  "speak": 2527,
  "duties": 2528,
  "keeping": 2529,
  "specifically": 2530,
  "minimum": 2531,
  "mis@@": 2532,
  "possibility": 2533,
  "no@@": 2534,
  "Rome": 2535,
  "pe@@": 2536,
  "ask": 2537,
  "ready": 2538,
  "ninth": 2539,
  "conflicts": 2540,
  "Pro@@": 2541,
  "cities": 2542,
  "Un@@": 2543,
  "Order": 2544,
  "He": 2545,
  "background": 2546,
  "conclusions": 2547,
  "ors": 2548,
  "contributing": 2549,
  "selection": 2550,
  "perform": 2551,
  "loan": 2552,
  "out@@": 2553,
  "Star": 2554,
  "details": 2555,
  "Edward": 2556,
  "determine": 2557,
  "vi@@": 2558,
  "1st": 2559,
  "condition": 2560,
  "variety": 2561,
  "discuss": 2562,
  "ra@@": 2563,
  "lines": 2564,
  "floor": 2565,
  "forest": 2566,
  "historical": 2567,
  "accept": 2568,
  "regularly": 2569,
  "trained": 2570,
  "category": 2571,
  "learn": 2572,
  "mental": 2573,
  "counter": 2574,
  "plenary": 2575,
  "monitor": 2576,
  "minister": 2577,
  "ent": 2578,
  "looked": 2579,
  "experiences": 2580,
  "advanced": 2581,
  "af@@": 2582,
  "registration": 2583,
  "names": 2584,
  "ani": 2585,
  "Authority": 2586,
  "nominated": 2587,
  "seems": 2588,
  "Mr": 2589,
  "brothers": 2590,
  "Li": 2591,
  "secure": 2592,
  "wood": 2593,
  "1983": 2594,
  "primarily": 2595,
  "democratic": 2596,
  "UNFPA": 2597,
  "sports": 2598,
  "est": 2599,
  "eyes": 2600,
  "welcome": 2601,
  "occupation": 2602,
  "Per@@": 2603,
  "standing": 2604,
  "Olympic": 2605,
  "maintained": 2606,
  "consequences": 2607,
  "Lebanon": 2608,
  "1981": 2609,
  "headquarters": 2610,
  "mutual": 2611,
  "ai": 2612,
  "perhaps": 2613,
  "inside": 2614,
  "grounds": 2615,
  "ne": 2616,
  "anything": 2617,
  "sales": 2618,
  "ty": 2619,
  "Green": 2620,
  "pilot": 2621,
  "newly": 2622,
  "prepare": 2623,
  "Optional": 2624,
  "minor": 2625,
  "medium": 2626,
  "implications": 2627,
  "1979": 2628,
  "ter@@": 2629,
  "Awards": 2630,
  "secondary": 2631,
  "online": 2632,
  "theme": 2633,
  "ov": 2634,
  "Theatre": 2635,
  "ut@@": 2636,
  "votes": 2637,
  "Field": 2638,
  "pass": 2639,
  "speech": 2640,
  "car@@": 2641,
  "um@@": 2642,
  "su@@": 2643,
  "av@@": 2644,
  "mean": 2645,
  "reflect": 2646,
  "criteria": 2647,
  "ta": 2648,
  "concrete": 2649,
  "racial": 2650,
  "1978": 2651,
  "a.m.": 2652,
  "fighting": 2653,
  "Policy": 2654,
  "helping": 2655,
  "enemy": 2656,
  "courses": 2657,
  "Black": 2658,
  "sentence": 2659,
  "risks": 2660,
  "to@@": 2661,
  "Switzerland": 2662,
  "ell": 2663,
  "man@@": 2664,
  "Operations": 2665,
  "waste": 2666,
  "enter": 2667,
  "arrest": 2668,
  "cancer": 2669,
  "outstanding": 2670,
  "BBC": 2671,
  "values": 2672,
  "murder": 2673,
  "dedicated": 2674,
  "E.": 2675,
  "prominent": 2676,
  "mine": 2677,
  "everyone": 2678,
  "governor": 2679,
  "Territory": 2680,
  "registered": 2681,
  "chemical": 2682,
  "strongly": 2683,
  "thirty": 2684,
  "democracy": 2685,
  "component": 2686,
  "emerging": 2687,
  "everything": 2688,
  "urged": 2689,
  "ment": 2690,
  "enterprise": 2691,
  "W": 2692,
  "rose": 2693,
  "urges": 2694,
  "reviewed": 2695,
  "page": 2696,
  "penalty": 2697,
  "battle": 2698,
  "ano": 2699,
  "knew": 2700,
  "features": 2701,
  "broke": 2702,
  "appears": 2703,
  "sanctions": 2704,
  "ance": 2705,
  "originally": 2706,
  "score": 2707,
  "Discrimination": 2708,
  "begin": 2709,
  "transparency": 2710,
  "exploitation": 2711,
  "stressed": 2712,
  "X@@": 2713,
  "Francisco": 2714,
  "north": 2715,
  "internationally": 2716,
  "ham": 2717,
  "worldwide": 2718,
  "Am@@": 2719,
  "spirit": 2720,
  "bo@@": 2721,
  "origin": 2722,
  "Life": 2723,
  "expression": 2724,
  "successfully": 2725,
  "largely": 2726,
  "fine": 2727,
  "Young": 2728,
  "seeking": 2729,
  "capacities": 2730,
  "Elizabeth": 2731,
  "departments": 2732,
  "Battle": 2733,
  "jobs": 2734,
  "1967": 2735,
  "starred": 2736,
  "considerable": 2737,
  "Mor@@": 2738,
  "ite": 2739,
  "pursue": 2740,
  "Staff": 2741,
  "ding": 2742,
  "south": 2743,
  "allegations": 2744,
  "principal": 2745,
  "except": 2746,
  "greatest": 2747,
  "ally": 2748,
  "proved": 2749,
  "teachers": 2750,
  "stories": 2751,
  "Sweden": 2752,
  "generation": 2753,
  "reducing": 2754,
  "Qu@@": 2755,
  "ur": 2756,
  "Championships": 2757,
  "minute": 2758,
  "gh@@": 2759,
  "Persons": 2760,
  "hour": 2761,
  "Professor": 2762,
  "enhanced": 2763,
  "v.": 2764,
  "den": 2765,
  "Space": 2766,
  "employees": 2767,
  "moment": 2768,
  "gr@@": 2769,
  "ity": 2770,
  "representation": 2771,
  "examination": 2772,
  "comes": 2773,
  "performing": 2774,
  "forty": 2775,
  "feature": 2776,
  "decides": 2777,
  "charged": 2778,
  "On": 2779,
  "blood": 2780,
  "reforms": 2781,
  "Turkey": 2782,
  "Sustainable": 2783,
  "male": 2784,
  "composed": 2785,
  "timely": 2786,
  "po@@": 2787,
  "aware": 2788,
  "Or@@": 2789,
  "simply": 2790,
  "ir": 2791,
  "employed": 2792,
  "institution": 2793,
  "workshops": 2794,
  "ring": 2795,
  "dealing": 2796,
  "sc@@": 2797,
  "existence": 2798,
  "ness": 2799,
  "2nd": 2800,
  "contains": 2801,
  "enhancing": 2802,
  "delivered": 2803,
  "Li@@": 2804,
  "der@@": 2805,
  "lessons": 2806,
  "strength": 2807,
  "NFL": 2808,
  "considering": 2809,
  "sets": 2810,
  "easy": 2811,
  "arts": 2812,
  "donors": 2813,
  "My": 2814,
  "search": 2815,
  "identity": 2816,
  "someone": 2817,
  "discovered": 2818,
  "ve": 2819,
  "reviews": 2820,
  "workshop": 2821,
  "1973": 2822,
  "VI": 2823,
  "estate": 2824,
  "funded": 2825,
  "presidential": 2826,
  "bi@@": 2827,
  "crucial": 2828,
  "Countries": 2829,
  "tic": 2830,
  "1970": 2831,
  "3.@@": 2832,
  "ahead": 2833,
  "suffering": 2834,
  "1975": 2835,
  "frequently": 2836,
  "S.": 2837,
  "definition": 2838,
  "Islands": 2839,
  "Mal@@": 2840,
  "di": 2841,
  "recalled": 2842,
  "1976": 2843,
  "location": 2844,
  "Assistant": 2845,
  "quarter": 2846,
  "piece": 2847,
  "Ab@@": 2848,
  "signing": 2849,
  "1972": 2850,
  "Du@@": 2851,
  "bill": 2852,
  "urgent": 2853,
  "sky": 2854,
  "par@@": 2855,
  "1974": 2856,
  "expertise": 2857,
  "founder": 2858,
  "Palestine": 2859,
  "observed": 2860,
  "00": 2861,
  "express": 2862,
  "ones": 2863,
  "door": 2864,
  "1977": 2865,
  "Sea": 2866,
  "occurred": 2867,
  "rank": 2868,
  "civilians": 2869,
  "guest": 2870,
  "programs": 2871,
  "extensive": 2872,
  "numbers": 2873,
  "illicit": 2874,
  "losses": 2875,
  "simple": 2876,
  "ci@@": 2877,
  "unless": 2878,
  "Love": 2879,
  "Com@@": 2880,
  "ball": 2881,
  "respond": 2882,
  "participating": 2883,
  "Prevention": 2884,
  "Sp@@": 2885,
  "publications": 2886,
  "commander": 2887,
  "thank": 2888,
  "up@@": 2889,
  "UNIDO": 2890,
  "Tr@@": 2891,
  "organizational": 2892,
  "squad": 2893,
  "Gu@@": 2894,
  "Ri@@": 2895,
  "deployment": 2896,
  "die": 2897,
  "train": 2898,
  "Series": 2899,
  "nevertheless": 2900,
  "Military": 2901,
  "Alexander": 2902,
  "solutions": 2903,
  "label": 2904,
  "NGOs": 2905,
  "perspective": 2906,
  "Hill": 2907,
  "Chamber": 2908,
  "papers": 2909,
  "reading": 2910,
  "spring": 2911,
  "decade": 2912,
  "Her@@": 2913,
  "basketball": 2914,
  "ob@@": 2915,
  "drugs": 2916,
  "contracts": 2917,
  "Other": 2918,
  "ending": 2919,
  "injured": 2920,
  "imposed": 2921,
  "Third": 2922,
  "represent": 2923,
  "Sal@@": 2924,
  "obtain": 2925,
  "accordingly": 2926,
  "subregional": 2927,
  "Norway": 2928,
  "decades": 2929,
  "Major": 2930,
  "Col@@": 2931,
  "rehabilitation": 2932,
  "box": 2933,
  "otherwise": 2934,
  "albums": 2935,
  "revealed": 2936,
  "processing": 2937,
  "Town": 2938,
  "accounting": 2939,
  "finish": 2940,
  "image": 2941,
  "Film": 2942,
  "Greek": 2943,
  "Nuclear": 2944,
  "consumption": 2945,
  "migration": 2946,
  "Kar@@": 2947,
  "ology": 2948,
  "Duke": 2949,
  "findings": 2950,
  "Under": 2951,
  "facing": 2952,
  "Cross": 2953,
  "options": 2954,
  "emphasis": 2955,
  "coverage": 2956,
  "Radio": 2957,
  "Somalia": 2958,
  "unique": 2959,
  "ies": 2960,
  "Elimination": 2961,
  "collective": 2962,
  "mostly": 2963,
  "As@@": 2964,
  "Legal": 2965,
  "lawyer": 2966,
  "ale": 2967,
  "strengthened": 2968,
  "na": 2969,
  "ford": 2970,
  "aw@@": 2971,
  "completion": 2972,
  "limit": 2973,
  "emphasized": 2974,
  "sides": 2975,
  "structures": 2976,
  "Michigan": 2977,
  "threats": 2978,
  "Carolina": 2979,
  "Argentina": 2980,
  "substantial": 2981,
  "Governing": 2982,
  "engineering": 2983,
  "500": 2984,
  "Family": 2985,
  "id": 2986,
  "agriculture": 2987,
  "networks": 2988,
  "ko": 2989,
  "software": 2990,
  "inclusion": 2991,
  "bed": 2992,
  "Hospital": 2993,
  "friendly": 2994,
  "visits": 2995,
  "hear": 2996,
  "painting": 2997,
  "enjoy": 2998,
  "and@@": 2999,
  "reality": 3000,
  "linked": 3001,
  "_": 3002,
  "regarded": 3003,
  "boys": 3004,
  "succeeded": 3005,
  "ultimately": 3006,
  "recognizing": 3007,
  "Man": 3008,
  "Sha@@": 3009,
  "Project": 3010,
  "resigned": 3011,
  "recruitment": 3012,
  "significantly": 3013,
  "oc@@": 3014,
  "sale": 3015,
  "1990s": 3016,
  "Mac@@": 3017,
  "Ad@@": 3018,
  "assessments": 3019,
  "un": 3020,
  "ex@@": 3021,
  "documentation": 3022,
  "fuel": 3023,
  "Bi@@": 3024,
  "News": 3025,
  "rich": 3026,
  "factor": 3027,
  "awards": 3028,
  "performances": 3029,
  "Pe@@": 3030,
  "1969": 3031,
  "concert": 3032,
  "mon@@": 3033,
  "1971": 3034,
  "£": 3035,
  "herself": 3036,
  "guarantee": 3037,
  "ver@@": 3038,
  "politician": 3039,
  "rejected": 3040,
  "EU": 3041,
  "1968": 3042,
  "estimates": 3043,
  "Indonesia": 3044,
  "union": 3045,
  "users": 3046,
  "affect": 3047,
  "thousands": 3048,
  "Annex": 3049,
  "Strategy": 3050,
  "undertake": 3051,
  "targets": 3052,
  "CD": 3053,
  "coordinated": 3054,
  "Business": 3055,
  "Ber@@": 3056,
  "contemporary": 3057,
  "dead": 3058,
  "ry": 3059,
  "diplomatic": 3060,
  "regulation": 3061,
  "Ne@@": 3062,
  "ach@@": 3063,
  "sites": 3064,
  "flight": 3065,
  "ev@@": 3066,
  "Roman": 3067,
  "zone": 3068,
  "buy": 3069,
  "happy": 3070,
  "expansion": 3071,
  "fl@@": 3072,
  "id@@": 3073,
  "attempted": 3074,
  "chance": 3075,
  "investigations": 3076,
  "Lo@@": 3077,
  "refugee": 3078,
  "Wales": 3079,
  "M.": 3080,
  "street": 3081,
  "literature": 3082,
  "punishment": 3083,
  "indicate": 3084,
  "pro@@": 3085,
  "carrying": 3086,
  "denied": 3087,
  "speed": 3088,
  "volume": 3089,
  "pl@@": 3090,
  "Jack": 3091,
  "Tom": 3092,
  "copies": 3093,
  "300": 3094,
  "victim": 3095,
  "ties": 3096,
  "Kosovo": 3097,
  "Cultural": 3098,
  "proper": 3099,
  "advantage": 3100,
  "nations": 3101,
  "explained": 3102,
  "favour": 3103,
  "incident": 3104,
  "Poland": 3105,
  "drama": 3106,
  "Mark": 3107,
  "etc": 3108,
  "educated": 3109,
  "71": 3110,
  "engagement": 3111,
  "ni@@": 3112,
  "stone": 3113,
  "opposed": 3114,
  "defense": 3115,
  "expanded": 3116,
  "mandates": 3117,
  "hosted": 3118,
  "supports": 3119,
  "Big": 3120,
  "Philadelphia": 3121,
  "junior": 3122,
  "tool": 3123,
  "association": 3124,
  "abroad": 3125,
  "Austria": 3126,
  "minority": 3127,
  "agree": 3128,
  "cycle": 3129,
  "scheduled": 3130,
  "drawn": 3131,
  "engage": 3132,
  "No": 3133,
  "Scott": 3134,
  "differences": 3135,
  "finding": 3136,
  "ph@@": 3137,
  "scene": 3138,
  "reaching": 3139,
  "interpretation": 3140,
  "73": 3141,
  "Network": 3142,
  "vision": 3143,
  "acquired": 3144,
  "neither": 3145,
  "á@@": 3146,
  "donor": 3147,
  "Rules": 3148,
  "conventions": 3149,
  "72": 3150,
  "spending": 3151,
  "ang@@": 3152,
  "Br@@": 3153,
  "dropped": 3154,
  "powerful": 3155,
  "Wilson": 3156,
  "ists": 3157,
  "Guinea": 3158,
  "marked": 3159,
  "Trust": 3160,
  "Po@@": 3161,
  "Bal@@": 3162,
  "Coordination": 3163,
  "1980s": 3164,
  "weight": 3165,
  "Ex@@": 3166,
  "designated": 3167,
  "dispute": 3168,
  "au": 3169,
  "stations": 3170,
  "stood": 3171,
  "under@@": 3172,
  "initiated": 3173,
  "convention": 3174,
  "center": 3175,
  "spread": 3176,
  "send": 3177,
  "prisoners": 3178,
  "grant": 3179,
  "grave": 3180,
  "highlighted": 3181,
  "Road": 3182,
  "ou": 3183,
  "Bur@@": 3184,
  "calling": 3185,
  "constitutional": 3186,
  "Frank": 3187,
  "Fame": 3188,
  "baseball": 3189,
  "J": 3190,
  "Bay": 3191,
  "inspired": 3192,
  "statistical": 3193,
  "Training": 3194,
  "organs": 3195,
  "Jackson": 3196,
  "ence": 3197,
  "bu@@": 3198,
  "Davis": 3199,
  "brief": 3200,
  "voted": 3201,
  "bringing": 3202,
  "lands": 3203,
  "ini": 3204,
  "eb@@": 3205,
  "Taylor": 3206,
  "la@@": 3207,
  "electoral": 3208,
  "qualified": 3209,
  "containing": 3210,
  "recognize": 3211,
  "Financial": 3212,
  "assess": 3213,
  "powers": 3214,
  "mail": 3215,
  "Sydney": 3216,
  "authorized": 3217,
  "rapid": 3218,
  "corporate": 3219,
  "pointed": 3220,
  "For@@": 3221,
  "Kuwait": 3222,
  "marine": 3223,
  "76": 3224,
  "consent": 3225,
  "responses": 3226,
  "flow": 3227,
  "drew": 3228,
  "champion": 3229,
  "integrity": 3230,
  "adaptation": 3231,
  "exist": 3232,
  "supplies": 3233,
  "Sierra": 3234,
  "dance": 3235,
  "declaration": 3236,
  "toward": 3237,
  "Ambassador": 3238,
  "orders": 3239,
  "chosen": 3240,
  "Navy": 3241,
  "85": 3242,
  "ade": 3243,
  "ore": 3244,
  "components": 3245,
  "presentation": 3246,
  "instance": 3247,
  "endorsed": 3248,
  "topic": 3249,
  "hired": 3250,
  "ent@@": 3251,
  "residence": 3252,
  "achievements": 3253,
  "sustained": 3254,
  "requirement": 3255,
  "eliminate": 3256,
  "observers": 3257,
  "card": 3258,
  "guitar": 3259,
  "categories": 3260,
  "beat": 3261,
  "ov@@": 3262,
  "clean": 3263,
  "plant": 3264,
  "No@@": 3265,
  "foundation": 3266,
  "meaning": 3267,
  "ownership": 3268,
  "owner": 3269,
  "actress": 3270,
  "end@@": 3271,
  "Jean": 3272,
  "ang": 3273,
  "Min@@": 3274,
  "Ukraine": 3275,
  "Gar@@": 3276,
  "gain": 3277,
  "Test": 3278,
  "Pennsylvania": 3279,
  "namely": 3280,
  "1945": 3281,
  "settled": 3282,
  "selling": 3283,
  "singles": 3284,
  "severe": 3285,
  "code": 3286,
  "ud@@": 3287,
  "add": 3288,
  "Premier": 3289,
  "diseases": 3290,
  "ai@@": 3291,
  "hearing": 3292,
  "yes": 3293,
  "Games": 3294,
  "traffic": 3295,
  "representing": 3296,
  "ve@@": 3297,
  "Power": 3298,
  "launch": 3299,
  "ger": 3300,
  "Forces": 3301,
  "ten@@": 3302,
  "ments": 3303,
  "considers": 3304,
  "Americans": 3305,
  "ens": 3306,
  "fought": 3307,
  "offences": 3308,
  "faith": 3309,
  "element": 3310,
  "wall": 3311,
  "complaints": 3312,
  "latest": 3313,
  "Show": 3314,
  "combating": 3315,
  "Columbia": 3316,
  "78": 3317,
  "machine": 3318,
  "advisory": 3319,
  "Ohio": 3320,
  "ish": 3321,
  "tasks": 3322,
  "cooperate": 3323,
  "patients": 3324,
  "anniversary": 3325,
  "removed": 3326,
  "Massachusetts": 3327,
  "Scotland": 3328,
  "Jerusalem": 3329,
  "changing": 3330,
  "message": 3331,
  "constitute": 3332,
  "influenced": 3333,
  "experienced": 3334,
  "vice": 3335,
  "thinking": 3336,
  "Lu@@": 3337,
  "Mu@@": 3338,
  "Vi@@": 3339,
  "Nigeria": 3340,
  "territories": 3341,
  "95": 3342,
  "heads": 3343,
  "74": 3344,
  "identification": 3345,
  "Olympics": 3346,
  "vital": 3347,
  "documentary": 3348,
  "Control": 3349,
  "trading": 3350,
  "ha": 3351,
  "ratification": 3352,
  "reportedly": 3353,
  "drawing": 3354,
  "accompanied": 3355,
  "seemed": 3356,
  "dy": 3357,
  "southern": 3358,
  "payments": 3359,
  "az@@": 3360,
  "joining": 3361,
  "ville": 3362,
  "admitted": 3363,
  "buildings": 3364,
  "option": 3365,
  "relatively": 3366,
  "length": 3367,
  "comedy": 3368,
  "fear": 3369,
  "native": 3370,
  "extend": 3371,
  "larger": 3372,
  "Mer@@": 3373,
  "Berlin": 3374,
  "filed": 3375,
  "vehicles": 3376,
  "subprogramme": 3377,
  "ages": 3378,
  "gu@@": 3379,
  "rec@@": 3380,
  "composition": 3381,
  "3rd": 3382,
  "Pi@@": 3383,
  "ins": 3384,
  "examples": 3385,
  "Ko@@": 3386,
  "daughters": 3387,
  "ranked": 3388,
  "trends": 3389,
  "Philippines": 3390,
  "answer": 3391,
  "link": 3392,
  "OHCHR": 3393,
  "intention": 3394,
  "We": 3395,
  "replace": 3396,
  "lin": 3397,
  "kin": 3398,
  "guide": 3399,
  "intelligence": 3400,
  "sentenced": 3401,
  "Add.1": 3402,
  "Mil@@": 3403,
  "And": 3404,
  "1966": 3405,
  "His": 3406,
  "bearing": 3407,
  "allowing": 3408,
  "Ver@@": 3409,
  "campaigns": 3410,
  "prosecution": 3411,
  "secretary": 3412,
  "ep@@": 3413,
  "expenses": 3414,
  "decide": 3415,
  "journalist": 3416,
  "98": 3417,
  "1964": 3418,
  "sing": 3419,
  "doctor": 3420,
  "extension": 3421,
  "treated": 3422,
  "mark": 3423,
  "semi": 3424,
  "techniques": 3425,
  "IN@@": 3426,
  "reserve": 3427,
  "83": 3428,
  "fast": 3429,
  "do@@": 3430,
  "ters": 3431,
  "mer": 3432,
  "argued": 3433,
  "uc@@": 3434,
  "hoped": 3435,
  "Ac@@": 3436,
  "titles": 3437,
  "completely": 3438,
  "gives": 3439,
  "br@@": 3440,
  "studying": 3441,
  "ki": 3442,
  "Press": 3443,
  "delay": 3444,
  "Fifth": 3445,
  "believes": 3446,
  "surface": 3447,
  "ane": 3448,
  "AND": 3449,
  "inform": 3450,
  "1970s": 3451,
  "honor": 3452,
  "+": 3453,
  "meant": 3454,
  "du@@": 3455,
  "graduate": 3456,
  "gross": 3457,
  "ery": 3458,
  "Sa@@": 3459,
  "outcomes": 3460,
  "extremely": 3461,
  "childhood": 3462,
  "Earth": 3463,
  "edition": 3464,
  "1960": 3465,
  "ical": 3466,
  "Medical": 3467,
  "attempts": 3468,
  "Tour": 3469,
  "green": 3470,
  "ino": 3471,
  "Rwanda": 3472,
  "investments": 3473,
  "Si@@": 3474,
  "Technical": 3475,
  "cl@@": 3476,
  "stable": 3477,
  "collected": 3478,
  "competent": 3479,
  "consecutive": 3480,
  "1965": 3481,
  "ot": 3482,
  "ary": 3483,
  "bought": 3484,
  "els": 3485,
  "freedoms": 3486,
  "So@@": 3487,
  "notable": 3488,
  "Friday": 3489,
  "normal": 3490,
  "beautiful": 3491,
  "Co": 3492,
  "ff": 3493,
  "Ben@@": 3494,
  "Bel@@": 3495,
  "H.": 3496,
  "Corps": 3497,
  "Independent": 3498,
  "authors": 3499,
  "Liberia": 3500,
  "object": 3501,
  "99": 3502,
  "exhibition": 3503,
  "ex": 3504,
  "investigate": 3505,
  "Go@@": 3506,
  "Oxford": 3507,
  "minorities": 3508,
  "Joe": 3509,
  "anyone": 3510,
  "Gr@@": 3511,
  "gone": 3512,
  "cold": 3513,
  "79": 3514,
  "Ho@@": 3515,
  "drive": 3516,
  "F.": 3517,
  "Blue": 3518,
  "Draft": 3519,
  "difference": 3520,
  "officially": 3521,
  "secret": 3522,
  "preventing": 3523,
  "La@@": 3524,
  "protected": 3525,
  "Jordan": 3526,
  "84": 3527,
  "forum": 3528,
  "Weapons": 3529,
  "sk@@": 3530,
  "Monday": 3531,
  "briefly": 3532,
  "maintaining": 3533,
  "port": 3534,
  "Scottish": 3535,
  "manage": 3536,
  "trip": 3537,
  "ative": 3538,
  "Toronto": 3539,
  "Dutch": 3540,
  "96": 3541,
  "picture": 3542,
  "ney": 3543,
  "Movement": 3544,
  "literary": 3545,
  "audience": 3546,
  "tenure": 3547,
  "thematic": 3548,
  "sell": 3549,
  "gi@@": 3550,
  "chair": 3551,
  "migrants": 3552,
  "belief": 3553,
  "Jersey": 3554,
  "seem": 3555,
  "He@@": 3556,
  "Territories": 3557,
  "Singapore": 3558,
  "Framework": 3559,
  "ee": 3560,
  "bar": 3561,
  "Journal": 3562,
  "captured": 3563,
  "Turkish": 3564,
  "producing": 3565,
  "USA": 3566,
  "founding": 3567,
  "Food": 3568,
  "men@@": 3569,
  "targeted": 3570,
  "assisted": 3571,
  "Library": 3572,
  "fish": 3573,
  "preparing": 3574,
  "memory": 3575,
  "Moscow": 3576,
  "competitive": 3577,
  "forth": 3578,
  "92": 3579,
  "Leone": 3580,
  "greatly": 3581,
  "ash": 3582,
  "del": 3583,
  "thanks": 3584,
  "speakers": 3585,
  "ise": 3586,
  "st": 3587,
  "convinced": 3588,
  "covering": 3589,
  "save": 3590,
  "Post": 3591,
  "attached": 3592,
  "Assistance": 3593,
  "reputation": 3594,
  "bar@@": 3595,
  "availability": 3596,
  "easily": 3597,
  "Experts": 3598,
  "restrictions": 3599,
  "fans": 3600,
  "This": 3601,
  "W.": 3602,
  "1963": 3603,
  "subjects": 3604,
  "stress": 3605,
  "territorial": 3606,
  "panel": 3607,
  "que": 3608,
  "Yugoslavia": 3609,
  "Sri": 3610,
  "Energy": 3611,
  "western": 3612,
  "aims": 3613,
  "trend": 3614,
  "characteristics": 3615,
  "ell@@": 3616,
  "commissioned": 3617,
  "pro": 3618,
  "database": 3619,
  "Bush": 3620,
  "4.@@": 3621,
  "amounts": 3622,
  "medicine": 3623,
  "web": 3624,
  "Ministers": 3625,
  "Gaza": 3626,
  "Harvard": 3627,
  "88": 3628,
  "all@@": 3629,
  "berg": 3630,
  "expenditures": 3631,
  "acted": 3632,
  "headed": 3633,
  "eye": 3634,
  "committees": 3635,
  "81": 3636,
  "Bl@@": 3637,
  "maximum": 3638,
  "ban": 3639,
  "inclusive": 3640,
  "regulatory": 3641,
  "controlled": 3642,
  "huge": 3643,
  "ret@@": 3644,
  "fi@@": 3645,
  "drafted": 3646,
  "ho@@": 3647,
  "truth": 3648,
  "offers": 3649,
  "vehicle": 3650,
  "driving": 3651,
  "UN@@": 3652,
  "os@@": 3653,
  "subsidiary": 3654,
  "ships": 3655,
  "Jo@@": 3656,
  "1961": 3657,
  "northern": 3658,
  "tri@@": 3659,
  "notably": 3660,
  "Hol@@": 3661,
  "Prize": 3662,
  "Lebanese": 3663,
  "Van": 3664,
  "6.@@": 3665,
  "bit": 3666,
  "mann": 3667,
  "1949": 3668,
  "caught": 3669,
  "notice": 3670,
  "foot": 3671,
  "ess": 3672,
  "digital": 3673,
  "Bu@@": 3674,
  "Illinois": 3675,
  "emissions": 3676,
  "concluding": 3677,
  "86": 3678,
  "lay": 3679,
  "trans@@": 3680,
  "bridge": 3681,
  "poetry": 3682,
  "sovereignty": 3683,
  "preliminary": 3684,
  "Maria": 3685,
  "COP": 3686,
  "Peacekeeping": 3687,
  "Hu@@": 3688,
  "82": 3689,
  "Colombia": 3690,
  "wrong": 3691,
  "encouraging": 3692,
  "Youth": 3693,
  "straight": 3694,
  "Inter": 3695,
  "nomination": 3696,
  "innovative": 3697,
  "Chairperson": 3698,
  "400": 3699,
  "sensitive": 3700,
  "Bosnia": 3701,
  "devoted": 3702,
  "philosophy": 3703,
  "governing": 3704,
  "ded": 3705,
  "tion": 3706,
  "testing": 3707,
  "Empire": 3708,
  "93": 3709,
  "ub@@": 3710,
  "user": 3711,
  "commissions": 3712,
  "go@@": 3713,
  "intellectual": 3714,
  "seriously": 3715,
  "broadcast": 3716,
  "broken": 3717,
  "Time": 3718,
  "salary": 3719,
  "97": 3720,
  "4th": 3721,
  "mixed": 3722,
  "occasion": 3723,
  "ada": 3724,
  "elimination": 3725,
  "store": 3726,
  "biggest": 3727,
  "thereby": 3728,
  "Mike": 3729,
  "populations": 3730,
  "wing": 3731,
  "fixed": 3732,
  "amendment": 3733,
  "Cyprus": 3734,
  "functioning": 3735,
  "lose": 3736,
  "norms": 3737,
  "winner": 3738,
  "imprisonment": 3739,
  "Sunday": 3740,
  "graduating": 3741,
  "west": 3742,
  "wishes": 3743,
  "Val@@": 3744,
  "purchase": 3745,
  "87": 3746,
  "row": 3747,
  "amendments": 3748,
  "IS@@": 3749,
  "none": 3750,
  "deeply": 3751,
  "county": 3752,
  "il": 3753,
  "else": 3754,
  "holds": 3755,
  "convened": 3756,
  "globalization": 3757,
  "Haiti": 3758,
  "sa": 3759,
  "Agenda": 3760,
  "specified": 3761,
  "walk": 3762,
  "ves": 3763,
  "attacked": 3764,
  "ung": 3765,
  "distributed": 3766,
  "-@@": 3767,
  "Montreal": 3768,
  "silver": 3769,
  "og@@": 3770,
  "hundred": 3771,
  "formation": 3772,
  "missing": 3773,
  "singing": 3774,
  "nationality": 3775,
  "IC@@": 3776,
  "pieces": 3777,
  "non@@": 3778,
  "1960s": 3779,
  "desire": 3780,
  "Mi@@": 3781,
  "Medal": 3782,
  "finishing": 3783,
  "platform": 3784,
  "History": 3785,
  "resumed": 3786,
  "disability": 3787,
  "van": 3788,
  "Inter@@": 3789,
  "destroyed": 3790,
  "Ke@@": 3791,
  "accident": 3792,
  "expand": 3793,
  "ceremony": 3794,
  "ys": 3795,
  "gun": 3796,
  "unemployment": 3797,
  "productive": 3798,
  "oversight": 3799,
  "topics": 3800,
  "Lady": 3801,
  "decrease": 3802,
  "declined": 3803,
  "res@@": 3804,
  "ara": 3805,
  "1962": 3806,
  "Miller": 3807,
  "contain": 3808,
  "Super": 3809,
  "extreme": 3810,
  "chose": 3811,
  "Fourth": 3812,
  "updated": 3813,
  "ati@@": 3814,
  "1948": 3815,
  "Thailand": 3816,
  "valuable": 3817,
  "sen": 3818,
  "reasonable": 3819,
  "scheme": 3820,
  "ge@@": 3821,
  "laid": 3822,
  "substitute": 3823,
  "remember": 3824,
  "managers": 3825,
  "1946": 3826,
  "Cha@@": 3827,
  "rising": 3828,
  "fe@@": 3829,
  "posted": 3830,
  "lies": 3831,
  "flows": 3832,
  "interim": 3833,
  "Chi@@": 3834,
  "ski": 3835,
  "paintings": 3836,
  "ma@@": 3837,
  "maternal": 3838,
  "offence": 3839,
  "diversity": 3840,
  "Obama": 3841,
  "ats": 3842,
  "realization": 3843,
  "Gender": 3844,
  "fashion": 3845,
  "classes": 3846,
  "lie": 3847,
  "Don": 3848,
  "transportation": 3849,
  "farm": 3850,
  "finals": 3851,
  "protecting": 3852,
  "models": 3853,
  "VII": 3854,
  "lieutenant": 3855,
  "doesn": 3856,
  "execution": 3857,
  "va": 3858,
  "gap": 3859,
  "the@@": 3860,
  "phone": 3861,
  "IAEA": 3862,
  "1944": 3863,
  "89": 3864,
  "welfare": 3865,
  "talks": 3866,
  "Pre@@": 3867,
  "Cambridge": 3868,
  "check": 3869,
  "responded": 3870,
  "ful": 3871,
  "Str@@": 3872,
  "technological": 3873,
  "voting": 3874,
  "chart": 3875,
  "featuring": 3876,
  "asylum": 3877,
  "Master": 3878,
  "invasion": 3879,
  "for@@": 3880,
  "managing": 3881,
  "Studies": 3882,
  "Belgium": 3883,
  "iz@@": 3884,
  "reproductive": 3885,
  "goes": 3886,
  "weather": 3887,
  "houses": 3888,
  "RE@@": 3889,
  "innings": 3890,
  "ye": 3891,
  "enjoyed": 3892,
  "Prosecutor": 3893,
  "province": 3894,
  "mortality": 3895,
  "jointly": 3896,
  "motion": 3897,
  "Representatives": 3898,
  "competed": 3899,
  "happened": 3900,
  "investors": 3901,
  "entering": 3902,
  "ek": 3903,
  "demands": 3904,
  "enabling": 3905,
  "choose": 3906,
  "profit": 3907,
  "Ta@@": 3908,
  "grandfather": 3909,
  "assumed": 3910,
  "fired": 3911,
  "comply": 3912,
  "1942": 3913,
  "ses": 3914,
  "Greece": 3915,
  "har@@": 3916,
  "ze": 3917,
  "dissemination": 3918,
  "theatre": 3919,
  "attending": 3920,
  "Habitat": 3921,
  "Long": 3922,
  "tive": 3923,
  "examined": 3924,
  "metal": 3925,
  "convicted": 3926,
  "covers": 3927,
  "relative": 3928,
  "Hollywood": 3929,
  "branch": 3930,
  "reconciliation": 3931,
  "refer": 3932,
  "schedule": 3933,
  "Victoria": 3934,
  "au@@": 3935,
  "Ni@@": 3936,
  "tor@@": 3937,
  "household": 3938,
  "Lewis": 3939,
  "injuries": 3940,
  "Christmas": 3941,
  "ig@@": 3942,
  "Korean": 3943,
  "Chile": 3944,
  "spot": 3945,
  "Home": 3946,
  "mining": 3947,
  "Pal@@": 3948,
  "dangerous": 3949,
  "racism": 3950,
  "ita": 3951,
  "str@@": 3952,
  "links": 3953,
  "council": 3954,
  "poet": 3955,
  "bear": 3956,
  "Saudi": 3957,
  "alization": 3958,
  "monthly": 3959,
  "systematic": 3960,
  "demonstrated": 3961,
  "comment": 3962,
  "incidents": 3963,
  "Darfur": 3964,
  "invitation": 3965,
  "improvements": 3966,
  "color": 3967,
  "legitimate": 3968,
  "decline": 3969,
  "acknowledged": 3970,
  "Y": 3971,
  "arising": 3972,
  "formulation": 3973,
  "focusing": 3974,
  "Kenya": 3975,
  "pop": 3976,
  "pending": 3977,
  "feet": 3978,
  "visiting": 3979,
  "eg@@": 3980,
  "za": 3981,
  "recognizes": 3982,
  "ru@@": 3983,
  "stayed": 3984,
  "1940": 3985,
  "sis": 3986,
  "guilty": 3987,
  "anti@@": 3988,
  "Sports": 3989,
  "Me": 3990,
  "parliamentary": 3991,
  "Malaysia": 3992,
  "facts": 3993,
  "resident": 3994,
  "Ru@@": 3995,
  "grade": 3996,
  "Ba@@": 3997,
  "San@@": 3998,
  "stopped": 3999,
  "resolve": 4000,
  "For": 4001,
  "We@@": 4002,
  "Universal": 4003,
  "Sar@@": 4004,
  "looks": 4005,
  "Bishop": 4006,
  "complainant": 4007,
  "1941": 4008,
  "ized": 4009,
  "reservations": 4010,
  "so@@": 4011,
  "sw@@": 4012,
  "CO@@": 4013,
  "hot": 4014,
  "ri": 4015,
  "explore": 4016,
  "Francis": 4017,
  "Internal": 4018,
  "Finance": 4019,
  "Muslim": 4020,
  "satisfaction": 4021,
  "ky": 4022,
  "earth": 4023,
  "translation": 4024,
  "youngest": 4025,
  "94": 4026,
  "assessed": 4027,
  "businesses": 4028,
  "enjoyment": 4029,
  "Head": 4030,
  "sed": 4031,
  "Fort": 4032,
  "ant@@": 4033,
  "map": 4034,
  "91": 4035,
  "pick": 4036,
  "Top": 4037,
  "ti": 4038,
  "ratified": 4039,
  "Denmark": 4040,
  "Far@@": 4041,
  "lasting": 4042,
  "outer": 4043,
  "advocacy": 4044,
  "credited": 4045,
  "ics": 4046,
  "hair": 4047,
  "Daniel": 4048,
  "examine": 4049,
  "Oh": 4050,
  "evening": 4051,
  "Initiative": 4052,
  "proportion": 4053,
  "ns": 4054,
  "criticism": 4055,
  "wealth": 4056,
  "tackles": 4057,
  "Dar@@": 4058,
  "secured": 4059,
  "disputes": 4060,
  "Senior": 4061,
  "royal": 4062,
  "locations": 4063,
  "driver": 4064,
  "slow": 4065,
  "Professional": 4066,
  "Ali": 4067,
  "labor": 4068,
  "reintegration": 4069,
  "Night": 4070,
  "struggle": 4071,
  "violent": 4072,
  "drafting": 4073,
  "To@@": 4074,
  "stating": 4075,
  "expresses": 4076,
  "heavily": 4077,
  "sport": 4078,
  "Andrew": 4079,
  "ran@@": 4080,
  "ancient": 4081,
  "ators": 4082,
  "Jim": 4083,
  "What": 4084,
  "amended": 4085,
  "homes": 4086,
  "ble": 4087,
  "Sun": 4088,
  "allocation": 4089,
  "winter": 4090,
  "east": 4091,
  "Morocco": 4092,
  "innovation": 4093,
  "bound": 4094,
  "Ethiopia": 4095,
  "1958": 4096,
  "Khan": 4097,
  "Mrs.": 4098,
  "meanwhile": 4099,
  "begun": 4100,
  "disasters": 4101,
  "ber@@": 4102,
  "1939": 4103,
  "surgery": 4104,
  "1950": 4105,
  "distance": 4106,
  "1951": 4107,
  "oral": 4108,
  "tradition": 4109,
  "stages": 4110,
  "Mag@@": 4111,
  "Polish": 4112,
  "Pl@@": 4113,
  "Bangladesh": 4114,
  "Steve": 4115,
  "eat": 4116,
  "provincial": 4117,
  "relationships": 4118,
  "moral": 4119,
  "Shanghai": 4120,
  "killing": 4121,
  "represents": 4122,
  "depth": 4123,
  "internally": 4124,
  "mar@@": 4125,
  "Herzegovina": 4126,
  "fulfil": 4127,
  "den@@": 4128,
  "observer": 4129,
  "customs": 4130,
  "Wang": 4131,
  "entity": 4132,
  "Gi@@": 4133,
  "structural": 4134,
  "Howard": 4135,
  "feeling": 4136,
  "Pope": 4137,
  "disabled": 4138,
  "watch": 4139,
  "0.@@": 4140,
  "Regulations": 4141,
  "widespread": 4142,
  "guard": 4143,
  "dr@@": 4144,
  "Resources": 4145,
  "09": 4146,
  "spend": 4147,
  "file": 4148,
  "certainly": 4149,
  "publicly": 4150,
  "Country": 4151,
  "Arthur": 4152,
  "Indigenous": 4153,
  "5.@@": 4154,
  "ruled": 4155,
  "sts": 4156,
  "von": 4157,
  "sch@@": 4158,
  "Final": 4159,
  "ster": 4160,
  "mobile": 4161,
  "serves": 4162,
  "ath": 4163,
  "Wednesday": 4164,
  "allegedly": 4165,
  "equitable": 4166,
  "1956": 4167,
  "Lake": 4168,
  "Bob": 4169,
  "increases": 4170,
  "Commander": 4171,
  "passing": 4172,
  "ps": 4173,
  "agents": 4174,
  "com@@": 4175,
  "sponsored": 4176,
  "ica": 4177,
  "tie": 4178,
  "20@@": 4179,
  "Mat@@": 4180,
  "tions": 4181,
  "frameworks": 4182,
  "strike": 4183,
  "showing": 4184,
  "path": 4185,
  "critics": 4186,
  "residents": 4187,
  "Is@@": 4188,
  "cutting": 4189,
  "Manchester": 4190,
  "mines": 4191,
  "yourself": 4192,
  "controls": 4193,
  "plants": 4194,
  "Iraqi": 4195,
  "purchased": 4196,
  "leg": 4197,
  "est@@": 4198,
  "periods": 4199,
  "binding": 4200,
  "Harry": 4201,
  "ala": 4202,
  "1943": 4203,
  "UNESCO": 4204,
  "ants": 4205,
  "estimate": 4206,
  "1947": 4207,
  "Is": 4208,
  "FC": 4209,
  "Scientific": 4210,
  "missed": 4211,
  "ari@@": 4212,
  "Te@@": 4213,
  "1959": 4214,
  "Rock": 4215,
  "uncle": 4216,
  "introduce": 4217,
  "..": 4218,
  "Ha@@": 4219,
  "doubt": 4220,
  "Shi@@": 4221,
  "objects": 4222,
  "Stephen": 4223,
  "tourism": 4224,
  "ke@@": 4225,
  "budgetary": 4226,
  "Miss": 4227,
  "ja": 4228,
  "Sciences": 4229,
  "Azerbaijan": 4230,
  "violated": 4231,
  "defensive": 4232,
  "Wal@@": 4233,
  "piano": 4234,
  "programming": 4235,
  "deputy": 4236,
  "talent": 4237,
  "contrary": 4238,
  "UNODC": 4239,
  "assists": 4240,
  "War@@": 4241,
  "PA@@": 4242,
  "sustainability": 4243,
  "yard": 4244,
  "air@@": 4245,
  "05": 4246,
  "river": 4247,
  "exports": 4248,
  "chemicals": 4249,
  "empowerment": 4250,
  "farmers": 4251,
  "occasions": 4252,
  "ven@@": 4253,
  "paras": 4254,
  "Er@@": 4255,
  "starring": 4256,
  "mainstreaming": 4257,
  "Atlantic": 4258,
  "characters": 4259,
  "sections": 4260,
  "equity": 4261,
  "1,000": 4262,
  "Mexican": 4263,
  "liability": 4264,
  "cor@@": 4265,
  "q@@": 4266,
  "cited": 4267,
  "ICT": 4268,
  "reconstruction": 4269,
  "counsel": 4270,
  "wind": 4271,
  "limits": 4272,
  "witnesses": 4273,
  "movements": 4274,
  ".1": 4275,
  "G.": 4276,
  "tree": 4277,
  "Czech": 4278,
  "Cal@@": 4279,
  "retained": 4280,
  "Decade": 4281,
  "allocated": 4282,
  "consequently": 4283,
  "biological": 4284,
  "departure": 4285,
  "Bor@@": 4286,
  "1957": 4287,
  "currency": 4288,
  "transparent": 4289,
  "Can@@": 4290,
  "speaker": 4291,
  "ji": 4292,
  "ars": 4293,
  "Tri@@": 4294,
  "Wrestling": 4295,
  "ines": 4296,
  "Humanitarian": 4297,
  "impacts": 4298,
  "ama": 4299,
  "satellite": 4300,
  "Finland": 4301,
  "If": 4302,
  "identifying": 4303,
  "stars": 4304,
  "NA@@": 4305,
  "acceptance": 4306,
  "Uganda": 4307,
  "Corporation": 4308,
  "Burundi": 4309,
  "Wil@@": 4310,
  "&apos;Ivoire": 4311,
  "Population": 4312,
  "conducting": 4313,
  "appearing": 4314,
  "allows": 4315,
  "handed": 4316,
  "excellent": 4317,
  "Hungary": 4318,
  "cell": 4319,
  "Old": 4320,
  "we@@": 4321,
  "filled": 4322,
  "eradication": 4323,
  "verification": 4324,
  "translated": 4325,
  "traveled": 4326,
  "sen@@": 4327,
  "resistance": 4328,
  "copy": 4329,
  "incorporated": 4330,
  "fill": 4331,
  "grow": 4332,
  "camps": 4333,
  "boat": 4334,
  "j": 4335,
  "replacement": 4336,
  "influential": 4337,
  "window": 4338,
  "mer@@": 4339,
  "Côte": 4340,
  "1954": 4341,
  "Kennedy": 4342,
  "supervision": 4343,
  "indicates": 4344,
  "ure": 4345,
  "flying": 4346,
  "remote": 4347,
  "Golden": 4348,
  "humanity": 4349,
  "ington": 4350,
  "deliver": 4351,
  "Portugal": 4352,
  "historian": 4353,
  "rapidly": 4354,
  "R.": 4355,
  "burden": 4356,
  "Sk@@": 4357,
  "ff@@": 4358,
  "dealt": 4359,
  "reservation": 4360,
  "wished": 4361,
  "reply": 4362,
  "Members": 4363,
  "oriented": 4364,
  "intervention": 4365,
  "savings": 4366,
  "geographical": 4367,
  "ls": 4368,
  "Anderson": 4369,
  "bus": 4370,
  "08": 4371,
  "asset": 4372,
  "output": 4373,
  "ILO": 4374,
  "inspection": 4375,
  "illness": 4376,
  "facility": 4377,
  "complaint": 4378,
  "Chris": 4379,
  "explain": 4380,
  "Planning": 4381,
  "Communist": 4382,
  "species": 4383,
  "affecting": 4384,
  "Gal@@": 4385,
  "turning": 4386,
  "scientists": 4387,
  "transactions": 4388,
  "preparatory": 4389,
  "ms": 4390,
  "myself": 4391,
  "extra": 4392,
  "organize": 4393,
  "5th": 4394,
  "wounded": 4395,
  "ile": 4396,
  "Player": 4397,
  "1952": 4398,
  "overcome": 4399,
  "facilitating": 4400,
  "Summer": 4401,
  "Earl": 4402,
  "dec@@": 4403,
  "Tuesday": 4404,
  "Ste@@": 4405,
  "permit": 4406,
  "Defence": 4407,
  "invites": 4408,
  "dark": 4409,
  "Marine": 4410,
  "obstacles": 4411,
  "warning": 4412,
  "divided": 4413,
  "similarly": 4414,
  "tracks": 4415,
  "unknown": 4416,
  "twelve": 4417,
  "thereafter": 4418,
  "tenth": 4419,
  "kill": 4420,
  "Province": 4421,
  "citizen": 4422,
  "universities": 4423,
  "brain": 4424,
  "segment": 4425,
  "remove": 4426,
  "Task": 4427,
  "transit": 4428,
  "eastern": 4429,
  "Principles": 4430,
  "ization": 4431,
  "Swedish": 4432,
  "1955": 4433,
  "pollution": 4434,
  "Serbia": 4435,
  "equally": 4436,
  "survived": 4437,
  "technique": 4438,
  "Tony": 4439,
  "apart": 4440,
  "Senator": 4441,
  "creative": 4442,
  "fee": 4443,
  "alist": 4444,
  "Operation": 4445,
  "connected": 4446,
  "ata": 4447,
  "socio": 4448,
  "e.g.": 4449,
  "fiscal": 4450,
  "ach": 4451,
  "1,@@": 4452,
  "acquisition": 4453,
  "composer": 4454,
  "Dis@@": 4455,
  "coordinate": 4456,
  "driven": 4457,
  "split": 4458,
  "writers": 4459,
  "sl@@": 4460,
  "ly@@": 4461,
  "Puerto": 4462,
  "operate": 4463,
  "Thursday": 4464,
  "danger": 4465,
  "Rio": 4466,
  "Allen": 4467,
  "Questions": 4468,
  "--@@": 4469,
  "Taiwan": 4470,
  "properties": 4471,
  "assisting": 4472,
  "Ti@@": 4473,
  "colleagues": 4474,
  "alism": 4475,
  "Terrorism": 4476,
  "ber": 4477,
  "NBA": 4478,
  "publishing": 4479,
  "import": 4480,
  "Fe@@": 4481,
  "ked": 4482,
  "organ": 4483,
  "4,@@": 4484,
  "brand": 4485,
  "shop": 4486,
  "ously": 4487,
  "detained": 4488,
  "As": 4489,
  "ick": 4490,
  "www.@@": 4491,
  "Subcommittee": 4492,
  "Liberal": 4493,
  "Albert": 4494,
  "rape": 4495,
  "ann@@": 4496,
  "themes": 4497,
  "Attorney": 4498,
  "arrival": 4499,
  "engineer": 4500,
  "continuous": 4501,
  "substances": 4502,
  "200@@": 4503,
  "D.C.": 4504,
  "Cemetery": 4505,
  "De": 4506,
  "Valley": 4507,
  "drop": 4508,
  "dignity": 4509,
  "toured": 4510,
  "afterwards": 4511,
  "ali@@": 4512,
  "pleased": 4513,
  "1918": 4514,
  "ac": 4515,
  "Mus@@": 4516,
  "dog": 4517,
  "A.@@": 4518,
  "format": 4519,
  "conformity": 4520,
  "ce": 4521,
  "executed": 4522,
  "20th": 4523,
  "pursued": 4524,
  "Mad@@": 4525,
  "associate": 4526,
  "ari": 4527,
  "pension": 4528,
  "cur@@": 4529,
  "posed": 4530,
  "Gallery": 4531,
  "ess@@": 4532,
  "arm": 4533,
  "Judge": 4534,
  "Bre@@": 4535,
  "suitable": 4536,
  "weekly": 4537,
  "hotel": 4538,
  "FAO": 4539,
  "lists": 4540,
  "ast@@": 4541,
  "journalists": 4542,
  "solid": 4543,
  "capabilities": 4544,
  "Little": 4545,
  "Tennessee": 4546,
  "legally": 4547,
  "migrant": 4548,
  "soil": 4549,
  "library": 4550,
  "Kansas": 4551,
  "lawyers": 4552,
  "escape": 4553,
  "describes": 4554,
  "Pr@@": 4555,
  "Melbourne": 4556,
  "detail": 4557,
  "mayor": 4558,
  "Status": 4559,
  "pi@@": 4560,
  "ality": 4561,
  "societies": 4562,
  "Safety": 4563,
  "gen@@": 4564,
  "screen": 4565,
  "Q": 4566,
  "carbon": 4567,
  "capable": 4568,
  "classical": 4569,
  "associations": 4570,
  "animals": 4571,
  "foster": 4572,
  "discriminatory": 4573,
  "becomes": 4574,
  "tests": 4575,
  "Houston": 4576,
  "That": 4577,
  "seeing": 4578,
  "Detroit": 4579,
  "Ford": 4580,
  "willing": 4581,
  "ass@@": 4582,
  "troop": 4583,
  "Arizona": 4584,
  "combination": 4585,
  "honorary": 4586,
  "suspended": 4587,
  "entirely": 4588,
  "1953": 4589,
  "Le": 4590,
  "dismissed": 4591,
  "thousand": 4592,
  "steel": 4593,
  "realized": 4594,
  "hits": 4595,
  "constraints": 4596,
  "offering": 4597,
  "manufacturing": 4598,
  "arranged": 4599,
  "marketing": 4600,
  "mat@@": 4601,
  "Pan@@": 4602,
  "cousin": 4603,
  "Land": 4604,
  "Partnership": 4605,
  "hundreds": 4606,
  "Myanmar": 4607,
  "Region": 4608,
  "constructive": 4609,
  "fiction": 4610,
  "Jesus": 4611,
  "pair": 4612,
  "http": 4613,
  "CEDAW": 4614,
  "ain": 4615,
  "custody": 4616,
  "Your": 4617,
  "Pro": 4618,
  "profile": 4619,
  "storage": 4620,
  "adult": 4621,
  "architecture": 4622,
  "threatened": 4623,
  "eng@@": 4624,
  "She@@": 4625,
  "healthy": 4626,
  "Lanka": 4627,
  "em": 4628,
  "ue": 4629,
  "Fox": 4630,
  "dates": 4631,
  "Don@@": 4632,
  "Revolution": 4633,
  "deployed": 4634,
  "ese": 4635,
  "micro@@": 4636,
  "mention": 4637,
  "Book": 4638,
  "pattern": 4639,
  "impossible": 4640,
  "opposite": 4641,
  "broader": 4642,
  "Cr@@": 4643,
  "reiterated": 4644,
  "pain": 4645,
  "du": 4646,
  "Margaret": 4647,
  "fishing": 4648,
  "revenue": 4649,
  "deaths": 4650,
  "wi@@": 4651,
  "settlements": 4652,
  "5,@@": 4653,
  "earning": 4654,
  "Anne": 4655,
  "wh@@": 4656,
  "Ham@@": 4657,
  "signature": 4658,
  "images": 4659,
  "perfect": 4660,
  "ah@@": 4661,
  "miles": 4662,
  "criticized": 4663,
  "s.@@": 4664,
  "can@@": 4665,
  "artistic": 4666,
  "closer": 4667,
  "scholarship": 4668,
  "Croatia": 4669,
  "parliament": 4670,
  "Drugs": 4671,
  "glass": 4672,
  "Do@@": 4673,
  "remedies": 4674,
  "guitarist": 4675,
  "judiciary": 4676,
  "Junior": 4677,
  "Peru": 4678,
  "sat": 4679,
  "C.2": 4680,
  "possibly": 4681,
  "Bowl": 4682,
  "sanitation": 4683,
  "Algeria": 4684,
  "Bon@@": 4685,
  "ain@@": 4686,
  "weak": 4687,
  "ders": 4688,
  "loans": 4689,
  "animal": 4690,
  "Two": 4691,
  "recruited": 4692,
  "wait": 4693,
  "Cur@@": 4694,
  "im": 4695,
  "Im@@": 4696,
  "With": 4697,
  "wider": 4698,
  "psychological": 4699,
  "Strategic": 4700,
  "horse": 4701,
  "industries": 4702,
  "Ger@@": 4703,
  "millions": 4704,
  "controversial": 4705,
  "telephone": 4706,
  "gn@@": 4707,
  "Walter": 4708,
  "Game": 4709,
  "Ram@@": 4710,
  "update": 4711,
  "conservation": 4712,
  "subjected": 4713,
  "Miami": 4714,
  "touchdowns": 4715,
  "guarantees": 4716,
  "1938": 4717,
  "Hal@@": 4718,
  "ministerial": 4719,
  "defeating": 4720,
  "SA@@": 4721,
  "Jr": 4722,
  "reflects": 4723,
  "conventional": 4724,
  "directors": 4725,
  "ents": 4726,
  "talking": 4727,
  "suggest": 4728,
  "prove": 4729,
  "newspapers": 4730,
  "Ra@@": 4731,
  "putting": 4732,
  "Moore": 4733,
  "divorce": 4734,
  "dream": 4735,
  "Tar@@": 4736,
  "06": 4737,
  "her@@": 4738,
  "Santa": 4739,
  "whatever": 4740,
  "Romania": 4741,
  "understood": 4742,
  "DC": 4743,
  "ill@@": 4744,
  "methodology": 4745,
  "prohibited": 4746,
  "Alliance": 4747,
  "Captain": 4748,
  "seminars": 4749,
  "01": 4750,
  "Free": 4751,
  "ruling": 4752,
  "perpetrators": 4753,
  "Coast": 4754,
  "appeals": 4755,
  "attorney": 4756,
  "io": 4757,
  "150": 4758,
  "ola": 4759,
  "07": 4760,
  "Memorial": 4761,
  "ute": 4762,
  "waiting": 4763,
  "inger": 4764,
  "falling": 4765,
  "fit": 4766,
  "successor": 4767,
  "electric": 4768,
  "Bro@@": 4769,
  "sun": 4770,
  "focal": 4771,
  "corresponding": 4772,
  "ering": 4773,
  "witness": 4774,
  "offensive": 4775,
  "Timor": 4776,
  "tic@@": 4777,
  "quick": 4778,
  "6,@@": 4779,
  "functional": 4780,
  "respected": 4781,
  "substance": 4782,
  "firms": 4783,
  "Commonwealth": 4784,
  "Hor@@": 4785,
  "causing": 4786,
  "refers": 4787,
  "Week": 4788,
  "reign": 4789,
  "musician": 4790,
  "Refugees": 4791,
  "6th": 4792,
  "Em@@": 4793,
  "WTO": 4794,
  "Lieutenant": 4795,
  "properly": 4796,
  "i.e.": 4797,
  "Del@@": 4798,
  "Ash@@": 4799,
  "1917": 4800,
  "od@@": 4801,
  "preventive": 4802,
  "ol": 4803,
  "bottom": 4804,
  "constant": 4805,
  "ao": 4806,
  "transmitted": 4807,
  "crew": 4808,
  ".com": 4809,
  "traded": 4810,
  "AN@@": 4811,
  "seized": 4812,
  "overseas": 4813,
  "Fi@@": 4814,
  "reiterates": 4815,
  "Coordinator": 4816,
  "consultative": 4817,
  "Broadway": 4818,
  "exception": 4819,
  "distinguished": 4820,
  "safeguards": 4821,
  "prime": 4822,
  "shares": 4823,
  "1936": 4824,
  "struck": 4825,
  "gate": 4826,
  "smaller": 4827,
  "sit": 4828,
  "ordinary": 4829,
  "skin": 4830,
  "OIOS": 4831,
  "Philip": 4832,
  "gradually": 4833,
  "Costa": 4834,
  "tied": 4835,
  "travelled": 4836,
  "Nairobi": 4837,
  "cr@@": 4838,
  "Pol@@": 4839,
  "heat": 4840,
  "involve": 4841,
  "Colorado": 4842,
  "L.": 4843,
  "Ge@@": 4844,
  "Ontario": 4845,
  "Lin@@": 4846,
  "1919": 4847,
  "customers": 4848,
  "Forms": 4849,
  "An": 4850,
  "7th": 4851,
  "fees": 4852,
  "Fre@@": 4853,
  "strict": 4854,
  "dynamic": 4855,
  "Model": 4856,
  "frequent": 4857,
  "suggests": 4858,
  "ä@@": 4859,
  "Baseball": 4860,
  "clubs": 4861,
  "chain": 4862,
  "Holy": 4863,
  "wins": 4864,
  "ef@@": 4865,
  "Program": 4866,
  "enrolled": 4867,
  "Peoples": 4868,
  "Kh@@": 4869,
  "Morgan": 4870,
  "frame": 4871,
  "inflation": 4872,
  "outlined": 4873,
  "Sub@@": 4874,
  "600": 4875,
  "regards": 4876,
  "opera": 4877,
  "aries": 4878,
  "dry": 4879,
  "behaviour": 4880,
  "ro": 4881,
  "1937": 4882,
  "mandated": 4883,
  "factory": 4884,
  "formally": 4885,
  "dollar": 4886,
  "Maryland": 4887,
  "Fin@@": 4888,
  "sleep": 4889,
  "NPT": 4890,
  "suit": 4891,
  "historic": 4892,
  "oo@@": 4893,
  "ched": 4894,
  "texts": 4895,
  "sang": 4896,
  "Jan@@": 4897,
  "explanation": 4898,
  "correct": 4899,
  "balanced": 4900,
  "Magazine": 4901,
  "interviews": 4902,
  "breaking": 4903,
  "picked": 4904,
  "baby": 4905,
  "harm": 4906,
  "assembly": 4907,
  "consumer": 4908,
  "possession": 4909,
  "arrangement": 4910,
  "Colonel": 4911,
  "temperature": 4912,
  "w": 4913,
  "Clark": 4914,
  "Mur@@": 4915,
  "cher": 4916,
  "investigated": 4917,
  "tel": 4918,
  "Marie": 4919,
  "conservative": 4920,
  "withdrawal": 4921,
  "insufficient": 4922,
  "Change": 4923,
  "Legislative": 4924,
  "Venezuela": 4925,
  "om": 4926,
  "Kal@@": 4927,
  "supporters": 4928,
  "birthday": 4929,
  "patterns": 4930,
  "capture": 4931,
  "Gold": 4932,
  "fan": 4933,
  "recalls": 4934,
  "preparations": 4935,
  "distinction": 4936,
  "Water": 4937,
  "Mel@@": 4938,
  "ü@@": 4939,
  "ens@@": 4940,
  "staffing": 4941,
  "atic": 4942,
  "shooting": 4943,
  "closing": 4944,
  "Minnesota": 4945,
  "Hamilton": 4946,
  "Sol@@": 4947,
  "municipal": 4948,
  "utilization": 4949,
  "musicians": 4950,
  "liberty": 4951,
  "reliable": 4952,
  "EP": 4953,
  "emerged": 4954,
  "renewed": 4955,
  "reaffirming": 4956,
  "Ki@@": 4957,
  "adjustment": 4958,
  "wear": 4959,
  "ga": 4960,
  "significance": 4961,
  "behavior": 4962,
  "channel": 4963,
  "stresses": 4964,
  "tribute": 4965,
  "suicide": 4966,
  "amb@@": 4967,
  "Mas@@": 4968,
  "premises": 4969,
  "Diego": 4970,
  "鈥": 4971,
  "Monitoring": 4972,
  "seats": 4973,
  "welcoming": 4974,
  "wasn": 4975,
  "adding": 4976,
  "descent": 4977,
  "realize": 4978,
  "ba": 4979,
  "accurate": 4980,
  "Ser@@": 4981,
  "coast": 4982,
  "P.": 4983,
  "IA@@": 4984,
  "hopes": 4985,
  "Sam@@": 4986,
  "ew@@": 4987,
  "Nepal": 4988,
  "Samuel": 4989,
  "besides": 4990,
  "accessible": 4991,
  "SA": 4992,
  "vast": 4993,
  "personality": 4994,
  "Simon": 4995,
  "blue": 4996,
  "alized": 4997,
  "hi": 4998,
  "plus": 4999,
  "drinking": 5000,
  "recipient": 5001,
  "Small": 5002,
  "Belarus": 5003,
  "ning": 5004,
  "1933": 5005,
  "prostitution": 5006,
  "researchers": 5007,
  "presidency": 5008,
  "kinds": 5009,
  "repeated": 5010,
  "US@@": 5011,
  "gaps": 5012,
  "banking": 5013,
  "fraud": 5014,
  "nationals": 5015,
  "advocate": 5016,
  "plane": 5017,
  "1950s": 5018,
  "3,@@": 5019,
  "LDCs": 5020,
  "rel@@": 5021,
  "Cap@@": 5022,
  "yesterday": 5023,
  "Gil@@": 5024,
  "equivalent": 5025,
  "generated": 5026,
  "clients": 5027,
  "Building": 5028,
  "package": 5029,
  "5,000": 5030,
  "coordinating": 5031,
  "count": 5032,
  "Madrid": 5033,
  "jazz": 5034,
  "suggestions": 5035,
  "wants": 5036,
  "cars": 5037,
  "column": 5038,
  "Christ": 5039,
  "bands": 5040,
  "istic": 5041,
  "coaching": 5042,
  "inducted": 5043,
  "han@@": 5044,
  "cells": 5045,
  "removal": 5046,
  "ver": 5047,
  "false": 5048,
  "fied": 5049,
  "aj@@": 5050,
  "briefing": 5051,
  "completing": 5052,
  "FA": 5053,
  "800": 5054,
  "professionals": 5055,
  "May@@": 5056,
  "arbitrary": 5057,
  "poems": 5058,
  "Lincoln": 5059,
  "í@@": 5060,
  "handling": 5061,
  "Vietnam": 5062,
  "expanding": 5063,
  "controversy": 5064,
  "recommend": 5065,
  "roster": 5066,
  "demonstrate": 5067,
  "yer": 5068,
  "Ak@@": 5069,
  "eligible": 5070,
  "tw@@": 5071,
  "war@@": 5072,
  "Tu@@": 5073,
  "tor": 5074,
  "Agriculture": 5075,
  "Jane": 5076,
  "grants": 5077,
  "impunity": 5078,
  "phenomenon": 5079,
  "1920": 5080,
  "vulnerability": 5081,
  "col@@": 5082,
  "Ca@@": 5083,
  "Gordon": 5084,
  "Dublin": 5085,
  "exposure": 5086,
  "trouble": 5087,
  "provinces": 5088,
  "shift": 5089,
  "budgets": 5090,
  "carefully": 5091,
  "onto": 5092,
  "Budgetary": 5093,
  "assignment": 5094,
  "Indiana": 5095,
  "shape": 5096,
  "annually": 5097,
  "presents": 5098,
  "MA@@": 5099,
  "7,@@": 5100,
  "expect": 5101,
  "ash@@": 5102,
  "circulated": 5103,
  "bury": 5104,
  "tackle": 5105,
  "separation": 5106,
  "advancement": 5107,
  "Frederick": 5108,
  "RA@@": 5109,
  "devices": 5110,
  "starts": 5111,
  "ically": 5112,
  "BC": 5113,
  "aff@@": 5114,
  "massive": 5115,
  "interaction": 5116,
  "ish@@": 5117,
  "han": 5118,
  "square": 5119,
  "amp@@": 5120,
  "bid": 5121,
  "conviction": 5122,
  "sponsors": 5123,
  "Expert": 5124,
  "Men@@": 5125,
  "Statute": 5126,
  "yl@@": 5127,
  "guaranteed": 5128,
  "edited": 5129,
  "graduation": 5130,
  "compilation": 5131,
  "solidarity": 5132,
  "description": 5133,
  "Clinton": 5134,
  "ene": 5135,
  "evaluate": 5136,
  "stocks": 5137,
  "bl@@": 5138,
  "CA@@": 5139,
  "financed": 5140,
  "sion": 5141,
  "guided": 5142,
  "nearby": 5143,
  "SE@@": 5144,
  "route": 5145,
  "input": 5146,
  "hoc": 5147,
  "ack": 5148,
  "rain": 5149,
  "1930": 5150,
  "integrate": 5151,
  "Liu": 5152,
  "seminar": 5153,
  "applying": 5154,
  "commit": 5155,
  "ena": 5156,
  "uk@@": 5157,
  "asking": 5158,
  "Brian": 5159,
  "Win@@": 5160,
  "ites": 5161,
  "sisters": 5162,
  "crowd": 5163,
  "consists": 5164,
  "Tor@@": 5165,
  "ba@@": 5166,
  "1935": 5167,
  "derived": 5168,
  "duration": 5169,
  "organizing": 5170,
  "Afghan": 5171,
  "afternoon": 5172,
  "Mechanism": 5173,
  "reaffirms": 5174,
  "sur@@": 5175,
  "ranking": 5176,
  "thesis": 5177,
  "proof": 5178,
  "competence": 5179,
  "deemed": 5180,
  "apparently": 5181,
  "Statistics": 5182,
  "ear@@": 5183,
  "ches": 5184,
  "print": 5185,
  "C.3": 5186,
  "NGO": 5187,
  "contest": 5188,
  "critic": 5189,
  "CEO": 5190,
  "Robinson": 5191,
  "ys@@": 5192,
  "pages": 5193,
  "claiming": 5194,
  "citizenship": 5195,
  "occur": 5196,
  "heritage": 5197,
  "1929": 5198,
  "att@@": 5199,
  "fresh": 5200,
  "ow@@": 5201,
  "bro@@": 5202,
  "Fl@@": 5203,
  "Ku@@": 5204,
  "ist@@": 5205,
  "SS": 5206,
  "Ter@@": 5207,
  "Cleveland": 5208,
  "ado": 5209,
  "constitutes": 5210,
  "Atlanta": 5211,
  "suspected": 5212,
  "operated": 5213,
  "coherence": 5214,
  "journey": 5215,
  "block": 5216,
  "Walker": 5217,
  "commodity": 5218,
  "throne": 5219,
  "progressive": 5220,
  "li": 5221,
  "ich": 5222,
  "races": 5223,
  "portion": 5224,
  "Communications": 5225,
  "worker": 5226,
  "projected": 5227,
  "merely": 5228,
  "attitude": 5229,
  "Arabia": 5230,
  "praised": 5231,
  "contrast": 5232,
  "Tokyo": 5233,
  "Engineering": 5234,
  "ow": 5235,
  "additionally": 5236,
  "display": 5237,
  "Ban@@": 5238,
  "Preparatory": 5239,
  "Sel@@": 5240,
  "fer@@": 5241,
  "integral": 5242,
  "mi@@": 5243,
  "02": 5244,
  "clothes": 5245,
  "Anthony": 5246,
  "Port": 5247,
  "Good": 5248,
  "sole": 5249,
  "Live": 5250,
  "regardless": 5251,
  "Harris": 5252,
  "relevance": 5253,
  "viewed": 5254,
  "Ben": 5255,
  "Jews": 5256,
  "fled": 5257,
  "Self": 5258,
  "Louisiana": 5259,
  "Observer": 5260,
  "mobilization": 5261,
  "Liverpool": 5262,
  "sitting": 5263,
  "barriers": 5264,
  "vocational": 5265,
  "productivity": 5266,
  "chaired": 5267,
  "GDP": 5268,
  "rebounds": 5269,
  "interventions": 5270,
  "disposal": 5271,
  "funeral": 5272,
  "warm": 5273,
  "doctors": 5274,
  "8th": 5275,
  "eldest": 5276,
  "ong@@": 5277,
  "Roma": 5278,
  "anda": 5279,
  "engine": 5280,
  "coal": 5281,
  "trees": 5282,
  "novels": 5283,
  "sort": 5284,
  "Kelly": 5285,
  "formulated": 5286,
  "earn": 5287,
  "&gt;": 5288,
  "Ghana": 5289,
  "Patrick": 5290,
  "WHO": 5291,
  "requiring": 5292,
  "120": 5293,
  "aya": 5294,
  "accession": 5295,
  "wage": 5296,
  "Kyoto": 5297,
  "1914": 5298,
  "Saturday": 5299,
  "spiritual": 5300,
  "sum": 5301,
  "ned": 5302,
  "aspect": 5303,
  "Guatemala": 5304,
  "Cre@@": 5305,
  "ut": 5306,
  "friendship": 5307,
  "instrumental": 5308,
  "personally": 5309,
  "Oregon": 5310,
  "1934": 5311,
  "sal@@": 5312,
  "04": 5313,
  "Mul@@": 5314,
  "When": 5315,
  "maybe": 5316,
  "adopting": 5317,
  "finds": 5318,
  "teach": 5319,
  "VIII": 5320,
  "ny": 5321,
  "Cl@@": 5322,
  "hom@@": 5323,
  "post@@": 5324,
  "surrounding": 5325,
  "AR@@": 5326,
  "mainstream": 5327,
  "replied": 5328,
  "immigration": 5329,
  "del@@": 5330,
  "ial": 5331,
  "Sw@@": 5332,
  "2,@@": 5333,
  "seconds": 5334,
  "Anna": 5335,
  "painter": 5336,
  "gains": 5337,
  "Bachelor": 5338,
  "difficulty": 5339,
  "resignation": 5340,
  "tics": 5341,
  "paying": 5342,
  "belonging": 5343,
  "touring": 5344,
  "cluster": 5345,
  "modalities": 5346,
  "borders": 5347,
  "Adams": 5348,
  "Cro@@": 5349,
  "lin@@": 5350,
  "Comprehensive": 5351,
  "patient": 5352,
  "sey": 5353,
  "UNOPS": 5354,
  "beauty": 5355,
  "Nor@@": 5356,
  "expressing": 5357,
  "Relations": 5358,
  "opinions": 5359,
  "bass": 5360,
  "The@@": 5361,
  "unfortunately": 5362,
  "trials": 5363,
  "outreach": 5364,
  "9th": 5365,
  "reserves": 5366,
  "recordings": 5367,
  "exploration": 5368,
  "Armed": 5369,
  "dependent": 5370,
  "Swiss": 5371,
  "Han@@": 5372,
  "hy@@": 5373,
  "ase": 5374,
  "attracted": 5375,
  "Thompson": 5376,
  "inventory": 5377,
  "Ag@@": 5378,
  "fo@@": 5379,
  "pr@@": 5380,
  "deliberations": 5381,
  "undertaking": 5382,
  "cabinet": 5383,
  "hand@@": 5384,
  "are@@": 5385,
  "advertising": 5386,
  "8,@@": 5387,
  "stands": 5388,
  "Pri@@": 5389,
  "cre@@": 5390,
  "inadequate": 5391,
  "touchdown": 5392,
  "heading": 5393,
  "contingent": 5394,
  "abandoned": 5395,
  "Princess": 5396,
  "Gen@@": 5397,
  "IT": 5398,
  "ther@@": 5399,
  "des@@": 5400,
  "ó@@": 5401,
  "clinical": 5402,
  "experimental": 5403,
  "super@@": 5404,
  "favor": 5405,
  "device": 5406,
  "soul": 5407,
  "ministers": 5408,
  "ged": 5409,
  "ME@@": 5410,
  "Mayor": 5411,
  "prize": 5412,
  "ek@@": 5413,
  "Torture": 5414,
  "resolved": 5415,
  "partly": 5416,
  "Part": 5417,
  "Dallas": 5418,
  "taxes": 5419,
  "ging": 5420,
  "divorced": 5421,
  "2019": 5422,
  "emphasizes": 5423,
  "ends": 5424,
  "owners": 5425,
  "argument": 5426,
  "separated": 5427,
  "ion": 5428,
  "Climate": 5429,
  "collect": 5430,
  "reaffirmed": 5431,
  "prevented": 5432,
  "Billboard": 5433,
  "Dun@@": 5434,
  "repeatedly": 5435,
  "concepts": 5436,
  "Cape": 5437,
  "economics": 5438,
  "ching": 5439,
  "Douglas": 5440,
  "ingly": 5441,
  "stronger": 5442,
  "unity": 5443,
  "Song": 5444,
  "tical": 5445,
  "yn@@": 5446,
  "tomorrow": 5447,
  "Cambodia": 5448,
  "permission": 5449,
  "describe": 5450,
  "mountain": 5451,
  "inf@@": 5452,
  "certificate": 5453,
  "Daily": 5454,
  "Equality": 5455,
  "racing": 5456,
  "Edinburgh": 5457,
  "suddenly": 5458,
  "Area": 5459,
  "grown": 5460,
  "CN.4": 5461,
  "mouth": 5462,
  "define": 5463,
  "Eritrea": 5464,
  "Kim": 5465,
  "ette": 5466,
  "Channel": 5467,
  "honors": 5468,
  "crises": 5469,
  "rare": 5470,
  "pregnant": 5471,
  "pace": 5472,
  "Fr@@": 5473,
  "bronze": 5474,
  "commanded": 5475,
  "diverse": 5476,
  "advised": 5477,
  "till": 5478,
  "collaborated": 5479,
  "Ay@@": 5480,
  "attributed": 5481,
  "Industrial": 5482,
  "atmosphere": 5483,
  "producers": 5484,
  "pa@@": 5485,
  "ely": 5486,
  "ation@@": 5487,
  "Palace": 5488,
  "Media": 5489,
  "ste@@": 5490,
  "airspace": 5491,
  "multi@@": 5492,
  "Conservative": 5493,
  "instructions": 5494,
  "Kentucky": 5495,
  "Ryan": 5496,
  "introducing": 5497,
  "Dec@@": 5498,
  "footballer": 5499,
  "Missouri": 5500,
  "Fo@@": 5501,
  "ón": 5502,
  "charity": 5503,
  "atory": 5504,
  "Standing": 5505,
  "Syria": 5506,
  "considerations": 5507,
  "reaction": 5508,
  "ological": 5509,
  "hal@@": 5510,
  "conclude": 5511,
  "Environmental": 5512,
  "households": 5513,
  "7.@@": 5514,
  "exists": 5515,
  "Champions": 5516,
  "back@@": 5517,
  "scholars": 5518,
  "Ray": 5519,
  "permitted": 5520,
  "1932": 5521,
  "exposed": 5522,
  "journal": 5523,
  "overview": 5524,
  "sel@@": 5525,
  "19th": 5526,
  "Pa@@": 5527,
  "references": 5528,
  "signs": 5529,
  "ST@@": 5530,
  "Seattle": 5531,
  "Hotel": 5532,
  "elsewhere": 5533,
  "coastal": 5534,
  "9.@@": 5535,
  "SC": 5536,
  "electricity": 5537,
  "determining": 5538,
  "restricted": 5539,
  "ston": 5540,
  "negotiation": 5541,
  "mercury": 5542,
  "defend": 5543,
  "ved": 5544,
  "Men": 5545,
  "recovered": 5546,
  "zones": 5547,
  "rent": 5548,
  "requesting": 5549,
  "Anti": 5550,
  "protest": 5551,
  "ratio": 5552,
  "gs": 5553,
  "eliminated": 5554,
  "isn": 5555,
  "212": 5556,
  "Sc@@": 5557,
  "ine@@": 5558,
  "1916": 5559,
  "contacts": 5560,
  "activist": 5561,
  "gets": 5562,
  "vel@@": 5563,
  "adverse": 5564,
  "upper": 5565,
  "50@@": 5566,
  "Antonio": 5567,
  "Prix": 5568,
  "unilateral": 5569,
  "consultant": 5570,
  "Financing": 5571,
  "Defense": 5572,
  "Stadium": 5573,
  "Light": 5574,
  "arbitration": 5575,
  "Ann": 5576,
  "conjunction": 5577,
  "parallel": 5578,
  "loved": 5579,
  "Ecuador": 5580,
  "C.@@": 5581,
  "enabled": 5582,
  "ier": 5583,
  "Platform": 5584,
  "Wall": 5585,
  "q": 5586,
  "index": 5587,
  "9,@@": 5588,
  "ona": 5589,
  "extradition": 5590,
  "Ross": 5591,
  "Peacebuilding": 5592,
  "observation": 5593,
  "forests": 5594,
  "ev": 5595,
  "marry": 5596,
  "adi@@": 5597,
  "T.": 5598,
  "hunger": 5599,
  "embargo": 5600,
  "flexible": 5601,
  "degrees": 5602,
  "acceptable": 5603,
  "Culture": 5604,
  "ised": 5605,
  "mothers": 5606,
  "Naval": 5607,
  "án": 5608,
  "ER@@": 5609,
  "Excellency": 5610,
  "qualifying": 5611,
  "listen": 5612,
  "CE@@": 5613,
  "sions": 5614,
  "Constitutional": 5615,
  "constitution": 5616,
  "allowance": 5617,
  "lasted": 5618,
  "transmission": 5619,
  "Ju@@": 5620,
  "hol@@": 5621,
  "Nazi": 5622,
  "Jr.": 5623,
  "Television": 5624,
  "pe": 5625,
  "UEFA": 5626,
  "happen": 5627,
  "acy": 5628,
  "rival": 5629,
  "pri@@": 5630,
  "aside": 5631,
  "our@@": 5632,
  "8.@@": 5633,
  "proceed": 5634,
  "Violence": 5635,
  "Ad": 5636,
  "prohibition": 5637,
  "ges": 5638,
  "failing": 5639,
  "seeks": 5640,
  "assault": 5641,
  "Jamaica": 5642,
  "@": 5643,
  "grateful": 5644,
  "Stewart": 5645,
  "PA": 5646,
  "Guide": 5647,
  "Red@@": 5648,
  "ul": 5649,
  "whereas": 5650,
  "TO": 5651,
  "apparent": 5652,
  "ok@@": 5653,
  "sight": 5654,
  "eleven": 5655,
  "visual": 5656,
  "remainder": 5657,
  "10,000": 5658,
  "Dean": 5659,
  "Regiment": 5660,
  "Arabic": 5661,
  "incumbent": 5662,
  "Ministerial": 5663,
  "degradation": 5664,
  "urge": 5665,
  "painted": 5666,
  "succeed": 5667,
  "hence": 5668,
  "Oklahoma": 5669,
  "suffer": 5670,
  "sy": 5671,
  "expedition": 5672,
  "revision": 5673,
  "focuses": 5674,
  "UNRWA": 5675,
  "IT@@": 5676,
  "Euro@@": 5677,
  "Beach": 5678,
  "Armenia": 5679,
  "Bol@@": 5680,
  "envisaged": 5681,
  "machinery": 5682,
  "C.5": 5683,
  "festival": 5684,
  "root": 5685,
  "1931": 5686,
  "emb@@": 5687,
  "couldn": 5688,
  "pers": 5689,
  "promise": 5690,
  "burg": 5691,
  "ta@@": 5692,
  "ably": 5693,
  "reviewing": 5694,
  "Wi@@": 5695,
  "1928": 5696,
  "Marshall": 5697,
  "Orchestra": 5698,
  "continent": 5699,
  "Stanley": 5700,
  "challenged": 5701,
  "Alan": 5702,
  "remarks": 5703,
  "hel@@": 5704,
  "transnational": 5705,
  "Wright": 5706,
  "Pittsburgh": 5707,
  "kin@@": 5708,
  "Hoc": 5709,
  "popularity": 5710,
  "generate": 5711,
  "MP": 5712,
  "e.@@": 5713,
  "Three": 5714,
  "Opera": 5715,
  "consisting": 5716,
  "sorry": 5717,
  "charts": 5718,
  "ab": 5719,
  "min@@": 5720,
  "soldier": 5721,
  "bur@@": 5722,
  "Az@@": 5723,
  "forums": 5724,
  "commended": 5725,
  "employee": 5726,
  "ministries": 5727,
  "consistently": 5728,
  "hospitals": 5729,
  "truly": 5730,
  "Local": 5731,
  "theater": 5732,
  "remembered": 5733,
  "lic@@": 5734,
  "anticipated": 5735,
  "folk": 5736,
  "compete": 5737,
  "03": 5738,
  "whilst": 5739,
  "worst": 5740,
  "Bell": 5741,
  "Nelson": 5742,
  "Danish": 5743,
  "passes": 5744,
  "drummer": 5745,
  "unlike": 5746,
  "Fer@@": 5747,
  "gathered": 5748,
  "1924": 5749,
  "Sarah": 5750,
  "adequately": 5751,
  "ole": 5752,
  "ura": 5753,
  "val@@": 5754,
  "There": 5755,
  "Char@@": 5756,
  "Fellow": 5757,
  "ment@@": 5758,
  "comparison": 5759,
  "ail@@": 5760,
  "sovereign": 5761,
  "Vol@@": 5762,
  "coordinator": 5763,
  "fly": 5764,
  "adults": 5765,
  "flexibility": 5766,
  "ths": 5767,
  "Who": 5768,
  "Sam": 5769,
  "wearing": 5770,
  "quarterback": 5771,
  "employers": 5772,
  "sive": 5773,
  "Baltimore": 5774,
  "relatives": 5775,
  "Campbell": 5776,
  "normally": 5777,
  "1915": 5778,
  "yn": 5779,
  "700": 5780,
  "Zhang": 5781,
  "Russell": 5782,
  "ERA": 5783,
  "NCAA": 5784,
  "Web": 5785,
  "makers": 5786,
  "emperor": 5787,
  "Por@@": 5788,
  "wave": 5789,
  "unions": 5790,
  "Palestinians": 5791,
  "knee": 5792,
  "1921": 5793,
  "1922": 5794,
  "cricket": 5795,
  "touch": 5796,
  "Champion": 5797,
  "summit": 5798,
  "At@@": 5799,
  "Round": 5800,
  "ire": 5801,
  "generations": 5802,
  "slavery": 5803,
  "park": 5804,
  "SR.@@": 5805,
  "thy": 5806,
  "Ed@@": 5807,
  "harassment": 5808,
  "Bas@@": 5809,
  "grand": 5810,
  "expectations": 5811,
  "batting": 5812,
  "politicians": 5813,
  "Class": 5814,
  "iting": 5815,
  "priest": 5816,
  "Developing": 5817,
  "threw": 5818,
  "suspension": 5819,
  "restaurant": 5820,
  "consolidated": 5821,
  "tolerance": 5822,
  "hall": 5823,
  "Auditors": 5824,
  "hat": 5825,
  "favorite": 5826,
  "roads": 5827,
  "interesting": 5828,
  "earliest": 5829,
  "ere": 5830,
  "Z": 5831,
  "printed": 5832,
  "Rose": 5833,
  "Ga@@": 5834,
  "Angola": 5835,
  "Promotion": 5836,
  "cat@@": 5837,
  "register": 5838,
  "ik@@": 5839,
  "ass": 5840,
  "Oversight": 5841,
  "colonial": 5842,
  "ca@@": 5843,
  "cha@@": 5844,
  "cards": 5845,
  "prospects": 5846,
  "10.@@": 5847,
  "1925": 5848,
  "songwriter": 5849,
  "drink": 5850,
  "catch": 5851,
  "flag": 5852,
  "maritime": 5853,
  "wedding": 5854,
  "obtaining": 5855,
  "Brazilian": 5856,
  "mal@@": 5857,
  "Juan": 5858,
  "approached": 5859,
  "responding": 5860,
  "schemes": 5861,
  "Pen@@": 5862,
  "faculty": 5863,
  "pool": 5864,
  "roll": 5865,
  "boss": 5866,
  "tu@@": 5867,
  "client": 5868,
  "CRC": 5869,
  "ae": 5870,
  "replacing": 5871,
  "garden": 5872,
  "customer": 5873,
  "wa": 5874,
  "commented": 5875,
  "imp@@": 5876,
  "mor@@": 5877,
  "New@@": 5878,
  "evolution": 5879,
  "Norwegian": 5880,
  "José": 5881,
  "pen@@": 5882,
  "ord@@": 5883,
  "walked": 5884,
  "EC@@": 5885,
  "reflecting": 5886,
  "whenever": 5887,
  "vacancy": 5888,
  "inquiry": 5889,
  "succession": 5890,
  "ational": 5891,
  "Lan@@": 5892,
  "iron": 5893,
  "DP": 5894,
  "Ocean": 5895,
  "Portuguese": 5896,
  "submissions": 5897,
  "Brooklyn": 5898,
  "Appeals": 5899,
  "鈥@@": 5900,
  "bench": 5901,
  "holders": 5902,
  "ently": 5903,
  "yuan": 5904,
  "vocals": 5905,
  "Forest": 5906,
  "ying": 5907,
  "valid": 5908,
  "Right": 5909,
  "remedy": 5910,
  "jury": 5911,
  "defenders": 5912,
  "2,000": 5913,
  "tis": 5914,
  "genuine": 5915,
  "photographs": 5916,
  "Tom@@": 5917,
  "kers": 5918,
  "revolution": 5919,
  "accomplishments": 5920,
  "debuted": 5921,
  "concentration": 5922,
  "elder": 5923,
  "Hel@@": 5924,
  "gar@@": 5925,
  "discipline": 5926,
  "ping": 5927,
  "clothing": 5928,
  "Connecticut": 5929,
  "Ly@@": 5930,
  "constituted": 5931,
  "relate": 5932,
  "1927": 5933,
  "organisation": 5934,
  "retain": 5935,
  "lu@@": 5936,
  "iss@@": 5937,
  "Rico": 5938,
  "referring": 5939,
  "alists": 5940,
  "forthcoming": 5941,
  "villages": 5942,
  "Main": 5943,
  "enc@@": 5944,
  "Cuban": 5945,
  "Acting": 5946,
  "tin": 5947,
  "seed": 5948,
  "surveys": 5949,
  "Mun@@": 5950,
  "HRC": 5951,
  "Kazakhstan": 5952,
  "detainees": 5953,
  "delayed": 5954,
  "solve": 5955,
  "ABC": 5956,
  "cultures": 5957,
  "lifetime": 5958,
  "Chapter": 5959,
  "characterized": 5960,
  "procedural": 5961,
  "Budget": 5962,
  "Murray": 5963,
  "Fu@@": 5964,
  "advances": 5965,
  "transfers": 5966,
  "dinner": 5967,
  "defended": 5968,
  "discharge": 5969,
  "Commerce": 5970,
  "Cam@@": 5971,
  "ali": 5972,
  "exactly": 5973,
  "elderly": 5974,
  "delegates": 5975,
  "Orleans": 5976,
  "ö@@": 5977,
  "cooperative": 5978,
  "promised": 5979,
  "gan@@": 5980,
  "hill": 5981,
  "250": 5982,
  "Transport": 5983,
  "interference": 5984,
  "ison": 5985,
  "handle": 5986,
  "si": 5987,
  "tables": 5988,
  "Integrated": 5989,
  "supposed": 5990,
  "donated": 5991,
  "severely": 5992,
  "gay": 5993,
  "preferred": 5994,
  "LA@@": 5995,
  "suggestion": 5996,
  "NHL": 5997,
  "CH@@": 5998,
  "Mount": 5999,
  "monetary": 6000,
  "Tro@@": 6001,
  "mandatory": 6002,
  "mitigation": 6003,
  "bri@@": 6004,
  "corner": 6005,
  "Stockholm": 6006,
  "Bri@@": 6007,
  "bre@@": 6008,
  "transformation": 6009,
  "businessman": 6010,
  "SBI": 6011,
  "My@@": 6012,
  "bin": 6013,
  "aggression": 6014,
  "ize": 6015,
  "reporter": 6016,
  "instances": 6017,
  "appointments": 6018,
  "Medicine": 6019,
  "hu@@": 6020,
  "Super@@": 6021,
  "FA@@": 6022,
  "skill": 6023,
  "Austin": 6024,
  "Carter": 6025,
  "Land@@": 6026,
  "Knight": 6027,
  "spite": 6028,
  "judgement": 6029,
  "ES": 6030,
  "adjustments": 6031,
  "knows": 6032,
  "competing": 6033,
  "waters": 6034,
  "RC": 6035,
  "leads": 6036,
  "Work": 6037,
  "Singh": 6038,
  "Kin@@": 6039,
  "FIFA": 6040,
  "ame": 6041,
  "IP@@": 6042,
  "anger": 6043,
  "Doha": 6044,
  "Iranian": 6045,
  "Branch": 6046,
  "Labor": 6047,
  "printing": 6048,
  "Gre@@": 6049,
  "ammunition": 6050,
  "negotiating": 6051,
  "elle": 6052,
  "See": 6053,
  "lock": 6054,
  "Eric": 6055,
  "consequence": 6056,
  "delays": 6057,
  "preserve": 6058,
  "writings": 6059,
  "afraid": 6060,
  "customary": 6061,
  "operative": 6062,
  "protocol": 6063,
  "Infantry": 6064,
  "sick": 6065,
  "Cas@@": 6066,
  "unsuccessful": 6067,
  "hor@@": 6068,
  "Ros@@": 6069,
  "1923": 6070,
  "ranks": 6071,
  "K.": 6072,
  "designer": 6073,
  "Uruguay": 6074,
  "alize": 6075,
  "Rec@@": 6076,
  "Na@@": 6077,
  "slightly": 6078,
  "assume": 6079,
  "interviewed": 6080,
  "streets": 6081,
  "outputs": 6082,
  "movies": 6083,
  "invite": 6084,
  "1926": 6085,
  "circuit": 6086,
  "ori@@": 6087,
  "tz": 6088,
  "error": 6089,
  "ap": 6090,
  "Graham": 6091,
  "forming": 6092,
  "necessity": 6093,
  "Grant": 6094,
  "Treatment": 6095,
  "Sun@@": 6096,
  "explosive": 6097,
  "How": 6098,
  "Capital": 6099,
  "rounds": 6100,
  "zer": 6101,
  "Adam": 6102,
  "Alabama": 6103,
  "Benjamin": 6104,
  "passage": 6105,
  "Design": 6106,
  "episodes": 6107,
  "venture": 6108,
  "vers": 6109,
  "Independence": 6110,
  "enforced": 6111,
  "AP@@": 6112,
  "gift": 6113,
  "converted": 6114,
  "Process": 6115,
  "amongst": 6116,
  "saving": 6117,
  "tons": 6118,
  "consolidation": 6119,
  "deals": 6120,
  "apartment": 6121,
  "orientation": 6122,
  "formerly": 6123,
  "12.@@": 6124,
  "Dr@@": 6125,
  "Point": 6126,
  "scholar": 6127,
  "Industry": 6128,
  "notification": 6129,
  "extraordinary": 6130,
  "transaction": 6131,
  "closure": 6132,
  "damaged": 6133,
  "ake": 6134,
  "frequency": 6135,
  "placing": 6136,
  "10th": 6137,
  "testimony": 6138,
  "neighbouring": 6139,
  "boards": 6140,
  "equ@@": 6141,
  "commerce": 6142,
  "Chad": 6143,
  "ella": 6144,
  "ack@@": 6145,
  "Sixth": 6146,
  "SC@@": 6147,
  "poem": 6148,
  "Franklin": 6149,
  "Study": 6150,
  "servants": 6151,
  "portrayed": 6152,
  "C.1": 6153,
  "Ji@@": 6154,
  "Rica": 6155,
  "opponent": 6156,
  "Bruce": 6157,
  "MA": 6158,
  "Pu@@": 6159,
  "excessive": 6160,
  "happiness": 6161,
  "careful": 6162,
  "telling": 6163,
  "experiment": 6164,
  "applies": 6165,
  "pictures": 6166,
  "authored": 6167,
  "Dem@@": 6168,
  "Committees": 6169,
  "MI@@": 6170,
  "installed": 6171,
  "restore": 6172,
  "ethics": 6173,
  "concerts": 6174,
  "Indians": 6175,
  "treat": 6176,
  "drove": 6177,
  "surprise": 6178,
  "Crown": 6179,
  "wine": 6180,
  "Salvador": 6181,
  "Es@@": 6182,
  "Austrian": 6183,
  "pursuing": 6184,
  "supporter": 6185,
  "laboratory": 6186,
  "laundering": 6187,
  "peacebuilding": 6188,
  "exchanges": 6189,
  "dress": 6190,
  "Evans": 6191,
  "terrorists": 6192,
  "underlying": 6193,
  "returns": 6194,
  "intolerance": 6195,
  "che@@": 6196,
  "Qatar": 6197,
  "sending": 6198,
  "celebrated": 6199,
  "absolute": 6200,
  "ova": 6201,
  "Interior": 6202,
  "leg@@": 6203,
  "yan": 6204,
  "Wisconsin": 6205,
  "pregnancy": 6206,
  "continuation": 6207,
  "Castle": 6208,
  "100,000": 6209,
  "ministry": 6210,
  "prosecutors": 6211,
  "Cabinet": 6212,
  "soft": 6213,
  "aviation": 6214,
  "penalties": 6215,
  "Tur@@": 6216,
  "encountered": 6217,
  "helps": 6218,
  "Lawrence": 6219,
  "earthquake": 6220,
  "Freedom": 6221,
  "wrestling": 6222,
  "Works": 6223,
  "imperial": 6224,
  "somewhat": 6225,
  "repair": 6226,
  "ace": 6227,
  "Ren@@": 6228,
  "Sim@@": 6229,
  "Tanzania": 6230,
  "facilitated": 6231,
  "proceeds": 6232,
  "101": 6233,
  "saved": 6234,
  "ory": 6235,
  "beating": 6236,
  "Iowa": 6237,
  "Ph@@": 6238,
  "beings": 6239,
  "cap@@": 6240,
  "observe": 6241,
  "capability": 6242,
  "receipt": 6243,
  "Reserve": 6244,
  "Islam": 6245,
  "liaison": 6246,
  "Sub": 6247,
  "airport": 6248,
  "cal@@": 6249,
  "doubles": 6250,
  "obvious": 6251,
  "analytical": 6252,
  "Procedure": 6253,
  "EC": 6254,
  "attendance": 6255,
  "1912": 6256,
  "withdraw": 6257,
  "Sab@@": 6258,
  "Gra@@": 6259,
  "accountable": 6260,
  "Stone": 6261,
  "limitations": 6262,
  "UNCITRAL": 6263,
  "Brothers": 6264,
  "bases": 6265,
  "ades": 6266,
  "consumers": 6267,
  "classic": 6268,
  "Doctor": 6269,
  "upcoming": 6270,
  "Use": 6271,
  "twentieth": 6272,
  "Basel": 6273,
  "Bar": 6274,
  "Trump": 6275,
  "aki": 6276,
  "Increased": 6277,
  "Jimmy": 6278,
  "Introduction": 6279,
  "ser@@": 6280,
  "compulsory": 6281,
  "Pin@@": 6282,
  "tend": 6283,
  "Investment": 6284,
  "&#124;": 6285,
  "impressed": 6286,
  "hazardous": 6287,
  "enti@@": 6288,
  "commonly": 6289,
  "profits": 6290,
  "liberal": 6291,
  "gonna": 6292,
  "landed": 6293,
  "fifteen": 6294,
  "depends": 6295,
  "XI": 6296,
  "Rangers": 6297,
  "condemned": 6298,
  "messages": 6299,
  "restoration": 6300,
  "rell": 6301,
  "releases": 6302,
  "fail": 6303,
  "versions": 6304,
  "www.un.org": 6305,
  "writes": 6306,
  "Baker": 6307,
  "dramatic": 6308,
  "zed": 6309,
  "gl@@": 6310,
  "alcohol": 6311,
  "ited": 6312,
  "Whit@@": 6313,
  "rooms": 6314,
  "Libyan": 6315,
  "Chen": 6316,
  "alternatives": 6317,
  "Bou@@": 6318,
  "leaves": 6319,
  "museum": 6320,
  "Add.@@": 6321,
  "jo": 6322,
  "iti@@": 6323,
  "Kevin": 6324,
  "IN": 6325,
  "ora": 6326,
  "mode": 6327,
  "Senegal": 6328,
  "Dan": 6329,
  "pertaining": 6330,
  "incorporate": 6331,
  "involves": 6332,
  "Catherine": 6333,
  "comprising": 6334,
  "coalition": 6335,
  "1930s": 6336,
  "exclusive": 6337,
  "Roger": 6338,
  "evaluations": 6339,
  "recall": 6340,
  "freely": 6341,
  "sentences": 6342,
  "000": 6343,
  "1910": 6344,
  "SO@@": 6345,
  "Adviser": 6346,
  "breach": 6347,
  "faces": 6348,
  "biodiversity": 6349,
  "amounted": 6350,
  "usual": 6351,
  "Tunisia": 6352,
  "Rev.1": 6353,
  "fleet": 6354,
  "water@@": 6355,
  "Hungarian": 6356,
  "amateur": 6357,
  "expensive": 6358,
  "roots": 6359,
  "of@@": 6360,
  "consisted": 6361,
  "har": 6362,
  "harmful": 6363,
  "Hy@@": 6364,
  "Raj@@": 6365,
  "relates": 6366,
  "voters": 6367,
  "ron": 6368,
  "contents": 6369,
  "Democrat": 6370,
  "parent": 6371,
  "displacement": 6372,
  "pursuit": 6373,
  "withdrew": 6374,
  "incurred": 6375,
  "incentives": 6376,
  "wages": 6377,
  "constantly": 6378,
  "advantages": 6379,
  "oldest": 6380,
  "inc@@": 6381,
  "accomplished": 6382,
  "Cu@@": 6383,
  "CA": 6384,
  "renewable": 6385,
  "installation": 6386,
  "DE@@": 6387,
  "oring": 6388,
  "guy": 6389,
  "SBSTA": 6390,
  "strictly": 6391,
  "Hi@@": 6392,
  "nutrition": 6393,
  "towns": 6394,
  "Most": 6395,
  "adapted": 6396,
  "vis": 6397,
  "Employment": 6398,
  "Pat@@": 6399,
  "alive": 6400,
  "Je@@": 6401,
  "exclusively": 6402,
  "Proliferation": 6403,
  "Be": 6404,
  "List": 6405,
  "Ol@@": 6406,
  "sectoral": 6407,
  "forget": 6408,
  "assessing": 6409,
  "depend": 6410,
  "signal": 6411,
  "Nar@@": 6412,
  "Yang": 6413,
  "Ka@@": 6414,
  "IF@@": 6415,
  "perceived": 6416,
  "tested": 6417,
  "Dan@@": 6418,
  "undertook": 6419,
  "extensively": 6420,
  "walking": 6421,
  "inequality": 6422,
  "tag": 6423,
  "landscape": 6424,
  "vocal": 6425,
  "marks": 6426,
  "Milan": 6427,
  "ito": 6428,
  "credits": 6429,
  "consultants": 6430,
  "ast": 6431,
  "Mississippi": 6432,
  "ple@@": 6433,
  "lectures": 6434,
  "load": 6435,
  "umb@@": 6436,
  "conversion": 6437,
  "ranging": 6438,
  "Gulf": 6439,
  "vessels": 6440,
  "cuts": 6441,
  "anc@@": 6442,
  "eventual": 6443,
  "pp@@": 6444,
  "manufacture": 6445,
  "deprived": 6446,
  "designs": 6447,
  "ath@@": 6448,
  "enormous": 6449,
  "bone": 6450,
  "Morris": 6451,
  "securities": 6452,
  "dimensions": 6453,
  "Imperial": 6454,
  "immigrants": 6455,
  "questioned": 6456,
  "ă@@": 6457,
  "worse": 6458,
  "imprisoned": 6459,
  "slowly": 6460,
  "transitional": 6461,
  "Do": 6462,
  "interactive": 6463,
  "comic": 6464,
  "Band": 6465,
  "retiring": 6466,
  "balances": 6467,
  "nonetheless": 6468,
  "commentary": 6469,
  "AC@@": 6470,
  "Donald": 6471,
  "graphic": 6472,
  "lan@@": 6473,
  "announcement": 6474,
  "Four": 6475,
  "mm": 6476,
  "naval": 6477,
  "fin@@": 6478,
  "unusual": 6479,
  "Conventions": 6480,
  "holder": 6481,
  "Bab@@": 6482,
  "wealthy": 6483,
  "Reform": 6484,
  "eman": 6485,
  "wild": 6486,
  "biennial": 6487,
  "politically": 6488,
  "collecting": 6489,
  "Heads": 6490,
  "physics": 6491,
  "hn@@": 6492,
  "aired": 6493,
  "nice": 6494,
  "opponents": 6495,
  "jo@@": 6496,
  "survival": 6497,
  "intensive": 6498,
  "organic": 6499,
  "liabilities": 6500,
  "Parliamentary": 6501,
  "unto": 6502,
  "abortion": 6503,
  "Arms": 6504,
  "negotiated": 6505,
  "110": 6506,
  "She": 6507,
  "asi@@": 6508,
  "literacy": 6509,
  "spoken": 6510,
  "honored": 6511,
  "ć": 6512,
  "coherent": 6513,
  "contractual": 6514,
  "traditions": 6515,
  "documented": 6516,
  "campus": 6517,
  "gathering": 6518,
  "Dave": 6519,
  "simultaneously": 6520,
  "til@@": 6521,
  "demanded": 6522,
  "aka": 6523,
  "architect": 6524,
  "outbreak": 6525,
  "ert": 6526,
  "Kil@@": 6527,
  "Ran@@": 6528,
  "Gor@@": 6529,
  "autonomous": 6530,
  "Bra@@": 6531,
  "providers": 6532,
  "900": 6533,
  "Occupied": 6534,
  "Bulgaria": 6535,
  "spare": 6536,
  "izing": 6537,
  "ving": 6538,
  "rescue": 6539,
  "administering": 6540,
  "nationally": 6541,
  "commodities": 6542,
  ",0@@": 6543,
  "burn": 6544,
  "pretty": 6545,
  "fr@@": 6546,
  "MDGs": 6547,
  "dimension": 6548,
  "exceptional": 6549,
  "Dor@@": 6550,
  "tur@@": 6551,
  "renamed": 6552,
  "Station": 6553,
  "ESCAP": 6554,
  "Cat@@": 6555,
  "Theater": 6556,
  "transmit": 6557,
  "Egyptian": 6558,
  "parameters": 6559,
  "ologist": 6560,
  "existed": 6561,
  "pose": 6562,
  "Base": 6563,
  "ero": 6564,
  "necessarily": 6565,
  "influences": 6566,
  "Bat@@": 6567,
  "sphere": 6568,
  "Mali": 6569,
  "edge": 6570,
  "105": 6571,
  "acquire": 6572,
  "fisheries": 6573,
  "Ban": 6574,
  "Sand@@": 6575,
  "flowers": 6576,
  "ei@@": 6577,
  "Billy": 6578,
  "tel@@": 6579,
  "18@@": 6580,
  "Real": 6581,
  "Chemical": 6582,
  "uniform": 6583,
  "vo@@": 6584,
  "teammate": 6585,
  "rice": 6586,
  "Birmingham": 6587,
  "attitudes": 6588,
  "rep@@": 6589,
  "fy": 6590,
  "tensions": 6591,
  "lyrics": 6592,
  "channels": 6593,
  "Reduction": 6594,
  "appoint": 6595,
  "Assessment": 6596,
  "pol@@": 6597,
  "maker": 6598,
  "persistent": 6599,
  "30@@": 6600,
  "Yale": 6601,
  "Carlos": 6602,
  "visitors": 6603,
  "surveillance": 6604,
  "indicating": 6605,
  "magazines": 6606,
  "accommodation": 6607,
  "ty@@": 6608,
  "alliance": 6609,
  "easier": 6610,
  "hockey": 6611,
  "fallen": 6612,
  "aw": 6613,
  "Counter": 6614,
  "transmitting": 6615,
  "tes": 6616,
  "Front": 6617,
  "gh": 6618,
  "illa": 6619,
  "Yu@@": 6620,
  "curriculum": 6621,
  "averaged": 6622,
  "ners": 6623,
  "profession": 6624,
  "Hitler": 6625,
  "instruction": 6626,
  "organisations": 6627,
  "alizing": 6628,
  "fate": 6629,
  "rely": 6630,
  "sha@@": 6631,
  ".org": 6632,
  "sized": 6633,
  "affair": 6634,
  "demobilization": 6635,
  "pur@@": 6636,
  "hydro@@": 6637,
  "TA@@": 6638,
  "ocean": 6639,
  "NBC": 6640,
  "poly@@": 6641,
  "1911": 6642,
  "radical": 6643,
  "Workers": 6644,
  "firmly": 6645,
  "videos": 6646,
  "RO@@": 6647,
  "select": 6648,
  "compiled": 6649,
  "ken": 6650,
  "exhibited": 6651,
  "Gro@@": 6652,
  "publish": 6653,
  "engaging": 6654,
  "CBS": 6655,
  "depending": 6656,
  "detection": 6657,
  "juvenile": 6658,
  "satisfied": 6659,
  "coffee": 6660,
  "sec@@": 6661,
  "zi": 6662,
  "963": 6663,
  "Mitchell": 6664,
  "push": 6665,
  "Roberts": 6666,
  "sol@@": 6667,
  "logical": 6668,
  "fewer": 6669,
  "29@@": 6670,
  "occupying": 6671,
  "prescribed": 6672,
  "ays": 6673,
  "typically": 6674,
  "Alice": 6675,
  "objection": 6676,
  "occasionally": 6677,
  "ular": 6678,
  "pulled": 6679,
  "GEF": 6680,
  "1913": 6681,
  "repatriation": 6682,
  "Rad@@": 6683,
  "dual": 6684,
  "quantity": 6685,
  "ped": 6686,
  "runner": 6687,
  "stein": 6688,
  "End": 6689,
  "IX": 6690,
  "addresses": 6691,
  "Bolivia": 6692,
  "familiar": 6693,
  "tion@@": 6694,
  "ello": 6695,
  "Muhammad": 6696,
  "constructed": 6697,
  "fication": 6698,
  "Roy": 6699,
  "environmentally": 6700,
  "remarkable": 6701,
  "watching": 6702,
  "Des@@": 6703,
  "3,000": 6704,
  "colour": 6705,
  "Delhi": 6706,
  "shoulder": 6707,
  "Inc": 6708,
  "sson": 6709,
  "Giants": 6710,
  "Of": 6711,
  "Parker": 6712,
  "exclusion": 6713,
  "mathematics": 6714,
  "grass": 6715,
  "Collins": 6716,
  "inner": 6717,
  "š@@": 6718,
  "discovery": 6719,
  "gaining": 6720,
  "cul@@": 6721,
  "camera": 6722,
  "Up": 6723,
  "premiered": 6724,
  "ati": 6725,
  "ili@@": 6726,
  "backed": 6727,
  "Pierre": 6728,
  "Alfred": 6729,
  "fruit": 6730,
  "meaningful": 6731,
  "measurement": 6732,
  "On@@": 6733,
  "Kan@@": 6734,
  "IC": 6735,
  "Intergovernmental": 6736,
  "Panama": 6737,
  "ture": 6738,
  "portrait": 6739,
  "Christopher": 6740,
  "therapy": 6741,
  "Racial": 6742,
  "ip@@": 6743,
  "ward": 6744,
  "spell": 6745,
  "approve": 6746,
  "eu@@": 6747,
  "ious": 6748,
  "Mediterranean": 6749,
  "plate": 6750,
  "prisoner": 6751,
  "prisons": 6752,
  "haven": 6753,
  "ideal": 6754,
  "fa@@": 6755,
  "collections": 6756,
  "feelings": 6757,
  "Manhattan": 6758,
  "28@@": 6759,
  "Johnny": 6760,
  "emotional": 6761,
  "entertainment": 6762,
  "tea": 6763,
  "Da@@": 6764,
  "Bun@@": 6765,
  "chi": 6766,
  "shi@@": 6767,
  "wake": 6768,
  "Wu": 6769,
  "highlight": 6770,
  "Au@@": 6771,
  "dri@@": 6772,
  "dominated": 6773,
  "mutually": 6774,
  "widow": 6775,
  "wastes": 6776,
  "Mis@@": 6777,
  "experiments": 6778,
  "Trophy": 6779,
  "Emergency": 6780,
  "Session": 6781,
  "advocated": 6782,
  "restructuring": 6783,
  "hurt": 6784,
  "Tournament": 6785,
  "Romanian": 6786,
  "Customs": 6787,
  "mobility": 6788,
  "disciplinary": 6789,
  "districts": 6790,
  "Hot": 6791,
  "hole": 6792,
  "lers": 6793,
  "scenes": 6794,
  "mere": 6795,
  "oun@@": 6796,
  "Square": 6797,
  "ads": 6798,
  "11@@": 6799,
  "ots": 6800,
  "sm@@": 6801,
  "Ap@@": 6802,
  "P.@@": 6803,
  "shelter": 6804,
  "flat": 6805,
  "Black@@": 6806,
  "argues": 6807,
  "metres": 6808,
  "facilitation": 6809,
  "measured": 6810,
  "MS": 6811,
  "classification": 6812,
  "formulate": 6813,
  "lo": 6814,
  "Cooper": 6815,
  "nephew": 6816,
  "Tam@@": 6817,
  "Sur@@": 6818,
  "awa": 6819,
  "securing": 6820,
  "moon": 6821,
  "accelerate": 6822,
  "string": 6823,
  "legislature": 6824,
  "ich@@": 6825,
  "Annual": 6826,
  "grandson": 6827,
  "Dr": 6828,
  "ico": 6829,
  "extrabudgetary": 6830,
  "Reg@@": 6831,
  "ion@@": 6832,
  "duo": 6833,
  "WFP": 6834,
  "rugby": 6835,
  "abuses": 6836,
  "attempting": 6837,
  "ratify": 6838,
  "Athletic": 6839,
  "banned": 6840,
  "prosperity": 6841,
  "radiation": 6842,
  "hip": 6843,
  "branches": 6844,
  "electrical": 6845,
  "cat": 6846,
  "linkages": 6847,
  "modified": 6848,
  "UFC": 6849,
  "likewise": 6850,
  "siblings": 6851,
  "inspiration": 6852,
  "arise": 6853,
  "organised": 6854,
  "emphasize": 6855,
  "expulsion": 6856,
  "sharp": 6857,
  "Hay@@": 6858,
  "comparative": 6859,
  "11.@@": 6860,
  "facto": 6861,
  "Rob@@": 6862,
  "Drug": 6863,
  "advancing": 6864,
  "MO@@": 6865,
  "Dev@@": 6866,
  "fighter": 6867,
  "Abu": 6868,
  "At": 6869,
  "productions": 6870,
  "Temple": 6871,
  "supplementary": 6872,
  "witnessed": 6873,
  "certified": 6874,
  "medals": 6875,
  "typical": 6876,
  "bul@@": 6877,
  "ourselves": 6878,
  "Nicholas": 6879,
  "ement": 6880,
  "issuance": 6881,
  "eliminating": 6882,
  "bright": 6883,
  "afford": 6884,
  "busy": 6885,
  "Tim": 6886,
  "displayed": 6887,
  "corporations": 6888,
  "promptly": 6889,
  "Bay@@": 6890,
  "Sil@@": 6891,
  "Ltd": 6892,
  "Survey": 6893,
  "beaten": 6894,
  "Kor@@": 6895,
  "Cincinnati": 6896,
  "Star@@": 6897,
  "propose": 6898,
  "appreciate": 6899,
  "brings": 6900,
  "Dominican": 6901,
  "work@@": 6902,
  "Heart": 6903,
  "win@@": 6904,
  "fun": 6905,
  "essentially": 6906,
  "judgment": 6907,
  "Cameroon": 6908,
  "mil@@": 6909,
  "targeting": 6910,
  "app@@": 6911,
  "infection": 6912,
  "not@@": 6913,
  "administered": 6914,
  "escaped": 6915,
  "Page": 6916,
  "chemistry": 6917,
  "potentially": 6918,
  "Rem@@": 6919,
  "birds": 6920,
  "referendum": 6921,
  "holiday": 6922,
  "Ward": 6923,
  "bird": 6924,
  "ā@@": 6925,
  "Pur@@": 6926,
  "inputs": 6927,
  "clearance": 6928,
  "Winter": 6929,
  "indicator": 6930,
  "Trafficking": 6931,
  "Serbian": 6932,
  "Yemen": 6933,
  "zi@@": 6934,
  "exile": 6935,
  "attract": 6936,
  ".2": 6937,
  "sil@@": 6938,
  "Boys": 6939,
  "prejudice": 6940,
  "Official": 6941,
  "wouldn": 6942,
  "sy@@": 6943,
  "tennis": 6944,
  "Carl": 6945,
  "appealed": 6946,
  "Campaign": 6947,
  "entrusted": 6948,
  "bio@@": 6949,
  "Democrats": 6950,
  "OECD": 6951,
  "replies": 6952,
  "Vincent": 6953,
  "ered": 6954,
  "volumes": 6955,
  "decreased": 6956,
  "Ker@@": 6957,
  "tier": 6958,
  "Inspection": 6959,
  "Las": 6960,
  "Tal@@": 6961,
  "Ordinance": 6962,
  "lar@@": 6963,
  "coup": 6964,
  "lift": 6965,
  "genocide": 6966,
  "Educational": 6967,
  "ID": 6968,
  "calendar": 6969,
  "Mah@@": 6970,
  "quoted": 6971,
  "employer": 6972,
  "ron@@": 6973,
  "kick": 6974,
  "pitcher": 6975,
  "Hockey": 6976,
  "files": 6977,
  "ock": 6978,
  "lat@@": 6979,
  "rushing": 6980,
  "logistics": 6981,
  "aging": 6982,
  "distinct": 6983,
  "salaries": 6984,
  "Girls": 6985,
  "pan@@": 6986,
  "Max": 6987,
  "acid": 6988,
  "Tigers": 6989,
  "Mongolia": 6990,
  "Nam": 6991,
  "1.5": 6992,
  "Ombudsman": 6993,
  "Combat": 6994,
  "answered": 6995,
  "designing": 6996,
  "Intelligence": 6997,
  "settle": 6998,
  "Tan@@": 6999,
  "OR@@": 7000,
  "deadline": 7001,
  "ll": 7002,
  "1900": 7003,
  "ham@@": 7004,
  "hometown": 7005,
  "attributable": 7006,
  "102": 7007,
  "1907": 7008,
  "ith": 7009,
  "Brussels": 7010,
  "Kent": 7011,
  "Gary": 7012,
  "Baron": 7013,
  "physician": 7014,
  "off@@": 7015,
  "dic@@": 7016,
  "manual": 7017,
  "Mak@@": 7018,
  "Mol@@": 7019,
  "biography": 7020,
  "arguments": 7021,
  "ez": 7022,
  "tan@@": 7023,
  "maintains": 7024,
  "ities": 7025,
  "qualify": 7026,
  "All@@": 7027,
  "Kam@@": 7028,
  "Sin@@": 7029,
  "Lam@@": 7030,
  "height": 7031,
  "cruel": 7032,
  "eating": 7033,
  "ets": 7034,
  "appreciated": 7035,
  "throw": 7036,
  "competitions": 7037,
  "computers": 7038,
  "impressive": 7039,
  "inhabitants": 7040,
  "ula": 7041,
  "socialist": 7042,
  "cup": 7043,
  "ticket": 7044,
  "West@@": 7045,
  "ces": 7046,
  "launching": 7047,
  "colonel": 7048,
  "ums": 7049,
  "falls": 7050,
  "challenging": 7051,
  "ami": 7052,
  "hon@@": 7053,
  "č@@": 7054,
  "ear": 7055,
  "FCCC": 7056,
  "199@@": 7057,
  "ech@@": 7058,
  "Modern": 7059,
  "favourable": 7060,
  "subparagraph": 7061,
  "tight": 7062,
  "IPSAS": 7063,
  "memorial": 7064,
  "50,000": 7065,
  "elli": 7066,
  "fre@@": 7067,
  "proceeded": 7068,
  "Mauritius": 7069,
  "Command": 7070,
  "1908": 7071,
  "fame": 7072,
  "beliefs": 7073,
  "ports": 7074,
  "divisions": 7075,
  "ensured": 7076,
  "Hughes": 7077,
  "qualification": 7078,
  "CP@@": 7079,
  "zing": 7080,
  "thoughts": 7081,
  "Queensland": 7082,
  "aga": 7083,
  "impose": 7084,
  "photo": 7085,
  "eng": 7086,
  "tension": 7087,
  "ft": 7088,
  "noise": 7089,
  "Directorate": 7090,
  "Dance": 7091,
  "evident": 7092,
  "soccer": 7093,
  "partial": 7094,
  "jump": 7095,
  "credibility": 7096,
  "ming": 7097,
  "margin": 7098,
  "ez@@": 7099,
  "od": 7100,
  "Outer": 7101,
  "stroke": 7102,
  "flew": 7103,
  "Nicaragua": 7104,
  "zero": 7105,
  "Met@@": 7106,
  "furniture": 7107,
  "chi@@": 7108,
  "sin@@": 7109,
  "railway": 7110,
  "presenting": 7111,
  "Zimbabwe": 7112,
  "pitched": 7113,
  "hosting": 7114,
  "landing": 7115,
  "steady": 7116,
  "paint": 7117,
  "coached": 7118,
  "SP": 7119,
  "Penal": 7120,
  "rer": 7121,
  "Turner": 7122,
  "ric@@": 7123,
  "praise": 7124,
  "Disabilities": 7125,
  "miss": 7126,
  "ST": 7127,
  "historians": 7128,
  "Camp": 7129,
  "ables": 7130,
  "abilities": 7131,
  "Standard": 7132,
  "Ci@@": 7133,
  "Guidelines": 7134,
  "ure@@": 7135,
  "itz": 7136,
  "gen": 7137,
  "ey@@": 7138,
  "compromise": 7139,
  "mechanical": 7140,
  "confirm": 7141,
  "macroeconomic": 7142,
  "Economics": 7143,
  "genetic": 7144,
  "Roosevelt": 7145,
  "victories": 7146,
  "avi@@": 7147,
  "rendered": 7148,
  "ising": 7149,
  "Officers": 7150,
  "mediation": 7151,
  "kids": 7152,
  "automatic": 7153,
  "ani@@": 7154,
  "malaria": 7155,
  "down@@": 7156,
  "bachelor": 7157,
  "stepped": 7158,
  "milk": 7159,
  "bishop": 7160,
  "raw": 7161,
  "Issues": 7162,
  "harmonization": 7163,
  "partially": 7164,
  "pleasure": 7165,
  "prospect": 7166,
  "bal@@": 7167,
  "thereof": 7168,
  "ambassador": 7169,
  "narrow": 7170,
  "analyses": 7171,
  "Woods": 7172,
  "insisted": 7173,
  "Libya": 7174,
  "restored": 7175,
  "solely": 7176,
  "Standards": 7177,
  "investigating": 7178,
  "Transitional": 7179,
  "Bissau": 7180,
  "disappearance": 7181,
  "mid@@": 7182,
  "admission": 7183,
  "publisher": 7184,
  "EN@@": 7185,
  "Gl@@": 7186,
  "citing": 7187,
  "visible": 7188,
  "excluded": 7189,
  "phrase": 7190,
  "Guard": 7191,
  "squ@@": 7192,
  "reductions": 7193,
  "Helen": 7194,
  "granting": 7195,
  "ater": 7196,
  "calculated": 7197,
  "Housing": 7198,
  "momentum": 7199,
  "imports": 7200,
  "Fine": 7201,
  "Tibet": 7202,
  "conversation": 7203,
  "ther": 7204,
  "weekend": 7205,
  "centuries": 7206,
  "protests": 7207,
  "Bir@@": 7208,
  "borne": 7209,
  "1905": 7210,
  "merits": 7211,
  "intense": 7212,
  "PR@@": 7213,
  "militia": 7214,
  "arch@@": 7215,
  "Murphy": 7216,
  "Treasury": 7217,
  "Garden": 7218,
  "Charlotte": 7219,
  "kes": 7220,
  "declarations": 7221,
  "sign@@": 7222,
  "Out": 7223,
  "Spring": 7224,
  "ultimate": 7225,
  "Line": 7226,
  "adi": 7227,
  "quiet": 7228,
  "Montenegro": 7229,
  "correspondence": 7230,
  "Leeds": 7231,
  "DVD": 7232,
  "mobilize": 7233,
  "legacy": 7234,
  "preservation": 7235,
  "1906": 7236,
  "romantic": 7237,
  "103": 7238,
  "Ten": 7239,
  "lastly": 7240,
  "license": 7241,
  "psychology": 7242,
  "revolutionary": 7243,
  "drought": 7244,
  "Sox": 7245,
  "surviving": 7246,
  "certification": 7247,
  "circle": 7248,
  "sufficiently": 7249,
  "Relief": 7250,
  "theoretical": 7251,
  "accounted": 7252,
  "fying": 7253,
  "FDI": 7254,
  "appropriation": 7255,
  "Masters": 7256,
  "dy@@": 7257,
  "elling": 7258,
  "Urban": 7259,
  "gro@@": 7260,
  "inherited": 7261,
  "ban@@": 7262,
  "fax": 7263,
  "à": 7264,
  "carries": 7265,
  "IL@@": 7266,
  "briefings": 7267,
  "rap@@": 7268,
  "sia": 7269,
  "S.@@": 7270,
  "vocalist": 7271,
  "infant": 7272,
  "ga@@": 7273,
  "classified": 7274,
  "seekers": 7275,
  "eli@@": 7276,
  "Mari@@": 7277,
  "head@@": 7278,
  "ii": 7279,
  "NLB": 7280,
  "mi": 7281,
  "sample": 7282,
  "dly": 7283,
  "Alex": 7284,
  "communicate": 7285,
  "subsidies": 7286,
  "reception": 7287,
  "inaugural": 7288,
  "ela": 7289,
  "sin": 7290,
  "IMF": 7291,
  "Tim@@": 7292,
  "describing": 7293,
  "pushed": 7294,
  "tribunal": 7295,
  "starter": 7296,
  "Socialist": 7297,
  "Den@@": 7298,
  "landlocked": 7299,
  "PO@@": 7300,
  "Stars": 7301,
  "xenophobia": 7302,
  "ide@@": 7303,
  "ote": 7304,
  "111": 7305,
  "bo": 7306,
  "km": 7307,
  "Will": 7308,
  "Jeff": 7309,
  "Corruption": 7310,
  "Corr.1": 7311,
  "storm": 7312,
  "plot": 7313,
  "Cou@@": 7314,
  "portfolio": 7315,
  "Albania": 7316,
  "27@@": 7317,
  "Wood": 7318,
  "rarely": 7319,
  "gre@@": 7320,
  "ard@@": 7321,
  "Edwards": 7322,
  "PC": 7323,
  "Uzbekistan": 7324,
  "accuracy": 7325,
  "inning": 7326,
  "Victor": 7327,
  "ances": 7328,
  "une": 7329,
  "Chelsea": 7330,
  "guests": 7331,
  "Quebec": 7332,
  "ori": 7333,
  "consult": 7334,
  "innocent": 7335,
  "Five": 7336,
  "defending": 7337,
  "Systems": 7338,
  "Entertainment": 7339,
  "prince": 7340,
  "crossing": 7341,
  "destination": 7342,
  "ett": 7343,
  "tim@@": 7344,
  "ON": 7345,
  "willingness": 7346,
  "disclosure": 7347,
  "complexity": 7348,
  "AC": 7349,
  "concentrated": 7350,
  "longest": 7351,
  "ential": 7352,
  "specialist": 7353,
  "Barbara": 7354,
  "spokesman": 7355,
  "characteristic": 7356,
  "lim@@": 7357,
  "crash": 7358,
  "hitting": 7359,
  "dered": 7360,
  "1.2": 7361,
  "fac@@": 7362,
  "bomb": 7363,
  "ush@@": 7364,
  "disseminate": 7365,
  "beneficiaries": 7366,
  "hero": 7367,
  "memorandum": 7368,
  "Cook": 7369,
  "arriving": 7370,
  "Bad@@": 7371,
  "foundations": 7372,
  "Tre@@": 7373,
  "excess": 7374,
  "struggled": 7375,
  "Hawaii": 7376,
  "bas@@": 7377,
  "rookie": 7378,
  "Ob@@": 7379,
  "11th": 7380,
  "integrating": 7381,
  "Woman": 7382,
  "reg@@": 7383,
  "Father": 7384,
  "Kir@@": 7385,
  "acute": 7386,
  "Appeal": 7387,
  "crown": 7388,
  "warned": 7389,
  "connections": 7390,
  "Lloyd": 7391,
  "Has@@": 7392,
  "credible": 7393,
  "Lev@@": 7394,
  "Buffalo": 7395,
  "unprecedented": 7396,
  "unanimous": 7397,
  "diagnosed": 7398,
  "Manager": 7399,
  "separately": 7400,
  "Mir@@": 7401,
  "decent": 7402,
  "reinforce": 7403,
  "residential": 7404,
  "layer": 7405,
  "freshman": 7406,
  "regret": 7407,
  "DA@@": 7408,
  "shipping": 7409,
  "interpreted": 7410,
  "presentations": 7411,
  "Welsh": 7412,
  "Ukrainian": 7413,
  "temporarily": 7414,
  "lowest": 7415,
  "1909": 7416,
  "pping": 7417,
  "servicing": 7418,
  "Malta": 7419,
  "negotiate": 7420,
  "Tra@@": 7421,
  "Girl": 7422,
  "Pel@@": 7423,
  "grandmother": 7424,
  "tro@@": 7425,
  "conducive": 7426,
  "Ma": 7427,
  "complement": 7428,
  "resume": 7429,
  "don@@": 7430,
  "blind": 7431,
  "Our": 7432,
  "tries": 7433,
  "stipulated": 7434,
  "....": 7435,
  "servant": 7436,
  "emphasizing": 7437,
  "lady": 7438,
  "merchant": 7439,
  "explicitly": 7440,
  "Ur@@": 7441,
  "Andy": 7442,
  "Archbishop": 7443,
  "Distinguished": 7444,
  "confident": 7445,
  "nominations": 7446,
  "Slovenia": 7447,
  "They": 7448,
  "char@@": 7449,
  "mel@@": 7450,
  "playoffs": 7451,
  "Utah": 7452,
  "buying": 7453,
  "tours": 7454,
  "analyzed": 7455,
  "desertification": 7456,
  "mix": 7457,
  "ours": 7458,
  "Lithuania": 7459,
  "ius": 7460,
  "Harrison": 7461,
  "guns": 7462,
  "competitiveness": 7463,
  "scores": 7464,
  "Strip": 7465,
  "wise": 7466,
  "Election": 7467,
  "Viet": 7468,
  "photography": 7469,
  "contractors": 7470,
  "zz@@": 7471,
  "18th": 7472,
  "recover": 7473,
  "ballot": 7474,
  "veteran": 7475,
  "tone": 7476,
  "decisive": 7477,
  "104": 7478,
  "ben@@": 7479,
  "systematically": 7480,
  "profound": 7481,
  "med": 7482,
  "CO": 7483,
  "ée": 7484,
  "Their": 7485,
  "islands": 7486,
  "destroy": 7487,
  "embarked": 7488,
  "noticed": 7489,
  "discussing": 7490,
  "ck": 7491,
  "Med@@": 7492,
  "volunteers": 7493,
  "Vegas": 7494,
  "symbol": 7495,
  "Rom@@": 7496,
  "undermine": 7497,
  "Stanford": 7498,
  "walls": 7499,
  "Warren": 7500,
  "hate": 7501,
  "sheet": 7502,
  "verse": 7503,
  "invested": 7504,
  "USD": 7505,
  "damages": 7506,
  "clarification": 7507,
  "revenues": 7508,
  "stolen": 7509,
  "Barry": 7510,
  "Natural": 7511,
  "motor": 7512,
  "Barcelona": 7513,
  "ries": 7514,
  "Leader": 7515,
  "ud": 7516,
  "preceding": 7517,
  "earnings": 7518,
  "Mountain": 7519,
  "neck": 7520,
  "Protocols": 7521,
  "bout": 7522,
  "Matt": 7523,
  "enacted": 7524,
  "Kr@@": 7525,
  "faster": 7526,
  "clarify": 7527,
  "Hague": 7528,
  "Atomic": 7529,
  "regiment": 7530,
  "Cathedral": 7531,
  "Var@@": 7532,
  "feedback": 7533,
  "invest": 7534,
  "collapse": 7535,
  "smooth": 7536,
  "Il@@": 7537,
  "quit": 7538,
  "Sy@@": 7539,
  "108": 7540,
  "Dal@@": 7541,
  "Yugoslav": 7542,
  "12th": 7543,
  "equipped": 7544,
  "ride": 7545,
  "benefited": 7546,
  "independently": 7547,
  "Brigade": 7548,
  "Dur@@": 7549,
  "130": 7550,
  "mate": 7551,
  "Circuit": 7552,
  "106": 7553,
  "Zambia": 7554,
  "Decree": 7555,
  "boxing": 7556,
  "passion": 7557,
  "disadvantaged": 7558,
  "commenced": 7559,
  "peak": 7560,
  "blocks": 7561,
  "fortune": 7562,
  "ams": 7563,
  "emp@@": 7564,
  "stores": 7565,
  "highlights": 7566,
  "immunity": 7567,
  "Way": 7568,
  "zo": 7569,
  "patent": 7570,
  "ians": 7571,
  "Welfare": 7572,
  "ger@@": 7573,
  "ram": 7574,
  "declare": 7575,
  "Evaluation": 7576,
  "courage": 7577,
  "exercises": 7578,
  "backing": 7579,
  "pal@@": 7580,
  "Wood@@": 7581,
  "Migration": 7582,
  "qui@@": 7583,
  "yellow": 7584,
  "claimant": 7585,
  "Boy": 7586,
  "possibilities": 7587,
  "regimes": 7588,
  "2.5": 7589,
  "aboard": 7590,
  "Symphony": 7591,
  "Dou@@": 7592,
  "substantially": 7593,
  "sounds": 7594,
  "autobiography": 7595,
  "ki@@": 7596,
  "traveling": 7597,
  "Gri@@": 7598,
  "logistical": 7599,
  "Care": 7600,
  "ease": 7601,
  "thorough": 7602,
  "tly": 7603,
  "deficit": 7604,
  "uck@@": 7605,
  "dynasty": 7606,
  "Ken@@": 7607,
  "explored": 7608,
  "TS": 7609,
  "Bible": 7610,
  "mistake": 7611,
  "Portland": 7612,
  "sle@@": 7613,
  "resort": 7614,
  "superior": 7615,
  "considerably": 7616,
  "adviser": 7617,
  "combatants": 7618,
  "jail": 7619,
  "Avenue": 7620,
  "Sector": 7621,
  "valued": 7622,
  "ato": 7623,
  "und": 7624,
  "defining": 7625,
  "Copenhagen": 7626,
  "proud": 7627,
  "Activities": 7628,
  "unlikely": 7629,
  "ree": 7630,
  "underground": 7631,
  "whereby": 7632,
  "exhibitions": 7633,
  "ign@@": 7634,
  "Kon@@": 7635,
  "sun@@": 7636,
  "diagnosis": 7637,
  "keen": 7638,
  "delegate": 7639,
  "sudden": 7640,
  "enhancement": 7641,
  "complicated": 7642,
  "Facility": 7643,
  "extending": 7644,
  "relocated": 7645,
  "Age": 7646,
  "Phil@@": 7647,
  "Lane": 7648,
  "obliged": 7649,
  "Warner": 7650,
  "heir": 7651,
  "applicant": 7652,
  "deposit": 7653,
  "slave": 7654,
  "pupils": 7655,
  "Friends": 7656,
  "realistic": 7657,
  "tank": 7658,
  "Leste": 7659,
  "debates": 7660,
  "Century": 7661,
  "From": 7662,
  "tall": 7663,
  "Hart": 7664,
  "1904": 7665,
  "Lions": 7666,
  "marking": 7667,
  "chamber": 7668,
  "ew": 7669,
  "rou@@": 7670,
  "IS": 7671,
  "unlawful": 7672,
  "€": 7673,
  "expense": 7674,
  "ening": 7675,
  "Common": 7676,
  "meat": 7677,
  "Norman": 7678,
  "sn@@": 7679,
  "solar": 7680,
  "Interim": 7681,
  "Closed": 7682,
  "112": 7683,
  "Denver": 7684,
  "IP": 7685,
  "ep": 7686,
  "notion": 7687,
  "rick": 7688,
  "Bernard": 7689,
  "champions": 7690,
  "theories": 7691,
  "volunteer": 7692,
  "elaborate": 7693,
  "ards": 7694,
  "municipalities": 7695,
  "AL@@": 7696,
  "joy": 7697,
  "shut": 7698,
  ".2@@": 7699,
  "advisor": 7700,
  "generating": 7701,
  "ODA": 7702,
  "uck": 7703,
  "internet": 7704,
  "proven": 7705,
  "silent": 7706,
  "Go": 7707,
  "26@@": 7708,
  "U.": 7709,
  "minors": 7710,
  "disappeared": 7711,
  "ott": 7712,
  "BA": 7713,
  "peer": 7714,
  "ID@@": 7715,
  "harmony": 7716,
  "Procurement": 7717,
  "safeguard": 7718,
  "Sahara": 7719,
  "Death": 7720,
  "rac@@": 7721,
  "1902": 7722,
  "autonomy": 7723,
  "murdered": 7724,
  "chronic": 7725,
  "ca": 7726,
  "Admiral": 7727,
  "stick": 7728,
  "collaborative": 7729,
  "dem@@": 7730,
  ".3@@": 7731,
  "gan": 7732,
  "motivated": 7733,
  "Ul@@": 7734,
  "drums": 7735,
  "contracting": 7736,
  "measuring": 7737,
  "Sen@@": 7738,
  "travelling": 7739,
  "assassination": 7740,
  "drivers": 7741,
  "Durban": 7742,
  "offset": 7743,
  "authorization": 7744,
  "Bul@@": 7745,
  "ind@@": 7746,
  "skilled": 7747,
  "counselling": 7748,
  "virtually": 7749,
  "109": 7750,
  "op": 7751,
  "Charlie": 7752,
  "Jan": 7753,
  "orally": 7754,
  "exceed": 7755,
  "21st": 7756,
  "gratitude": 7757,
  "bert": 7758,
  "franchise": 7759,
  "meter": 7760,
  "surrender": 7761,
  "shoot": 7762,
  "activists": 7763,
  "Macedonia": 7764,
  "fulfilment": 7765,
  "termination": 7766,
  "everybody": 7767,
  "scandal": 7768,
  "Can": 7769,
  "viable": 7770,
  "hardly": 7771,
  "Cairo": 7772,
  "Audit": 7773,
  "hai": 7774,
  "intensify": 7775,
  "virus": 7776,
  "kh@@": 7777,
  "Presidential": 7778,
  "V.": 7779,
  "consulting": 7780,
  "Story": 7781,
  "refusal": 7782,
  "championships": 7783,
  "oph@@": 7784,
  "prompt": 7785,
  "thou": 7786,
  "Berkeley": 7787,
  "Squadron": 7788,
  "def@@": 7789,
  "communist": 7790,
  "ecting": 7791,
  "Biological": 7792,
  "ry@@": 7793,
  "supplement": 7794,
  "Developed": 7795,
  "CN@@": 7796,
  "prestigious": 7797,
  "riding": 7798,
  "UNIFIL": 7799,
  "totally": 7800,
  "outline": 7801,
  "bond": 7802,
  "PhD": 7803,
  "oma": 7804,
  "tangible": 7805,
  "continuously": 7806,
  "ecological": 7807,
  "prosecutor": 7808,
  "evil": 7809,
  "nationwide": 7810,
  "petition": 7811,
  "ography": 7812,
  "pitch": 7813,
  "Advancement": 7814,
  "photographer": 7815,
  "sect": 7816,
  "pledged": 7817,
  "NO@@": 7818,
  "TION": 7819,
  "Trial": 7820,
  "secondly": 7821,
  "playoff": 7822,
  "guiding": 7823,
  "autumn": 7824,
  "stressing": 7825,
  "tired": 7826,
  "desk": 7827,
  "nickname": 7828,
  "1.1": 7829,
  "delivering": 7830,
  "intent": 7831,
  "liberalization": 7832,
  "IA": 7833,
  "tobacco": 7834,
  "adolescents": 7835,
  "vacant": 7836,
  "rivals": 7837,
  "Hugh": 7838,
  "soci@@": 7839,
  "TE@@": 7840,
  "land@@": 7841,
  "demonstration": 7842,
  "bills": 7843,
  "monitored": 7844,
  "epidemic": 7845,
  "angry": 7846,
  "Former": 7847,
  "convening": 7848,
  "lia": 7849,
  "fighters": 7850,
  "clerk": 7851,
  "DA": 7852,
  "Terry": 7853,
  "stri@@": 7854,
  "107": 7855,
  "ton@@": 7856,
  "ye@@": 7857,
  "ster@@": 7858,
  "auspices": 7859,
  "Fire": 7860,
  "humans": 7861,
  "Tang": 7862,
  "disaggregated": 7863,
  "cu@@": 7864,
  "feed": 7865,
  "promising": 7866,
  "1901": 7867,
  "17th": 7868,
  "CC@@": 7869,
  "editorial": 7870,
  "115": 7871,
  "lit@@": 7872,
  "script": 7873,
  "enforce": 7874,
  "Cardinals": 7875,
  "pioneer": 7876,
  "CS@@": 7877,
  "Cork": 7878,
  "Vancouver": 7879,
  "controlling": 7880,
  "ened": 7881,
  "elaboration": 7882,
  "renowned": 7883,
  "surplus": 7884,
  "noble": 7885,
  "ency": 7886,
  "Body": 7887,
  "cease": 7888,
  "vessel": 7889,
  "moderate": 7890,
  "00@@": 7891,
  "mu@@": 7892,
  "advisers": 7893,
  "exact": 7894,
  "160": 7895,
  "farming": 7896,
  "survive": 7897,
  "prevailing": 7898,
  "churches": 7899,
  "consolidate": 7900,
  "But": 7901,
  "attacking": 7902,
  "pen": 7903,
  "pa": 7904,
  "budgeting": 7905,
  "tracking": 7906,
  "wishing": 7907,
  "knowing": 7908,
  "Volunteers": 7909,
  "cargo": 7910,
  "ethical": 7911,
  "Basketball": 7912,
  "Fred": 7913,
  "horses": 7914,
  "participant": 7915,
  "amp": 7916,
  "Muslims": 7917,
  "adjusted": 7918,
  "Bot@@": 7919,
  "pounds": 7920,
  "fairly": 7921,
  "kingdom": 7922,
  "audio": 7923,
  "adapt": 7924,
  "greenhouse": 7925,
  "cancelled": 7926,
  "silence": 7927,
  "Least": 7928,
  "ude": 7929,
  "illustrated": 7930,
  "audiences": 7931,
  "promotes": 7932,
  "Electoral": 7933,
  "Fal@@": 7934,
  "Thi@@": 7935,
  "Organized": 7936,
  "I.@@": 7937,
  "counter@@": 7938,
  "contested": 7939,
  "perspectives": 7940,
  "bi": 7941,
  "un.org": 7942,
  "Exchange": 7943,
  "Richmond": 7944,
  "justified": 7945,
  "Ian": 7946,
  "1,0@@": 7947,
  "lecturer": 7948,
  "kar": 7949,
  "CC": 7950,
  "therein": 7951,
  "Taliban": 7952,
  "locally": 7953,
  "Susan": 7954,
  "readers": 7955,
  "Wei": 7956,
  "Ny@@": 7957,
  "Nashville": 7958,
  "Bran@@": 7959,
  "B.@@": 7960,
  "ele": 7961,
  "tering": 7962,
  "fies": 7963,
  "colleague": 7964,
  "SP@@": 7965,
  "hin@@": 7966,
  "Performance": 7967,
  "pressing": 7968,
  "liked": 7969,
  "carrier": 7970,
  "Jonathan": 7971,
  "retire": 7972,
  "13th": 7973,
  "tough": 7974,
  "ambitious": 7975,
  "listing": 7976,
  "Sec@@": 7977,
  "Jay": 7978,
  "likes": 7979,
  "initiate": 7980,
  "occupational": 7981,
  "Wallace": 7982,
  "loc@@": 7983,
  "traditionally": 7984,
  "Against": 7985,
  "concerted": 7986,
  "enshrined": 7987,
  "Shar@@": 7988,
  "instructor": 7989,
  "artillery": 7990,
  "complementary": 7991,
  "entrance": 7992,
  "supplied": 7993,
  "reverse": 7994,
  "NE@@": 7995,
  "ancy": 7996,
  "missile": 7997,
  "thin": 7998,
  "Mother": 7999,
  "samples": 8000,
  "broadcasting": 8001,
  "prosecute": 8002,
  "algorithm": 8003,
  "yeah": 8004,
  "Wayne": 8005,
  "ous@@": 8006,
  "Bristol": 8007,
  "indication": 8008,
  "ner@@": 8009,
  "contractor": 8010,
  "Munich": 8011,
  "ray": 8012,
  "Basic": 8013,
  "rough": 8014,
  "scientist": 8015,
  "workplace": 8016,
  "Resolution": 8017,
  "Neil": 8018,
  "feasible": 8019,
  "beneficial": 8020,
  "Prohibition": 8021,
  "taste": 8022,
  "Settlements": 8023,
  "comm@@": 8024,
  "teamed": 8025,
  "utilized": 8026,
  "Matthew": 8027,
  "plastic": 8028,
  "bag": 8029,
  "surprised": 8030,
  "journalism": 8031,
  "ō": 8032,
  "seller": 8033,
  "Silver": 8034,
  "wickets": 8035,
  "smoking": 8036,
  "underlined": 8037,
  "Herbert": 8038,
  "durable": 8039,
  "rest@@": 8040,
  "martial": 8041,
  "lots": 8042,
  "imperative": 8043,
  "statute": 8044,
  "Karl": 8045,
  "wars": 8046,
  "Poverty": 8047,
  "inhuman": 8048,
  "survivors": 8049,
  "Butler": 8050,
  "1903": 8051,
  "Tel@@": 8052,
  "Grammy": 8053,
  "Scheme": 8054,
  "precise": 8055,
  "Phillips": 8056,
  "finalized": 8057,
  "liquid": 8058,
  "smoke": 8059,
  "enberg": 8060,
  "Slovakia": 8061,
  "Athens": 8062,
  "rating": 8063,
  "MONUC": 8064,
  "telecommunications": 8065,
  "201@@": 8066,
  "sel": 8067,
  "predecessor": 8068,
  "thereto": 8069,
  "publicity": 8070,
  "wick": 8071,
  "credentials": 8072,
  "methodologies": 8073,
  "submitting": 8074,
  "Perry": 8075,
  "talked": 8076,
  "listening": 8077,
  "duc@@": 8078,
  "dating": 8079,
  "Rogers": 8080,
  "regrets": 8081,
  "Jacob": 8082,
  "crops": 8083,
  "suppliers": 8084,
  "farmer": 8085,
  "Hampshire": 8086,
  "Jason": 8087,
  "Nation": 8088,
  "Long@@": 8089,
  "satisfactory": 8090,
  "deprivation": 8091,
  "affordable": 8092,
  "ises": 8093,
  "dia": 8094,
  "clause": 8095,
  "asc@@": 8096,
  "pure": 8097,
  "Hin@@": 8098,
  "But@@": 8099,
  "Gol@@": 8100,
  "siege": 8101,
  "maternity": 8102,
  "class@@": 8103,
  "Faso": 8104,
  "lecture": 8105,
  "MC": 8106,
  "Where": 8107,
  "cy@@": 8108,
  "114": 8109,
  "Count": 8110,
  "protocols": 8111,
  "shoes": 8112,
  "red@@": 8113,
  "din": 8114,
  "Belgian": 8115,
  "ures": 8116,
  "Private": 8117,
  "Chancellor": 8118,
  "unified": 8119,
  "thr@@": 8120,
  "Sho@@": 8121,
  "hostilities": 8122,
  "Gray": 8123,
  "ink": 8124,
  "116": 8125,
  "dominant": 8126,
  "prompted": 8127,
  "queen": 8128,
  "oms": 8129,
  "sor@@": 8130,
  "son@@": 8131,
  "qualifications": 8132,
  "empty": 8133,
  "chap": 8134,
  "Burkina": 8135,
  "gang": 8136,
  "H.E.": 8137,
  "assurance": 8138,
  "enlisted": 8139,
  "NEPAD": 8140,
  "je": 8141,
  "legs": 8142,
  "LE@@": 8143,
  "insecurity": 8144,
  "M.@@": 8145,
  "Newcastle": 8146,
  "Communication": 8147,
  "Ottawa": 8148,
  "4,000": 8149,
  "notwithstanding": 8150,
  "indirect": 8151,
  "Cab@@": 8152,
  "intends": 8153,
  "aro": 8154,
  "machines": 8155,
  "cap": 8156,
  "sugar": 8157,
  "tra": 8158,
  "Hunter": 8159,
  "honest": 8160,
  "Gilbert": 8161,
  "dol@@": 8162,
  "comprises": 8163,
  "handled": 8164,
  "Pot@@": 8165,
  "recognised": 8166,
  "emergencies": 8167,
  "degrading": 8168,
  "pped": 8169,
  "impression": 8170,
  "licence": 8171,
  "UNIFEM": 8172,
  "avoided": 8173,
  "examining": 8174,
  "Rugby": 8175,
  "eless": 8176,
  "hostile": 8177,
  "ales": 8178,
  "stream": 8179,
  "Powers": 8180,
  "IR@@": 8181,
  "bel@@": 8182,
  "After": 8183,
  "elect": 8184,
  "dale": 8185,
  "LP": 8186,
  "Analysis": 8187,
  "nes": 8188,
  "emission": 8189,
  "15th": 8190,
  "Florence": 8191,
  "Number": 8192,
  "Sm@@": 8193,
  "summarized": 8194,
  "É@@": 8195,
  "Saints": 8196,
  "eff@@": 8197,
  "Glasgow": 8198,
  "choices": 8199,
  "Ang@@": 8200,
  "sweet": 8201,
  "owed": 8202,
  "outs": 8203,
  "supportive": 8204,
  "smuggling": 8205,
  "eleventh": 8206,
  "crossed": 8207,
  "casualties": 8208,
  "Native": 8209,
  "Serie": 8210,
  "Bangkok": 8211,
  "Organizations": 8212,
  "ING": 8213,
  "boost": 8214,
  "itation": 8215,
  "Insurance": 8216,
  "bonds": 8217,
  "neighborhood": 8218,
  "low@@": 8219,
  "sees": 8220,
  "gun@@": 8221,
  "modest": 8222,
  "sciences": 8223,
  "privacy": 8224,
  "Coalition": 8225,
  "governed": 8226,
  "sman": 8227,
  "fulfilled": 8228,
  "Consultative": 8229,
  "Last": 8230,
  "contracted": 8231,
  "domain": 8232,
  "prevalence": 8233,
  "shots": 8234,
  "fun@@": 8235,
  "ail": 8236,
  "settings": 8237,
  "rebellion": 8238,
  "assure": 8239,
  "narrative": 8240,
  "Tag": 8241,
  "Measures": 8242,
  "wore": 8243,
  "Bow@@": 8244,
  "oned": 8245,
  "16th": 8246,
  "14.@@": 8247,
  "acknowledge": 8248,
  "tha": 8249,
  "rem@@": 8250,
  "form@@": 8251,
  "limitation": 8252,
  "escu": 8253,
  "Dialogue": 8254,
  "guards": 8255,
  "wa@@": 8256,
  "upset": 8257,
  "ç@@": 8258,
  "bs": 8259,
  "Bridge": 8260,
  "passengers": 8261,
  "Tak@@": 8262,
  "Not": 8263,
  "Nick": 8264,
  "routine": 8265,
  "Heavyweight": 8266,
  "ignored": 8267,
  "Euro": 8268,
  "eradicate": 8269,
  "firearms": 8270,
  "aggressive": 8271,
  "Strengthening": 8272,
  "aria": 8273,
  "Dick": 8274,
  "113": 8275,
  "consistency": 8276,
  "kg": 8277,
  "Administrator": 8278,
  "DJ": 8279,
  "dying": 8280,
  "affects": 8281,
  "withdrawn": 8282,
  "onic": 8283,
  "Dol@@": 8284,
  "Res@@": 8285,
  "boundary": 8286,
  "Metropolitan": 8287,
  "aux": 8288,
  "lawsuit": 8289,
  "receptions": 8290,
  "analyse": 8291,
  "23@@": 8292,
  "graphy": 8293,
  "mountains": 8294,
  "decree": 8295,
  "Blues": 8296,
  "By": 8297,
  "fault": 8298,
  "neuro@@": 8299,
  "Jerry": 8300,
  "fur@@": 8301,
  "burning": 8302,
  "arrive": 8303,
  "Cardinal": 8304,
  "Fri@@": 8305,
  "pos@@": 8306,
  "iro": 8307,
  "arian": 8308,
  "permits": 8309,
  "Ty@@": 8310,
  "Jefferson": 8311,
  "striking": 8312,
  "admissibility": 8313,
  "certificates": 8314,
  "Fran@@": 8315,
  "ASEAN": 8316,
  "departed": 8317,
  "contributes": 8318,
  "obviously": 8319,
  "Joan": 8320,
  "Watson": 8321,
  "NATO": 8322,
  "Han": 8323,
  "Amendment": 8324,
  "bor@@": 8325,
  "celebrate": 8326,
  "Fair": 8327,
  "sk": 8328,
  "Fellowship": 8329,
  "Pan": 8330,
  "tre@@": 8331,
  "constituency": 8332,
  "ota": 8333,
  "Yankees": 8334,
  "automatically": 8335,
  "vin": 8336,
  "Property": 8337,
  "Zone": 8338,
  "threatening": 8339,
  "depression": 8340,
  "alternate": 8341,
  "isation": 8342,
  "ought": 8343,
  "Battalion": 8344,
  "sir": 8345,
  "Tajikistan": 8346,
  "participatory": 8347,
  "Racing": 8348,
  "ect": 8349,
  "ils": 8350,
  "GM": 8351,
  "Production": 8352,
  "yl": 8353,
  "advise": 8354,
  "rit@@": 8355,
  "formula": 8356,
  "snow": 8357,
  "lan": 8358,
  "Directors": 8359,
  "Arsenal": 8360,
  "doctorate": 8361,
  "HR": 8362,
  "uncertainty": 8363,
  "successive": 8364,
  "continuity": 8365,
  "ups": 8366,
  "Bobby": 8367,
  "Madison": 8368,
  "reiterate": 8369,
  "desired": 8370,
  "economically": 8371,
  "Colonial": 8372,
  "enn@@": 8373,
  "ecosystem": 8374,
  "125": 8375,
  "Armenian": 8376,
  "worry": 8377,
  "strange": 8378,
  "Faculty": 8379,
  "mes": 8380,
  "reflection": 8381,
  "Moon": 8382,
  "eri": 8383,
  "tells": 8384,
  "Fiji": 8385,
  "Ali@@": 8386,
  "accepting": 8387,
  "establishes": 8388,
  "Aid": 8389,
  "Republicans": 8390,
  "und@@": 8391,
  "nobody": 8392,
  "oo": 8393,
  "ea": 8394,
  "calm": 8395,
  "sustain": 8396,
  "vol@@": 8397,
  "watched": 8398,
  "thereon": 8399,
  "Commons": 8400,
  "cont@@": 8401,
  "openly": 8402,
  "Virgin": 8403,
  "1920s": 8404,
  "orchestra": 8405,
  "shirt": 8406,
  "lying": 8407,
  "badly": 8408,
  "Disney": 8409,
  "breast": 8410,
  "celebration": 8411,
  "Mont@@": 8412,
  "custom": 8413,
  "ren": 8414,
  "assurances": 8415,
  "expelled": 8416,
  "1898": 8417,
  "unemployed": 8418,
  "ović": 8419,
  "uk": 8420,
  "McC@@": 8421,
  "yield": 8422,
  "drawings": 8423,
  "essay": 8424,
  "Emirates": 8425,
  "CS": 8426,
  "wisdom": 8427,
  "LA": 8428,
  "í": 8429,
  "1899": 8430,
  "legitimacy": 8431,
  "Somali": 8432,
  "ji@@": 8433,
  "peaked": 8434,
  "codes": 8435,
  "Sor@@": 8436,
  "patrol": 8437,
  "14th": 8438,
  "Pension": 8439,
  "hidden": 8440,
  "FBI": 8441,
  "Adelaide": 8442,
  "Luc@@": 8443,
  "forever": 8444,
  "Phoenix": 8445,
  "filmed": 8446,
  "13.@@": 8447,
  "fulfilling": 8448,
  "Oliver": 8449,
  "Ry@@": 8450,
  "IG@@": 8451,
  "validity": 8452,
  "ket": 8453,
  "shock": 8454,
  "tape": 8455,
  "Bennett": 8456,
  "globally": 8457,
  "persuaded": 8458,
  "confirmation": 8459,
  "Statistical": 8460,
  "pat@@": 8461,
  "Aviation": 8462,
  "Green@@": 8463,
  "Abraham": 8464,
  "submits": 8465,
  "planet": 8466,
  "Kat@@": 8467,
  "census": 8468,
  "Solomon": 8469,
  "2.1": 8470,
  "followers": 8471,
  "reminded": 8472,
  "elite": 8473,
  "schooling": 8474,
  "Presidents": 8475,
  "Arkansas": 8476,
  "moves": 8477,
  "pull": 8478,
  "Petersburg": 8479,
  "FOR": 8480,
  "accidents": 8481,
  "Arnold": 8482,
  "ante": 8483,
  "AP": 8484,
  "placement": 8485,
  "Gran@@": 8486,
  "Vo@@": 8487,
  "Os@@": 8488,
  "tit@@": 8489,
  "marginalized": 8490,
  "amend": 8491,
  "ecosystems": 8492,
  "confidential": 8493,
  "instability": 8494,
  "calculation": 8495,
  "workload": 8496,
  "begins": 8497,
  "reimbursement": 8498,
  "compositions": 8499,
  "shi": 8500,
  "tically": 8501,
  "Rab@@": 8502,
  "lifelong": 8503,
  "reveal": 8504,
  "contributor": 8505,
  "Logistics": 8506,
  "Ye@@": 8507,
  "tar@@": 8508,
  "blow": 8509,
  "fort": 8510,
  "rebel": 8511,
  "Are": 8512,
  "mitigate": 8513,
  "Fol@@": 8514,
  "virtue": 8515,
  "accessibility": 8516,
  "Hom@@": 8517,
  "absolutely": 8518,
  "abolition": 8519,
  "ader": 8520,
  "conscious": 8521,
  "creates": 8522,
  "religions": 8523,
  "interior": 8524,
  "sters": 8525,
  "Shakespeare": 8526,
  "Mozambique": 8527,
  "colony": 8528,
  "elementary": 8529,
  "Oscar": 8530,
  "Prison": 8531,
  "med@@": 8532,
  "questionnaire": 8533,
  "YouTube": 8534,
  "da@@": 8535,
  "alised": 8536,
  "assured": 8537,
  "Limited": 8538,
  "Resource": 8539,
  "AF@@": 8540,
  "stint": 8541,
  "trick": 8542,
  "eda": 8543,
  "comparable": 8544,
  "aine": 8545,
  "any@@": 8546,
  "PS": 8547,
  "tors": 8548,
  "suspect": 8549,
  "Disaster": 8550,
  "gg@@": 8551,
  "Ir@@": 8552,
  "Grace": 8553,
  "Impact": 8554,
  "Ed": 8555,
  "Clarke": 8556,
  "van@@": 8557,
  "ida": 8558,
  "ille": 8559,
  "permanently": 8560,
  "sculpture": 8561,
  "ni": 8562,
  "oth": 8563,
  "reaffirm": 8564,
  "CN.9": 8565,
  "duly": 8566,
  "117": 8567,
  "readiness": 8568,
  "E.@@": 8569,
  "draws": 8570,
  "aut@@": 8571,
  "comfortable": 8572,
  "meets": 8573,
  "helpful": 8574,
  "Rol@@": 8575,
  "fat": 8576,
  "arrange": 8577,
  "warrant": 8578,
  "vary": 8579,
  "Luis": 8580,
  "Rule": 8581,
  "sponsor": 8582,
  "rated": 8583,
  "venue": 8584,
  "genre": 8585,
  "wonderful": 8586,
  "fostering": 8587,
  "Confederate": 8588,
  "valuation": 8589,
  "Saharan": 8590,
  "okay": 8591,
  "believing": 8592,
  "118": 8593,
  "rotation": 8594,
  "TH@@": 8595,
  "Stuart": 8596,
  "subregion": 8597,
  "Trinity": 8598,
  "acclaimed": 8599,
  "Punishment": 8600,
  "ains": 8601,
  "Agricultural": 8602,
  "ination": 8603,
  "ila": 8604,
  "LO@@": 8605,
  "aire": 8606,
  "dancing": 8607,
  "add@@": 8608,
  "140": 8609,
  "hosts": 8610,
  "Bil@@": 8611,
  "convene": 8612,
  "Iceland": 8613,
  "Associate": 8614,
  "tal@@": 8615,
  "clo@@": 8616,
  "dogs": 8617,
  "dear": 8618,
  "incidence": 8619,
  "consciousness": 8620,
  "Mid@@": 8621,
  "dreams": 8622,
  "Pil@@": 8623,
  "dozen": 8624,
  "Rub@@": 8625,
  "aspirations": 8626,
  "robust": 8627,
  "Harold": 8628,
  "exploring": 8629,
  "ō@@": 8630,
  "refrain": 8631,
  "thirds": 8632,
  "Sher@@": 8633,
  "Istanbul": 8634,
  "Kings": 8635,
  "ame@@": 8636,
  "proclaimed": 8637,
  "lab@@": 8638,
  "thirteen": 8639,
  "Honor": 8640,
  "1861": 8641,
  "lending": 8642,
  "IDB.@@": 8643,
  "ough": 8644,
  "Dom@@": 8645,
  "WWE": 8646,
  "hang": 8647,
  "AS@@": 8648,
  "cotton": 8649,
  "UNMIK": 8650,
  "kets": 8651,
  "alities": 8652,
  "wonder": 8653,
  "Vis@@": 8654,
  "swimming": 8655,
  "knocked": 8656,
  "Eagles": 8657,
  "Phil": 8658,
  "circulation": 8659,
  "definitions": 8660,
  ".The": 8661,
  "Fel@@": 8662,
  "Register": 8663,
  "feasibility": 8664,
  "Cle@@": 8665,
  "cable": 8666,
  "releasing": 8667,
  "ately": 8668,
  "Spe@@": 8669,
  "ser": 8670,
  "Liberation": 8671,
  "punished": 8672,
  "isolated": 8673,
  "Pon@@": 8674,
  "foreigners": 8675,
  "hatred": 8676,
  "So": 8677,
  "belonged": 8678,
  "Baptist": 8679,
  "lets": 8680,
  "exercised": 8681,
  "una": 8682,
  "syn@@": 8683,
  "UNAMID": 8684,
  "forcing": 8685,
  "minimize": 8686,
  "slaves": 8687,
  "ros": 8688,
  "Hus@@": 8689,
  "observance": 8690,
  "Governmental": 8691,
  "Jazz": 8692,
  "Louise": 8693,
  "esh": 8694,
  "resign": 8695,
  "sley": 8696,
  "Som@@": 8697,
  "aligned": 8698,
  "tin@@": 8699,
  "eva": 8700,
  "kov": 8701,
  "20,000": 8702,
  "smile": 8703,
  "Orthodox": 8704,
  "bassist": 8705,
  "prohibit": 8706,
  "concentrate": 8707,
  "ua": 8708,
  "Baghdad": 8709,
  "Competition": 8710,
  "preparedness": 8711,
  "Luxembourg": 8712,
  "Oakland": 8713,
  "urgently": 8714,
  "palace": 8715,
  "enrolment": 8716,
  "eck": 8717,
  "Croatian": 8718,
  "UR@@": 8719,
  "institute": 8720,
  "fold": 8721,
  "Ahmed": 8722,
  "environments": 8723,
  "ceasefire": 8724,
  "uring": 8725,
  "aftermath": 8726,
  "Larry": 8727,
  "enemies": 8728,
  "Sr.": 8729,
  "sian": 8730,
  "doctrine": 8731,
  "1896": 8732,
  "Leg@@": 8733,
  "ony": 8734,
  "networking": 8735,
  "capita": 8736,
  "refuse": 8737,
  "Rovers": 8738,
  "sixtieth": 8739,
  "everyday": 8740,
  "opposing": 8741,
  "shipment": 8742,
  "acknowledging": 8743,
  "Gun@@": 8744,
  "staying": 8745,
  "Harvey": 8746,
  "din@@": 8747,
  "lights": 8748,
  "Transnational": 8749,
  "consulted": 8750,
  "bigger": 8751,
  "Monetary": 8752,
  "killings": 8753,
  "thanked": 8754,
  "cleared": 8755,
  "aren": 8756,
  "tal": 8757,
  "Wor@@": 8758,
  "identical": 8759,
  "perception": 8760,
  "prosecuted": 8761,
  "15.@@": 8762,
  "je@@": 8763,
  "Est@@": 8764,
  "Jam@@": 8765,
  "impartial": 8766,
  "ageing": 8767,
  "Ottoman": 8768,
  "varied": 8769,
  "Shah": 8770,
  "investigative": 8771,
  "Sport": 8772,
  "conspiracy": 8773,
  "Keith": 8774,
  "offenders": 8775,
  "Ah@@": 8776,
  "assi@@": 8777,
  "debts": 8778,
  "Che@@": 8779,
  "diet": 8780,
  "Tamil": 8781,
  "angle": 8782,
  "assumption": 8783,
  "winners": 8784,
  "hearings": 8785,
  "phases": 8786,
  "fourteen": 8787,
  "successes": 8788,
  "DNA": 8789,
  "proceeding": 8790,
  "ox@@": 8791,
  "eve": 8792,
  "urgency": 8793,
  "wil@@": 8794,
  "hire": 8795,
  "Bos@@": 8796,
  "122": 8797,
  "sa@@": 8798,
  "Triple": 8799,
  "ris@@": 8800,
  "regulate": 8801,
  "Village": 8802,
  "Mason": 8803,
  "belt": 8804,
  "everywhere": 8805,
  "top@@": 8806,
  "Argentine": 8807,
  "breakdown": 8808,
  "yi": 8809,
  "sixteen": 8810,
  "Ok@@": 8811,
  "marriages": 8812,
  "Ky@@": 8813,
  "pornography": 8814,
  "chapters": 8815,
  "Maine": 8816,
  "ko@@": 8817,
  "synthesis": 8818,
  "prefer": 8819,
  "cinema": 8820,
  "fore@@": 8821,
  "Cameron": 8822,
  "AT@@": 8823,
  "errors": 8824,
  "managerial": 8825,
  "ander": 8826,
  "protective": 8827,
  "allies": 8828,
  "CR@@": 8829,
  "Bag@@": 8830,
  "Under@@": 8831,
  "Workshop": 8832,
  "anna": 8833,
  "Indianapolis": 8834,
  "Shaw": 8835,
  "switched": 8836,
  "scorer": 8837,
  "ira": 8838,
  "reinforced": 8839,
  "bol@@": 8840,
  "happens": 8841,
  "hoping": 8842,
  "inv@@": 8843,
  "Johannesburg": 8844,
  "remuneration": 8845,
  "1373": 8846,
  "Nu@@": 8847,
  "fil@@": 8848,
  "pillars": 8849,
  "pul@@": 8850,
  "ruler": 8851,
  "Hun@@": 8852,
  "visa": 8853,
  "inherent": 8854,
  "bis": 8855,
  "Pet@@": 8856,
  "ops": 8857,
  "regulated": 8858,
  "retail": 8859,
  "Data": 8860,
  "batted": 8861,
  "mankind": 8862,
  "ome": 8863,
  "Judicial": 8864,
  "settlers": 8865,
  "tendency": 8866,
  "switch": 8867,
  "usage": 8868,
  "doors": 8869,
  "cool": 8870,
  "buyer": 8871,
  "1940s": 8872,
  "flu@@": 8873,
  "Equal": 8874,
  "Take": 8875,
  "yah": 8876,
  "photos": 8877,
  "unanimously": 8878,
  "stake": 8879,
  "redress": 8880,
  "2.2": 8881,
  "athlete": 8882,
  "Benin": 8883,
  "gather": 8884,
  "demanding": 8885,
  "attractive": 8886,
  "sburg": 8887,
  "Maj@@": 8888,
  "nineteenth": 8889,
  "25@@": 8890,
  "tender": 8891,
  "hum@@": 8892,
  "legend": 8893,
  "civic": 8894,
  "goalkeeper": 8895,
  "TC": 8896,
  "Orange": 8897,
  "imported": 8898,
  "rental": 8899,
  "posting": 8900,
  "administrator": 8901,
  "directing": 8902,
  "Latvia": 8903,
  "Venice": 8904,
  "occurs": 8905,
  "executions": 8906,
  "oning": 8907,
  "deciding": 8908,
  "N.": 8909,
  "cia": 8910,
  "dor@@": 8911,
  "flower": 8912,
  "ric": 8913,
  "nursing": 8914,
  "athletes": 8915,
  "Lar@@": 8916,
  "hot@@": 8917,
  "vin@@": 8918,
  "colleges": 8919,
  "Chambers": 8920,
  "Nobel": 8921,
  "pianist": 8922,
  "essays": 8923,
  "coat": 8924,
  "Democracy": 8925,
  "stationed": 8926,
  "aps": 8927,
  "Gold@@": 8928,
  "Fa@@": 8929,
  "stereotypes": 8930,
  "dressed": 8931,
  "Soccer": 8932,
  "Manuel": 8933,
  "ush": 8934,
  "poorest": 8935,
  "ium": 8936,
  "backup": 8937,
  "Ruth": 8938,
  "Kas@@": 8939,
  "Wa@@": 8940,
  "Lab@@": 8941,
  "SecretaryGeneral": 8942,
  "Market": 8943,
  "2020": 8944,
  "policymakers": 8945,
  "Cop@@": 8946,
  "vic@@": 8947,
  "statutory": 8948,
  "vo": 8949,
  "worthy": 8950,
  "arose": 8951,
  "Tommy": 8952,
  "ans@@": 8953,
  "terrible": 8954,
  "proposes": 8955,
  "boarding": 8956,
  "Vill@@": 8957,
  "duplication": 8958,
  "trips": 8959,
  "punk": 8960,
  "Germans": 8961,
  "utility": 8962,
  "Ralph": 8963,
  "meters": 8964,
  "turns": 8965,
  "dancer": 8966,
  "Pap@@": 8967,
  "ven": 8968,
  "Organisation": 8969,
  "Av@@": 8970,
  "exit": 8971,
  "abstract": 8972,
  "Hills": 8973,
  "truck": 8974,
  "radi@@": 8975,
  "Speaker": 8976,
  "fro@@": 8977,
  "rebels": 8978,
  "itt": 8979,
  "Mit@@": 8980,
  "biology": 8981,
  "waived": 8982,
  "ection": 8983,
  "1895": 8984,
  "wire": 8985,
  "è@@": 8986,
  "budgeted": 8987,
  "lacking": 8988,
  "affiliated": 8989,
  "interface": 8990,
  "gar": 8991,
  "indispensable": 8992,
  "styles": 8993,
  "Aligned": 8994,
  "tuberculosis": 8995,
  "Now": 8996,
  "munitions": 8997,
  "operators": 8998,
  "Dame": 8999,
  "Dam@@": 9000,
  "synergies": 9001,
  "Estonia": 9002,
  "eness": 9003,
  "adherence": 9004,
  "tle": 9005,
  "neutral": 9006,
  "Note": 9007,
  "centers": 9008,
  "bit@@": 9009,
  "golf": 9010,
  "explicit": 9011,
  "acc@@": 9012,
  "Ven@@": 9013,
  "eta": 9014,
  "int": 9015,
  "Bahrain": 9016,
  "reserved": 9017,
  "Contemporary": 9018,
  "Sheffield": 9019,
  "1.3": 9020,
  "Price": 9021,
  "Mes@@": 9022,
  "Nag@@": 9023,
  "portraits": 9024,
  "flights": 9025,
  "grain": 9026,
  "Let": 9027,
  "subsistence": 9028,
  "defender": 9029,
  "screening": 9030,
  "argue": 9031,
  "Arm@@": 9032,
  "锛": 9033,
  "119": 9034,
  "Monterrey": 9035,
  "dre@@": 9036,
  "cultivation": 9037,
  "Hen@@": 9038,
  "Samoa": 9039,
  "shopping": 9040,
  "avoiding": 9041,
  "soundtrack": 9042,
  "Deb@@": 9043,
  "sted": 9044,
  "ace@@": 9045,
  "，": 9046,
  "Honduras": 9047,
  "Tech": 9048,
  "yp@@": 9049,
  "hop": 9050,
  "giant": 9051,
  "sie": 9052,
  "D.@@": 9053,
  "struggling": 9054,
  "Steven": 9055,
  "temple": 9056,
  "resolving": 9057,
  "inheritance": 9058,
  "wherever": 9059,
  "kins": 9060,
  "Studios": 9061,
  "tears": 9062,
  "justify": 9063,
  "amm@@": 9064,
  "Sullivan": 9065,
  "Les": 9066,
  "arguing": 9067,
  "pay@@": 9068,
  "Presidency": 9069,
  "Fur@@": 9070,
  "operator": 9071,
  "1897": 9072,
  "installations": 9073,
  "TD": 9074,
  "recruit": 9075,
  "Today": 9076,
  "sophomore": 9077,
  "Contracting": 9078,
  "physically": 9079,
  "horror": 9080,
  "undergraduate": 9081,
  "criticised": 9082,
  "Institutions": 9083,
  "1893": 9084,
  "Practice": 9085,
  "battalion": 9086,
  "Wild": 9087,
  "answers": 9088,
  "analyst": 9089,
  "Ms": 9090,
  "nurse": 9091,
  "salt": 9092,
  "communicated": 9093,
  "Envoy": 9094,
  "unpaid": 9095,
  "voices": 9096,
  "tab@@": 9097,
  "Eng@@": 9098,
  "hide": 9099,
  "ovich": 9100,
  "my@@": 9101,
  "akes": 9102,
  "af": 9103,
  "Wells": 9104,
  "Challenge": 9105,
  "stuff": 9106,
  "simulation": 9107,
  "ker@@": 9108,
  "Moldova": 9109,
  "ok": 9110,
  "rie": 9111,
  "180": 9112,
  "WA@@": 9113,
  "incorporating": 9114,
  "lion": 9115,
  "eling": 9116,
  "sacks": 9117,
  "deposits": 9118,
  "ei": 9119,
  "Wo@@": 9120,
  "speculation": 9121,
  "wives": 9122,
  "&lt;": 9123,
  "formulating": 9124,
  "girlfriend": 9125,
  "Belgrade": 9126,
  "fri@@": 9127,
  "1890": 9128,
  "dont": 9129,
  "sexually": 9130,
  "updating": 9131,
  "aren@@": 9132,
  "twelfth": 9133,
  "keeper": 9134,
  "cou@@": 9135,
  "vis@@": 9136,
  "Airport": 9137,
  "Haw@@": 9138,
  "san@@": 9139,
  "Chart": 9140,
  "Cla@@": 9141,
  "Mine": 9142,
  "Kur@@": 9143,
  "ordained": 9144,
  "Jose": 9145,
  "curricula": 9146,
  "Philippine": 9147,
  "explains": 9148,
  "registry": 9149,
  "virtual": 9150,
  "lifted": 9151,
  "diamond": 9152,
  "Yorkshire": 9153,
  "endorsement": 9154,
  "lesson": 9155,
  "offs": 9156,
  "locked": 9157,
  "ore@@": 9158,
  "Villa": 9159,
  "statue": 9160,
  "Place": 9161,
  "Craig": 9162,
  "int@@": 9163,
  "Ric@@": 9164,
  "Christianity": 9165,
  "favourite": 9166,
  "Princeton": 9167,
  "academy": 9168,
  "ib@@": 9169,
  "navigation": 9170,
  "Indies": 9171,
  "Vit@@": 9172,
  "鈥檚": 9173,
  "receiver": 9174,
  "logic": 9175,
  "Ph.D.": 9176,
  "pledges": 9177,
  "Fisher": 9178,
  "oni": 9179,
  "mul@@": 9180,
  "commanding": 9181,
  "1863": 9182,
  "1864": 9183,
  "dic": 9184,
  "gri@@": 9185,
  "charter": 9186,
  "Document": 9187,
  "render": 9188,
  "lifting": 9189,
  "mineral": 9190,
  "Kun@@": 9191,
  "eth@@": 9192,
  "normative": 9193,
  "preserved": 9194,
  "mentor": 9195,
  "ju@@": 9196,
  "á": 9197,
  "Paraguay": 9198,
  "TA": 9199,
  "oon": 9200,
  "burned": 9201,
  "thrown": 9202,
  "archives": 9203,
  "Unity": 9204,
  "sh": 9205,
  "utmost": 9206,
  "Nov@@": 9207,
  "racist": 9208,
  "Lim@@": 9209,
  "ears": 9210,
  "1862": 9211,
  "1865": 9212,
  "ily": 9213,
  "Anglo": 9214,
  "Back": 9215,
  "Jamahiriya": 9216,
  "Sound": 9217,
  "bombing": 9218,
  "Leonard": 9219,
  "Raymond": 9220,
  "belong": 9221,
  "crop": 9222,
  "Hil@@": 9223,
  "hur@@": 9224,
  "teen": 9225,
  "dro@@": 9226,
  "loyal": 9227,
  "endeavour": 9228,
  "demographic": 9229,
  "Level": 9230,
  "examinations": 9231,
  "oceans": 9232,
  "invention": 9233,
  "possess": 9234,
  "stakeholder": 9235,
  "Powell": 9236,
  "Fon@@": 9237,
  "practitioners": 9238,
  "CON@@": 9239,
  "aci@@": 9240,
  "windows": 9241,
  "aggregate": 9242,
  "passenger": 9243,
  "processed": 9244,
  "backs": 9245,
  "att": 9246,
  "forestry": 9247,
  "ho": 9248,
  "kar@@": 9249,
  "blog": 9250,
  "UNMIL": 9251,
  "IM@@": 9252,
  "midfielder": 9253,
  "Reed": 9254,
  "careers": 9255,
  "gifts": 9256,
  "chances": 9257,
  "shaped": 9258,
  "Ken": 9259,
  "nose": 9260,
  "journals": 9261,
  "lake": 9262,
  "Water@@": 9263,
  "ECA": 9264,
  "Jun@@": 9265,
  "united": 9266,
  "Gir@@": 9267,
  "teammates": 9268,
  "Follow": 9269,
  "Railway": 9270,
  "fer": 9271,
  "onal": 9272,
  "XII": 9273,
  "Son@@": 9274,
  "lacked": 9275,
  "investor": 9276,
  "attained": 9277,
  "solving": 9278,
  "poll": 9279,
  "book@@": 9280,
  "modernization": 9281,
  "Der@@": 9282,
  "faction": 9283,
  "sad": 9284,
  "les@@": 9285,
  "Outstanding": 9286,
  "ce@@": 9287,
  "Honorary": 9288,
  "ere@@": 9289,
  "applicants": 9290,
  "Dream": 9291,
  "feels": 9292,
  "shadow": 9293,
  "specify": 9294,
  "accompanying": 9295,
  "underwent": 9296,
  "Gregory": 9297,
  "6,000": 9298,
  "brigade": 9299,
  "mile": 9300,
  "Cy@@": 9301,
  "1892": 9302,
  "Ron": 9303,
  "imagine": 9304,
  "Money": 9305,
  "alien": 9306,
  "reporters": 9307,
  "unclear": 9308,
  "Lov@@": 9309,
  "puts": 9310,
  "wan@@": 9311,
  "mo": 9312,
  "retreat": 9313,
  "Literature": 9314,
  "Future": 9315,
  "Pad@@": 9316,
  "revival": 9317,
  "Dynasty": 9318,
  "creditors": 9319,
  "testified": 9320,
  "guys": 9321,
  "Trinidad": 9322,
  "Immigration": 9323,
  "kilometres": 9324,
  "financially": 9325,
  "1889": 9326,
  "realizing": 9327,
  "24@@": 9328,
  "123": 9329,
  "critically": 9330,
  "fu@@": 9331,
  "compound": 9332,
  "Hope": 9333,
  "spar@@": 9334,
  "Cel@@": 9335,
  "preference": 9336,
  "talents": 9337,
  "Trans@@": 9338,
  "Conflict": 9339,
  "denial": 9340,
  "prints": 9341,
  "desirable": 9342,
  "thee": 9343,
  "Cole": 9344,
  "conductor": 9345,
  "ashes": 9346,
  "issuing": 9347,
  "unsuccessfully": 9348,
  "bing": 9349,
  "iness": 9350,
  "verify": 9351,
  "Down": 9352,
  "los": 9353,
  "mill": 9354,
  "investing": 9355,
  "Rice": 9356,
  "acknowledges": 9357,
  "geographic": 9358,
  "aim@@": 9359,
  "gers": 9360,
  "upgrading": 9361,
  "declining": 9362,
  "rear": 9363,
  "Case": 9364,
  "obstacle": 9365,
  "ceased": 9366,
  "developmental": 9367,
  "lineup": 9368,
  "investigators": 9369,
  "Py@@": 9370,
  "Six": 9371,
  "Eddie": 9372,
  "AL": 9373,
  "121": 9374,
  "0,000": 9375,
  "boats": 9376,
  "rushed": 9377,
  "demonstrations": 9378,
  "doc@@": 9379,
  "stance": 9380,
  "accorded": 9381,
  "efficiently": 9382,
  "removing": 9383,
  "Hon@@": 9384,
  "Language": 9385,
  "Amsterdam": 9386,
  "appraisal": 9387,
  "Pas@@": 9388,
  "liable": 9389,
  "Jacques": 9390,
  "halt": 9391,
  "Tax": 9392,
  "shortage": 9393,
  "isolation": 9394,
  "1888": 9395,
  "och@@": 9396,
  "Napoleon": 9397,
  "firing": 9398,
  "Stevens": 9399,
  "Sou@@": 9400,
  "Rock@@": 9401,
  "Embassy": 9402,
  "Fight": 9403,
  "UNOCI": 9404,
  "grandchildren": 9405,
  "pres@@": 9406,
  "structured": 9407,
  "circles": 9408,
  "Os": 9409,
  "panels": 9410,
  "Spencer": 9411,
  "terminated": 9412,
  "Leo": 9413,
  "ss": 9414,
  "Goal": 9415,
  "Hunt": 9416,
  "merged": 9417,
  "directions": 9418,
  "Iron": 9419,
  "SS@@": 9420,
  "aunt": 9421,
  "justification": 9422,
  "passport": 9423,
  "urging": 9424,
  "surrounded": 9425,
  "wrestler": 9426,
  "festivals": 9427,
  "speeches": 9428,
  "Dennis": 9429,
  "Cypriot": 9430,
  "assignments": 9431,
  "architectural": 9432,
  "complained": 9433,
  "tonight": 9434,
  "Op@@": 9435,
  "emergence": 9436,
  "wound": 9437,
  "accusations": 9438,
  "Hey": 9439,
  "ured": 9440,
  "boundaries": 9441,
  "divide": 9442,
  "jurisprudence": 9443,
  "oke": 9444,
  "Higher": 9445,
  "strip": 9446,
  "micro": 9447,
  "plain": 9448,
  "roughly": 9449,
  "unacceptable": 9450,
  "ave": 9451,
  "socially": 9452,
  "exhausted": 9453,
  "predictable": 9454,
  "oz@@": 9455,
  "terror": 9456,
  "Cul@@": 9457,
  "retention": 9458,
  "privately": 9459,
  "Ev@@": 9460,
  "misconduct": 9461,
  "Nancy": 9462,
  "yo": 9463,
  "bra@@": 9464,
  "Commercial": 9465,
  "Namibia": 9466,
  "lengthy": 9467,
  "1894": 9468,
  "excuse": 9469,
  "toxic": 9470,
  "che": 9471,
  "Mill@@": 9472,
  "ensures": 9473,
  "sand": 9474,
  "craft": 9475,
  "0,@@": 9476,
  "waves": 9477,
  "correspondent": 9478,
  "FM": 9479,
  "corporation": 9480,
  "throwing": 9481,
  "distant": 9482,
  "Personal": 9483,
  "versus": 9484,
  "Hudson": 9485,
  "Kuwaiti": 9486,
  "Hans": 9487,
  "mentally": 9488,
  "fragile": 9489,
  "practiced": 9490,
  "elaborated": 9491,
  "smart": 9492,
  "accommodate": 9493,
  "quarters": 9494,
  "OK": 9495,
  "AA@@": 9496,
  "performer": 9497,
  "ologists": 9498,
  "Indonesian": 9499,
  "gy": 9500,
  "OP@@": 9501,
  "chairs": 9502,
  "Collection": 9503,
  "spouse": 9504,
  "generous": 9505,
  "realities": 9506,
  "ag": 9507,
  "ozone": 9508,
  "az": 9509,
  "counts": 9510,
  "fathers": 9511,
  "rational": 9512,
  "ú@@": 9513,
  "propaganda": 9514,
  "DS": 9515,
  "dust": 9516,
  "outset": 9517,
  "Cowboys": 9518,
  "External": 9519,
  "pin@@": 9520,
  "Cer@@": 9521,
  "fissile": 9522,
  "reliance": 9523,
  "Yu": 9524,
  "let@@": 9525,
  "concludes": 9526,
  "Sky": 9527,
  "reunited": 9528,
  "Ari@@": 9529,
  "linking": 9530,
  "acclaim": 9531,
  "Rel@@": 9532,
  "baseline": 9533,
  "play@@": 9534,
  "analysts": 9535,
  "evaluated": 9536,
  "occasional": 9537,
  "settling": 9538,
  "essence": 9539,
  "omb@@": 9540,
  "Haitian": 9541,
  "Investigation": 9542,
  "timing": 9543,
  "fastest": 9544,
  "ids": 9545,
  "rows": 9546,
  "punish": 9547,
  "exhibit": 9548,
  "Pedro": 9549,
  "Congolese": 9550,
  "discusses": 9551,
  "Wall@@": 9552,
  "cas@@": 9553,
  "counties": 9554,
  "purchasing": 9555,
  "tournaments": 9556,
  "Studio": 9557,
  "evolved": 9558,
  "Allied": 9559,
  "XV": 9560,
  "luck": 9561,
  "lifestyle": 9562,
  "meantime": 9563,
  "bread": 9564,
  "hunting": 9565,
  "Gur@@": 9566,
  "parish": 9567,
  "IV@@": 9568,
  "recurring": 9569,
  "Years": 9570,
  "adds": 9571,
  "Holland": 9572,
  "Classic": 9573,
  "glad": 9574,
  "ond@@": 9575,
  "eds": 9576,
  "naturally": 9577,
  "livelihoods": 9578,
  "ashi": 9579,
  "ayed": 9580,
  "sincere": 9581,
  "ania": 9582,
  "guess": 9583,
  "person@@": 9584,
  "Mai@@": 9585,
  "bold": 9586,
  "ECOWAS": 9587,
  "donations": 9588,
  "ress": 9589,
  "Š@@": 9590,
  "tragedy": 9591,
  "Wh@@": 9592,
  "adjust": 9593,
  "sailed": 9594,
  "ashed": 9595,
  "ym@@": 9596,
  "OSCE": 9597,
  "UNCCD": 9598,
  "kitchen": 9599,
  "venues": 9600,
  "spectrum": 9601,
  "IO@@": 9602,
  "EA": 9603,
  "reliability": 9604,
  "Vladimir": 9605,
  "law@@": 9606,
  "ED": 9607,
  "Montgomery": 9608,
  "prolonged": 9609,
  "satisfy": 9610,
  "graduates": 9611,
  "shore": 9612,
  "ska": 9613,
  "ins@@": 9614,
  "cli@@": 9615,
  "suggesting": 9616,
  "Sultan": 9617,
  "Buenos": 9618,
  "Books": 9619,
  "exercising": 9620,
  "asserted": 9621,
  "colors": 9622,
  "Revolutionary": 9623,
  "1000": 9624,
  "Americas": 9625,
  "steadily": 9626,
  "seas": 9627,
  "filling": 9628,
  "Brisbane": 9629,
  "dismissal": 9630,
  "alike": 9631,
  "strikes": 9632,
  "â@@": 9633,
  "Cao": 9634,
  "kings": 9635,
  "talented": 9636,
  "Shan@@": 9637,
  "ols": 9638,
  "Tampa": 9639,
  "asa": 9640,
  "Pop@@": 9641,
  "ax@@": 9642,
  "specialists": 9643,
  "Cruz": 9644,
  "deny": 9645,
  "mas@@": 9646,
  "produces": 9647,
  "reinforcing": 9648,
  "Stat@@": 9649,
  "Conduct": 9650,
  "Aires": 9651,
  "tens": 9652,
  "aj": 9653,
  "commencement": 9654,
  "sul@@": 9655,
  "aly@@": 9656,
  "tom@@": 9657,
  "allocate": 9658,
  "objections": 9659,
  "nominee": 9660,
  "ng": 9661,
  "Morning": 9662,
  "repeat": 9663,
  "databases": 9664,
  "filing": 9665,
  "Robertson": 9666,
  "Cow@@": 9667,
  "receives": 9668,
  "bulk": 9669,
  "entrepreneurs": 9670,
  "BO@@": 9671,
  "reconnaissance": 9672,
  "3.5": 9673,
  "vi": 9674,
  "professionally": 9675,
  "Barack": 9676,
  "medicines": 9677,
  "ager": 9678,
  "complications": 9679,
  "tered": 9680,
  "owns": 9681,
  "immigrant": 9682,
  "trio": 9683,
  "payable": 9684,
  "acoustic": 9685,
  "hard@@": 9686,
  "lunch": 9687,
  "ère": 9688,
  "Continental": 9689,
  "Tol@@": 9690,
  "dies": 9691,
  "Maritime": 9692,
  "workforce": 9693,
  "TO@@": 9694,
  "Ellis": 9695,
  "commentator": 9696,
  "1891": 9697,
  "referee": 9698,
  "pin": 9699,
  "continental": 9700,
  "Abdul": 9701,
  "enko": 9702,
  "Gibson": 9703,
  "Emmy": 9704,
  "contacted": 9705,
  "Ann@@": 9706,
  "grand@@": 9707,
  "habit": 9708,
  "ín": 9709,
  "kindly": 9710,
  "artificial": 9711,
  "dad": 9712,
  "tremendous": 9713,
  "bars": 9714,
  "wan": 9715,
  "diplomacy": 9716,
  "Albanian": 9717,
  "Seven": 9718,
  "Aaron": 9719,
  "array": 9720,
  "Twitter": 9721,
  "blocked": 9722,
  "Kol@@": 9723,
  "combine": 9724,
  "aforementioned": 9725,
  "lease": 9726,
  "Spirit": 9727,
  "R.@@": 9728,
  "click": 9729,
  "golden": 9730,
  "cattle": 9731,
  "wal@@": 9732,
  "sequence": 9733,
  "evolving": 9734,
  "Sum@@": 9735,
  "Milwaukee": 9736,
  "encounter": 9737,
  "agan": 9738,
  "Schools": 9739,
  "bonus": 9740,
  "feared": 9741,
  "dedication": 9742,
  "responsive": 9743,
  "Lang@@": 9744,
  "fire@@": 9745,
  "ulation": 9746,
  "reader": 9747,
  "exceptions": 9748,
  "ñ@@": 9749,
  "operates": 9750,
  "blame": 9751,
  "Nixon": 9752,
  "Van@@": 9753,
  "promotional": 9754,
  "itt@@": 9755,
  "presenter": 9756,
  "mag@@": 9757,
  "conscience": 9758,
  "Ethics": 9759,
  "xed": 9760,
  "AD": 9761,
  "appropriately": 9762,
  "expired": 9763,
  "ick@@": 9764,
  "cro@@": 9765,
  "bel": 9766,
  "40@@": 9767,
  "tribal": 9768,
  "qualities": 9769,
  "stones": 9770,
  "segments": 9771,
  "founders": 9772,
  "fears": 9773,
  "Lakes": 9774,
  "Dead": 9775,
  "consist": 9776,
  "Formula": 9777,
  "inequalities": 9778,
  "recruiting": 9779,
  "Bak@@": 9780,
  "abolished": 9781,
  "1874": 9782,
  "Vermont": 9783,
  "Regulation": 9784,
  "Armstrong": 9785,
  "1885": 9786,
  "read@@": 9787,
  "MTV": 9788,
  "Sat@@": 9789,
  "mounted": 9790,
  "threshold": 9791,
  "celebrity": 9792,
  "attain": 9793,
  "Hebrew": 9794,
  "Rotterdam": 9795,
  "descendants": 9796,
  "Protestant": 9797,
  "evaluating": 9798,
  "sch": 9799,
  "ices": 9800,
  "analysed": 9801,
  "dan": 9802,
  "licensing": 9803,
  "Accounting": 9804,
  "Anti@@": 9805,
  "fe": 9806,
  "sake": 9807,
  "mistakes": 9808,
  "2.3": 9809,
  "Heritage": 9810,
  "Simpson": 9811,
  "premiere": 9812,
  "Davies": 9813,
  "Brooks": 9814,
  "Yam@@": 9815,
  "vacancies": 9816,
  "Days": 9817,
  "SCO": 9818,
  "16.@@": 9819,
  "introduces": 9820,
  "oe": 9821,
  "Inspector": 9822,
  "Kel@@": 9823,
  "civilization": 9824,
  "missiles": 9825,
  "ble@@": 9826,
  "super": 9827,
  "counterparts": 9828,
  "RAF": 9829,
  "piracy": 9830,
  "mood": 9831,
  "intensified": 9832,
  "flood": 9833,
  "coaches": 9834,
  "privileges": 9835,
  "fed": 9836,
  "dynamics": 9837,
  "Mot@@": 9838,
  "Artist": 9839,
  "More": 9840,
  "thoroughly": 9841,
  "congressional": 9842,
  "Georgian": 9843,
  "brilliant": 9844,
  "twin": 9845,
  "bil@@": 9846,
  "Maurice": 9847,
  "Thai": 9848,
  "Diversity": 9849,
  "clarified": 9850,
  "broadly": 9851,
  "decolonization": 9852,
  "arm@@": 9853,
  "eligibility": 9854,
  "Actress": 9855,
  "nit@@": 9856,
  "intend": 9857,
  "teenager": 9858,
  "ishing": 9859,
  "Otto": 9860,
  "liver": 9861,
  "124": 9862,
  "alling": 9863,
  "unnecessary": 9864,
  "GA": 9865,
  "Grey": 9866,
  "wet": 9867,
  "meal": 9868,
  "CE": 9869,
  "rid": 9870,
  "Matters": 9871,
  "Voluntary": 9872,
  "Related": 9873,
  "erson": 9874,
  "illo": 9875,
  "surgeon": 9876,
  "run@@": 9877,
  "stan@@": 9878,
  "show@@": 9879,
  "Table": 9880,
  "ref@@": 9881,
  "Rural": 9882,
  "eighteen": 9883,
  "Nature": 9884,
  "Cri@@": 9885,
  "charitable": 9886,
  "Ball@@": 9887,
  "Vel@@": 9888,
  "ł@@": 9889,
  "Niger": 9890,
  "Facebook": 9891,
  "1880": 9892,
  "Institution": 9893,
  "by@@": 9894,
  "reward": 9895,
  "Ow@@": 9896,
  "aiming": 9897,
  "hardware": 9898,
  "corps": 9899,
  "wheel": 9900,
  "poses": 9901,
  "radioactive": 9902,
  "Bog@@": 9903,
  "Tourism": 9904,
  "worried": 9905,
  "triple": 9906,
  "mainland": 9907,
  "Barbados": 9908,
  "Enterprise": 9909,
  "Ronald": 9910,
  "mol@@": 9911,
  "theology": 9912,
  "emigrated": 9913,
  "AC.@@": 9914,
  "associates": 9915,
  "murders": 9916,
  "excluding": 9917,
  "ome@@": 9918,
  "inspections": 9919,
  "AM": 9920,
  "Kn@@": 9921,
  "Registrar": 9922,
  "longtime": 9923,
  "Out@@": 9924,
  "inability": 9925,
  "Celtic": 9926,
  "strive": 9927,
  "és": 9928,
  "Laboratory": 9929,
  "tactics": 9930,
  "ik": 9931,
  "Globe": 9932,
  "countering": 9933,
  "linguistic": 9934,
  "singers": 9935,
  "oul@@": 9936,
  "exc@@": 9937,
  "Sul@@": 9938,
  "Personnel": 9939,
  "18.@@": 9940,
  "aerial": 9941,
  "eful": 9942,
  "Ahmad": 9943,
  "128": 9944,
  "HK": 9945,
  "cope": 9946,
  "Rus@@": 9947,
  "Guardian": 9948,
  "Kyrgyzstan": 9949,
  "Sav@@": 9950,
  "module": 9951,
  "\\": 9952,
  "Empress": 9953,
  "auction": 9954,
  "agrees": 9955,
  "Pic@@": 9956,
  "deterioration": 9957,
  "collectively": 9958,
  "Jon": 9959,
  "lam@@": 9960,
  "nik": 9961,
  "magic": 9962,
  "Ivan": 9963,
  "Creek": 9964,
  "pole": 9965,
  "beside": 9966,
  "cleaning": 9967,
  "Comm@@": 9968,
  "Fall": 9969,
  "hn": 9970,
  "Gall@@": 9971,
  "thirteenth": 9972,
  "diversification": 9973,
  "choosing": 9974,
  "Cohen": 9975,
  "Additional": 9976,
  "iss": 9977,
  "Hopkins": 9978,
  "zy": 9979,
  "Tower": 9980,
  "interceptions": 9981,
  "speaks": 9982,
  "pillar": 9983,
  "Blair": 9984,
  "limiting": 9985,
  "Oil": 9986,
  "WA": 9987,
  "recession": 9988,
  "Mess@@": 9989,
  "ship@@": 9990,
  "tional": 9991,
  "reads": 9992,
  "Tibetan": 9993,
  "inadmissible": 9994,
  "mont": 9995,
  "violate": 9996,
  "prominence": 9997,
  "LORD": 9998,
  "155": 9999,
  "132": 10000,
  "doctoral": 10001,
  "JIU": 10002,
  "oner": 10003,
  "clock": 10004,
  "quantitative": 10005,
  "Apple": 10006,
  "pressures": 10007,
  "Buddhist": 10008,
  "summits": 10009,
  "combining": 10010,
  "Ted": 10011,
  "redeployment": 10012,
  "convey": 10013,
  "clearing": 10014,
  "AT": 10015,
  "comp@@": 10016,
  "insolvency": 10017,
  "Conferences": 10018,
  "athletic": 10019,
  "Yuan": 10020,
  "missionary": 10021,
  "promulgated": 10022,
  "committing": 10023,
  "ech": 10024,
  "feud": 10025,
  "akh@@": 10026,
  "fertility": 10027,
  "tus": 10028,
  "orbit": 10029,
  "es.@@": 10030,
  "tures": 10031,
  "overtime": 10032,
  "debris": 10033,
  "1886": 10034,
  "walks": 10035,
  "Mand@@": 10036,
  "UNDCP": 10037,
  "Methodist": 10038,
  "tongue": 10039,
  "instructed": 10040,
  "Warsaw": 10041,
  "anywhere": 10042,
  "illegally": 10043,
  "Arena": 10044,
  "nan": 10045,
  "intensity": 10046,
  "harsh": 10047,
  "Wel@@": 10048,
  "solved": 10049,
  "annexes": 10050,
  "animated": 10051,
  "amounting": 10052,
  "ais": 10053,
  "patron": 10054,
  "aling": 10055,
  "confined": 10056,
  "pm": 10057,
  "rejection": 10058,
  "1887": 10059,
  "transformed": 10060,
  "tickets": 10061,
  "honoured": 10062,
  "138": 10063,
  "aming": 10064,
  "Bh@@": 10065,
  "tribunals": 10066,
  "legendary": 10067,
  "Camp@@": 10068,
  "Andrews": 10069,
  "defendant": 10070,
  "Forests": 10071,
  "PRO@@": 10072,
  "jan": 10073,
  "Santiago": 10074,
  "Palmer": 10075,
  "Air@@": 10076,
  "Owen": 10077,
  "NASA": 10078,
  "fever": 10079,
  "Maz@@": 10080,
  "tended": 10081,
  "uni@@": 10082,
  "135": 10083,
  "gallery": 10084,
  "Articles": 10085,
  "nongovernmental": 10086,
  "Philosophy": 10087,
  "chest": 10088,
  "email": 10089,
  "affirmed": 10090,
  "stem": 10091,
  "Bears": 10092,
  "3.2": 10093,
  "bon@@": 10094,
  "lover": 10095,
  "raid": 10096,
  "maps": 10097,
  "Album": 10098,
  "Chang": 10099,
  "Pearl": 10100,
  "bore": 10101,
  "Coach": 10102,
  "enables": 10103,
  "atively": 10104,
  "pot@@": 10105,
  "Account": 10106,
  "allowances": 10107,
  "default": 10108,
  "Ferdinand": 10109,
  "ide": 10110,
  "forgotten": 10111,
  "disclosed": 10112,
  "bun@@": 10113,
  "Google": 10114,
  "pon@@": 10115,
  "assuming": 10116,
  "pour": 10117,
  "Manual": 10118,
  "Counsel": 10119,
  "accelerated": 10120,
  "photograph": 10121,
  "Holmes": 10122,
  "Gibraltar": 10123,
  "loyalty": 10124,
  "confusion": 10125,
  "executives": 10126,
  "intelligent": 10127,
  "Westminster": 10128,
  "heim": 10129,
  "foods": 10130,
  "Pres@@": 10131,
  "phenomena": 10132,
  "pride": 10133,
  "persecution": 10134,
  "TRA@@": 10135,
  "Narcotic": 10136,
  "advocates": 10137,
  "Wol@@": 10138,
  "Ori@@": 10139,
  "Prosecution": 10140,
  "Golan": 10141,
  "Newton": 10142,
  "disorder": 10143,
  "violating": 10144,
  "commanders": 10145,
  "libraries": 10146,
  "Mills": 10147,
  "sti@@": 10148,
  "gues": 10149,
  "Caroline": 10150,
  "cry": 10151,
  "scenario": 10152,
  "roof": 10153,
  "Christians": 10154,
  "High@@": 10155,
  "Porter": 10156,
  "3.1": 10157,
  "staged": 10158,
  "Chiefs": 10159,
  "Over@@": 10160,
  "taxation": 10161,
  "Rick": 10162,
  "ases": 10163,
  "bat": 10164,
  "harmonized": 10165,
  "ences": 10166,
  "Moses": 10167,
  "black@@": 10168,
  "theatrical": 10169,
  "websites": 10170,
  "contingency": 10171,
  "eh": 10172,
  "Upper": 10173,
  "CONF.@@": 10174,
  "RA": 10175,
  "manufacturer": 10176,
  "streak": 10177,
  "checks": 10178,
  "ees": 10179,
  "hiring": 10180,
  "precisely": 10181,
  "orn": 10182,
  "fails": 10183,
  "com": 10184,
  "suspicion": 10185,
  "uncertain": 10186,
  "Reid": 10187,
  "manifestations": 10188,
  "153": 10189,
  "Persian": 10190,
  "Sti@@": 10191,
  "respects": 10192,
  "mut@@": 10193,
  "O.": 10194,
  "battles": 10195,
  "Ze@@": 10196,
  "suspects": 10197,
  "Nebraska": 10198,
  "dangers": 10199,
  "symptoms": 10200,
  "Robin": 10201,
  "couples": 10202,
  "freeze": 10203,
  "CP.@@": 10204,
  "Hum@@": 10205,
  "Monaco": 10206,
  "134": 10207,
  "philosophical": 10208,
  "Burton": 10209,
  "MVP": 10210,
  "quantities": 10211,
  "Finnish": 10212,
  "alo@@": 10213,
  "Decision": 10214,
  "encouragement": 10215,
  "bears": 10216,
  "Pakistani": 10217,
  "paternal": 10218,
  "Cast@@": 10219,
  "utilize": 10220,
  "aks": 10221,
  "transform": 10222,
  "conf@@": 10223,
  "DO@@": 10224,
  "filming": 10225,
  "bin@@": 10226,
  "Her": 10227,
  "threaten": 10228,
  "absent": 10229,
  "Aqu@@": 10230,
  "rocket": 10231,
  "Wy@@": 10232,
  "Lou@@": 10233,
  "wor@@": 10234,
  "configuration": 10235,
  "pun@@": 10236,
  "corporal": 10237,
  "Ass@@": 10238,
  "guideline": 10239,
  "induced": 10240,
  "discharged": 10241,
  "neighbours": 10242,
  "school@@": 10243,
  "females": 10244,
  "routes": 10245,
  "server": 10246,
  "ECE": 10247,
  "moments": 10248,
  "zes": 10249,
  "exceeded": 10250,
  "positively": 10251,
  "commends": 10252,
  "Isaac": 10253,
  "Wars": 10254,
  "Churchill": 10255,
  "isa": 10256,
  "Further": 10257,
  "teeth": 10258,
  "postponed": 10259,
  "Wellington": 10260,
  "recurrent": 10261,
  "eller": 10262,
  "tre": 10263,
  "oversaw": 10264,
  "Like": 10265,
  "transferring": 10266,
  "swing": 10267,
  "span": 10268,
  "sto@@": 10269,
  "mobilizing": 10270,
  "liberation": 10271,
  "ond": 10272,
  "infected": 10273,
  "ef": 10274,
  "conceived": 10275,
  "thinks": 10276,
  "clan": 10277,
  "strain": 10278,
  "sworn": 10279,
  "static": 10280,
  "ía": 10281,
  "tragic": 10282,
  "Laws": 10283,
  "126": 10284,
  "ank@@": 10285,
  "ris": 10286,
  "WG@@": 10287,
  "incorporation": 10288,
  "intimidation": 10289,
  "Rev@@": 10290,
  "Principal": 10291,
  "audits": 10292,
  "ema": 10293,
  "Alberta": 10294,
  "1882": 10295,
  "holistic": 10296,
  "infantry": 10297,
  "gie": 10298,
  "conceptual": 10299,
  "somebody": 10300,
  "enthusiasm": 10301,
  "sum@@": 10302,
  "8,000": 10303,
  "forensic": 10304,
  "hell": 10305,
  "gravity": 10306,
  "South@@": 10307,
  "det@@": 10308,
  "Sl@@": 10309,
  "1860": 10310,
  "Reagan": 10311,
  "lung": 10312,
  "pur": 10313,
  "thick": 10314,
  "tariff": 10315,
  "Had@@": 10316,
  "prolific": 10317,
  "verbale": 10318,
  "cult": 10319,
  "Ernest": 10320,
  "Richardson": 10321,
  "Anton@@": 10322,
  "RIGHTS": 10323,
  "resilience": 10324,
  "1881": 10325,
  "circum@@": 10326,
  "SMEs": 10327,
  "deb@@": 10328,
  "empire": 10329,
  "Consensus": 10330,
  "entrepreneur": 10331,
  "philosopher": 10332,
  "rubber": 10333,
  "surely": 10334,
  "Sak@@": 10335,
  "clarity": 10336,
  "editions": 10337,
  "overwhelming": 10338,
  "Registry": 10339,
  "Cad@@": 10340,
  "assembled": 10341,
  "eth": 10342,
  "Sem@@": 10343,
  "fusion": 10344,
  "a.@@": 10345,
  "detect": 10346,
  "convenient": 10347,
  "penal": 10348,
  "optional": 10349,
  "mature": 10350,
  "capit@@": 10351,
  "opted": 10352,
  "entrepreneurship": 10353,
  "dil@@": 10354,
  "berry": 10355,
  "1884": 10356,
  "ER": 10357,
  "manufacturers": 10358,
  "Victorian": 10359,
  "Bus@@": 10360,
  "definitely": 10361,
  "alisation": 10362,
  "Holocaust": 10363,
  "electro@@": 10364,
  "bet": 10365,
  "Fil@@": 10366,
  "Pat": 10367,
  "beach": 10368,
  "UNO@@": 10369,
  "seventy": 10370,
  "euro": 10371,
  "Guy": 10372,
  "1540": 10373,
  "Us": 10374,
  "admit": 10375,
  "McDonald": 10376,
  "Nat@@": 10377,
  "1.": 10378,
  "births": 10379,
  "imposition": 10380,
  "nie": 10381,
  "Athletics": 10382,
  "Tab@@": 10383,
  "Kra@@": 10384,
  "drum": 10385,
  "protein": 10386,
  "Cricket": 10387,
  "assumptions": 10388,
  "comprised": 10389,
  "Conservation": 10390,
  "remind": 10391,
  "connect": 10392,
  "vacation": 10393,
  "Letter": 10394,
  "lucky": 10395,
  "bureau": 10396,
  "stamp": 10397,
  "bankruptcy": 10398,
  "Abbey": 10399,
  "loading": 10400,
  "predicted": 10401,
  "Reading": 10402,
  "Have": 10403,
  "briefed": 10404,
  "heaven": 10405,
  "disputed": 10406,
  "CIA": 10407,
  "CT@@": 10408,
  "Cour@@": 10409,
  "Pul@@": 10410,
  "renewal": 10411,
  "diplomat": 10412,
  "foremost": 10413,
  "Southeast": 10414,
  "coun@@": 10415,
  "sli@@": 10416,
  "cooking": 10417,
  "maximize": 10418,
  "poorly": 10419,
  "researcher": 10420,
  "lic": 10421,
  "Construction": 10422,
  "Flying": 10423,
  "Progress": 10424,
  "updates": 10425,
  "worship": 10426,
  "hear@@": 10427,
  "warming": 10428,
  "translate": 10429,
  "Arbitration": 10430,
  "Haz@@": 10431,
  "Legion": 10432,
  "doubts": 10433,
  "MS@@": 10434,
  "march": 10435,
  "decentralization": 10436,
  "quest": 10437,
  "Sz@@": 10438,
  "wording": 10439,
  "Columbus": 10440,
  "aud": 10441,
  "diamonds": 10442,
  "ø@@": 10443,
  "spaces": 10444,
  "keeps": 10445,
  "relay": 10446,
  "eson": 10447,
  "acceded": 10448,
  "posthumously": 10449,
  "Malawi": 10450,
  "ESCWA": 10451,
  "Zhu": 10452,
  "novelist": 10453,
  "Chil@@": 10454,
  "sponsoring": 10455,
  "ishes": 10456,
  "Desertification": 10457,
  "Cox": 10458,
  "merit": 10459,
  "4.5": 10460,
  "min": 10461,
  "Julia": 10462,
  "lap": 10463,
  "Harper": 10464,
  "optimal": 10465,
  "Lao": 10466,
  "ographic": 10467,
  "criminals": 10468,
  "spheres": 10469,
  "comedian": 10470,
  "invented": 10471,
  "masters": 10472,
  "Foster": 10473,
  "renew": 10474,
  "surrendered": 10475,
  "ICC": 10476,
  "Mohamed": 10477,
  "Bern@@": 10478,
  "Ja@@": 10479,
  "Comedy": 10480,
  "malnutrition": 10481,
  "vertical": 10482,
  "bat@@": 10483,
  "powder": 10484,
  "engineers": 10485,
  "Din@@": 10486,
  "accumulated": 10487,
  "lett": 10488,
  "devastating": 10489,
  "1870": 10490,
  "platforms": 10491,
  "collapsed": 10492,
  "gal@@": 10493,
  "contributors": 10494,
  "Nigerian": 10495,
  "Cob@@": 10496,
  "stored": 10497,
  "mir@@": 10498,
  "indirectly": 10499,
  "cho@@": 10500,
  "een": 10501,
  "notified": 10502,
  "memoir": 10503,
  "ounding": 10504,
  "tribes": 10505,
  "Hat@@": 10506,
  "&apos;Brien": 10507,
  "stipulates": 10508,
  "gradual": 10509,
  "Aboriginal": 10510,
  "pic@@": 10511,
  "TR@@": 10512,
  "comprise": 10513,
  "basically": 10514,
  "parental": 10515,
  "congratulate": 10516,
  "Laura": 10517,
  "Prague": 10518,
  "rolling": 10519,
  "employ": 10520,
  "interred": 10521,
  "serial": 10522,
  "Wimbledon": 10523,
  "explaining": 10524,
  "real@@": 10525,
  "touched": 10526,
  "Derby": 10527,
  "Mrs": 10528,
  "abandon": 10529,
  "tia": 10530,
  "Lat@@": 10531,
  "institutes": 10532,
  "deeper": 10533,
  "Patriots": 10534,
  "Hir@@": 10535,
  "benchmarks": 10536,
  "ratifying": 10537,
  "pu@@": 10538,
  "mathematical": 10539,
  "Yan@@": 10540,
  "breakthrough": 10541,
  "inconsistent": 10542,
  "tra@@": 10543,
  "dish": 10544,
  "underscored": 10545,
  "Truth": 10546,
  "confronted": 10547,
  "unc@@": 10548,
  "500,000": 10549,
  "teenage": 10550,
  "blues": 10551,
  "gi": 10552,
  "helicopter": 10553,
  "finger": 10554,
  "Forbes": 10555,
  "Steering": 10556,
  "ares": 10557,
  "log": 10558,
  "mp@@": 10559,
  "holy": 10560,
  "barrier": 10561,
  "coupled": 10562,
  "offense": 10563,
  "warfare": 10564,
  "mini": 10565,
  "uphold": 10566,
  "aman": 10567,
  "129": 10568,
  "cheap": 10569,
  "pipe": 10570,
  "exam": 10571,
  "sheets": 10572,
  "inception": 10573,
  "133": 10574,
  "Mut@@": 10575,
  "shortcomings": 10576,
  "Duncan": 10577,
  "Paulo": 10578,
  "standardized": 10579,
  "risen": 10580,
  "127": 10581,
  "shareholders": 10582,
  "cement": 10583,
  "30,000": 10584,
  "Nevada": 10585,
  "1.4": 10586,
  "Danny": 10587,
  "cancellation": 10588,
  "aves": 10589,
  "tortured": 10590,
  "weaknesses": 10591,
  "ACC": 10592,
  "convictions": 10593,
  "Angels": 10594,
  "Hull": 10595,
  "Achievement": 10596,
  "erman": 10597,
  "impartiality": 10598,
  "Up@@": 10599,
  "mapping": 10600,
  "jurisdictions": 10601,
  "UNITAR": 10602,
  "dubbed": 10603,
  "individually": 10604,
  "Provisional": 10605,
  "wondered": 10606,
  "deleted": 10607,
  "Rhode": 10608,
  "shell": 10609,
  "dar@@": 10610,
  "Ball": 10611,
  "conc@@": 10612,
  "adjacent": 10613,
  "remarked": 10614,
  "Memphis": 10615,
  "treating": 10616,
  "alls": 10617,
  "roc@@": 10618,
  "diary": 10619,
  "respondents": 10620,
  "Tribunals": 10621,
  "tian": 10622,
  "irrespective": 10623,
  "acks": 10624,
  "Djibouti": 10625,
  "shops": 10626,
  "Jon@@": 10627,
  "182": 10628,
  "desert": 10629,
  "voiced": 10630,
  "allocations": 10631,
  "discover": 10632,
  "editing": 10633,
  "narrowly": 10634,
  "2.4": 10635,
  "Mohammed": 10636,
  "tech": 10637,
  "pensions": 10638,
  "suspicious": 10639,
  "recipients": 10640,
  "Togo": 10641,
  "Reynolds": 10642,
  "spin": 10643,
  "feminist": 10644,
  "Martha": 10645,
  "Hur@@": 10646,
  "copyright": 10647,
  "Hamburg": 10648,
  "discretion": 10649,
  "ero@@": 10650,
  "fla@@": 10651,
  "shifted": 10652,
  "inj@@": 10653,
  "transboundary": 10654,
  "searching": 10655,
  "boo@@": 10656,
  "estates": 10657,
  "phones": 10658,
  "economist": 10659,
  "blamed": 10660,
  "rail": 10661,
  "rey": 10662,
  "ining": 10663,
  "Dodgers": 10664,
  "Bolivarian": 10665,
  "Decolonization": 10666,
  "fel@@": 10667,
  "Bonn": 10668,
  "kn@@": 10669,
  "Paper": 10670,
  "belongs": 10671,
  "Bailey": 10672,
  "tanks": 10673,
  "Fair@@": 10674,
  "North@@": 10675,
  "ques": 10676,
  "Guam": 10677,
  "nicknamed": 10678,
  "feeding": 10679,
  "ailing": 10680,
  "Kate": 10681,
  "shan": 10682,
  "disappointed": 10683,
  "Penn": 10684,
  "bitter": 10685,
  "Rev.": 10686,
  "favorable": 10687,
  "Lon@@": 10688,
  "striker": 10689,
  "comfort": 10690,
  "ope": 10691,
  "violin": 10692,
  "tide": 10693,
  "Mass": 10694,
  "fix": 10695,
  "shire": 10696,
  "chancellor": 10697,
  "irregular": 10698,
  "robbery": 10699,
  "amid": 10700,
  "Henderson": 10701,
  "occurring": 10702,
  "leagues": 10703,
  "Frances": 10704,
  "Trustees": 10705,
  "ret": 10706,
  "corrupt": 10707,
  "notify": 10708,
  "prayer": 10709,
  "circled": 10710,
  "Rou@@": 10711,
  "beer": 10712,
  "xi": 10713,
  "devote": 10714,
  "soap": 10715,
  "collaborate": 10716,
  "rier": 10717,
  "Ten@@": 10718,
  "readily": 10719,
  "ax": 10720,
  "sung": 10721,
  "Gabriel": 10722,
  "regulating": 10723,
  "hr": 10724,
  "pot": 10725,
  "specially": 10726,
  "Oc@@": 10727,
  "disc": 10728,
  "Raw": 10729,
  "possessed": 10730,
  "varying": 10731,
  "17.@@": 10732,
  "agu@@": 10733,
  "chains": 10734,
  "Add.2": 10735,
  "Edmund": 10736,
  "ku": 10737,
  "planted": 10738,
  "instituted": 10739,
  "uma": 10740,
  "1866": 10741,
  "Bell@@": 10742,
  "leton": 10743,
  "Actor": 10744,
  "Bru@@": 10745,
  "restrict": 10746,
  "acquiring": 10747,
  "anne": 10748,
  "Chairs": 10749,
  "wel@@": 10750,
  "Goo@@": 10751,
  "ken@@": 10752,
  "apo@@": 10753,
  "Border": 10754,
  "experiencing": 10755,
  "Drama": 10756,
  "ê@@": 10757,
  "prohibiting": 10758,
  "tribe": 10759,
  "Burke": 10760,
  "arrests": 10761,
  "1876": 10762,
  "honours": 10763,
  "Pop": 10764,
  "Burns": 10765,
  "&apos;i": 10766,
  "dependence": 10767,
  "Ellen": 10768,
  "Living": 10769,
  "Plan@@": 10770,
  "nec@@": 10771,
  "magnetic": 10772,
  "Artists": 10773,
  "ained": 10774,
  "Queens": 10775,
  "Lun@@": 10776,
  "Gab@@": 10777,
  "explosives": 10778,
  "bottle": 10779,
  "Nik@@": 10780,
  "Fro@@": 10781,
  "Application": 10782,
  "forecast": 10783,
  "Marcus": 10784,
  "Domestic": 10785,
  "refusing": 10786,
  "INF": 10787,
  "GS": 10788,
  "rally": 10789,
  "Munster": 10790,
  "Responsible": 10791,
  "amed": 10792,
  "ght": 10793,
  "preserving": 10794,
  "dozens": 10795,
  "Rabbi": 10796,
  "ze@@": 10797,
  "Liechtenstein": 10798,
  "casting": 10799,
  "tiny": 10800,
  "sword": 10801,
  "innovations": 10802,
  "timetable": 10803,
  "path@@": 10804,
  "Just": 10805,
  "3.3": 10806,
  "Race": 10807,
  "Distr": 10808,
  "ails": 10809,
  "lee": 10810,
  "Ve@@": 10811,
  "Justin": 10812,
  "supervised": 10813,
  "Leadership": 10814,
  "harder": 10815,
  "Associated": 10816,
  "nationalist": 10817,
  "travels": 10818,
  "ater@@": 10819,
  "How@@": 10820,
  "Watch": 10821,
  "ician": 10822,
  "urs": 10823,
  "Parish": 10824,
  "minds": 10825,
  "stat@@": 10826,
  "Historical": 10827,
  "disparities": 10828,
  "Hayes": 10829,
  "licensed": 10830,
  "Resident": 10831,
  "livelihood": 10832,
  "Capacity": 10833,
  "excellence": 10834,
  "precious": 10835,
  "Non@@": 10836,
  "ede": 10837,
  "upheld": 10838,
  "fifteenth": 10839,
  "accomplishment": 10840,
  "commissioner": 10841,
  "surname": 10842,
  "correctly": 10843,
  "firstly": 10844,
  "guaranteeing": 10845,
  "por@@": 10846,
  "Whe@@": 10847,
  "ust@@": 10848,
  "7,000": 10849,
  "Bradford": 10850,
  "Cold": 10851,
  "fellowship": 10852,
  "dropping": 10853,
  "enquiry": 10854,
  "MLB": 10855,
  "Ensure": 10856,
  "designation": 10857,
  "Ful@@": 10858,
  "leaf": 10859,
  "19.@@": 10860,
  "FO@@": 10861,
  "balls": 10862,
  "Economy": 10863,
  "Fitz@@": 10864,
  "mortgage": 10865,
  "nell": 10866,
  "supplier": 10867,
  "awaiting": 10868,
  "Season": 10869,
  "universe": 10870,
  "disseminated": 10871,
  "pocket": 10872,
  "globe": 10873,
  "pleaded": 10874,
  "steam": 10875,
  "precision": 10876,
  "favoured": 10877,
  "exceeding": 10878,
  "met@@": 10879,
  "Jar@@": 10880,
  "merger": 10881,
  "dle": 10882,
  "frozen": 10883,
  "incompatible": 10884,
  "break@@": 10885,
  "Angel": 10886,
  "Sean": 10887,
  "gene": 10888,
  "Microsoft": 10889,
  "genital": 10890,
  "castle": 10891,
  "Naz@@": 10892,
  "lam": 10893,
  "seeds": 10894,
  "Sudanese": 10895,
  "accredited": 10896,
  "relied": 10897,
  "aliens": 10898,
  "confiscated": 10899,
  "lah": 10900,
  "Richards": 10901,
  "Botswana": 10902,
  "manuscript": 10903,
  "fined": 10904,
  "Mumbai": 10905,
  "highlighting": 10906,
  "ić": 10907,
  "Kingston": 10908,
  "noon": 10909,
  "defines": 10910,
  "Shi": 10911,
  "Will@@": 10912,
  "resumption": 10913,
  "Marc": 10914,
  "resettlement": 10915,
  "sophisticated": 10916,
  "ensuing": 10917,
  "HK@@": 10918,
  "Primary": 10919,
  "accurately": 10920,
  "nam@@": 10921,
  "ware": 10922,
  "Suppression": 10923,
  "IE@@": 10924,
  "comeback": 10925,
  "Hab@@": 10926,
  "annexed": 10927,
  "Zhou": 10928,
  "origins": 10929,
  "Bour@@": 10930,
  "fiftieth": 10931,
[...]
