{
  "<EOS>": 0,
  "<GO>": 1,
  "<UNK>": 2,
  "的": 3,
  "，": 4,
  "。": 5,
  "和": 6,
  "在": 7,
  "、": 8,
  "了": 9,
  ".": 10,
  "是": 11,
  "年": 12,
  ")": 13,
  "(": 14,
  "/": 15,
  "对": 16,
  "月": 17,
  "与": 18,
  "委员会": 19,
  "并": 20,
  "为": 21,
  "中": 22,
  "他": 23,
  "《": 24,
  "》": 25,
  "第": 26,
  "我": 27,
  "将": 28,
  "问题": 29,
  "；": 30,
  "-": 31,
  "国家": 32,
  "有": 33,
  "：": 34,
  "会议": 35,
  "\"": 36,
  "日": 37,
  "一个": 38,
  "不": 39,
  "或": 40,
  "联合国": 41,
  "我们": 42,
  "报告": 43,
  "发展": 44,
  "其": 45,
  "你": 46,
  "国际": 47,
  "以": 48,
  "提供": 49,
  "到": 50,
  "（": 51,
  "）": 52,
  "工作": 53,
  "人": 54,
  "上": 55,
  "也": 56,
  "关于": 57,
  "组织": 58,
  "就": 59,
  "1": 60,
  "进行": 61,
  "以及": 62,
  "这些": 63,
  "这": 64,
  "包括": 65,
  "所": 66,
  "通过": 67,
  "而": 68,
  "被": 69,
  "该": 70,
  "社会": 71,
  "其他": 72,
  "方案": 73,
  "情况": 74,
  "还": 75,
  "都": 76,
  "有关": 77,
  "他们": 78,
  "特别": 79,
  "向": 80,
  "方面": 81,
  "执行": 82,
  "及": 83,
  "政府": 84,
  "机构": 85,
  "2": 86,
  "但": 87,
  "时": 88,
  "没有": 89,
  "活动": 90,
  "号": 91,
  "地": 92,
  "决议": 93,
  "3": 94,
  "于": 95,
  "建议": 96,
  "可": 97,
  "所有": 98,
  "妇女": 99,
  "说": 100,
  "她": 101,
  "经济": 102,
  "安全": 103,
  "项目": 104,
  "行动": 105,
  "人权": 106,
  "会": 107,
  "公约": 108,
  "可以": 109,
  "下": 110,
  "需要": 111,
  "“": 112,
  "4": 113,
  "从": 114,
  "根据": 115,
  "应": 116,
  "大会": 117,
  "规定": 118,
  "5": 119,
  "区域": 120,
  "”": 121,
  "它": 122,
  "理事会": 123,
  "后": 124,
  "提出": 125,
  "6": 126,
  "可能": 127,
  "合作": 128,
  "决定": 129,
  "个": 130,
  "儿童": 131,
  "·": 132,
  "新": 133,
  "使": 134,
  "代表": 135,
  "由": 136,
  "必须": 137,
  "支持": 138,
  "10": 139,
  "已": 140,
  "12": 141,
  "技术": 142,
  "认为": 143,
  "影响": 144,
  "更": 145,
  "法律": 146,
  "来": 147,
  "A": 148,
  "7": 149,
  "权利": 150,
  "要求": 151,
  "要": 152,
  "政策": 153,
  "一些": 154,
  "继续": 155,
  "各": 156,
  "等": 157,
  "促进": 158,
  "秘书长": 159,
  "目标": 160,
  "加强": 161,
  "管理": 162,
  "采取": 163,
  "保护": 164,
  "措施": 165,
  "研究": 166,
  "系统": 167,
  "把": 168,
  "主要": 169,
  "使用": 170,
  "提交": 171,
  "服务": 172,
  "9": 173,
  "和平": 174,
  "确保": 175,
  "能力": 176,
  "条": 177,
  ":": 178,
  "？": 179,
  "计划": 180,
  "作为": 181,
  "缔约国": 182,
  "本": 183,
  "内": 184,
  "重要": 185,
  "任何": 186,
  "这种": 187,
  "11": 188,
  "建立": 189,
  "主席": 190,
  "这个": 191,
  "已经": 192,
  "给": 193,
  "因此": 194,
  "努力": 195,
  "如果": 196,
  "8": 197,
  "注意": 198,
  "中国": 199,
  "期间": 200,
  "多": 201,
  "举行": 202,
  "很": 203,
  "请": 204,
  "因为": 205,
  "草案": 206,
  "先生": 207,
  "最": 208,
  "段": 209,
  "审议": 210,
  "能": 211,
  "实现": 212,
  "一": 213,
  "文件": 214,
  "资源": 215,
  "教育": 216,
  "这一": 217,
  "自己": 218,
  "获得": 219,
  "者": 220,
  "成员": 221,
  "人员": 222,
  "之间": 223,
  "信息": 224,
  "行为": 225,
  "得到": 226,
  "世界": 227,
  "各国": 228,
  "基金": 229,
  "审查": 230,
  "表示": 231,
  "全球": 232,
  "实施": 233,
  "环境": 234,
  "参与": 235,
  "开展": 236,
  "美国": 237,
  "领域": 238,
  "着": 239,
  "增加": 240,
  "地区": 241,
  "相关": 242,
  "援助": 243,
  "至": 244,
  "考虑": 245,
  "其中": 246,
  "持续": 247,
  "战略": 248,
  "让": 249,
  "但是": 250,
  "开始": 251,
  "公司": 252,
  "由于": 253,
  "议程": 254,
  "一项": 255,
  "政治": 256,
  "方法": 257,
  "支助": 258,
  "有效": 259,
  "代表团": 260,
  "协调": 261,
  "及其": 262,
  "讨论": 263,
  "参加": 264,
  "作出": 265,
  "小组": 266,
  "能够": 267,
  "正在": 268,
  "预算": 269,
  "又": 270,
  "成为": 271,
  "指出": 272,
  "作用": 273,
  "a": 274,
  "一种": 275,
  "程序": 276,
  "许多": 277,
  "处理": 278,
  "做": 279,
  "工作人员": 280,
  "人民": 281,
  "资料": 282,
  "目前": 283,
  "方式": 284,
  "前": 285,
  "特派团": 286,
  "中心": 287,
  "里": 288,
  "去": 289,
  "提高": 290,
  "它们": 291,
  "解决": 292,
  "取得": 293,
  "进一步": 294,
  "机制": 295,
  "同时": 296,
  "意见": 297,
  "说明": 298,
  "秘书处": 299,
  "条约": 300,
  "任务": 301,
  "次": 302,
  "事务": 303,
  "制定": 304,
  "调查": 305,
  "15": 306,
  "非洲": 307,
  "培训": 308,
  "评估": 309,
  "减少": 310,
  "时间": 311,
  "确定": 312,
  "框架": 313,
  "名": 314,
  "人口": 315,
  "原则": 316,
  "发展中国家": 317,
  "具有": 318,
  "生活": 319,
  "而且": 320,
  "不是": 321,
  "2008": 322,
  "用": 323,
  "—": 324,
  "希望": 325,
  "这样": 326,
  "30": 327,
  "各种": 328,
  "国": 329,
  "文化": 330,
  "进程": 331,
  "部分": 332,
  "目的": 333,
  "2005": 334,
  "b": 335,
  "美元": 336,
  "部门": 337,
  "不同": 338,
  "现在": 339,
  "2006": 340,
  "平等": 341,
  "利用": 342,
  "工作组": 343,
  "发生": 344,
  "2010": 345,
  "为了": 346,
  "强调": 347,
  "间": 348,
  "此外": 349,
  "接受": 350,
  "好": 351,
  "以便": 352,
  "费用": 353,
  "最后": 354,
  "2009": 355,
  "地方": 356,
  "20": 357,
  "应当": 358,
  "分析": 359,
  "应该": 360,
  "对于": 361,
  "标准": 362,
  "2007": 363,
  "之": 364,
  "发言": 365,
  "什么": 366,
  "缔约方": 367,
  "同": 368,
  "是否": 369,
  "存在": 370,
  "关系": 371,
  "C": 372,
  "制度": 373,
  "法": 374,
  "数据": 375,
  "2004": 376,
  "性": 377,
  ";": 378,
  "适当": 379,
  "*": 380,
  "结果": 381,
  "维持": 382,
  "造成": 383,
  "按照": 384,
  "?": 385,
  "产生": 386,
  "必要": 387,
  "机会": 388,
  "基础": 389,
  "受到": 390,
  "那": 391,
  "2011": 392,
  "设立": 393,
  "行政": 394,
  "专家": 395,
  "会员国": 396,
  "建设": 397,
  "不能": 398,
  "就是": 399,
  "帮助": 400,
  "如": 401,
  "负责": 402,
  "全面": 403,
  "并且": 404,
  "家庭": 405,
  "投资": 406,
  "14": 407,
  "消除": 408,
  "范围": 409,
  "即": 410,
  "一次": 411,
  "办事处": 412,
  "大": 413,
  "之后": 414,
  "13": 415,
  "过": 416,
  "协助": 417,
  "司法": 418,
  "办法": 419,
  "知道": 420,
  "具体": 421,
  "想": 422,
  "进展": 423,
  "2000": 424,
  "得": 425,
  "承诺": 426,
  "则": 427,
  "共同": 428,
  "鼓励": 429,
  "吗": 430,
  "两个": 431,
  "做法": 432,
  "16": 433,
  "18": 434,
  "受": 435,
  "各项": 436,
  "2003": 437,
  "非": 438,
  "如何": 439,
  "2012": 440,
  "责任": 441,
  "资金": 442,
  "法院": 443,
  "性别": 444,
  "用于": 445,
  "安排": 446,
  "充分": 447,
  "过程": 448,
  "贸易": 449,
  "人们": 450,
  "2002": 451,
  "因": 452,
  "严重": 453,
  "完成": 454,
  "当": 455,
  "涉及": 456,
  "条件": 457,
  "议定书": 458,
  "咨询": 459,
  "尤其": 460,
  "款": 461,
  "义务": 462,
  "监测": 463,
  "一切": 464,
  "个人": 465,
  "事项": 466,
  "们": 467,
  "形式": 468,
  "这方面": 469,
  "办公室": 470,
  "比": 471,
  "歧视": 472,
  "欢迎": 473,
  "企业": 474,
  "出": 475,
  "日至": 476,
  "改革": 477,
  "批准": 478,
  "挑战": 479,
  "基本": 480,
  "那些": 481,
  "业务": 482,
  "部队": 483,
  "」": 484,
  "市场": 485,
  "2001": 486,
  "「": 487,
  "17": 488,
  "例如": 489,
  "犯罪": 490,
  "选举": 491,
  "以色列": 492,
  "非政府": 493,
  "21": 494,
  "尽管": 495,
  "需": 496,
  "出现": 497,
  "期": 498,
  "自由": 499,
  "冲突": 500,
  "未": 501,
  "介绍": 502,
  "国内": 503,
  "适用": 504,
  "认识": 505,
  "仍": 506,
  "采用": 507,
  "19": 508,
  "控制": 509,
  "仍然": 510,
  "见": 511,
  "以下": 512,
  "2013": 513,
  "或者": 514,
  "两年": 515,
  "c": 516,
  "关切": 517,
  "关注": 518,
  "成果": 519,
  "31": 520,
  "非常": 521,
  "虽然": 522,
  "．": 523,
  "武器": 524,
  "[": 525,
  "附件": 526,
  "临时": 527,
  "之前": 528,
  "直接": 529,
  "时候": 530,
  "自": 531,
  "然而": 532,
  "生产": 533,
  "改善": 534,
  "难民": 535,
  "利益": 536,
  "健康": 537,
  "一直": 538,
  "原因": 539,
  "无法": 540,
  "25": 541,
  "优先": 542,
  "协定": 543,
  "表明": 544,
  "案件": 545,
  "一般": 546,
  "社区": 547,
  "1999": 548,
  "22": 549,
  "联合": 550,
  "以来": 551,
  "评价": 552,
  "报告员": 553,
  "！": 554,
  "发现": 555,
  "作": 556,
  "人道主义": 557,
  "当局": 558,
  "独立": 559,
  "24": 560,
  "岁": 561,
  "这项": 562,
  "立法": 563,
  "增长": 564,
  "]": 565,
  "23": 566,
  "高": 567,
  "过去": 568,
  "曾": 569,
  "按": 570,
  "暴力": 571,
  "禁止": 572,
  "这是": 573,
  "不会": 574,
  "稳定": 575,
  "最近": 576,
  "积极": 577,
  "现有": 578,
  "导致": 579,
  "防止": 580,
  "履行": 581,
  "另": 582,
  "内容": 583,
  "限制": 584,
  "1998": 585,
  "B": 586,
  "重申": 587,
  "了解": 588,
  "却": 589,
  "恐怖主义": 590,
  "大学": 591,
  "L": 592,
  "加入": 593,
  "风险": 594,
  "结束": 595,
  "日本": 596,
  "一份": 597,
  "区": 598,
  "监督": 599,
  "打击": 600,
  "全国": 601,
  "经": 602,
  "担任": 603,
  "起": 604,
  "地位": 605,
  "结构": 606,
  "综合": 607,
  "再": 608,
  "副": 609,
  "巴勒斯坦": 610,
  "请求": 611,
  "需求": 612,
  "收到": 613,
  "大@@": 614,
  "总统": 615,
  "学校": 616,
  "同意": 617,
  "针对": 618,
  "经费": 619,
  "之一": 620,
  "人类": 621,
  "成功": 622,
  "某些": 623,
  "土著": 624,
  "因素": 625,
  "状况": 626,
  "安理会": 627,
  "欧洲": 628,
  "广泛": 629,
  "推动": 630,
  "正式": 631,
  "承认": 632,
  "选择": 633,
  "E": 634,
  "您": 635,
  "集团": 636,
  "只有": 637,
  "只": 638,
  "厅": 639,
  "审计": 640,
  "呼吁": 641,
  "纳入": 642,
  "指导": 643,
  "军事": 644,
  "26": 645,
  "论坛": 646,
  "设计": 647,
  "面临": 648,
  "部": 649,
  "保障": 650,
  "材料": 651,
  "来自": 652,
  "产品": 653,
  "对话": 654,
  "警察": 655,
  "27": 656,
  "谈判": 657,
  "领土": 658,
  "28": 659,
  "实际": 660,
  "事件": 661,
  "扩大": 662,
  "协商": 663,
  "制订": 664,
  "保证": 665,
  "定期": 666,
  "完全": 667,
  "小": 668,
  "进入": 669,
  "联系": 670,
  "条款": 671,
  "规则": 672,
  "外": 673,
  "还是": 674,
  "一样": 675,
  "整个": 676,
  "违反": 677,
  "记录": 678,
  "你们": 679,
  "该国": 680,
  "一名": 681,
  "网络": 682,
  "长期": 683,
  "当地": 684,
  "规划": 685,
  "发挥": 686,
  "一@@": 687,
  "宣言": 688,
  "法庭": 689,
  "从而": 690,
  "城市": 691,
  "重新": 692,
  "上述": 693,
  "收入": 694,
  "发达国家": 695,
  "遵守": 696,
  "才": 697,
  "此": 698,
  "占": 699,
  "一起": 700,
  "学生": 701,
  "经常": 702,
  "较": 703,
  "均": 704,
  "协议": 705,
  "不过": 706,
  "拥有": 707,
  "准备": 708,
  "重点": 709,
  "非法": 710,
  "S": 711,
  "约": 712,
  "运动": 713,
  "财政": 714,
  "预防": 715,
  "土地": 716,
  "侵犯": 717,
  "29": 718,
  "更加": 719,
  "方": 720,
  "还有": 721,
  "威胁": 722,
  "分": 723,
  "二": 724,
  "伊拉克": 725,
  "伙伴关系": 726,
  "不断": 727,
  "程度": 728,
  "明确": 729,
  "像": 730,
  "员额": 731,
  "同样": 732,
  "项": 733,
  "事": 734,
  "符合": 735,
  "确认": 736,
  "每个": 737,
  "科学": 738,
  "公民": 739,
  "我国": 740,
  "经验": 741,
  "应对": 742,
  "d": 743,
  "不@@": 744,
  "成员国": 745,
  "达到": 746,
  "2014": 747,
  "感到": 748,
  "保持": 749,
  "很多": 750,
  "做出": 751,
  "成立": 752,
  "基于": 753,
  "千年": 754,
  "内部": 755,
  "宪法": 756,
  "专业": 757,
  "类": 758,
  "权": 759,
  "未来": 760,
  "表": 761,
  "变化": 762,
  "合同": 763,
  "结论": 764,
  "香港": 765,
  "年度": 766,
  "普遍": 767,
  "改进": 768,
  "宣布": 769,
  "有助于": 770,
  "带来": 771,
  "％": 772,
  "每": 773,
  "恢复": 774,
  "设备": 775,
  "旨在": 776,
  "下列": 777,
  "空间": 778,
  "申请": 779,
  "举办": 780,
  "就业": 781,
  "给予": 782,
  "显示": 783,
  "正": 784,
  "孩子": 785,
  "民主": 786,
  "法官": 787,
  "解释": 788,
  "开发": 789,
  "学习": 790,
  "群体": 791,
  "反对": 792,
  "主任": 793,
  "人数": 794,
  "官员": 795,
  "女士": 796,
  "编写": 797,
  "准则": 798,
  "银行": 799,
  "改变": 800,
  "本国": 801,
  "倡议": 802,
  "设施": 803,
  "知识": 804,
  "所述": 805,
  "公共": 806,
  "1997": 807,
  "应用": 808,
  "女性": 809,
  "刑事": 810,
  "处": 811,
  "子": 812,
  "现象": 813,
  "贩运": 814,
  "看到": 815,
  "水平": 816,
  "缺乏": 817,
  "宣传": 818,
  "受害者": 819,
  "超过": 820,
  "有些": 821,
  "重大": 822,
  "那么": 823,
  "保留": 824,
  "看": 825,
  "指标": 826,
  "境内": 827,
  "所以": 828,
  "传统": 829,
  "起来": 830,
  "价值": 831,
  "大量": 832,
  "宗教": 833,
  "一位": 834,
  "支付": 835,
  "点": 836,
  "艾滋病": 837,
  "条例": 838,
  "组成": 839,
  "最大": 840,
  "下午": 841,
  "实体": 842,
  "允许": 843,
  "e": 844,
  "落实": 845,
  "列入": 846,
  "保健": 847,
  "阶段": 848,
  "反映": 849,
  "然后": 850,
  "民间": 851,
  "回顾": 852,
  "水": 853,
  "工具": 854,
  "呢": 855,
  "50": 856,
  "无": 857,
  "只是": 858,
  "提到": 859,
  "构成": 860,
  "管制": 861,
  "拘留": 862,
  "危机": 863,
  "60": 864,
  "以上": 865,
  "访问": 866,
  "国际法": 867,
  "享有": 868,
  "数量": 869,
  "手段": 870,
  "局势": 871,
  "协会": 872,
  "今天": 873,
  "领导": 874,
  "证明": 875,
  "农业": 876,
  "贫穷": 877,
  "实行": 878,
  "满足": 879,
  "三": 880,
  "最终": 881,
  "提议": 882,
  "伙伴": 883,
  "危险": 884,
  "尊重": 885,
  "资产": 886,
  "另外": 887,
  "1996": 888,
  "调整": 889,
  "一点": 890,
  "酷刑": 891,
  "基金会": 892,
  "文书": 893,
  "通知": 894,
  "后续": 895,
  "称": 896,
  "行动计划": 897,
  "中@@": 898,
  "理由": 899,
  "总": 900,
  "核武器": 901,
  "达成": 902,
  "青年": 903,
  "签署": 904,
  "法国": 905,
  "艾滋病毒": 906,
  "关键": 907,
  "P": 908,
  "吧": 909,
  "非正式": 910,
  "三个": 911,
  "补充": 912,
  "再次": 913,
  "一部分": 914,
  "一定": 915,
  "喜欢": 916,
  "英语": 917,
  "发表": 918,
  "任": 919,
  "授权": 920,
  "通常": 921,
  "为此": 922,
  "亚洲": 923,
  "万美元": 924,
  "最佳": 925,
  "家": 926,
  "小@@": 927,
  "声明": 928,
  "质量": 929,
  "40": 930,
  "裁军": 931,
  "残疾人": 932,
  "统计": 933,
  "出口": 934,
  "扩散": 935,
  "第二": 936,
  "从事": 937,
  "亿美元": 938,
  "治疗": 939,
  "财务": 940,
  "印度": 941,
  "来说": 942,
  "支出": 943,
  "登记": 944,
  "在内": 945,
  "贡献": 946,
  "总部": 947,
  "战争": 948,
  "任命": 949,
  "当时": 950,
  "采购": 951,
  "职能": 952,
  "拟议": 953,
  "第一": 954,
  "若干": 955,
  "单位": 956,
  "地点": 957,
  "告诉": 958,
  "权力": 959,
  "每年": 960,
  "历史": 961,
  "编制": 962,
  "'": 963,
  "－": 964,
  "分配": 965,
  "森林": 966,
  "第五": 967,
  "信": 968,
  "证据": 969,
  "课程": 970,
  "联盟": 971,
  "移民": 972,
  "团体": 973,
  "修订": 974,
  "英国": 975,
  "有人": 976,
  "收集": 977,
  "不要": 978,
  "属于": 979,
  "更好": 980,
  "今后": 981,
  "大多数": 982,
  "甚至": 983,
  "答复": 984,
  "尚未": 985,
  "各方": 986,
  "除": 987,
  "增强": 988,
  "重要性": 989,
  "外国": 990,
  "提案": 991,
  "模式": 992,
  "困难": 993,
  "公开": 994,
  "如下": 995,
  "议会": 996,
  "气候变化": 997,
  "道": 998,
  "1995": 999,
  "走": 1000,
  "成": 1001,
  "生物": 1002,
  "引起": 1003,
  "州": 1004,
  "团": 1005,
  "创造": 1006,
  "专门": 1007,
  "化": 1008,
  "2015": 1009,
  "加拿大": 1010,
  "题为": 1011,
  "表现": 1012,
  "财产": 1013,
  "观察员": 1014,
  "一年": 1015,
  "农村": 1016,
  "毒品": 1017,
  "意义": 1018,
  "比较": 1019,
  "Add": 1020,
  "达": 1021,
  "苏丹": 1022,
  "至少": 1023,
  "拟订": 1024,
  "她们": 1025,
  "寻求": 1026,
  "公众": 1027,
  "据": 1028,
  "首脑会议": 1029,
  "其它": 1030,
  "十分": 1031,
  "阿富汗": 1032,
  "一级": 1033,
  "D": 1034,
  "率": 1035,
  "特殊": 1036,
  "基础设施": 1037,
  "司": 1038,
  "核心": 1039,
  "而言": 1040,
  "以前": 1041,
  "署": 1042,
  "维护": 1043,
  "鉴于": 1044,
  "纽约": 1045,
  "常驻": 1046,
  "罪行": 1047,
  "移徙": 1048,
  "分别": 1049,
  "统一": 1050,
  "避免": 1051,
  "工业": 1052,
  "第六": 1053,
  "相信": 1054,
  "自愿": 1055,
  "的话": 1056,
  "媒体": 1057,
  "多边": 1058,
  "加以": 1059,
  "一致": 1060,
  "新闻": 1061,
  "估计": 1062,
  "观点": 1063,
  "交流": 1064,
  "除了": 1065,
  "德国": 1066,
  "住": 1067,
  "如此": 1068,
  "欧洲联盟": 1069,
  "迅速": 1070,
  "1994": 1071,
  "越来越": 1072,
  "不仅": 1073,
  "主题": 1074,
  "召开": 1075,
  "通信": 1076,
  "语言": 1077,
  "敦促": 1078,
  "运作": 1079,
  "损失": 1080,
  "宪章": 1081,
  "来源": 1082,
  "步骤": 1083,
  "不得": 1084,
  "依照": 1085,
  "几个": 1086,
  "似乎": 1087,
  "价格": 1088,
  "邀请": 1089,
  "德": 1090,
  "真正": 1091,
  "东西": 1092,
  "能源": 1093,
  "黎巴嫩": 1094,
  "才能": 1095,
  "职业": 1096,
  "赔偿": 1097,
  "比例": 1098,
  "公平": 1099,
  "李@@": 1100,
  "首先": 1101,
  "医疗": 1102,
  "低": 1103,
  "精神": 1104,
  "高级": 1105,
  "双方": 1106,
  "概念": 1107,
  "父亲": 1108,
  "高级专员": 1109,
  "商定": 1110,
  "核准": 1111,
  "运输": 1112,
  "金融": 1113,
  "此类": 1114,
  "供": 1115,
  "马@@": 1116,
  "有权": 1117,
  "理解": 1118,
  "预期": 1119,
  "身份": 1120,
  "承担": 1121,
  "流离失所": 1122,
  "债务": 1123,
  "纲领": 1124,
  "多@@": 1125,
  "组": 1126,
  "三@@": 1127,
  "指控": 1128,
  "死亡": 1129,
  "成本": 1130,
  "良好": 1131,
  "贸发": 1132,
  "性质": 1133,
  "预计": 1134,
  "计算": 1135,
  "无@@": 1136,
  "传播": 1137,
  "予以": 1138,
  "职位": 1139,
  "这里": 1140,
  "愿意": 1141,
  "网站": 1142,
  "商业": 1143,
  "部长": 1144,
  "遭受": 1145,
  "部署": 1146,
  "交易": 1147,
  "事情": 1148,
  "离开": 1149,
  "那个": 1150,
  "训练": 1151,
  "日内瓦": 1152,
  "’": 1153,
  "粮食": 1154,
  "定义": 1155,
  "最高": 1156,
  "举措": 1157,
  "几乎": 1158,
  "民族": 1159,
  "体制": 1160,
  "磋商": 1161,
  "朋友": 1162,
  "科": 1163,
  "工人": 1164,
  "载": 1165,
  "索赔": 1166,
  "随着": 1167,
  "爱": 1168,
  "反": 1169,
  "35": 1170,
  "趋势": 1171,
  "高@@": 1172,
  "形成": 1173,
  "且": 1174,
  "很大": 1175,
  "便": 1176,
  "57": 1177,
  "天": 1178,
  "事实": 1179,
  "依据": 1180,
  "找到": 1181,
  "贫困": 1182,
  "类似": 1183,
  "母亲": 1184,
  "00": 1185,
  "检查": 1186,
  "北京": 1187,
  "日期": 1188,
  "拒绝": 1189,
  "两性": 1190,
  "平民": 1191,
  "带": 1192,
  "仅": 1193,
  "律师": 1194,
  "感谢": 1195,
  "55": 1196,
  "1993": 1197,
  "背景": 1198,
  "全部": 1199,
  "开发署": 1200,
  "降低": 1201,
  "卫生": 1202,
  "…": 1203,
  "十年": 1204,
  "这次": 1205,
  "45": 1206,
  "资助": 1207,
  "辩论": 1208,
  "上诉": 1209,
  "发出": 1210,
  "王@@": 1211,
  "出席": 1212,
  "随后": 1213,
  "住房": 1214,
  "立即": 1215,
  "后来": 1216,
  "体系": 1217,
  "采取行动": 1218,
  "下降": 1219,
  "人@@": 1220,
  "当前": 1221,
  "届": 1222,
  "探讨": 1223,
  "实质性": 1224,
  "65": 1225,
  "详细": 1226,
  "占领": 1227,
  "阿@@": 1228,
  "生效": 1229,
  "经过": 1230,
  "主管": 1231,
  "32": 1232,
  "指定": 1233,
  "式": 1234,
  "跟": 1235,
  "58": 1236,
  "疾病": 1237,
  "办": 1238,
  "捐款": 1239,
  "清单": 1240,
  "不可": 1241,
  "没": 1242,
  "长": 1243,
  "那样": 1244,
  "一系列": 1245,
  "34": 1246,
  "100": 1247,
  "障碍": 1248,
  "与会者": 1249,
  "之@@": 1250,
  "那里": 1251,
  "古巴": 1252,
  "局": 1253,
  "起诉": 1254,
  "亦": 1255,
  "59": 1256,
  "及时": 1257,
  "顾问": 1258,
  "62": 1259,
  "电子": 1260,
  "明显": 1261,
  "容易": 1262,
  "捐助": 1263,
  "决策": 1264,
  "视为": 1265,
  "特定": 1266,
  "比赛": 1267,
  "海洋": 1268,
  "行使": 1269,
  "讲习班": 1270,
  "61": 1271,
  "以后": 1272,
  "上午": 1273,
  "致力于": 1274,
  "第一次": 1275,
  "时期": 1276,
  "名单": 1277,
  "!": 1278,
  "往往": 1279,
  "派": 1280,
  "64": 1281,
  "领导人": 1282,
  "接触": 1283,
  "斯": 1284,
  "33": 1285,
  "人士": 1286,
  "高级别": 1287,
  "本身": 1288,
  "损害": 1289,
  "足够": 1290,
  "公正": 1291,
  "1990": 1292,
  "生命": 1293,
  "罪": 1294,
  "36": 1295,
  "电影": 1296,
  "各级": 1297,
  "四": 1298,
  "审判": 1299,
  "研究所": 1300,
  "效率": 1301,
  "理论": 1302,
  "阿拉伯": 1303,
  "物质": 1304,
  "出来": 1305,
  "会议室": 1306,
  "少数": 1307,
  "专家组": 1308,
  "私营部门": 1309,
  "军": 1310,
  "上@@": 1311,
  "一般性": 1312,
  "紧急": 1313,
  "型": 1314,
  "破坏": 1315,
  "队": 1316,
  "第三": 1317,
  "修改": 1318,
  "南": 1319,
  "小时": 1320,
  "为什么": 1321,
  "处于": 1322,
  "63": 1323,
  "女孩": 1324,
  "评论": 1325,
  "核": 1326,
  "至关重要": 1327,
  "赞赏": 1328,
  "B@@": 1329,
  "数字": 1330,
  "52": 1331,
  "新@@": 1332,
  "觉得": 1333,
  "截至": 1334,
  "53": 1335,
  "工程": 1336,
  "市": 1337,
  "54": 1338,
  "专题": 1339,
  "意味着": 1340,
  "站": 1341,
  "反应": 1342,
  "重视": 1343,
  "大约": 1344,
  "监狱": 1345,
  "澳大利亚": 1346,
  "最新": 1347,
  "国际公约": 1348,
  "有限": 1349,
  "适应": 1350,
  "干事": 1351,
  "药物": 1352,
  "死": 1353,
  "有@@": 1354,
  "力量": 1355,
  "共和国": 1356,
  "之外": 1357,
  "即使": 1358,
  "吃": 1359,
  "居民": 1360,
  "拉@@": 1361,
  "水@@": 1362,
  "56": 1363,
  "联合王国": 1364,
  "37": 1365,
  "此种": 1366,
  "西@@": 1367,
  "竞争": 1368,
  "任择": 1369,
  "巨大": 1370,
  "令": 1371,
  "钱": 1372,
  "所作": 1373,
  "遭到": 1374,
  "父母": 1375,
  "头": 1376,
  "唯一": 1377,
  "文": 1378,
  "机关": 1379,
  "39": 1380,
  "世纪": 1381,
  "侵害": 1382,
  "停止": 1383,
  "张@@": 1384,
  "大规模": 1385,
  "量": 1386,
  "数目": 1387,
  "节": 1388,
  "今年": 1389,
  "以外": 1390,
  "48": 1391,
  "学": 1392,
  "研讨会": 1393,
  "66": 1394,
  "筹资": 1395,
  "平衡": 1396,
  "外地": 1397,
  "男子": 1398,
  "省": 1399,
  "女": 1400,
  "地雷": 1401,
  "生": 1402,
  "谁": 1403,
  "立场": 1404,
  "索马里": 1405,
  "所涉": 1406,
  "意识": 1407,
  "听": 1408,
  "最好": 1409,
  "陈@@": 1410,
  "欧盟": 1411,
  "数": 1412,
  "筹备": 1413,
  "未能": 1414,
  "万": 1415,
  "相互": 1416,
  "T@@": 1417,
  "工作队": 1418,
  "联邦": 1419,
  "打算": 1420,
  "也许": 1421,
  "电话": 1422,
  "信托": 1423,
  "51": 1424,
  "压力": 1425,
  "巴西": 1426,
  "不足": 1427,
  "食物": 1428,
  "股": 1429,
  "数额": 1430,
  "D@@": 1431,
  "复杂": 1432,
  "i": 1433,
  "路": 1434,
  "38": 1435,
  "大部分": 1436,
  "台湾": 1437,
  "专员": 1438,
  "000": 1439,
  "人权委员会": 1440,
  "而是": 1441,
  "令人": 1442,
  "货物": 1443,
  "金@@": 1444,
  "自@@": 1445,
  "武装冲突": 1446,
  "不再": 1447,
  "增进": 1448,
  "H@@": 1449,
  "合理": 1450,
  "平均": 1451,
  "科索沃": 1452,
  "资格": 1453,
  "一下": 1454,
  "列": 1455,
  "指": 1456,
  "各自": 1457,
  "救济": 1458,
  "官方": 1459,
  "文@@": 1460,
  "返回": 1461,
  "开发计划署": 1462,
  "多样性": 1463,
  "商品": 1464,
  "表决": 1465,
  "问": 1466,
  "用户": 1467,
  "P@@": 1468,
  "是因为": 1469,
  "67": 1470,
  "各个": 1471,
  "行": 1472,
  "天@@": 1473,
  "攸关": 1474,
  "41": 1475,
  "待遇": 1476,
  "攻击": 1477,
  "墨西哥": 1478,
  "申诉": 1479,
  "地@@": 1480,
  "公布": 1481,
  "享受": 1482,
  "全体会议": 1483,
  "加": 1484,
  "大家": 1485,
  "日益": 1486,
  "职责": 1487,
  "加勒比": 1488,
  "级": 1489,
  "9@@": 1490,
  "创新": 1491,
  "42": 1492,
  "武装": 1493,
  "书": 1494,
  "延长": 1495,
  "效果": 1496,
  "实际上": 1497,
  "特": 1498,
  "主持": 1499,
  "1992": 1500,
  "城": 1501,
  "治理": 1502,
  "销售": 1503,
  "清楚": 1504,
  "账户": 1505,
  "获取": 1506,
  "助理": 1507,
  "制裁": 1508,
  "L@@": 1509,
  "供资": 1510,
  "49": 1511,
  "总是": 1512,
  "M@@": 1513,
  "便利": 1514,
  "44": 1515,
  "态度": 1516,
  "来文": 1517,
  "对此": 1518,
  "飞机": 1519,
  "维也纳": 1520,
  "在于": 1521,
  "8@@": 1522,
  "修正": 1523,
  "转让": 1524,
  "CN": 1525,
  "案": 1526,
  "46": 1527,
  "47": 1528,
  "过渡": 1529,
  "中央": 1530,
  "检察官": 1531,
  "S@@": 1532,
  "山": 1533,
  "俄罗斯联邦": 1534,
  "将会": 1535,
  "军队": 1536,
  "太平洋": 1537,
  "提及": 1538,
  "68": 1539,
  "f": 1540,
  "县": 1541,
  "卢旺达": 1542,
  "年代": 1543,
  "预测": 1544,
  "多年": 1545,
  "驻": 1546,
  "K@@": 1547,
  "王": 1548,
  "年龄": 1549,
  "学院": 1550,
  "位": 1551,
  "福利": 1552,
  "G@@": 1553,
  "43": 1554,
  "技能": 1555,
  "法治": 1556,
  "事实上": 1557,
  "使得": 1558,
  "变得": 1559,
  "重建": 1560,
  "须": 1561,
  "意大利": 1562,
  "车": 1563,
  "包含": 1564,
  "流动": 1565,
  "机": 1566,
  "放在": 1567,
  "制造": 1568,
  "贷款": 1569,
  "本文": 1570,
  "当然": 1571,
  "既": 1572,
  "儿子": 1573,
  "相当": 1574,
  "私人": 1575,
  "集中": 1576,
  "巴基斯坦": 1577,
  "启动": 1578,
  "委会": 1579,
  "分发": 1580,
  "写": 1581,
  "全": 1582,
  "医院": 1583,
  "可@@": 1584,
  "类型": 1585,
  "信任": 1586,
  "西班牙": 1587,
  "安保": 1588,
  "表达": 1589,
  "金": 1590,
  "图": 1591,
  "马": 1592,
  "开放": 1593,
  "拉丁美洲": 1594,
  "诉讼": 1595,
  "规范": 1596,
  "拉": 1597,
  "首次": 1598,
  "更新": 1599,
  "俄罗斯": 1600,
  "五": 1601,
  "土耳其": 1602,
  "后果": 1603,
  "两@@": 1604,
  "份": 1605,
  "判决": 1606,
  "转移": 1607,
  "德@@": 1608,
  "虐待": 1609,
  "展开": 1610,
  "卡@@": 1611,
  "科威特": 1612,
  "埃及": 1613,
  "初步": 1614,
  "劳动": 1615,
  "候选人": 1616,
  "花": 1617,
  "状态": 1618,
  "怎么": 1619,
  "劳工": 1620,
  "方向": 1621,
  "依然": 1622,
  "看法": 1623,
  "指南": 1624,
  "以@@": 1625,
  "国民": 1626,
  "斯@@": 1627,
  "票": 1628,
  "门": 1629,
  "这么": 1630,
  "1991": 1631,
  "自然": 1632,
  "数据库": 1633,
  "罗@@": 1634,
  "协调员": 1635,
  "医生": 1636,
  "org": 1637,
  "种族歧视": 1638,
  "N@@": 1639,
  "用途": 1640,
  "起草": 1641,
  "一天": 1642,
  "人力资源": 1643,
  "行业": 1644,
  "手": 1645,
  "袭击": 1646,
  "F@@": 1647,
  "国@@": 1648,
  "每天": 1649,
  "出版": 1650,
  "查明": 1651,
  "投入": 1652,
  "刚果民主共和国": 1653,
  "安@@": 1654,
  "内@@": 1655,
  "经营": 1656,
  "发布": 1657,
  "之中": 1658,
  "残疾": 1659,
  "供应": 1660,
  "工发": 1661,
  "叫": 1662,
  "加@@": 1663,
  "太": 1664,
  "体": 1665,
  "提请": 1666,
  "途径": 1667,
  "外部": 1668,
  "制作": 1669,
  "度": 1670,
  "执行局": 1671,
  "正如": 1672,
  "道路": 1673,
  "试图": 1674,
  "我要": 1675,
  "特点": 1676,
  "灾害": 1677,
  "心理": 1678,
  "只要": 1679,
  "米": 1680,
  "观察": 1681,
  "简单": 1682,
  "采取措施": 1683,
  "教授": 1684,
  "海@@": 1685,
  "主席团": 1686,
  "逮捕": 1687,
  "对@@": 1688,
  "报道": 1689,
  "子女": 1690,
  "通报": 1691,
  "总体": 1692,
  "日@@": 1693,
  "C@@": 1694,
  "回答": 1695,
  "一家": 1696,
  "坚持": 1697,
  "化学品": 1698,
  "期限": 1699,
  "客户": 1700,
  "不利": 1701,
  "克": 1702,
  "旅行": 1703,
  "作品": 1704,
  "相对": 1705,
  "曾经": 1706,
  "进": 1707,
  "教师": 1708,
  "错误": 1709,
  "结合": 1710,
  "之下": 1711,
  "功能": 1712,
  "77": 1713,
  "相同": 1714,
  "费": 1715,
  "组成部分": 1716,
  "额外": 1717,
  "委员": 1718,
  "下@@": 1719,
  "西": 1720,
  "卡": 1721,
  "有时": 1722,
  "R@@": 1723,
  "模型": 1724,
  "全世界": 1725,
  "力": 1726,
  "器": 1727,
  "南非": 1728,
  "两": 1729,
  "线": 1730,
  "主流": 1731,
  "秘书": 1732,
  "剥夺": 1733,
  "利比里亚": 1734,
  "附属": 1735,
  "指示": 1736,
  "音乐": 1737,
  "总额": 1738,
  "难民署": 1739,
  "分享": 1740,
  "I": 1741,
  "显然": 1742,
  "瑞士": 1743,
  "最低": 1744,
  "刘@@": 1745,
  "经历": 1746,
  "可能性": 1747,
  "一条": 1748,
  "利": 1749,
  "特@@": 1750,
  "于是": 1751,
  "第四": 1752,
  "心@@": 1753,
  "维和": 1754,
  "国家一级": 1755,
  "效力": 1756,
  "裁决": 1757,
  "居住": 1758,
  "哪些": 1759,
  "开": 1760,
  "议事规则": 1761,
  "第二次": 1762,
  "发": 1763,
  "强迫": 1764,
  "汽车": 1765,
  "只能": 1766,
  "男女": 1767,
  "民众": 1768,
  "核查": 1769,
  "达尔富尔": 1770,
  "三年": 1771,
  "前往": 1772,
  "所有人": 1773,
  "当选": 1774,
  "70": 1775,
  "酌情": 1776,
  "上海": 1777,
  "更为": 1778,
  "直到": 1779,
  "建筑": 1780,
  "全球化": 1781,
  "语文": 1782,
  "规模": 1783,
  "若": 1784,
  "元": 1785,
  "双边": 1786,
  "上升": 1787,
  "干预": 1788,
  "成绩": 1789,
  "获": 1790,
  "光": 1791,
  "并非": 1792,
  "感觉": 1793,
  "试验": 1794,
  "第一个": 1795,
  "啊": 1796,
  "订正": 1797,
  "男性": 1798,
  "进步": 1799,
  "暴力行为": 1800,
  "中期": 1801,
  "海地": 1802,
  "现金": 1803,
  "事务部": 1804,
  "时代": 1805,
  "因而": 1806,
  "心": 1807,
  "外交": 1808,
  "共": 1809,
  "本@@": 1810,
  "争取": 1811,
  "思想": 1812,
  "多少": 1813,
  "叙利亚": 1814,
  "入": 1815,
  "种族主义": 1816,
  "室": 1817,
  "尼": 1818,
  "身体": 1819,
  "现代": 1820,
  "妇女地位": 1821,
  "透明度": 1822,
  "法案": 1823,
  "南@@": 1824,
  "食品": 1825,
  "69": 1826,
  "物": 1827,
  "有利于": 1828,
  "种族": 1829,
  "台": 1830,
  "雇员": 1831,
  "差距": 1832,
  "正确": 1833,
  "进口": 1834,
  "测试": 1835,
  "石油": 1836,
  "多个": 1837,
  "其@@": 1838,
  "面前": 1839,
  "有所": 1840,
  "载有": 1841,
  "差异": 1842,
  "法令": 1843,
  "集体": 1844,
  "相应": 1845,
  "特设": 1846,
  "任期": 1847,
  "得以": 1848,
  "颁布": 1849,
  "网": 1850,
  "派遣": 1851,
  "现行": 1852,
  "执法": 1853,
  "女童": 1854,
  "地球": 1855,
  "常设": 1856,
  "多数": 1857,
  "s@@": 1858,
  "取消": 1859,
  "位于": 1860,
  "F": 1861,
  "白@@": 1862,
  "长@@": 1863,
  "担心": 1864,
  "中东": 1865,
  "巴@@": 1866,
  "资本": 1867,
  "剥削": 1868,
  "正常": 1869,
  "卫星": 1870,
  "回到": 1871,
  "气候": 1872,
  "协作": 1873,
  "面对": 1874,
  "购买": 1875,
  "un": 1876,
  "黄@@": 1877,
  "打": 1878,
  "成就": 1879,
  "o": 1880,
  "担保": 1881,
  "伊朗": 1882,
  "遇到": 1883,
  "找": 1884,
  "妻子": 1885,
  "边界": 1886,
  "投票": 1887,
  "相比": 1888,
  "津贴": 1889,
  "制": 1890,
  "肯定": 1891,
  "发@@": 1892,
  "场": 1893,
  "记者": 1894,
  "分类": 1895,
  "工程处": 1896,
  "位置": 1897,
  "毕业": 1898,
  "时@@": 1899,
  "兼": 1900,
  "确实": 1901,
  "补救": 1902,
  "平台": 1903,
  "共识": 1904,
  "尔": 1905,
  "解决办法": 1906,
  "次级": 1907,
  "s": 1908,
  "去年": 1909,
  "合并": 1910,
  "赞扬": 1911,
  "年底": 1912,
  "青少年": 1913,
  "主权": 1914,
  "层面": 1915,
  "艺术": 1916,
  "林@@": 1917,
  "合法": 1918,
  "高兴": 1919,
  "职务": 1920,
  "四个": 1921,
  "7@@": 1922,
  "失踪": 1923,
  "现实": 1924,
  "证实": 1925,
  "利@@": 1926,
  "五@@": 1927,
  "后勤": 1928,
  "四@@": 1929,
  "外@@": 1930,
  "潜在": 1931,
  "美利坚合众国": 1932,
  "证书": 1933,
  "原子能": 1934,
  "开@@": 1935,
  "根本": 1936,
  "出生": 1937,
  "球": 1938,
  "速度": 1939,
  "同@@": 1940,
  "拟定": 1941,
  "非洲联盟": 1942,
  "防治": 1943,
  "科特迪瓦": 1944,
  "这@@": 1945,
  "系": 1946,
  "80": 1947,
  "货币": 1948,
  "神": 1949,
  "万@@": 1950,
  "免费": 1951,
  "尽可能": 1952,
  "总理": 1953,
  "预防犯罪": 1954,
  "买": 1955,
  "言": 1956,
  "单独": 1957,
  "附近": 1958,
  "以期": 1959,
  "放弃": 1960,
  "即将": 1961,
  "逐步": 1962,
  "荷兰": 1963,
  "环境署": 1964,
  "基地": 1965,
  "特征": 1966,
  "切实": 1967,
  "仲裁": 1968,
  "人力": 1969,
  "纳": 1970,
  "容忍": 1971,
  "严格": 1972,
  "阻碍": 1973,
  "替代": 1974,
  "用来": 1975,
  "业绩": 1976,
  "g": 1977,
  "车辆": 1978,
  "世界银行": 1979,
  "所@@": 1980,
  "阁下": 1981,
  "赋予": 1982,
  "动物": 1983,
  "别人": 1984,
  "命令": 1985,
  "为@@": 1986,
  "合作伙伴": 1987,
  "法@@": 1988,
  "装置": 1989,
  "出@@": 1990,
  "二@@": 1991,
  "实践": 1992,
  "减轻": 1993,
  "拿": 1994,
  "处罚": 1995,
  "除非": 1996,
  "代理": 1997,
  "保险": 1998,
  "角色": 1999,
  "废物": 2000,
  "话": 2001,
  "透明": 2002,
  "称为": 2003,
  "体现": 2004,
  "高度": 2005,
  "年轻": 2006,
  "快速": 2007,
  "失去": 2008,
  "格": 2009,
  "近": 2010,
  "推广": 2011,
  "挪威": 2012,
  "设": 2013,
  "制止": 2014,
  "www": 2015,
  "结婚": 2016,
  "常常": 2017,
  "释放": 2018,
  "自身": 2019,
  "200": 2020,
  "伤害": 2021,
  "员": 2022,
  "道德": 2023,
  "重@@": 2024,
  "申诉人": 2025,
  "正@@": 2026,
  "家庭暴力": 2027,
  "法规": 2028,
  "寻找": 2029,
  "公务员": 2030,
  "筹措": 2031,
  "诸如": 2032,
  "议员": 2033,
  "想要": 2034,
  "推进": 2035,
  "适合": 2036,
  "语": 2037,
  "回应": 2038,
  "案文": 2039,
  "不久": 2040,
  "先": 2041,
  "满意": 2042,
  "不到": 2043,
  "90": 2044,
  "成@@": 2045,
  "惩罚": 2046,
  "弹药": 2047,
  "国籍": 2048,
  "议题": 2049,
  "可是": 2050,
  "无论": 2051,
  "高专": 2052,
  "对象": 2053,
  "讲": 2054,
  "10@@": 2055,
  "燃料": 2056,
  "储存": 2057,
  "五年": 2058,
  "决心": 2059,
  "团结": 2060,
  "刑法": 2061,
  "#": 2062,
  "北": 2063,
  "出版物": 2064,
  "永远": 2065,
  "1@@": 2066,
  "d@@": 2067,
  "污染": 2068,
  "亚@@": 2069,
  "认可": 2070,
  "分@@": 2071,
  "瑞典": 2072,
  "消费": 2073,
  "排放": 2074,
  "一旦": 2075,
  "强烈": 2076,
  "六": 2077,
  "阿根廷": 2078,
  "婚姻": 2079,
  "后@@": 2080,
  "监管": 2081,
  "光@@": 2082,
  "人道主义法": 2083,
  "男人": 2084,
  "所载": 2085,
  "东帝汶": 2086,
  "以往": 2087,
  "软件": 2088,
  "相": 2089,
  "岛": 2090,
  "调动": 2091,
  "b@@": 2092,
  "女人": 2093,
  "密切": 2094,
  "回": 2095,
  "阐述": 2096,
  "同年": 2097,
  "大使": 2098,
  "类别": 2099,
  "赞同": 2100,
  "同一": 2101,
  "林": 2102,
  "角度": 2103,
  "上文": 2104,
  "t@@": 2105,
  "种": 2106,
  "吁请": 2107,
  "17@@": 2108,
  "印度尼西亚": 2109,
  "反恐": 2110,
  "伊@@": 2111,
  "融资": 2112,
  "m@@": 2113,
  "突出": 2114,
  "克@@": 2115,
  "付款": 2116,
  "取决于": 2117,
  "我@@": 2118,
  "开支": 2119,
  "普通": 2120,
  "人物": 2121,
  "运行": 2122,
  "和@@": 2123,
  "那@@": 2124,
  "而@@": 2125,
  "促使": 2126,
  "跨国": 2127,
  "业": 2128,
  "养": 2129,
  "大楼": 2130,
  "塞拉利昂": 2131,
  "少": 2132,
  "很快": 2133,
  "声称": 2134,
  "科@@": 2135,
  "工资": 2136,
  "混合": 2137,
  "吸引": 2138,
  "al": 2139,
  "摘要": 2140,
  "事业": 2141,
  "几年": 2142,
  "额": 2143,
  "尼@@": 2144,
  "自治": 2145,
  "斗争": 2146,
  "美@@": 2147,
  "场所": 2148,
  "E@@": 2149,
  "W@@": 2150,
  "东@@": 2151,
  "一场": 2152,
  "快": 2153,
  "值": 2154,
  "乌克兰": 2155,
  "涵盖": 2156,
  "er": 2157,
  "南部": 2158,
  "界": 2159,
  "例子": 2160,
  "描述": 2161,
  "提名": 2162,
  "整体": 2163,
  "某": 2164,
  "联合会": 2165,
  "续": 2166,
  "发起": 2167,
  "谴责": 2168,
  "实验": 2169,
  "未经": 2170,
  "生于": 2171,
  "示范": 2172,
  "该项": 2173,
  "可靠": 2174,
  "争端": 2175,
  "小岛屿": 2176,
  "生@@": 2177,
  "共同体": 2178,
  "主义": 2179,
  "阿": 2180,
  "面": 2181,
  "巩固": 2182,
  "著": 2183,
  "争议": 2184,
  "还要": 2185,
  "更大": 2186,
  "融入": 2187,
  "真的": 2188,
  "奥@@": 2189,
  "危害": 2190,
  "咨": 2191,
  "估计数": 2192,
  "并未": 2193,
  "英文": 2194,
  "参考": 2195,
  "概述": 2196,
  "罗马": 2197,
  "确立": 2198,
  "an": 2199,
  "款项": 2200,
  "1.@@": 2201,
  "妨碍": 2202,
  "不得不": 2203,
  "如@@": 2204,
  "值得": 2205,
  "明@@": 2206,
  "哥伦比亚": 2207,
  "腐败": 2208,
  "显著": 2209,
  "丈夫": 2210,
  "打@@": 2211,
  "老@@": 2212,
  "最初": 2213,
  "武装部队": 2214,
  "一套": 2215,
  "死刑": 2216,
  "G": 2217,
  "重返": 2218,
  "前@@": 2219,
  "审理": 2220,
  "球队": 2221,
  "全@@": 2222,
  "荒漠化": 2223,
  "自然资源": 2224,
  "难以": 2225,
  "全体": 2226,
  "投资者": 2227,
  "名字": 2228,
  "感染": 2229,
  "族裔": 2230,
  "修正案": 2231,
  "手册": 2232,
  "中有": 2233,
  "促请": 2234,
  "新西兰": 2235,
  "夫": 2236,
  "件": 2237,
  "失败": 2238,
  "员工": 2239,
  "声音": 2240,
  "外层空间": 2241,
  "两次": 2242,
  "J@@": 2243,
  "加沙": 2244,
  "报": 2245,
  "图书馆": 2246,
  "布": 2247,
  "庇护": 2248,
  "14@@": 2249,
  "受理": 2250,
  "气": 2251,
  "转@@": 2252,
  "一道": 2253,
  "奖": 2254,
  "0": 2255,
  "病": 2256,
  "书面": 2257,
  "与其": 2258,
  "2@@": 2259,
  "埃塞俄比亚": 2260,
  "布@@": 2261,
  "意愿": 2262,
  "证人": 2263,
  "n@@": 2264,
  "消费者": 2265,
  "死亡率": 2266,
  "注重": 2267,
  "主张": 2268,
  "古@@": 2269,
  "伦敦": 2270,
  "建造": 2271,
  "管理局": 2272,
  "c@@": 2273,
  "泰国": 2274,
  "无核武器": 2275,
  "花@@": 2276,
  "政治权利": 2277,
  "运用": 2278,
  "A@@": 2279,
  "赢得": 2280,
  "故事": 2281,
  "恶化": 2282,
  "500": 2283,
  "安": 2284,
  "具备": 2285,
  "怀疑": 2286,
  "哈@@": 2287,
  "装备": 2288,
  "劳动力": 2289,
  "公共部门": 2290,
  "捐助者": 2291,
  "旅游": 2292,
  "兴趣": 2293,
  "下来": 2294,
  "终止": 2295,
  "仅仅": 2296,
  "生殖": 2297,
  "过@@": 2298,
  "自我": 2299,
  "信贷": 2300,
  "字": 2301,
  "依赖": 2302,
  "原": 2303,
  "比@@": 2304,
  "明": 2305,
  "基": 2306,
  "0@@": 2307,
  "物品": 2308,
  "氏": 2309,
  "有着": 2310,
  "尽快": 2311,
  "两种": 2312,
  "受害人": 2313,
  "基@@": 2314,
  "h": 2315,
  "正是": 2316,
  "章": 2317,
  "期待": 2318,
  "波斯尼亚": 2319,
  "一体化": 2320,
  "逐渐": 2321,
  "听到": 2322,
  "监禁": 2323,
  "脆弱": 2324,
  "衡量": 2325,
  "p@@": 2326,
  "看见": 2327,
  "巴黎": 2328,
  "节目": 2329,
  "加快": 2330,
  "公@@": 2331,
  "平@@": 2332,
  "家人": 2333,
  "痛苦": 2334,
  "专门机构": 2335,
  "准确": 2336,
  "别": 2337,
  "亚": 2338,
  "16@@": 2339,
  "期望": 2340,
  "摩洛哥": 2341,
  "掌握": 2342,
  "电视": 2343,
  "行预": 2344,
  "18@@": 2345,
  "十@@": 2346,
  "M": 2347,
  "75": 2348,
  "15@@": 2349,
  "信息技术": 2350,
  "很少": 2351,
  "菲律宾": 2352,
  "照顾": 2353,
  "h@@": 2354,
  "清洁": 2355,
  "文章": 2356,
  "师": 2357,
  "澄清": 2358,
  "情报": 2359,
  "阻止": 2360,
  "想法": 2361,
  "河": 2362,
  "应@@": 2363,
  "3@@": 2364,
  "产出": 2365,
  "尼日利亚": 2366,
  "询问": 2367,
  "利比亚": 2368,
  "分摊": 2369,
  "机场": 2370,
  "本次": 2371,
  "第三次": 2372,
  "页": 2373,
  "e@@": 2374,
  "马来西亚": 2375,
  "过境": 2376,
  "强": 2377,
  "y@@": 2378,
  "加上": 2379,
  "定于": 2380,
  "周期": 2381,
  "驱逐": 2382,
  "细则": 2383,
  "列出": 2384,
  "宗": 2385,
  "效益": 2386,
  "消息": 2387,
  "翻译": 2388,
  "共有": 2389,
  "家@@": 2390,
  "创建": 2391,
  "村": 2392,
  "in": 2393,
  "引渡": 2394,
  "清@@": 2395,
  "布隆迪": 2396,
  "党": 2397,
  "早期": 2398,
  "女儿": 2399,
  "怎样": 2400,
  "雇主": 2401,
  "部长级": 2402,
  "转": 2403,
  "简要": 2404,
  "非@@": 2405,
  "管辖权": 2406,
  "设置": 2407,
  "13@@": 2408,
  "界定": 2409,
  "核裁军": 2410,
  "患者": 2411,
  "就此": 2412,
  "和解": 2413,
  "推出": 2414,
  "会@@": 2415,
  "声": 2416,
  "意思": 2417,
  "实地": 2418,
  "教学": 2419,
  "年度报告": 2420,
  "变成": 2421,
  "彻底": 2422,
  "大型": 2423,
  "山@@": 2424,
  "讲话": 2425,
  "人居": 2426,
  "已有": 2427,
  "飞行": 2428,
  "4@@": 2429,
  "征聘": 2430,
  "l@@": 2431,
  "被告": 2432,
  "欧元": 2433,
  "维@@": 2434,
  "海关": 2435,
  "原@@": 2436,
  "讨论会": 2437,
  "韩国": 2438,
  "宗旨": 2439,
  "塔": 2440,
  "冠军": 2441,
  "听取": 2442,
  "儿": 2443,
  "红@@": 2444,
  "名义": 2445,
  "空缺": 2446,
  "特性": 2447,
  "设想": 2448,
  "美": 2449,
  "沙@@": 2450,
  "片": 2451,
  "士兵": 2452,
  "任意": 2453,
  "好处": 2454,
  "负担": 2455,
  "气体": 2456,
  "干": 2457,
  "老年人": 2458,
  "农民": 2459,
  "应急": 2460,
  "自动": 2461,
  "两名": 2462,
  "㈠": 2463,
  "组合": 2464,
  "操作": 2465,
  "赞成": 2466,
  "规划署": 2467,
  "优势": 2468,
  "低于": 2469,
  "发行": 2470,
  "名@@": 2471,
  "认真": 2472,
  "南斯拉夫": 2473,
  "取代": 2474,
  "主": 2475,
  "k@@": 2476,
  "些": 2477,
  "伊斯兰": 2478,
  "推迟": 2479,
  "潜力": 2480,
  "圣@@": 2481,
  "连续": 2482,
  "这位": 2483,
  "薪金": 2484,
  "奥地利": 2485,
  "上帝": 2486,
  "口": 2487,
  "他人": 2488,
  "㈡": 2489,
  "交换": 2490,
  "少数民族": 2491,
  "船": 2492,
  "克服": 2493,
  "g@@": 2494,
  "多种": 2495,
  "与此同时": 2496,
  "V@@": 2497,
  "杨@@": 2498,
  "会计": 2499,
  "太@@": 2500,
  "有利": 2501,
  "萨@@": 2502,
  "热@@": 2503,
  "流": 2504,
  "乌干达": 2505,
  "O@@": 2506,
  "发言者": 2507,
  "四年": 2508,
  "科技": 2509,
  "真": 2510,
  "注册": 2511,
  "拨款": 2512,
  "持久": 2513,
  "管辖": 2514,
  "设法": 2515,
  "减贫": 2516,
  "关心": 2517,
  "经委会": 2518,
  "金融机构": 2519,
  "出于": 2520,
  "检测": 2521,
  "重复": 2522,
  "格鲁吉亚": 2523,
  "豁免": 2524,
  "互动": 2525,
  "i@@": 2526,
  "护理": 2527,
  "阿尔及利亚": 2528,
  "或是": 2529,
  "著名": 2530,
  "深入": 2531,
  "所谓": 2532,
  "兵": 2533,
  "联络": 2534,
  "受益": 2535,
  "连": 2536,
  "供应商": 2537,
  "相反": 2538,
  "从@@": 2539,
  "财务报表": 2540,
  "多次": 2541,
  "或许": 2542,
  "完善": 2543,
  "学会": 2544,
  "300": 2545,
  "提供援助": 2546,
  "AC": 2547,
  "销毁": 2548,
  "an@@": 2549,
  "许可证": 2550,
  "周@@": 2551,
  "计算机": 2552,
  "掉": 2553,
  "属": 2554,
  "年@@": 2555,
  "我会": 2556,
  "告知": 2557,
  "主@@": 2558,
  "警方": 2559,
  "谅解": 2560,
  "达@@": 2561,
  "体育": 2562,
  "安装": 2563,
  "规约": 2564,
  "雷@@": 2565,
  "月份": 2566,
  "案例": 2567,
  "姆": 2568,
  "本人": 2569,
  "要素": 2570,
  "刚果": 2571,
  "共计": 2572,
  "森": 2573,
  "世界各地": 2574,
  "中学": 2575,
  "五个": 2576,
  "象": 2577,
  "西非": 2578,
  "公民权利": 2579,
  "管": 2580,
  "敏感": 2581,
  "相@@": 2582,
  "纳@@": 2583,
  "外勤": 2584,
  "穿": 2585,
  "培养": 2586,
  "例": 2587,
  "裁军谈判": 2588,
  "观念": 2589,
  "将来": 2590,
  "补偿": 2591,
  "指数": 2592,
  "赛": 2593,
  "退休": 2594,
  "通讯": 2595,
  "发放": 2596,
  "风": 2597,
  "分子": 2598,
  "送": 2599,
  "排除": 2600,
  "丹麦": 2601,
  "波@@": 2602,
  "口头": 2603,
  "谨": 2604,
  "远": 2605,
  "缅甸": 2606,
  "许可": 2607,
  "会上": 2608,
  "巴": 2609,
  "希腊": 2610,
  "提醒": 2611,
  "各地": 2612,
  "老": 2613,
  "比如": 2614,
  "外国人": 2615,
  "应付": 2616,
  "剂": 2617,
  "y": 2618,
  "厄立特里亚": 2619,
  "首席": 2620,
  "72": 2621,
  "削减": 2622,
  "恤金": 2623,
  "看来": 2624,
  "兄弟": 2625,
  "阿塞拜疆": 2626,
  "事先": 2627,
  "工会": 2628,
  "任职": 2629,
  "石@@": 2630,
  "肯尼亚": 2631,
  "一只": 2632,
  "广告": 2633,
  "星期": 2634,
  "初级": 2635,
  "波兰": 2636,
  "源": 2637,
  "恩": 2638,
  "保存": 2639,
  "收益": 2640,
  "出售": 2641,
  "批评": 2642,
  "建设性": 2643,
  "北部": 2644,
  "朝": 2645,
  "一半": 2646,
  "完整": 2647,
  "U@@": 2648,
  "板": 2649,
  "改为": 2650,
  "主动": 2651,
  "情形": 2652,
  "备忘录": 2653,
  "丰富": 2654,
  "年轻人": 2655,
  "子@@": 2656,
  "遵循": 2657,
  "否则": 2658,
  "看看": 2659,
  "这份": 2660,
  "新闻部": 2661,
  "前景": 2662,
  "国王": 2663,
  "约翰": 2664,
  "突然": 2665,
  "官": 2666,
  "里@@": 2667,
  "可行": 2668,
  "f@@": 2669,
  "张": 2670,
  "东道国": 2671,
  "经济体": 2672,
  "密切合作": 2673,
  "本届": 2674,
  "当@@": 2675,
  "杀": 2676,
  "电脑": 2677,
  "百分比": 2678,
  "惯例": 2679,
  "几@@": 2680,
  "热": 2681,
  "补贴": 2682,
  "陈述": 2683,
  "er@@": 2684,
  "名称": 2685,
  "吴@@": 2686,
  "不够": 2687,
  "电@@": 2688,
  "来到": 2689,
  "en": 2690,
  "塞浦路斯": 2691,
  "智利": 2692,
  "加速": 2693,
  "集": 2694,
  "习惯": 2695,
  "老师": 2696,
  "爱@@": 2697,
  "总数": 2698,
  "纪念": 2699,
  "黑塞哥维那": 2700,
  "教科文组织": 2701,
  "提@@": 2702,
  "失业": 2703,
  "为期": 2704,
  "备选": 2705,
  "一件": 2706,
  "理想": 2707,
  "回@@": 2708,
  "当中": 2709,
  "每月": 2710,
  "明白": 2711,
  "囚犯": 2712,
  "难": 2713,
  "格@@": 2714,
  "反@@": 2715,
  "新加坡": 2716,
  "始终": 2717,
  "此后": 2718,
  "以此": 2719,
  "短期": 2720,
  "手@@": 2721,
  "考试": 2722,
  "独特": 2723,
  "2016": 2724,
  "将军": 2725,
  "人格": 2726,
  "真@@": 2727,
  "鱼": 2728,
  "人人": 2729,
  "罗": 2730,
  "迪": 2731,
  "小学": 2732,
  "信仰": 2733,
  "总@@": 2734,
  "提升": 2735,
  "史": 2736,
  "病人": 2737,
  "ar@@": 2738,
  "缺少": 2739,
  "73": 2740,
  "绝对": 2741,
  "al@@": 2742,
  "每@@": 2743,
  "读": 2744,
  "对待": 2745,
  "身上": 2746,
  "伊朗伊斯兰共和国": 2747,
  "发射": 2748,
  "各类": 2749,
  "定": 2750,
  "平": 2751,
  "受@@": 2752,
  "负责人": 2753,
  "苏@@": 2754,
  "t": 2755,
  "十一届": 2756,
  "认定": 2757,
  "来看": 2758,
  "推行": 2759,
  "中华人民共和国": 2760,
  "细胞": 2761,
  "6@@": 2762,
  "球员": 2763,
  "班": 2764,
  "废除": 2765,
  "海外": 2766,
  "限度": 2767,
  "房间": 2768,
  "测量": 2769,
  "转变": 2770,
  "单@@": 2771,
  "气@@": 2772,
  "用@@": 2773,
  "互联网": 2774,
  "受伤": 2775,
  "营养": 2776,
  "政党": 2777,
  "阿拉伯叙利亚共和国": 2778,
  "房子": 2779,
  "男孩": 2780,
  "产业": 2781,
  "眼睛": 2782,
  "印发": 2783,
  "黑@@": 2784,
  "分布": 2785,
  "层": 2786,
  "八@@": 2787,
  "71": 2788,
  "暂停": 2789,
  "衣服": 2790,
  "渔业": 2791,
  "不论": 2792,
  "百@@": 2793,
  "行@@": 2794,
  "用品": 2795,
  "双@@": 2796,
  "有用": 2797,
  "后者": 2798,
  "杂志": 2799,
  "策略": 2800,
  "华": 2801,
  "方便": 2802,
  "生态系统": 2803,
  "科学家": 2804,
  "第四次": 2805,
  "尊严": 2806,
  "作业": 2807,
  "紧张": 2808,
  "卖淫": 2809,
  "普@@": 2810,
  "华@@": 2811,
  "尔@@": 2812,
  "继承": 2813,
  "移交": 2814,
  "n": 2815,
  "名额": 2816,
  "积极参与": 2817,
  "亿": 2818,
  "被迫": 2819,
  "分钟": 2820,
  "胡@@": 2821,
  "76": 2822,
  "安置": 2823,
  "秘密": 2824,
  "近东": 2825,
  "Y@@": 2826,
  "最高法院": 2827,
  "康复": 2828,
  "六@@": 2829,
  "主办": 2830,
  "u": 2831,
  "1989": 2832,
  "事故": 2833,
  "第二个": 2834,
  "莫@@": 2835,
  "妈妈": 2836,
  "方针": 2837,
  "任何人": 2838,
  "伊": 2839,
  "词": 2840,
  "2.@@": 2841,
  "in@@": 2842,
  "观察团": 2843,
  "74": 2844,
  "爆发": 2845,
  "不管": 2846,
  "某种": 2847,
  "神@@": 2848,
  "说法": 2849,
  "变@@": 2850,
  "女@@": 2851,
  "税": 2852,
  "支援": 2853,
  "接近": 2854,
  "协商一致": 2855,
  "5@@": 2856,
  "粮农组织": 2857,
  "鲁@@": 2858,
  "设在": 2859,
  "滥用": 2860,
  "合@@": 2861,
  "强化": 2862,
  "当事人": 2863,
  "植物": 2864,
  "加剧": 2865,
  "裁定": 2866,
  "越南": 2867,
  "近年来": 2868,
  "帮": 2869,
  "其后": 2870,
  "基准": 2871,
  "交通": 2872,
  "性能": 2873,
  "尽": 2874,
  "海": 2875,
  "随时": 2876,
  "如今": 2877,
  ",": 2878,
  "因@@": 2879,
  "风@@": 2880,
  "婴儿": 2881,
  "国外": 2882,
  "领袖": 2883,
  "汇编": 2884,
  "西方": 2885,
  "东": 2886,
  "国际法庭": 2887,
  "另一方面": 2888,
  "入@@": 2889,
  "吉@@": 2890,
  "连@@": 2891,
  "化学": 2892,
  "内罗毕": 2893,
  "朱@@": 2894,
  "充足": 2895,
  "军@@": 2896,
  "于@@": 2897,
  "大韩民国": 2898,
  "回来": 2899,
  "兹": 2900,
  "获悉": 2901,
  "交付": 2902,
  "地震": 2903,
  "游戏": 2904,
  "耶和华": 2905,
  "驻地": 2906,
  "往": 2907,
  "大陆": 2908,
  "波": 2909,
  "缔结": 2910,
  "七": 2911,
  "雇用": 2912,
  "有害": 2913,
  "恐怖": 2914,
  "周": 2915,
  "78": 2916,
  "武@@": 2917,
  "信@@": 2918,
  "快乐": 2919,
  "据称": 2920,
  "融合": 2921,
  "族": 2922,
  "可持续性": 2923,
  "杜@@": 2924,
  "重": 2925,
  "投诉": 2926,
  "书记": 2927,
  "作@@": 2928,
  "门@@": 2929,
  "色": 2930,
  "其他人": 2931,
  "极大": 2932,
  "会计准则": 2933,
  "去世": 2934,
  "职等": 2935,
  "博士": 2936,
  "on": 2937,
  "总结": 2938,
  "以为": 2939,
  "跑": 2940,
  "扩展": 2941,
  "Rev": 2942,
  "关闭": 2943,
  "越": 2944,
  "文本": 2945,
  "信心": 2946,
  "志愿人员": 2947,
  "下面": 2948,
  "芬兰": 2949,
  "先前": 2950,
  "特遣队": 2951,
  "董事会": 2952,
  "着手": 2953,
  "连接": 2954,
  "到达": 2955,
  "I@@": 2956,
  "未@@": 2957,
  "头@@": 2958,
  "变": 2959,
  "北@@": 2960,
  "调解": 2961,
  "绿色": 2962,
  "签订": 2963,
  "持有": 2964,
  "愿": 2965,
  "渠道": 2966,
  "所属": 2967,
  "资源管理": 2968,
  "es": 2969,
  "约束力": 2970,
  "流@@": 2971,
  "图@@": 2972,
  "得@@": 2973,
  "毁灭性": 2974,
  "照片": 2975,
  "分庭": 2976,
  "格式": 2977,
  "博@@": 2978,
  "加工": 2979,
  "架": 2980,
  "坚定": 2981,
  "通@@": 2982,
  "元@@": 2983,
  "问责制": 2984,
  "约旦": 2985,
  "完": 2986,
  "晚上": 2987,
  "生存": 2988,
  "1988": 2989,
  "动态": 2990,
  "兰": 2991,
  "等待": 2992,
  "附加": 2993,
  "自然灾害": 2994,
  "发言人": 2995,
  "星期一": 2996,
  "进@@": 2997,
  "中国政府": 2998,
  "留下": 2999,
  "树": 3000,
  "比率": 3001,
  "靠": 3002,
  "星期五": 3003,
  "边": 3004,
  "召集": 3005,
  "缺陷": 3006,
  "病毒": 3007,
  "白俄罗斯": 3008,
  "国务院": 3009,
  "小型": 3010,
  "革命": 3011,
  "协同": 3012,
  "贝@@": 3013,
  "房屋": 3014,
  "关联": 3015,
  "签名": 3016,
  "幸福": 3017,
  "w@@": 3018,
  "夫人": 3019,
  "依靠": 3020,
  "足球": 3021,
  "先@@": 3022,
  "引发": 3023,
  "立@@": 3024,
  "得出": 3025,
  "有限公司": 3026,
  "第一届": 3027,
  "比利时": 3028,
  "品": 3029,
  "私营": 3030,
  "这场": 3031,
  "管理人员": 3032,
  "内陆": 3033,
  "迪@@": 3034,
  "探索": 3035,
  "演出": 3036,
  "各@@": 3037,
  "不应": 3038,
  "处境": 3039,
  "企图": 3040,
  "学@@": 3041,
  "的确": 3042,
  "保@@": 3043,
  "艾@@": 3044,
  "至于": 3045,
  "塔@@": 3046,
  "时间表": 3047,
  "论": 3048,
  "至今": 3049,
  "Ch@@": 3050,
  "版": 3051,
  "单": 3052,
  "复员": 3053,
  "共享": 3054,
  "1980": 3055,
  "米@@": 3056,
  "79": 3057,
  "正义": 3058,
  "质疑": 3059,
  "国际贸易": 3060,
  "间接": 3061,
  "不想": 3062,
  "埃@@": 3063,
  "强大": 3064,
  "汞": 3065,
  "年间": 3066,
  "油": 3067,
  "港": 3068,
  "奥运会": 3069,
  "灵活": 3070,
  "充满": 3071,
  "移动": 3072,
  "孟加拉国": 3073,
  "邻国": 3074,
  "秘鲁": 3075,
  "美洲": 3076,
  "一国": 3077,
  "知识产权": 3078,
  "何种": 3079,
  "穷人": 3080,
  "他@@": 3081,
  "概算": 3082,
  "v@@": 3083,
  "诺": 3084,
  "表面": 3085,
  "看起来": 3086,
  "ar": 3087,
  "京都": 3088,
  "12@@": 3089,
  "有罪": 3090,
  "核定": 3091,
  "反腐败": 3092,
  "参数": 3093,
  "专门知识": 3094,
  "教": 3095,
  "文明": 3096,
  "a@@": 3097,
  "性暴力": 3098,
  "首长": 3099,
  "81": 3100,
  "事态": 3101,
  "警告": 3102,
  "金属": 3103,
  "配置": 3104,
  "库": 3105,
  "做到": 3106,
  "字@@": 3107,
  "周围": 3108,
  "待": 3109,
  "左右": 3110,
  "那种": 3111,
  "缓解": 3112,
  "方@@": 3113,
  "入侵": 3114,
  "奇": 3115,
  "区别": 3116,
  "表格": 3117,
  "皮@@": 3118,
  "一方面": 3119,
  "爆炸": 3120,
  "Z@@": 3121,
  "85": 3122,
  "瓦@@": 3123,
  "感": 3124,
  "来@@": 3125,
  "行政当局": 3126,
  "信号": 3127,
  "坚决": 3128,
  "转型": 3129,
  "包": 3130,
  "武力": 3131,
  "尝试": 3132,
  "极为": 3133,
  "阅读": 3134,
  "网上": 3135,
  "上空": 3136,
  "法定": 3137,
  "空气": 3138,
  "好@@": 3139,
  "2017": 3140,
  "石": 3141,
  "强奸": 3142,
  "杀害": 3143,
  "不人道": 3144,
  "经理": 3145,
  "身": 3146,
  "开幕": 3147,
  "沟通": 3148,
  "财富": 3149,
  "说话": 3150,
  "有力": 3151,
  "边境": 3152,
  "固定": 3153,
  "动": 3154,
  "南南合作": 3155,
  "座": 3156,
  "变革": 3157,
  "马里": 3158,
  "海洋法": 3159,
  "现状": 3160,
  "坐在": 3161,
  "汇报": 3162,
  "贸易法": 3163,
  "半@@": 3164,
  "处决": 3165,
  "跟踪": 3166,
  "视": 3167,
  "房": 3168,
  "克罗地亚": 3169,
  "千@@": 3170,
  "删除": 3171,
  "汉@@": 3172,
  "地带": 3173,
  "中国@@": 3174,
  "爱尔兰": 3175,
  "=": 3176,
  "火@@": 3177,
  "编辑": 3178,
  "一张": 3179,
  "倒": 3180,
  "出去": 3181,
  "en@@": 3182,
  "英": 3183,
  "标志": 3184,
  "单方面": 3185,
  "国际法院": 3186,
  "突尼斯": 3187,
  "各位": 3188,
  "SR": 3189,
  "社会保障": 3190,
  "希@@": 3191,
  "画": 3192,
  "索@@": 3193,
  "R": 3194,
  "单一": 3195,
  "超@@": 3196,
  "药品": 3197,
  "洛@@": 3198,
  "数@@": 3199,
  "士": 3200,
  "83": 3201,
  "运动员": 3202,
  "工厂": 3203,
  "诉": 3204,
  "82": 3205,
  "怀孕": 3206,
  "罪犯": 3207,
  "纲要": 3208,
  "此@@": 3209,
  "负债": 3210,
  "西亚": 3211,
  "早": 3212,
  "余额": 3213,
  "披露": 3214,
  "由@@": 3215,
  "立": 3216,
  "日起": 3217,
  "常": 3218,
  "汇率": 3219,
  "假": 3220,
  "价": 3221,
  "委内瑞拉": 3222,
  "之内": 3223,
  "此项": 3224,
  "顿": 3225,
  "审评": 3226,
  "遭": 3227,
  "守则": 3228,
  "柬埔寨": 3229,
  "拖延": 3230,
  "犯": 3231,
  "of": 3232,
  "可用": 3233,
  "95": 3234,
  "处置": 3235,
  "授予": 3236,
  "空@@": 3237,
  "低@@": 3238,
  "法语": 3239,
  "H": 3240,
  "金额": 3241,
  "极端": 3242,
  "丧失": 3243,
  "排雷": 3244,
  "级别": 3245,
  "400": 3246,
  "俱乐部": 3247,
  "外交部": 3248,
  "两项": 3249,
  "巴勒斯坦人": 3250,
  "效应": 3251,
  "形势": 3252,
  "u@@": 3253,
  "危地马拉": 3254,
  "其实": 3255,
  "某个": 3256,
  "暂时": 3257,
  "现场": 3258,
  "政权": 3259,
  "84": 3260,
  "大幅": 3261,
  "尼泊尔": 3262,
  "等等": 3263,
  "绩效": 3264,
  "it@@": 3265,
  "少年": 3266,
  "指挥": 3267,
  "有益": 3268,
  "感兴趣": 3269,
  "残忍": 3270,
  "竞争力": 3271,
  "上面": 3272,
  "能否": 3273,
  "拟": 3274,
  "秩序": 3275,
  "哪": 3276,
  "订立": 3277,
  "干@@": 3278,
  "梅@@": 3279,
  "安哥拉": 3280,
  "配合": 3281,
  "八": 3282,
  "l": 3283,
  "3.@@": 3284,
  "其余": 3285,
  "不少": 3286,
  "r@@": 3287,
  "能@@": 3288,
  "镇": 3289,
  "经@@": 3290,
  "偿还": 3291,
  "塞尔维亚": 3292,
  "斯里兰卡": 3293,
  "j@@": 3294,
  "现代化": 3295,
  "地理": 3296,
  "木@@": 3297,
  "工艺": 3298,
  "自从": 3299,
  "遗憾": 3300,
  "瓦": 3301,
  "明天": 3302,
  "职": 3303,
  "楼": 3304,
  "出任": 3305,
  "个别": 3306,
  "刺激": 3307,
  "20@@": 3308,
  "96": 3309,
  "展示": 3310,
  "简化": 3311,
  "必要性": 3312,
  "终于": 3313,
  "勒": 3314,
  "朝鲜": 3315,
  "公里": 3316,
  "5%": 3317,
  "前提": 3318,
  "过度": 3319,
  "倾向": 3320,
  "永@@": 3321,
  "分列": 3322,
  "假设": 3323,
  "联赛": 3324,
  "人群": 3325,
  "国会": 3326,
  "流行": 3327,
  "铁@@": 3328,
  "形象": 3329,
  "南方": 3330,
  "空中": 3331,
  "T": 3332,
  "收@@": 3333,
  "86": 3334,
  "七@@": 3335,
  "众多": 3336,
  "转递": 3337,
  "满": 3338,
  "中共": 3339,
  "战斗": 3340,
  "98": 3341,
  "87": 3342,
  "东部": 3343,
  "繁荣": 3344,
  "88": 3345,
  "诊断": 3346,
  "刚": 3347,
  "92": 3348,
  "直至": 3349,
  "本地": 3350,
  "谈": 3351,
  "合适": 3352,
  "创作": 3353,
  "遣返": 3354,
  "轻武器": 3355,
  "档案": 3356,
  "领空": 3357,
  "这类": 3358,
  "监察": 3359,
  "下去": 3360,
  "提": 3361,
  "协调一致": 3362,
  "很难": 3363,
  "公": 3364,
  "每次": 3365,
  "分散": 3366,
  "选": 3367,
  "府": 3368,
  "已@@": 3369,
  "120": 3370,
  "交@@": 3371,
  "交给": 3372,
  "外交部长": 3373,
  "破产": 3374,
  "大大": 3375,
  "论文": 3376,
  "别@@": 3377,
  "性@@": 3378,
  "实质": 3379,
  "有机": 3380,
  "导言": 3381,
  "z@@": 3382,
  "愿望": 3383,
  "统计数据": 3384,
  "追求": 3385,
  "摊款": 3386,
  "强调指出": 3387,
  "手术": 3388,
  "94": 3389,
  "系列": 3390,
  "持": 3391,
  "一步": 3392,
  "问责": 3393,
  "地址": 3394,
  "葡萄牙": 3395,
  "真实": 3396,
  "应有": 3397,
  "照料": 3398,
  "高于": 3399,
  "识别": 3400,
  "这儿": 3401,
  "中间": 3402,
  "两人": 3403,
  "年初": 3404,
  "家里": 3405,
  "时限": 3406,
  "北爱尔兰": 3407,
  "解决方案": 3408,
  "查阅": 3409,
  "装": 3410,
  "任@@": 3411,
  "狗": 3412,
  "皮": 3413,
  "还应": 3414,
  "为止": 3415,
  "仇外": 3416,
  "现": 3417,
  "托": 3418,
  "从未": 3419,
  "起@@": 3420,
  "作者": 3421,
  "升级": 3422,
  "团队": 3423,
  "维修": 3424,
  "恩@@": 3425,
  "就业机会": 3426,
  "厄瓜多尔": 3427,
  "专辑": 3428,
  "不幸": 3429,
  "十五届": 3430,
  "实验室": 3431,
  "定@@": 3432,
  "星期四": 3433,
  "终了": 3434,
  "联": 3435,
  "伯@@": 3436,
  "思考": 3437,
  "公路": 3438,
  "航空": 3439,
  "212": 3440,
  "99": 3441,
  "领取": 3442,
  "93": 3443,
  "最为": 3444,
  "费@@": 3445,
  "伟大": 3446,
  "别的": 3447,
  "视察": 3448,
  "开会": 3449,
  "英@@": 3450,
  "法律援助": 3451,
  "不妨": 3452,
  "合": 3453,
  "选出": 3454,
  "角": 3455,
  "卢@@": 3456,
  "1000": 3457,
  "第二届": 3458,
  "由此": 3459,
  "世贸组织": 3460,
  "帕@@": 3461,
  "放": 3462,
  "车@@": 3463,
  "联合国开发计划署": 3464,
  "索赔人": 3465,
  "厂": 3466,
  "状": 3467,
  "促成": 3468,
  "战": 3469,
  "导弹": 3470,
  "现已": 3471,
  "好像": 3472,
  "没收": 3473,
  "援助团": 3474,
  "杯": 3475,
  "‘": 3476,
  "纪律": 3477,
  "监察员": 3478,
  "列为": 3479,
  "ad@@": 3480,
  "地域": 3481,
  "帐户": 3482,
  "建@@": 3483,
  "税收": 3484,
  "职权范围": 3485,
  "所在": 3486,
  "同事": 3487,
  "ing": 3488,
  "就要": 3489,
  "里面": 3490,
  "and": 3491,
  "万人": 3492,
  "国别": 3493,
  "体@@": 3494,
  "记得": 3495,
  "星期二": 3496,
  "4.@@": 3497,
  "有辱": 3498,
  "89": 3499,
  "谈到": 3500,
  "检验": 3501,
  "发动": 3502,
  "差": 3503,
  "核可": 3504,
  "是从": 3505,
  "民事": 3506,
  "行事": 3507,
  "定罪": 3508,
  "动力": 3509,
  "贩卖": 3510,
  "药": 3511,
  "○": 3512,
  "含有": 3513,
  "机@@": 3514,
  "依法": 3515,
  "义": 3516,
  "物资": 3517,
  "这件": 3518,
  "民@@": 3519,
  "海上": 3520,
  "塞@@": 3521,
  "击败": 3522,
  "迄今": 3523,
  "一方": 3524,
  "粮食安全": 3525,
  "变动": 3526,
  "犯下": 3527,
  "形": 3528,
  "库存": 3529,
  "美丽": 3530,
  "庆祝": 3531,
  "加大": 3532,
  "利润": 3533,
  "利率": 3534,
  "限": 3535,
  "卷": 3536,
  "灾难": 3537,
  "轨道": 3538,
  "奥巴马": 3539,
  "规章": 3540,
  "龙": 3541,
  "合格": 3542,
  "亚美尼亚": 3543,
  "紧急情况": 3544,
  "条@@": 3545,
  "天气": 3546,
  "包容性": 3547,
  "油@@": 3548,
  "表@@": 3549,
  "彼此": 3550,
  "打开": 3551,
  "随": 3552,
  "97": 3553,
  "Al": 3554,
  "诗": 3555,
  "生态": 3556,
  "文学": 3557,
  "查询": 3558,
  "出身": 3559,
  "何@@": 3560,
  "常会": 3561,
  "国际标准": 3562,
  "代@@": 3563,
  "阐明": 3564,
  "定为": 3565,
  "星期三": 3566,
  "兰@@": 3567,
  "并于": 3568,
  "九@@": 3569,
  "着重": 3570,
  "代": 3571,
  "91": 3572,
  "区分": 3573,
  "碳": 3574,
  "男女平等": 3575,
  "信通": 3576,
  "物体": 3577,
  "总干事": 3578,
  "对外": 3579,
  ">": 3580,
  "1986": 3581,
  "直@@": 3582,
  "温室": 3583,
  "150": 3584,
  "经验教训": 3585,
  "细节": 3586,
  "饥饿": 3587,
  "有效性": 3588,
  "世@@": 3589,
  "解除武装": 3590,
  "蒙古": 3591,
  "un@@": 3592,
  "k": 3593,
  "升": 3594,
  "学术": 3595,
  "区域合作": 3596,
  "在线": 3597,
  "院": 3598,
  "选民": 3599,
  "有点": 3600,
  "工": 3601,
  "莱@@": 3602,
  "深": 3603,
  "参照": 3604,
  "根源": 3605,
  "算法": 3606,
  "托@@": 3607,
  "联刚": 3608,
  "所说": 3609,
  "雷": 3610,
  "所得": 3611,
  "预算外": 3612,
  "学者": 3613,
  "非殖民化": 3614,
  "多样化": 3615,
  "撤销": 3616,
  "１": 3617,
  "一段": 3618,
  "é": 3619,
  "响应": 3620,
  "民": 3621,
  "课": 3622,
  "广播": 3623,
  "命": 3624,
  "消耗": 3625,
  "中非共和国": 3626,
  "工@@": 3627,
  "时刻": 3628,
  "安全部队": 3629,
  "酒": 3630,
  "质": 3631,
  "小说": 3632,
  "穆斯林": 3633,
  "常@@": 3634,
  "孙@@": 3635,
  "成长": 3636,
  "宗@@": 3637,
  "证券": 3638,
  "永久": 3639,
  "多哈": 3640,
  "清除": 3641,
  "提起": 3642,
  "宝贵": 3643,
  "具": 3644,
  "女子": 3645,
  "因特网": 3646,
  "太阳": 3647,
  "表演": 3648,
  "离职": 3649,
  "首要": 3650,
  "对策": 3651,
  "el": 3652,
  "娜": 3653,
  "失@@": 3654,
  "@": 3655,
  "捐助国": 3656,
  "空": 3657,
  "根": 3658,
  "at@@": 3659,
  "5.@@": 3660,
  "咨询服务": 3661,
  "de": 3662,
  "蒂": 3663,
  "通": 3664,
  "相当于": 3665,
  "办理": 3666,
  "陷入": 3667,
  "错": 3668,
  "关押": 3669,
  "赵@@": 3670,
  "坐": 3671,
  "报纸": 3672,
  "复@@": 3673,
  "留在": 3674,
  "日子": 3675,
  "齐@@": 3676,
  "真是": 3677,
  "易": 3678,
  "动员": 3679,
  "龙@@": 3680,
  "远@@": 3681,
  "招募": 3682,
  "加纳": 3683,
  "该法": 3684,
  "一所": 3685,
  "草坪": 3686,
  "塞": 3687,
  "原来": 3688,
  "离": 3689,
  "演员": 3690,
  "接收": 3691,
  "赛季": 3692,
  "回家": 3693,
  "塞内加尔": 3694,
  "发展权": 3695,
  "共@@": 3696,
  "罗马尼亚": 3697,
  "m": 3698,
  "对付": 3699,
  "飞@@": 3700,
  "情绪": 3701,
  "内部监督": 3702,
  "版本": 3703,
  "曼": 3704,
  "解除": 3705,
  "所有权": 3706,
  "退化": 3707,
  "标题": 3708,
  "图像": 3709,
  "乐@@": 3710,
  "O": 3711,
  "先后": 3712,
  "教@@": 3713,
  "萨": 3714,
  "ch@@": 3715,
  "差别": 3716,
  "一支": 3717,
  "种种": 3718,
  "例外": 3719,
  "距离": 3720,
  "清": 3721,
  "证": 3722,
  "当事方": 3723,
  "认证": 3724,
  "田": 3725,
  "取": 3726,
  "匈牙利": 3727,
  "改@@": 3728,
  "朝鲜民主主义人民共和国": 3729,
  "每日": 3730,
  "云@@": 3731,
  "沙特阿拉伯": 3732,
  "转交": 3733,
  "600": 3734,
  "乍得": 3735,
  "生产总值": 3736,
  "主管部门": 3737,
  "岛屿": 3738,
  "回收": 3739,
  "观测": 3740,
  "化@@": 3741,
  "判断": 3742,
  "顺利": 3743,
  "公园": 3744,
  "制约": 3745,
  "倡导": 3746,
  "轮": 3747,
  "街": 3748,
  "面积": 3749,
  "am@@": 3750,
  "唐@@": 3751,
  "结@@": 3752,
  "违背": 3753,
  "家属": 3754,
  "对方": 3755,
  "叶@@": 3756,
  "公认": 3757,
  "亲@@": 3758,
  "实例": 3759,
  "不错": 3760,
  "华盛顿": 3761,
  "净": 3762,
  "首都": 3763,
  "一致性": 3764,
  "铭记": 3765,
  "纠正": 3766,
  "福@@": 3767,
  "必需": 3768,
  "席位": 3769,
  "覆盖": 3770,
  "此事": 3771,
  "第二条": 3772,
  "杀伤": 3773,
  "商": 3774,
  "用作": 3775,
  "那时": 3776,
  "哥斯达黎加": 3777,
  "每周": 3778,
  "用以": 3779,
  "该@@": 3780,
  "旧": 3781,
  "设定": 3782,
  "先进": 3783,
  "为何": 3784,
  "极": 3785,
  "电": 3786,
  "化学武器": 3787,
  "大不列颠": 3788,
  "登记册": 3789,
  "金融危机": 3790,
  "必要措施": 3791,
  "支柱": 3792,
  "被捕": 3793,
  "块": 3794,
  "作家": 3795,
  "人生": 3796,
  "成效": 3797,
  "港口": 3798,
  "在@@": 3799,
  "简报": 3800,
  "疟疾": 3801,
  "宁": 3802,
  "105": 3803,
  "代表性": 3804,
  "赴": 3805,
  "土@@": 3806,
  "提高认识": 3807,
  "温度": 3808,
  "+": 3809,
  "净额": 3810,
  "时至": 3811,
  "一词": 3812,
  "超出": 3813,
  "泰@@": 3814,
  "此次": 3815,
  "库@@": 3816,
  "诺@@": 3817,
  "０": 3818,
  "种植": 3819,
  "见到": 3820,
  "常规武器": 3821,
  "胜利": 3822,
  "保安": 3823,
  "深@@": 3824,
  "船舶": 3825,
  "客观": 3826,
  "el@@": 3827,
  "做好": 3828,
  "地面": 3829,
  "伦": 3830,
  "on@@": 3831,
  "Sh@@": 3832,
  "进度": 3833,
  "郑@@": 3834,
  "田@@": 3835,
  "排斥": 3836,
  "意外": 3837,
  "钻石": 3838,
  "1985": 3839,
  "那儿": 3840,
  "政": 3841,
  "干旱": 3842,
  "0.@@": 3843,
  "发给": 3844,
  "排放量": 3845,
  "临床": 3846,
  "阳": 3847,
  "十三届": 3848,
  "点@@": 3849,
  "指@@": 3850,
  "强@@": 3851,
  "强有力": 3852,
  "咨商": 3853,
  "独立性": 3854,
  "或@@": 3855,
  "哈": 3856,
  "义@@": 3857,
  "退出": 3858,
  "迄今为止": 3859,
  "全权": 3860,
  "一部": 3861,
  "精@@": 3862,
  "侧重于": 3863,
  "判例": 3864,
  "均衡": 3865,
  "摆脱": 3866,
  "侵略": 3867,
  "脱离": 3868,
  "云": 3869,
  "改造": 3870,
  "吸收": 3871,
  "109": 3872,
  "乌拉圭": 3873,
  "r": 3874,
  "吨": 3875,
  "绑架": 3876,
  "忽视": 3877,
  "言论": 3878,
  "强制": 3879,
  "日常": 3880,
  "作出贡献": 3881,
  "发了": 3882,
  "高效": 3883,
  "凡": 3884,
  "谢谢": 3885,
  "麦@@": 3886,
  "列@@": 3887,
  "&": 3888,
  "水资源": 3889,
  "开办": 3890,
  "店": 3891,
  "股票": 3892,
  "脆弱性": 3893,
  "会晤": 3894,
  "依": 3895,
  "封锁": 3896,
  "1987": 3897,
  "开设": 3898,
  "欧@@": 3899,
  "火": 3900,
  "九": 3901,
  "恐怖分子": 3902,
  "群": 3903,
  "分为": 3904,
  "降": 3905,
  "月底": 3906,
  "联@@": 3907,
  "价值观": 3908,
  "高等教育": 3909,
  "as": 3910,
  "乌@@": 3911,
  "队伍": 3912,
  "K": 3913,
  "大臣": 3914,
  "从来": 3915,
  "伤": 3916,
  "一贯": 3917,
  "the": 3918,
  "结论性": 3919,
  "口@@": 3920,
  "单元": 3921,
  "初次": 3922,
  "记": 3923,
  "西藏": 3924,
  "死@@": 3925,
  "or@@": 3926,
  "沿海": 3927,
  "约束": 3928,
  "裁谈会": 3929,
  "书@@": 3930,
  "本来": 3931,
  "答案": 3932,
  "风格": 3933,
  "辅助": 3934,
  "网页": 3935,
  "宏观经济": 3936,
  "意": 3937,
  "脚": 3938,
  "活": 3939,
  "分离": 3940,
  "吉": 3941,
  "溴": 3942,
  "事@@": 3943,
  "㈢": 3944,
  "统治": 3945,
  "青@@": 3946,
  "污染物": 3947,
  "配偶": 3948,
  "笑": 3949,
  "同等": 3950,
  "恰当": 3951,
  "半": 3952,
  "哪里": 3953,
  "哈萨克斯坦": 3954,
  "优化": 3955,
  "意图": 3956,
  "限于": 3957,
  "奇@@": 3958,
  "流程": 3959,
  "另有": 3960,
  "─": 3961,
  "整@@": 3962,
  "及@@": 3963,
  "祝贺": 3964,
  "分歧": 3965,
  "培训班": 3966,
  "削弱": 3967,
  "再@@": 3968,
  "对抗": 3969,
  "负有": 3970,
  "1982": 3971,
  "决策者": 3972,
  "霍@@": 3973,
  "军备": 3974,
  "29@@": 3975,
  "本法": 3976,
  "环境保护": 3977,
  "血": 3978,
  "放@@": 3979,
  "防@@": 3980,
  "马上": 3981,
  "要@@": 3982,
  "营地": 3983,
  "白": 3984,
  "较大": 3985,
  "红": 3986,
  "离婚": 3987,
  "铁路": 3988,
  "奥": 3989,
  "颜色": 3990,
  "联合国大会": 3991,
  "事宜": 3992,
  "作战": 3993,
  "论述": 3994,
  "包容": 3995,
  "营": 3996,
  "医学": 3997,
  "制品": 3998,
  "选定": 3999,
  "调": 4000,
  "苏联": 4001,
  "更@@": 4002,
  "自决": 4003,
  "国内法": 4004,
  "玻利维亚": 4005,
  "V": 4006,
  "制@@": 4007,
  "不必": 4008,
  "十二届": 4009,
  "近期": 4010,
  "963": 4011,
  "实@@": 4012,
  "康@@": 4013,
  "委托": 4014,
  "尽早": 4015,
  "歌": 4016,
  "爱情": 4017,
  "未成年人": 4018,
  "独@@": 4019,
  "郡": 4020,
  "社会主义": 4021,
  "所列": 4022,
  "顾客": 4023,
  "没@@": 4024,
  "会见": 4025,
  "人为": 4026,
  "参与者": 4027,
  "迫使": 4028,
  "松@@": 4029,
  "接@@": 4030,
  "消失": 4031,
  "迹象": 4032,
  "谢@@": 4033,
  "洗钱": 4034,
  "机遇": 4035,
  "6.@@": 4036,
  "亚太经社会": 4037,
  "种子": 4038,
  "中部": 4039,
  "矛盾": 4040,
  "种类": 4041,
  "言论自由": 4042,
  "薪酬": 4043,
  "学科": 4044,
  "维": 4045,
  "致": 4046,
  "给出": 4047,
  "普": 4048,
  "申请人": 4049,
  "要是": 4050,
  "和平利用": 4051,
  "N": 4052,
  "CP": 4053,
  "技术转让": 4054,
  "影响力": 4055,
  "大小": 4056,
  "最@@": 4057,
  "生计": 4058,
  "力@@": 4059,
  "笔": 4060,
  "查@@": 4061,
  "温@@": 4062,
  "盘": 4063,
  "代价": 4064,
  "年前": 4065,
  "短": 4066,
  "国家元首": 4067,
  "信息系统": 4068,
  "老板": 4069,
  "ia": 4070,
  "份额": 4071,
  "市民": 4072,
  "不当": 4073,
  "会谈": 4074,
  "使@@": 4075,
  "文字": 4076,
  "下次": 4077,
  "指挥官": 4078,
  "富有": 4079,
  "尽量": 4080,
  "人才": 4081,
  "指称": 4082,
  "尼加拉瓜": 4083,
  "电子邮件": 4084,
  "局面": 4085,
  "强制性": 4086,
  "应由": 4087,
  "更改": 4088,
  "朝@@": 4089,
  "清理": 4090,
  "刚刚": 4091,
  "j": 4092,
  "接着": 4093,
  "灵活性": 4094,
  "丝": 4095,
  "萨尔瓦多": 4096,
  "无论是": 4097,
  "复原": 4098,
  "面@@": 4099,
  "得不到": 4100,
  "草": 4101,
  "禁运": 4102,
  "消灭": 4103,
  "调@@": 4104,
  "熟悉": 4105,
  "填补": 4106,
  "含量": 4107,
  "工作文件": 4108,
  "被占领土": 4109,
  "害怕": 4110,
  "计量": 4111,
  "包@@": 4112,
  "歧视性": 4113,
  "修@@": 4114,
  "增多": 4115,
  "封": 4116,
  "输入": 4117,
  "1%": 4118,
  "机器": 4119,
  "透过": 4120,
  "入境": 4121,
  "西部": 4122,
  "试点": 4123,
  "小姐": 4124,
  "木": 4125,
  "公报": 4126,
  "据说": 4127,
  "28@@": 4128,
  "句": 4129,
  "抗议": 4130,
  "基因": 4131,
  "史@@": 4132,
  "Al@@": 4133,
  "成熟": 4134,
  "江@@": 4135,
  "债权人": 4136,
  "抗@@": 4137,
  "血@@": 4138,
  "选@@": 4139,
  "路@@": 4140,
  "求": 4141,
  "教会": 4142,
  "初@@": 4143,
  "江": 4144,
  "行政部门": 4145,
  "理": 4146,
  "模拟": 4147,
  "冲击": 4148,
  "向@@": 4149,
  "老人": 4150,
  "巴塞尔": 4151,
  "真相": 4152,
  "落": 4153,
  "编列": 4154,
  "常见": 4155,
  "捷克共和国": 4156,
  "喀麦隆": 4157,
  "和谐": 4158,
  "梦想": 4159,
  "再生能源": 4160,
  "会费": 4161,
  "丁@@": 4162,
  "o@@": 4163,
  "底": 4164,
  "初": 4165,
  "调查结果": 4166,
  "司长": 4167,
  "昨天": 4168,
  "多么": 4169,
  "必@@": 4170,
  "足以": 4171,
  "工作者": 4172,
  "全球性": 4173,
  "不仅仅": 4174,
  "条文": 4175,
  "抵达": 4176,
  "其次": 4177,
  "管理层": 4178,
  "注": 4179,
  "社": 4180,
  "缓慢": 4181,
  "旅游业": 4182,
  "卖": 4183,
  "左@@": 4184,
  "次数": 4185,
  "失望": 4186,
  "10%": 4187,
  "管@@": 4188,
  "新兴": 4189,
  "也门": 4190,
  "倍": 4191,
  "Corr": 4192,
  "尚": 4193,
  "新型": 4194,
  "当代": 4195,
  "后面": 4196,
  "颁发": 4197,
  "眼": 4198,
  "是不是": 4199,
  "色情": 4200,
  "然": 4201,
  "民兵": 4202,
  "激励": 4203,
  "进攻": 4204,
  "判处": 4205,
  "情@@": 4206,
  "J": 4207,
  "宋@@": 4208,
  "详情": 4209,
  "HRC": 4210,
  "船只": 4211,
  "洛": 4212,
  "预定": 4213,
  "围绕": 4214,
  "前面": 4215,
  "循环": 4216,
  "不满": 4217,
  "极其": 4218,
  "买卖": 4219,
  "蒙@@": 4220,
  "推荐": 4221,
  "今日": 4222,
  "无效": 4223,
  "索": 4224,
  "技巧": 4225,
  "韦@@": 4226,
  "易@@": 4227,
  "一生": 4228,
  "援引": 4229,
  "野@@": 4230,
  "共同努力": 4231,
  "歌曲": 4232,
  "第三届": 4233,
  "暂行": 4234,
  "管理系统": 4235,
  "结果表明": 4236,
  "保密": 4237,
  "十届": 4238,
  "农村妇女": 4239,
  "卡塔尔": 4240,
  "核实": 4241,
  "id@@": 4242,
  "政府首脑": 4243,
  "身@@": 4244,
  "建筑物": 4245,
  "4%": 4246,
  "内阁": 4247,
  "家庭成员": 4248,
  "看@@": 4249,
  "土": 4250,
  "一座": 4251,
  "仪式": 4252,
  "恐惧": 4253,
  "土壤": 4254,
  "素": 4255,
  "犯罪行为": 4256,
  "普及": 4257,
  "第六条": 4258,
  "`": 4259,
  "迫切需要": 4260,
  "2%": 4261,
  "切@@": 4262,
  "纸": 4263,
  "免遭": 4264,
  "人权法": 4265,
  "喝": 4266,
  "罚款": 4267,
  "多项": 4268,
  "该部": 4269,
  "修建": 4270,
  "星": 4271,
  "中文": 4272,
  "亚太": 4273,
  "道@@": 4274,
  "院长": 4275,
  "编": 4276,
  "复苏": 4277,
  "想象": 4278,
  "广大": 4279,
  "基本上": 4280,
  "友好": 4281,
  "男": 4282,
  "产量": 4283,
  "除外": 4284,
  "满@@": 4285,
  "零": 4286,
  "弱势群体": 4287,
  "童工": 4288,
  "封@@": 4289,
  "1967": 4290,
  "帝": 4291,
  "决赛": 4292,
  "任用": 4293,
  "司法部": 4294,
  "六个": 4295,
  "FCCC": 4296,
  "毛里求斯": 4297,
  "习俗": 4298,
  "不罚": 4299,
  "优惠": 4300,
  "圣": 4301,
  "添加": 4302,
  "带@@": 4303,
  "安全部门": 4304,
  "仔细": 4305,
  "上次": 4306,
  "望": 4307,
  "at": 4308,
  "经济委员会": 4309,
  "见@@": 4310,
  "菜": 4311,
  "志@@": 4312,
  "一块": 4313,
  "110": 4314,
  "竞选": 4315,
  "引入": 4316,
  "验证": 4317,
  "冷@@": 4318,
  "http": 4319,
  "合法性": 4320,
  "il@@": 4321,
  "常规": 4322,
  "3%": 4323,
  "叶": 4324,
  "定居点": 4325,
  "起到": 4326,
  "转向": 4327,
  "下文": 4328,
  "传@@": 4329,
  "眼@@": 4330,
  "...": 4331,
  "实物": 4332,
  "蒙特利尔": 4333,
  "守@@": 4334,
  "担忧": 4335,
  "肉": 4336,
  "辐射": 4337,
  "审查会议": 4338,
  "设有": 4339,
  "活跃": 4340,
  "不用": 4341,
  "合约": 4342,
  "思@@": 4343,
  "7.@@": 4344,
  "甲": 4345,
  "指导方针": 4346,
  "编号": 4347,
  "理@@": 4348,
  "拍摄": 4349,
  "想到": 4350,
  "期内": 4351,
  "1949": 4352,
  "大众": 4353,
  "剩余": 4354,
  "敌人": 4355,
  "面向": 4356,
  "排@@": 4357,
  "姓名": 4358,
  "免受": 4359,
  "散发": 4360,
  "难民营": 4361,
  "干涉": 4362,
  "品牌": 4363,
  "徐@@": 4364,
  "草稿": 4365,
  "传真": 4366,
  "我谨": 4367,
  "治": 4368,
  "如同": 4369,
  "台@@": 4370,
  "青年人": 4371,
  "上涨": 4372,
  "总共": 4373,
  "承受": 4374,
  "传": 4375,
  "电信": 4376,
  "800": 4377,
  "越@@": 4378,
  "报酬": 4379,
  "ag@@": 4380,
  "几天": 4381,
  "难@@": 4382,
  "西岸": 4383,
  "相似": 4384,
  "7%": 4385,
  "殖民地": 4386,
  "同次": 4387,
  "爸爸": 4388,
  "es@@": 4389,
  "计": 4390,
  "对手": 4391,
  "牙买加": 4392,
  "之际": 4393,
  "英格兰": 4394,
  "忘记": 4395,
  "市长": 4396,
  "玩": 4397,
  "关@@": 4398,
  "第十四条": 4399,
  "伯": 4400,
  "不愿": 4401,
  "专@@": 4402,
  "8%": 4403,
  "一周": 4404,
  "海军": 4405,
  "20%": 4406,
  "长时间": 4407,
  "能量": 4408,
  "生产力": 4409,
  "户": 4410,
  "机械": 4411,
  "演讲": 4412,
  "增长率": 4413,
  "家长": 4414,
  "一架": 4415,
  "世界人权宣言": 4416,
  "缩小": 4417,
  "料": 4418,
  "两位": 4419,
  "联黎": 4420,
  "灯": 4421,
  "几内亚比绍": 4422,
  "权@@": 4423,
  "会员": 4424,
  "提前": 4425,
  "压@@": 4426,
  "一句": 4427,
  "情": 4428,
  "50%": 4429,
  "计划生育": 4430,
  "贵": 4431,
  "极@@": 4432,
  "期@@": 4433,
  "久": 4434,
  "毛@@": 4435,
  "打破": 4436,
  "首@@": 4437,
  "审": 4438,
  "收购": 4439,
  "签证": 4440,
  "施@@": 4441,
  "冻结": 4442,
  "纪录": 4443,
  "失业率": 4444,
  "发达": 4445,
  "知情": 4446,
  "过来": 4447,
  "骨": 4448,
  "贾@@": 4449,
  "所示": 4450,
  "养护": 4451,
  "近@@": 4452,
  "修复": 4453,
  "整合": 4454,
  "组建": 4455,
  "堂": 4456,
  "ah": 4457,
  "出发": 4458,
  "采纳": 4459,
  "下述": 4460,
  "命运": 4461,
  "置于": 4462,
  "再度": 4463,
  "自由化": 4464,
  "卫生组织": 4465,
  "特权": 4466,
  "看着": 4467,
  "权能": 4468,
  "有待": 4469,
  "as@@": 4470,
  "署长": 4471,
  "生育": 4472,
  "应用程序": 4473,
  "教训": 4474,
  "收费": 4475,
  "部落": 4476,
  "非正规": 4477,
  "本书": 4478,
  "应为": 4479,
  "作物": 4480,
  "生长": 4481,
  "分段": 4482,
  "圆桌会议": 4483,
  "标准化": 4484,
  "家族": 4485,
  "驳回": 4486,
  "无害": 4487,
  "藏": 4488,
  "带有": 4489,
  "异@@": 4490,
  "深刻": 4491,
  "1978": 4492,
  "波动": 4493,
  "并@@": 4494,
  "乐": 4495,
  "士@@": 4496,
  "ab@@": 4497,
  "地图": 4498,
  "包装": 4499,
  "飞": 4500,
  "2018": 4501,
  "首": 4502,
  "较为": 4503,
  "1984": 4504,
  "权限": 4505,
  "桥": 4506,
  "振兴": 4507,
  "多名": 4508,
  "27@@": 4509,
  "娱乐": 4510,
  "东京": 4511,
  "活力": 4512,
  "健全": 4513,
  "美国@@": 4514,
  "一段时间": 4515,
  "气氛": 4516,
  "只@@": 4517,
  "阿尔巴尼亚": 4518,
  "报@@": 4519,
  "套": 4520,
  "短缺": 4521,
  "发挥作用": 4522,
  "声@@": 4523,
  "动机": 4524,
  "关": 4525,
  "记忆": 4526,
  "出色": 4527,
  "所用": 4528,
  "福": 4529,
  "膜": 4530,
  "250": 4531,
  "少@@": 4532,
  "显得": 4533,
  "找出": 4534,
  "et@@": 4535,
  "支配": 4536,
  "富@@": 4537,
  "核试验": 4538,
  "批款": 4539,
  "人均": 4540,
  "节省": 4541,
  "农@@": 4542,
  "第三方": 4543,
  "远远": 4544,
  "受害": 4545,
  "无疑": 4546,
  "家中": 4547,
  "仪": 4548,
  "奠定": 4549,
  "爆炸物": 4550,
  "补助金": 4551,
  "联塞": 4552,
  "住宅": 4553,
  "教堂": 4554,
  "经合组织": 4555,
  "否认": 4556,
  "世界卫生组织": 4557,
  "6%": 4558,
  "照": 4559,
  "推@@": 4560,
  "美好": 4561,
  "元素": 4562,
  "人民政府": 4563,
  "投": 4564,
  "支": 4565,
  "礼物": 4566,
  "分开": 4567,
  "风险管理": 4568,
  "皇帝": 4569,
  "700": 4570,
  "即@@": 4571,
  "跨界": 4572,
  "居": 4573,
  "陈": 4574,
  "招聘": 4575,
  "雅@@": 4576,
  "穆@@": 4577,
  "村庄": 4578,
  "么": 4579,
  "特使": 4580,
  "辩护": 4581,
  "CEDAW": 4582,
  "坏": 4583,
  "脱@@": 4584,
  "截止": 4585,
  "联邦政府": 4586,
  "代替": 4587,
  "疫苗": 4588,
  "煽动": 4589,
  "筹备工作": 4590,
  "下跌": 4591,
  "世": 4592,
  "术": 4593,
  "若@@": 4594,
  "酒店": 4595,
  "申明": 4596,
  "弱势": 4597,
  "商@@": 4598,
  "夏@@": 4599,
  "施加": 4600,
  "科技咨询": 4601,
  "第十届": 4602,
  "司@@": 4603,
  "群岛": 4604,
  "互相": 4605,
  "付": 4606,
  "超越": 4607,
  "馆": 4608,
  "名为": 4609,
  "登": 4610,
  "奖励": 4611,
  "ou@@": 4612,
  "过于": 4613,
  "着重指出": 4614,
  "归": 4615,
  "一人": 4616,
  "大力": 4617,
  "邦": 4618,
  "载于": 4619,
  "排": 4620,
  "古": 4621,
  "划分": 4622,
  "II": 4623,
  "景@@": 4624,
  "圈": 4625,
  "节@@": 4626,
  "中非": 4627,
  "典型": 4628,
  "六个月": 4629,
  "季": 4630,
  "债券": 4631,
  "臣": 4632,
  "宫": 4633,
  "残疾儿童": 4634,
  "开采": 4635,
  "广@@": 4636,
  "漂亮": 4637,
  "联合国秘书处": 4638,
  "脸": 4639,
  "UNEP": 4640,
  "手机": 4641,
  "说道": 4642,
  "欺诈": 4643,
  "轻@@": 4644,
  "p": 4645,
  "收": 4646,
  "要点": 4647,
  "采访": 4648,
  "刑事法庭": 4649,
  "防范": 4650,
  "1970": 4651,
  "ed@@": 4652,
  "U": 4653,
  "23@@": 4654,
  "赞比亚": 4655,
  "数学": 4656,
  "福祉": 4657,
  "电力": 4658,
  "有趣": 4659,
  "盖": 4660,
  "一边": 4661,
  "实": 4662,
  "赫@@": 4663,
  "哦": 4664,
  "谈话": 4665,
  "手中": 4666,
  "9%": 4667,
  "汉": 4668,
  "商店": 4669,
  "文职人员": 4670,
  "建": 4671,
  "契约": 4672,
  "核@@": 4673,
  "1981": 4674,
  "仇恨": 4675,
  "赠款": 4676,
  "取@@": 4677,
  "术语": 4678,
  "重组": 4679,
  "试@@": 4680,
  "撤回": 4681,
  "免疫": 4682,
  "松": 4683,
  "8.@@": 4684,
  "遭遇": 4685,
  "增@@": 4686,
  "礼": 4687,
  "麻烦": 4688,
  "is@@": 4689,
  "事物": 4690,
  "走向": 4691,
  "这笔": 4692,
  "说@@": 4693,
  "理念": 4694,
  "谨慎": 4695,
  "边缘": 4696,
  "正当": 4697,
  "通用": 4698,
  "人事": 4699,
  "力求": 4700,
  "物种": 4701,
  "救助": 4702,
  "打电话": 4703,
  "高质量": 4704,
  "缴款": 4705,
  "病@@": 4706,
  "压": 4707,
  "刀": 4708,
  "班@@": 4709,
  "枚": 4710,
  "CRP": 4711,
  "海事": 4712,
  "胜": 4713,
  "性虐待": 4714,
  "卫生部": 4715,
  "含": 4716,
  "中等": 4717,
  "网@@": 4718,
  "观众": 4719,
  "保加利亚": 4720,
  "巡逻": 4721,
  "im@@": 4722,
  "不足以": 4723,
  "落@@": 4724,
  "优秀": 4725,
  "不了": 4726,
  "事务处": 4727,
  "路线": 4728,
  "休息": 4729,
  "ic@@": 4730,
  "周年": 4731,
  "宝@@": 4732,
  "re@@": 4733,
  "梁@@": 4734,
  "第七条": 4735,
  "欧洲委员会": 4736,
  "关税": 4737,
  "初期": 4738,
  "权益": 4739,
  "国际劳工组织": 4740,
  "联合国环境规划署": 4741,
  "被@@": 4742,
  "达成协议": 4743,
  "至@@": 4744,
  "产": 4745,
  "X": 4746,
  "分担": 4747,
  "退@@": 4748,
  "呀": 4749,
  "不结盟运动": 4750,
  "基督教": 4751,
  "运送": 4752,
  "曲": 4753,
  "诉诸": 4754,
  "激烈": 4755,
  "城@@": 4756,
  "酸": 4757,
  "留@@": 4758,
  "指令": 4759,
  "怎么样": 4760,
  "付出": 4761,
  "发送": 4762,
  "警察部队": 4763,
  "教练": 4764,
  "干扰": 4765,
  "职类": 4766,
  "核能": 4767,
  "基本权利": 4768,
  "哲学": 4769,
  "运营": 4770,
  "组@@": 4771,
  "军官": 4772,
  "余@@": 4773,
  "环保": 4774,
  "逝世": 4775,
  "动@@": 4776,
  "缴纳": 4777,
  "假如": 4778,
  "嘉@@": 4779,
  "皆": 4780,
  "星@@": 4781,
  "正规": 4782,
  "产妇": 4783,
  "李": 4784,
  "一个月": 4785,
  "ra@@": 4786,
  "东耶路撒冷": 4787,
  "感受": 4788,
  "宣称": 4789,
  "心里": 4790,
  "经济危机": 4791,
  "睡": 4792,
  "保": 4793,
  "皮肤": 4794,
  "团长": 4795,
  "某一": 4796,
  "雪@@": 4797,
  "这家": 4798,
  "网址": 4799,
  "is": 4800,
  "本着": 4801,
  "取得成功": 4802,
  "CONF": 4803,
  "架构": 4804,
  "案情": 4805,
  "购置": 4806,
  "必然": 4807,
  "th@@": 4808,
  "球@@": 4809,
  "ed": 4810,
  "前进": 4811,
  "牌": 4812,
  "跳": 4813,
  "音": 4814,
  "兴@@": 4815,
  "法律文书": 4816,
  "耶路撒冷": 4817,
  "成人": 4818,
  "ak@@": 4819,
  "电台": 4820,
  "开列": 4821,
  "st@@": 4822,
  "埃": 4823,
  "花费": 4824,
  "即便": 4825,
  "报表": 4826,
  "副本": 4827,
  "回国": 4828,
  "一片": 4829,
  "公主": 4830,
  "101": 4831,
  "治安": 4832,
  "物理": 4833,
  "送交": 4834,
  "本条": 4835,
  "治@@": 4836,
  "权威": 4837,
  "办公": 4838,
  "症": 4839,
  "但@@": 4840,
  "动作": 4841,
  "完美": 4842,
  "回返": 4843,
  "视频": 4844,
  "102": 4845,
  "撒哈拉": 4846,
  "主导": 4847,
  "中亚": 4848,
  "官@@": 4849,
  "范畴": 4850,
  "成分": 4851,
  "会议议程": 4852,
  "紧迫": 4853,
  "弄": 4854,
  "寺": 4855,
  "ri@@": 4856,
  "杰": 4857,
  "渴望": 4858,
  "1979": 4859,
  "驱动": 4860,
  "工作量": 4861,
  "墙": 4862,
  "三名": 4863,
  "提倡": 4864,
  "考察": 4865,
  "家园": 4866,
  "各个方面": 4867,
  "黑": 4868,
  "实在": 4869,
  "到底": 4870,
  "许@@": 4871,
  "修": 4872,
  "反馈": 4873,
  "9.@@": 4874,
  "玛@@": 4875,
  "转换": 4876,
  "领土完整": 4877,
  "130": 4878,
  "部@@": 4879,
  "委": 4880,
  "科学技术": 4881,
  "持久性": 4882,
  "求@@": 4883,
  "序言": 4884,
  "指责": 4885,
  "内地": 4886,
  "中小企业": 4887,
  "延迟": 4888,
  "INF": 4889,
  "111": 4890,
  "三次": 4891,
  "现任": 4892,
  "箱": 4893,
  "第四届": 4894,
  "苦@@": 4895,
  "啦": 4896,
  "感情": 4897,
  "生涯": 4898,
  "1983": 4899,
  "请@@": 4900,
  "系统地": 4901,
  "密@@": 4902,
  "工程师": 4903,
  "博物馆": 4904,
  "第五次": 4905,
  "增至": 4906,
  "此时": 4907,
  "枪": 4908,
  "准许": 4909,
  "之日起": 4910,
  "早上": 4911,
  "工业化": 4912,
  "智慧": 4913,
  "解@@": 4914,
  "脑@@": 4915,
  "耶稣": 4916,
  "积累": 4917,
  "志": 4918,
  "莱": 4919,
  "叙述": 4920,
  "总务": 4921,
  "生成": 4922,
  "曾@@": 4923,
  "作出努力": 4924,
  "勘探": 4925,
  "短@@": 4926,
  "此前": 4927,
  "联利": 4928,
  "浓度": 4929,
  "微@@": 4930,
  "引导": 4931,
  "比额": 4932,
  "接": 4933,
  "领": 4934,
  "针对性": 4935,
  "裂变": 4936,
  "丽@@": 4937,
  "认捐": 4938,
  "承@@": 4939,
  "追踪": 4940,
  "预防性": 4941,
  "追@@": 4942,
  "斯洛文尼亚": 4943,
  "毛额": 4944,
  "必不可少": 4945,
  "货": 4946,
  "逻辑": 4947,
  "致使": 4948,
  "德班": 4949,
  "国家@@": 4950,
  "印刷": 4951,
  "王国": 4952,
  "布基纳法索": 4953,
  "旅费": 4954,
  "几内亚": 4955,
  "愉快": 4956,
  "隆": 4957,
  "大幅度": 4958,
  "分裂": 4959,
  "人民币": 4960,
  "运": 4961,
  "遗产": 4962,
  "威@@": 4963,
  "手续": 4964,
  "津巴布韦": 4965,
  "ad": 4966,
  "歌手": 4967,
  "川": 4968,
  "章程": 4969,
  "政@@": 4970,
  "二年": 4971,
  "自主": 4972,
  "少女": 4973,
  "103": 4974,
  "旧@@": 4975,
  "活@@": 4976,
  "湖": 4977,
  "一同": 4978,
  "韩@@": 4979,
  "辞职": 4980,
  "毫无": 4981,
  "含义": 4982,
  "言@@": 4983,
  "战@@": 4984,
  "影片": 4985,
  "之上": 4986,
  "900": 4987,
  "随@@": 4988,
  "我能": 4989,
  "黑山": 4990,
  "亲自": 4991,
  "不受": 4992,
  "林业": 4993,
  "可怕": 4994,
  "尽管如此": 4995,
  "教育部": 4996,
  "准备金": 4997,
  "算": 4998,
  "茨": 4999,
  "头发": 5000,
  "Re@@": 5001,
  "中华民国": 5002,
  "冰@@": 5003,
  "ay@@": 5004,
  "乌兹别克斯坦": 5005,
  "不好": 5006,
  "二十@@": 5007,
  "救援": 5008,
  "这时": 5009,
  "鸟": 5010,
  "领@@": 5011,
  "服": 5012,
  "接纳": 5013,
  "两者": 5014,
  "知": 5015,
  "为主": 5016,
  "食": 5017,
  "盟约": 5018,
  "美国政府": 5019,
  "有所增加": 5020,
  "热情": 5021,
  "当作": 5022,
  "蒂@@": 5023,
  "斯洛伐克": 5024,
  "转化": 5025,
  "104": 5026,
  "26@@": 5027,
  "明年": 5028,
  "第一@@": 5029,
  "冲@@": 5030,
  "COP": 5031,
  "沃@@": 5032,
  "计划署": 5033,
  "耶": 5034,
  "储备": 5035,
  "乡": 5036,
  "妇发": 5037,
  "西撒哈拉": 5038,
  "梅": 5039,
  "自杀": 5040,
  "得知": 5041,
  "搜索": 5042,
  "籍": 5043,
  "使命": 5044,
  "雨": 5045,
  "液": 5046,
  "解": 5047,
  "骚扰": 5048,
  "糟糕": 5049,
  "偏见": 5050,
  "一辆": 5051,
  "三分之一": 5052,
  "东盟": 5053,
  "跨": 5054,
  "荣誉": 5055,
  "弃权": 5056,
  "梦": 5057,
  "紧密": 5058,
  "ol@@": 5059,
  "小额": 5060,
  "谋求": 5061,
  "交": 5062,
  "将要": 5063,
  "乡村": 5064,
  "查": 5065,
  "却是": 5066,
  "外联": 5067,
  "寿命": 5068,
  "沙": 5069,
  "更多地": 5070,
  "结余": 5071,
  "补编": 5072,
  "30@@": 5073,
  "抓住": 5074,
  "到@@": 5075,
  "麻醉药品": 5076,
  "瑞@@": 5077,
  "游@@": 5078,
  "咖啡": 5079,
  "企业家": 5080,
  "地说": 5081,
  "六年": 5082,
  "丁": 5083,
  "盖@@": 5084,
  "记住": 5085,
  "自行": 5086,
  "结": 5087,
  "印象": 5088,
  "职员": 5089,
  "两级": 5090,
  "河@@": 5091,
  "联检": 5092,
  "上学": 5093,
  "到来": 5094,
  "签发": 5095,
  "佩@@": 5096,
  "体面": 5097,
  "106": 5098,
  "立刻": 5099,
  "养恤": 5100,
  "行动者": 5101,
  "目的地": 5102,
  "向前": 5103,
  "吃@@": 5104,
  "25@@": 5105,
  "第三条": 5106,
  "呆": 5107,
  "迁移": 5108,
  "酒@@": 5109,
  "09": 5110,
  "已于": 5111,
  "低收入": 5112,
  "ro@@": 5113,
  "莫桑比克": 5114,
  "原理": 5115,
  "和平解决": 5116,
  "施行": 5117,
  "第四条": 5118,
  "赞助": 5119,
  "艰难": 5120,
  "x@@": 5121,
  "刚才": 5122,
  "原籍": 5123,
  "某人": 5124,
  "唱": 5125,
  "证件": 5126,
  "金钱": 5127,
  "荷": 5128,
  "05": 5129,
  "当年": 5130,
  "集@@": 5131,
  "世界贸易组织": 5132,
  "et": 5133,
  "归@@": 5134,
  "民警": 5135,
  "住所": 5136,
  "赛事": 5137,
  "根@@": 5138,
  "弥补": 5139,
  "经社理事会": 5140,
  "路线图": 5141,
  "112": 5142,
  "中将": 5143,
  "施工": 5144,
  "勒@@": 5145,
  "曾任": 5146,
  "圆@@": 5147,
  "十": 5148,
  "尊重人权": 5149,
  "小心": 5150,
  "２": 5151,
  "展览": 5152,
  "还会": 5153,
  "届会": 5154,
  "既定": 5155,
  "撤出": 5156,
  "装@@": 5157,
  "洪@@": 5158,
  "中国共产党": 5159,
  "男@@": 5160,
  "统筹": 5161,
  "观": 5162,
  "看出": 5163,
  "博": 5164,
  "中止": 5165,
  "深信": 5166,
  "玉@@": 5167,
  "夫妇": 5168,
  "5000": 5169,
  "】": 5170,
  "两国": 5171,
  "改": 5172,
  "记载": 5173,
  "摧毁": 5174,
  "斯德哥尔摩": 5175,
  "闭会": 5176,
  "第五条": 5177,
  "势力": 5178,
  "大西洋": 5179,
  "顺@@": 5180,
  "校长": 5181,
  "混乱": 5182,
  "减缓": 5183,
  "军事行动": 5184,
  "乱": 5185,
  "确切": 5186,
  "聪明": 5187,
  "大多": 5188,
  "路上": 5189,
  "可否": 5190,
  "继": 5191,
  "to": 5192,
  "联科": 5193,
  "国际原子能机构": 5194,
  "右@@": 5195,
  "参观": 5196,
  "利息": 5197,
  "第二章": 5198,
  "一类": 5199,
  "进来": 5200,
  "争论": 5201,
  "大卫": 5202,
  "征求": 5203,
  "签字": 5204,
  "中断": 5205,
  "理事": 5206,
  "闭门": 5207,
  "营养不良": 5208,
  "尽力": 5209,
  "团@@": 5210,
  "警官": 5211,
  "困境": 5212,
  "阿尔@@": 5213,
  "元年": 5214,
  "遏制": 5215,
  "破@@": 5216,
  "拍": 5217,
  "协调会": 5218,
  "看上去": 5219,
  "羽毛球": 5220,
  "1973": 5221,
  "运@@": 5222,
  "乔治": 5223,
  "一届": 5224,
  "操守": 5225,
  "守": 5226,
  "关键作用": 5227,
  "假@@": 5228,
  "护照": 5229,
  "税务": 5230,
  "108": 5231,
  "中所载": 5232,
  "校": 5233,
  "有意": 5234,
  "国防": 5235,
  "碎片": 5236,
  "尽@@": 5237,
  "高中": 5238,
  "郭@@": 5239,
  "补@@": 5240,
  "资讯": 5241,
  "经济社会": 5242,
  "补助": 5243,
  "战斗人员": 5244,
  "省@@": 5245,
  "支@@": 5246,
  "负面影响": 5247,
  "双": 5248,
  "天然气": 5249,
  "顾及": 5250,
  "代码": 5251,
  "使用者": 5252,
  "经共体": 5253,
  "北方": 5254,
  "30%": 5255,
  "母@@": 5256,
  "举": 5257,
  "主持人": 5258,
  "苏丹政府": 5259,
  "隔离": 5260,
  "就读": 5261,
  "走@@": 5262,
  "表示感谢": 5263,
  "足": 5264,
  "听说": 5265,
  "斯特": 5266,
  "身边": 5267,
  "口译": 5268,
  "卡尔": 5269,
  "仁": 5270,
  "饮食": 5271,
  "$": 5272,
  "构建": 5273,
  "拉加": 5274,
  "跨国公司": 5275,
  "接到": 5276,
  "合成": 5277,
  "延@@": 5278,
  "24@@": 5279,
  "换@@": 5280,
  "基本建设": 5281,
  "犯有": 5282,
  "演变": 5283,
  "巴林": 5284,
  "目录": 5285,
  "乐观": 5286,
  "坦桑尼亚联合共和国": 5287,
  "汤姆": 5288,
  "支持者": 5289,
  "药@@": 5290,
  "收取": 5291,
  "海岸": 5292,
  "报复": 5293,
  "115": 5294,
  "公共行政": 5295,
  "1373": 5296,
  "除@@": 5297,
  "IDB": 5298,
  "晚": 5299,
  "更换": 5300,
  "农场": 5301,
  "听@@": 5302,
  "树@@": 5303,
  "从中": 5304,
  "抵抗": 5305,
  "莫斯科": 5306,
  "海盗": 5307,
  "船@@": 5308,
  "便于": 5309,
  "呈": 5310,
  "服务器": 5311,
  "菲@@": 5312,
  "107": 5313,
  "想@@": 5314,
  "附": 5315,
  "集会": 5316,
  "很@@": 5317,
  "剧": 5318,
  "堕胎": 5319,
  "惠@@": 5320,
  "不予": 5321,
  "负": 5322,
  "社会福利": 5323,
  "优质": 5324,
  "有没有": 5325,
  "之所以": 5326,
  "灵@@": 5327,
  "甘@@": 5328,
  "董事": 5329,
  "引@@": 5330,
  "必": 5331,
  "投@@": 5332,
  "像是": 5333,
  "回归": 5334,
  "承包商": 5335,
  "春@@": 5336,
  "边缘化": 5337,
  "同学": 5338,
  "双重": 5339,
  "地上": 5340,
  "会期": 5341,
  "司法制度": 5342,
  "几次": 5343,
  "十四届": 5344,
  "供水": 5345,
  "／": 5346,
  "创立": 5347,
  "臭氧": 5348,
  "聘用": 5349,
  "普遍性": 5350,
  "反对派": 5351,
  "巨@@": 5352,
  "淘汰": 5353,
  "局长": 5354,
  "定居": 5355,
  "一本": 5356,
  "癌症": 5357,
  "端": 5358,
  "经济学家": 5359,
  "文献": 5360,
  "停火": 5361,
  "租赁": 5362,
  "皇家": 5363,
  "思": 5364,
  "司机": 5365,
  "祖@@": 5366,
  "园": 5367,
  "捐赠": 5368,
  "日前": 5369,
  "考@@": 5370,
  "114": 5371,
  "绝大多数": 5372,
  "希": 5373,
  "报导": 5374,
  "总督": 5375,
  "齐": 5376,
  "样子": 5377,
  "所指": 5378,
  "每一": 5379,
  "无需": 5380,
  "曼@@": 5381,
  "兴": 5382,
  "充分利用": 5383,
  "范@@": 5384,
  "登@@": 5385,
  "减@@": 5386,
  "细@@": 5387,
  "频率": 5388,
  "甲@@": 5389,
  "采矿": 5390,
  "最多": 5391,
  "113": 5392,
  "em@@": 5393,
  "浪费": 5394,
  "撰写": 5395,
  "or": 5396,
  "七年": 5397,
  "编@@": 5398,
  "玛丽": 5399,
  "练习": 5400,
  "审讯": 5401,
  "捍卫": 5402,
  "客": 5403,
  "贝宁": 5404,
  "直升机": 5405,
  "人体": 5406,
  "透露": 5407,
  "克斯": 5408,
  "依@@": 5409,
  "忙": 5410,
  "居@@": 5411,
  "下载": 5412,
  "08": 5413,
  "传递": 5414,
  "奖学金": 5415,
  "挑选": 5416,
  "合作社": 5417,
  "地中海": 5418,
  "申报": 5419,
  "武": 5420,
  "下令": 5421,
  "减免": 5422,
  "牛": 5423,
  "该司": 5424,
  "联合国总部": 5425,
  "一事": 5426,
  "马耳他": 5427,
  "扬": 5428,
  "欣见": 5429,
  "鱼类": 5430,
  "戈@@": 5431,
  "等级": 5432,
  "GC": 5433,
  "题": 5434,
  "拯救": 5435,
  "军火": 5436,
  "父": 5437,
  "出战": 5438,
  "电视台": 5439,
  "加盟": 5440,
  "中美洲": 5441,
  "老年": 5442,
  "扮演": 5443,
  "目": 5444,
  "流入": 5445,
  "城镇": 5446,
  "做@@": 5447,
  "联合国儿童基金会": 5448,
  "街头": 5449,
  "Mr": 5450,
  "精确": 5451,
  "构想": 5452,
  "DP": 5453,
  "桑@@": 5454,
  "木材": 5455,
  "全面禁止": 5456,
  "凯@@": 5457,
  "抑制": 5458,
  "第三个": 5459,
  "腿": 5460,
  "故意": 5461,
  "毛": 5462,
  "谋杀": 5463,
  "导演": 5464,
  "海底": 5465,
  "尊敬": 5466,
  "创业": 5467,
  "塔吉克斯坦": 5468,
  "食@@": 5469,
  "雅": 5470,
  "群众": 5471,
  "看作": 5472,
  "上阵": 5473,
  "扎@@": 5474,
  "顶": 5475,
  "消极": 5476,
  "要么": 5477,
  "著作": 5478,
  "可行性": 5479,
  "恶劣": 5480,
  "陆军": 5481,
  "读者": 5482,
  "追究": 5483,
  "南部非洲": 5484,
  "140": 5485,
  "红色": 5486,
  "老龄": 5487,
  "动议": 5488,
  "订约": 5489,
  "_": 5490,
  "裔": 5491,
  "玛": 5492,
  "维护者": 5493,
  "个案": 5494,
  "环": 5495,
  "有时候": 5496,
  "对应": 5497,
  "步": 5498,
  "ur@@": 5499,
  "房地产": 5500,
  "蓝@@": 5501,
  "租金": 5502,
  "该条": 5503,
  "配@@": 5504,
  "虽": 5505,
  "母": 5506,
  "患": 5507,
  "游客": 5508,
  "谈论": 5509,
  "陆@@": 5510,
  "糖": 5511,
  "调节": 5512,
  "聚@@": 5513,
  "超级": 5514,
  "撤离": 5515,
  "股东": 5516,
  "旅馆": 5517,
  "系数": 5518,
  "一再": 5519,
  "戴@@": 5520,
  "替": 5521,
  "ac@@": 5522,
  "这部": 5523,
  "牵头": 5524,
  "电邮": 5525,
  "普通照会": 5526,
  "160": 5527,
  "感到遗憾": 5528,
  "一笔": 5529,
  "次序": 5530,
  "以南": 5531,
  "等@@": 5532,
  "外空": 5533,
  "银@@": 5534,
  "进出口": 5535,
  "职业培训": 5536,
  "收回": 5537,
  "层次": 5538,
  "惩处": 5539,
  "三十@@": 5540,
  "ul@@": 5541,
  "名册": 5542,
  "写作": 5543,
  "高级官员": 5544,
  "引用": 5545,
  "布什": 5546,
  "亿@@": 5547,
  "不安": 5548,
  "116": 5549,
  "孕妇": 5550,
  "册": 5551,
  "按@@": 5552,
  "前任": 5553,
  "监控": 5554,
  "成年人": 5555,
  "检查组": 5556,
  "通货膨胀": 5557,
  "种族灭绝": 5558,
  "x": 5559,
  "法人": 5560,
  "牛@@": 5561,
  "猫": 5562,
  "苏": 5563,
  "受欢迎": 5564,
  "亲": 5565,
  "痛": 5566,
  "忠@@": 5567,
  "温": 5568,
  "家具": 5569,
  "威": 5570,
  "措辞": 5571,
  "党@@": 5572,
  "严峻": 5573,
  "采取有效": 5574,
  "宁@@": 5575,
  "am": 5576,
  "惩治": 5577,
  "准": 5578,
  "传染病": 5579,
  "塔利班": 5580,
  "降@@": 5581,
  "抗": 5582,
  "铁": 5583,
  "羁押": 5584,
  "1960": 5585,
  "检察长": 5586,
  "损坏": 5587,
  "一组": 5588,
  "环@@": 5589,
  "参@@": 5590,
  "翻@@": 5591,
  "外债": 5592,
  "乔@@": 5593,
  "特色": 5594,
  "牺牲": 5595,
  "无人": 5596,
  "故": 5597,
  "戴": 5598,
  "抱": 5599,
  "灵魂": 5600,
  "副@@": 5601,
  "重叠": 5602,
  "土著人": 5603,
  "01": 5604,
  "变更": 5605,
  "黄金": 5606,
  "国民议会": 5607,
  "主体": 5608,
  "广州": 5609,
  "塞族": 5610,
  "杰@@": 5611,
  "刑法典": 5612,
  "唱片": 5613,
  "配备": 5614,
  "注意力": 5615,
  "第五十九": 5616,
  "标签": 5617,
  "尼亚": 5618,
  "目前为止": 5619,
  "招@@": 5620,
  "禁令": 5621,
  "语@@": 5622,
  "毫米": 5623,
  "接下来": 5624,
  "不但": 5625,
  "气象": 5626,
  "动荡": 5627,
  "国际@@": 5628,
  "第九条": 5629,
  "民主党": 5630,
  "测定": 5631,
  "孔": 5632,
  "人民法院": 5633,
  "对比": 5634,
  "立法会": 5635,
  "黑暗": 5636,
  "宝": 5637,
  "月@@": 5638,
  "换": 5639,
  "定位": 5640,
  "项下": 5641,
  "毫无疑问": 5642,
  "非索": 5643,
  "强度": 5644,
  "快@@": 5645,
  "杀死": 5646,
  "化合物": 5647,
  "指明": 5648,
  "井": 5649,
  "饮用水": 5650,
  "垃圾": 5651,
  "亲爱": 5652,
  "禁毒": 5653,
  "预@@": 5654,
  "122": 5655,
  "将近": 5656,
  "估算": 5657,
  "解雇": 5658,
  "戈": 5659,
  "团伙": 5660,
  "太太": 5661,
  "公共卫生": 5662,
  "公共政策": 5663,
  "养@@": 5664,
  "赛@@": 5665,
  "绝@@": 5666,
  "经济学": 5667,
  "认同": 5668,
  "采@@": 5669,
  "夜": 5670,
  "延误": 5671,
  "小孩": 5672,
  "统计数字": 5673,
  "内政部": 5674,
  "纠纷": 5675,
  "暗@@": 5676,
  "大脑": 5677,
  "全文": 5678,
  "务": 5679,
  "第九届": 5680,
  "零@@": 5681,
  "印": 5682,
  "帝国": 5683,
  "直": 5684,
  "存@@": 5685,
  "佛@@": 5686,
  "标@@": 5687,
  "本案": 5688,
  "超": 5689,
  "【": 5690,
  "看待": 5691,
  "据此": 5692,
  "今晚": 5693,
  "丹": 5694,
  "香": 5695,
  "电子商务": 5696,
  "劳@@": 5697,
  "盛@@": 5698,
  "派出": 5699,
  "情感": 5700,
  "扎": 5701,
  "坐@@": 5702,
  "散": 5703,
  "118": 5704,
  "穿着": 5705,
  "个@@": 5706,
  "具体措施": 5707,
  "丽": 5708,
  "刑事责任": 5709,
  "相关性": 5710,
  "法文": 5711,
  "刑事诉讼": 5712,
  "现@@": 5713,
  "９": 5714,
  "卫@@": 5715,
  "追加": 5716,
  "06": 5717,
  "罗姆人": 5718,
  "异常": 5719,
  "塞人": 5720,
  "危及": 5721,
  "〉": 5722,
  "知@@": 5723,
  "香@@": 5724,
  "堡": 5725,
  "辆": 5726,
  "职工": 5727,
  "经济@@": 5728,
  "公共服务": 5729,
  "入学": 5730,
  "救灾": 5731,
  "严厉": 5732,
  "第一章": 5733,
  "预警": 5734,
  "选手": 5735,
  "送到": 5736,
  "散@@": 5737,
  "放松": 5738,
  "本质": 5739,
  "只会": 5740,
  "执法人员": 5741,
  "清晰": 5742,
  "弗@@": 5743,
  "ut@@": 5744,
  "提取": 5745,
  "抱怨": 5746,
  "儿基会": 5747,
  "不变": 5748,
  "警察局": 5749,
  "曼谷": 5750,
  "顺序": 5751,
  "夫@@": 5752,
  "丹@@": 5753,
  "峰会": 5754,
  "储蓄": 5755,
  "当今": 5756,
  "鲁": 5757,
  "信函": 5758,
  "两份": 5759,
  "遗留": 5760,
  "将@@": 5761,
  "无国籍": 5762,
  "确信": 5763,
  "还@@": 5764,
  "七个": 5765,
  "法律事务": 5766,
  "〈": 5767,
  "服装": 5768,
  "拜": 5769,
  "鱼@@": 5770,
  "辛@@": 5771,
  "周末": 5772,
  "土库曼斯坦": 5773,
  "更具": 5774,
  "Q@@": 5775,
  "股份": 5776,
  "既然": 5777,
  "味": 5778,
  "思维": 5779,
  "晋@@": 5780,
  "善": 5781,
  "仁@@": 5782,
  "作法": 5783,
  "冰岛": 5784,
  "爱沙尼亚": 5785,
  "奉": 5786,
  "复制": 5787,
  "穷国": 5788,
  "第五十八": 5789,
  "回复": 5790,
  "具体情况": 5791,
  "先决条件": 5792,
  "洗@@": 5793,
  "117": 5794,
  "兵@@": 5795,
  "得出结论": 5796,
  "善@@": 5797,
  "过分": 5798,
  "炸弹": 5799,
  "而已": 5800,
  "递交": 5801,
  "买方": 5802,
  "筹集": 5803,
  "回报": 5804,
  "那位": 5805,
  "借口": 5806,
  "and@@": 5807,
  "剩下": 5808,
  "实务": 5809,
  "见解": 5810,
  "几十年": 5811,
  "专用": 5812,
  "女生": 5813,
  "势头": 5814,
  "07": 5815,
  "草@@": 5816,
  "占有": 5817,
  "分至": 5818,
  "解放": 5819,
  "慈善": 5820,
  "纳米比亚": 5821,
  "1975": 5822,
  "切": 5823,
  "莫": 5824,
  "紧@@": 5825,
  "质@@": 5826,
  "奥运": 5827,
  "制造商": 5828,
  "非国家": 5829,
  "概况": 5830,
  "轮@@": 5831,
  "西班牙语": 5832,
  "119": 5833,
  "诸@@": 5834,
  "个体": 5835,
  "二世": 5836,
  "玻璃": 5837,
  "标记": 5838,
  "火车": 5839,
  "收养": 5840,
  "聚集": 5841,
  "南京": 5842,
  "山区": 5843,
  "it": 5844,
  "断": 5845,
  "篇": 5846,
  "第十一届": 5847,
  "40%": 5848,
  "力度": 5849,
  "严@@": 5850,
  "占据": 5851,
  "亮": 5852,
  "印@@": 5853,
  "论点": 5854,
  "回合": 5855,
  "横@@": 5856,
  "外面": 5857,
  "湾": 5858,
  "编纂": 5859,
  "频繁": 5860,
  "约@@": 5861,
  "假定": 5862,
  "10.@@": 5863,
  "涉嫌": 5864,
  "立陶宛": 5865,
  "秀@@": 5866,
  "巴拿马": 5867,
  "实力": 5868,
  "地下": 5869,
  "迫害": 5870,
  "巴拉圭": 5871,
  "破": 5872,
  "欧洲人": 5873,
  "参加者": 5874,
  "180": 5875,
  "艺术家": 5876,
  "保罗": 5877,
  "财务报告": 5878,
  "衣@@": 5879,
  "夏": 5880,
  "慢慢": 5881,
  "音@@": 5882,
  "钱@@": 5883,
  "通道": 5884,
  "夏天": 5885,
  "写@@": 5886,
  "政府部门": 5887,
  "<": 5888,
  "明确规定": 5889,
  "邮件": 5890,
  "函数": 5891,
  "第七届": 5892,
  "藏@@": 5893,
  "增编": 5894,
  "邮政": 5895,
  "适足": 5896,
  "获@@": 5897,
  "意@@": 5898,
  "CRC": 5899,
  "色@@": 5900,
  "缩短": 5901,
  "解决问题": 5902,
  "床": 5903,
  "夺得": 5904,
  "尤@@": 5905,
  "志愿": 5906,
  "批": 5907,
  "称赞": 5908,
  "联海": 5909,
  "列举": 5910,
  "挂": 5911,
  "国家队": 5912,
  "送@@": 5913,
  "信念": 5914,
  "称@@": 5915,
  "遗传": 5916,
  "洪都拉斯": 5917,
  "斐济": 5918,
  "神经": 5919,
  "交往": 5920,
  "拉脱维亚": 5921,
  "WP": 5922,
  "示威": 5923,
  "奇怪": 5924,
  "造@@": 5925,
  "救": 5926,
  "原始": 5927,
  "马德里": 5928,
  "夜@@": 5929,
  "核证": 5930,
  "进士": 5931,
  "主人": 5932,
  "三种": 5933,
  "无关": 5934,
  "商人": 5935,
  "拿@@": 5936,
  "泰": 5937,
  "诊所": 5938,
  "专利": 5939,
  "纸@@": 5940,
  "知名": 5941,
  "马其顿共和国": 5942,
  "精简": 5943,
  "议定": 5944,
  "内在": 5945,
  "处以": 5946,
  "早日": 5947,
  "St@@": 5948,
  "莉": 5949,
  "诸多": 5950,
  "综合性": 5951,
  "携带": 5952,
  "澳门": 5953,
  "80%": 5954,
  "季@@": 5955,
  "滑@@": 5956,
  "属性": 5957,
  "耶@@": 5958,
  "类@@": 5959,
  "证词": 5960,
  "一会儿": 5961,
  "刑事诉讼法": 5962,
  "放射性": 5963,
  "记@@": 5964,
  "指派": 5965,
  "自决权": 5966,
  "敌": 5967,
  "怀@@": 5968,
  "尸体": 5969,
  "处在": 5970,
  "改组": 5971,
  "倒@@": 5972,
  "无线电": 5973,
  "友谊": 5974,
  "画@@": 5975,
  "学位": 5976,
  "弟弟": 5977,
  "早@@": 5978,
  "警务": 5979,
  "物@@": 5980,
  "一面": 5981,
  "微笑": 5982,
  "授": 5983,
  "第五届": 5984,
  "服务中心": 5985,
  "第六届": 5986,
  "需@@": 5987,
  "日后": 5988,
  "原先": 5989,
  "护@@": 5990,
  "施政": 5991,
  "研制": 5992,
  "处@@": 5993,
  "第二天": 5994,
  "十二": 5995,
  "划界": 5996,
  "阳光": 5997,
  "蒙特雷": 5998,
  "线@@": 5999,
  "展望": 6000,
  "蔡@@": 6001,
  "杰出": 6002,
  "三分之二": 6003,
  "15.@@": 6004,
  "行径": 6005,
  "白色": 6006,
  "往@@": 6007,
  "两天": 6008,
  "世界杯": 6009,
  "代理人": 6010,
  "区@@": 6011,
  "普查": 6012,
  "愤怒": 6013,
  "第十二届": 6014,
  "文中": 6015,
  "视@@": 6016,
  "喜爱": 6017,
  "历任": 6018,
  "125": 6019,
  "二十一": 6020,
  "发明": 6021,
  "坚信": 6022,
  "那天": 6023,
  "讲@@": 6024,
  "13.@@": 6025,
  "流行病": 6026,
  "令人满意": 6027,
  "予": 6028,
  "魏@@": 6029,
  "烟@@": 6030,
  "即可": 6031,
  "附录": 6032,
  "末": 6033,
  "场地": 6034,
  "苏格兰": 6035,
  "入学率": 6036,
  "军人": 6037,
  "一大": 6038,
  "一群": 6039,
  "战役": 6040,
  "扩张": 6041,
  "体重": 6042,
  "拒": 6043,
  "萧@@": 6044,
  "万元": 6045,
  "录": 6046,
  "留": 6047,
  "哪个": 6048,
  "汇款": 6049,
  "区内": 6050,
  "燃烧": 6051,
  "模块": 6052,
  "1974": 6053,
  "贩卖人口": 6054,
  "杂@@": 6055,
  "什": 6056,
  "os": 6057,
  "复兴": 6058,
  "锦标赛": 6059,
  "临@@": 6060,
  "症状": 6061,
  "卫生保健": 6062,
  "根除": 6063,
  "懂": 6064,
  "兼任": 6065,
  "何时": 6066,
  "度过": 6067,
  "灭绝种族": 6068,
  "123": 6069,
  "导@@": 6070,
  "配额": 6071,
  "蔓延": 6072,
  "1977": 6073,
  "率领": 6074,
  "市场准入": 6075,
  "众": 6076,
  "归还": 6077,
  "一百@@": 6078,
  "见下文": 6079,
  "游": 6080,
  "大气": 6081,
  "大赦": 6082,
  "流通": 6083,
  "公务": 6084,
  "阴@@": 6085,
  "火箭": 6086,
  "一篇": 6087,
  "书籍": 6088,
  "伦@@": 6089,
  "略": 6090,
  "股市": 6091,
  "捕捞": 6092,
  "预先": 6093,
  "天空": 6094,
  "训研": 6095,
  "样": 6096,
  "南亚": 6097,
  "品质": 6098,
  "供@@": 6099,
  "王子": 6100,
  "惊@@": 6101,
  "数值": 6102,
  "题目": 6103,
  "井@@": 6104,
  "稳定性": 6105,
  "司法部门": 6106,
  "解释性": 6107,
  "第五十七届": 6108,
  "研发": 6109,
  "俄": 6110,
  "存储": 6111,
  "接待": 6112,
  "所在地": 6113,
  "威廉": 6114,
  "形@@": 6115,
  "恐吓": 6116,
  "有个": 6117,
  "他会": 6118,
  "司法机关": 6119,
  "乱@@": 6120,
  "33@@": 6121,
  "评注": 6122,
  "黄": 6123,
  "专题讨论": 6124,
  "进行谈判": 6125,
  "命名": 6126,
  "礼@@": 6127,
  "航行": 6128,
  "50@@": 6129,
  "职权": 6130,
  "皇后": 6131,
  "延期": 6132,
  "域": 6133,
  "ap@@": 6134,
  "难道": 6135,
  "办@@": 6136,
  "纤维": 6137,
  "蒙": 6138,
  "2.1": 6139,
  "公告": 6140,
  "3000": 6141,
  "杰克": 6142,
  "吉尔吉斯斯坦": 6143,
  "原则上": 6144,
  "借鉴": 6145,
  "部委": 6146,
  "鉴定": 6147,
  "弹": 6148,
  "锡@@": 6149,
  "英里": 6150,
  "第二阶段": 6151,
  "ig@@": 6152,
  "晋升": 6153,
  "原料": 6154,
  "om@@": 6155,
  "当天": 6156,
  "彼得": 6157,
  "离@@": 6158,
  "敌对行动": 6159,
  "四十@@": 6160,
  "存": 6161,
  "卷入": 6162,
  "犹太人": 6163,
  "果": 6164,
  "舒@@": 6165,
  "宇宙": 6166,
  "等于": 6167,
  "1976": 6168,
  "伤亡": 6169,
  "东南亚": 6170,
  "吕@@": 6171,
  "相互依存": 6172,
  "说服": 6173,
  "附上": 6174,
  "伊斯兰教": 6175,
  "抵消": 6176,
  "三项": 6177,
  "升@@": 6178,
  "1.1": 6179,
  "获益": 6180,
  "国内外": 6181,
  "创办": 6182,
  "抵押": 6183,
  "概要": 6184,
  "究竟": 6185,
  "助长": 6186,
  "阿拉伯联合酋长国": 6187,
  "累积": 6188,
  "衣": 6189,
  "肉@@": 6190,
  "袋": 6191,
  "饰演": 6192,
  "象征": 6193,
  "听见": 6194,
  "ov@@": 6195,
  "引进": 6196,
  "同行": 6197,
  "国立": 6198,
  "欧安组织": 6199,
  "实效": 6200,
  "右": 6201,
  "聚会": 6202,
  "亨利": 6203,
  "尚@@": 6204,
  "导航": 6205,
  "04": 6206,
  "势": 6207,
  "什么样": 6208,
  "含@@": 6209,
  "首相": 6210,
  "简@@": 6211,
  "资@@": 6212,
  "妥善": 6213,
  "话题": 6214,
  "us@@": 6215,
  "真诚": 6216,
  "尾": 6217,
  "邮票": 6218,
  "荣": 6219,
  "卫生设施": 6220,
  "文职": 6221,
  "停@@": 6222,
  "影@@": 6223,
  "劳动者": 6224,
  "祖父": 6225,
  "医疗保健": 6226,
  "一批": 6227,
  "月初": 6228,
  "带领": 6229,
  "场合": 6230,
  "兹@@": 6231,
  "屋": 6232,
  "花园": 6233,
  "底@@": 6234,
  "多哥": 6235,
  "进去": 6236,
  "过渡时期": 6237,
  "14.@@": 6238,
  "整理": 6239,
  "背后": 6240,
  "解散": 6241,
  "02": 6242,
  "大概": 6243,
  "2020": 6244,
  "121": 6245,
  "落后": 6246,
  "天主教": 6247,
  "海洋环境": 6248,
  "冷": 6249,
  "时说": 6250,
  "原本": 6251,
  "台北": 6252,
  "选项": 6253,
  "遂": 6254,
  "展": 6255,
  "萨摩亚": 6256,
  "违法": 6257,
  "布鲁塞尔": 6258,
  "阳@@": 6259,
  "病例": 6260,
  "转型期": 6261,
  "耐@@": 6262,
  "战胜": 6263,
  "用尽": 6264,
  "信中": 6265,
  "概览": 6266,
  "WG": 6267,
  "茶": 6268,
  "荣@@": 6269,
  "乘": 6270,
  "忆及": 6271,
  "Original": 6272,
  "』": 6273,
  "泽@@": 6274,
  "警@@": 6275,
  "君": 6276,
  "忽略": 6277,
  "中午": 6278,
  "岩": 6279,
  "假期": 6280,
  "枪支": 6281,
  "拜@@": 6282,
  "大学生": 6283,
  "境外": 6284,
  "大选": 6285,
  "亲属": 6286,
  "扭转": 6287,
  "监视": 6288,
  "General": 6289,
  "国防部": 6290,
  "第六次": 6291,
  "平静": 6292,
  "孔@@": 6293,
  "进而": 6294,
  "征收": 6295,
  "野": 6296,
  "哪儿": 6297,
  "不知": 6298,
  "优点": 6299,
  "第一步": 6300,
  "第七": 6301,
  "财政部": 6302,
  "ah@@": 6303,
  "us": 6304,
  "骨@@": 6305,
  "借": 6306,
  "Y": 6307,
  "12.@@": 6308,
  "公斤": 6309,
  "果@@": 6310,
  "洞": 6311,
  "程": 6312,
  "虫": 6313,
  "一揽子": 6314,
  "规律": 6315,
  "续会": 6316,
  "康": 6317,
  "国际货币基金组织": 6318,
  "损伤": 6319,
  "谷": 6320,
  "吸引力": 6321,
  "托克劳": 6322,
  "1971": 6323,
  "第二@@": 6324,
  "鼓舞": 6325,
  "CD": 6326,
  "介入": 6327,
  "应予": 6328,
  "池": 6329,
  "预算编制": 6330,
  "段落": 6331,
  "想起": 6332,
  "搞": 6333,
  "模糊": 6334,
  "第八届": 6335,
  "农产品": 6336,
  "阶层": 6337,
  "无论如何": 6338,
  "考": 6339,
  "中央@@": 6340,
  "凭": 6341,
  "专长": 6342,
  "骑": 6343,
  "无条件": 6344,
  "业已": 6345,
  "复杂性": 6346,
  "各部": 6347,
  "不如": 6348,
  "利亚": 6349,
  "局@@": 6350,
  "赫": 6351,
  "景": 6352,
  "步@@": 6353,
  "图片": 6354,
  "吸烟": 6355,
  "加深": 6356,
  "政治家": 6357,
  "124": 6358,
  "苦难": 6359,
  "炎": 6360,
  "邓@@": 6361,
  "㈣": 6362,
  "八年": 6363,
  "盐": 6364,
  "哥哥": 6365,
  "更正": 6366,
  "广": 6367,
  "读@@": 6368,
  "核不扩散": 6369,
  "连续性": 6370,
  "详尽": 6371,
  "『": 6372,
  "便@@": 6373,
  "防御": 6374,
  "av@@": 6375,
  "自动化": 6376,
  "忘": 6377,
  "贝": 6378,
  "哥": 6379,
  "以供": 6380,
  "烟": 6381,
  "审计员": 6382,
  "英雄": 6383,
  "庞大": 6384,
  "管道": 6385,
  "实用": 6386,
  "可靠性": 6387,
  "良@@": 6388,
  "生意": 6389,
  "推翻": 6390,
  "理性": 6391,
  "甄选": 6392,
  "世卫": 6393,
  "技术支持": 6394,
  "后裔": 6395,
  "钢": 6396,
  "W": 6397,
  "迎接": 6398,
  "弹@@": 6399,
  "出台": 6400,
  "西欧": 6401,
  "生境": 6402,
  "边@@": 6403,
  "朗": 6404,
  "席": 6405,
  "混@@": 6406,
  "违法行为": 6407,
  "马克": 6408,
  "夏季": 6409,
  "舞台": 6410,
  "次@@": 6411,
  "旁边": 6412,
  "扫盲": 6413,
  "苹果": 6414,
  "man": 6415,
  "吹@@": 6416,
  "25%": 6417,
  "界限": 6418,
  "相结合": 6419,
  "敬@@": 6420,
  "抱歉": 6421,
  "微": 6422,
  "节约": 6423,
  "16.@@": 6424,
  "刑罚": 6425,
  "1972": 6426,
  "伊斯兰会议组织": 6427,
  "玻利瓦尔": 6428,
  "收容": 6429,
  "吉布提": 6430,
  "体罚": 6431,
  "庆@@": 6432,
  "妹妹": 6433,
  "幸运": 6434,
  "黑人": 6435,
  "客@@": 6436,
  "长大": 6437,
  "早晨": 6438,
  "广东": 6439,
  "鞋": 6440,
  "带到": 6441,
  "持久和平": 6442,
  "静@@": 6443,
  "买@@": 6444,
  "东欧": 6445,
  "粉": 6446,
  "盘旋": 6447,
  "一世": 6448,
  "借此机会": 6449,
  "卢森堡": 6450,
  "护士": 6451,
  "存款": 6452,
  "结构性": 6453,
  "第三国": 6454,
  "核算": 6455,
  "11.@@": 6456,
  "集束": 6457,
  "替代品": 6458,
  "完整性": 6459,
  "崩溃": 6460,
  "信用": 6461,
  "li@@": 6462,
  "缺点": 6463,
  "译文": 6464,
  "预见": 6465,
  "姆@@": 6466,
  "微型": 6467,
  "客人": 6468,
  "不良": 6469,
  "受过": 6470,
  "可信": 6471,
  "时机": 6472,
  "清洗": 6473,
  "适宜": 6474,
  "od@@": 6475,
  "ine": 6476,
  "试": 6477,
  "躺": 6478,
  "镇@@": 6479,
  "秀": 6480,
  "乘客": 6481,
  "十六届": 6482,
  "曲@@": 6483,
  "学员": 6484,
  "大批": 6485,
  "东亚": 6486,
  "赤贫": 6487,
  "ir@@": 6488,
  "常用": 6489,
  "1961": 6490,
  "师@@": 6491,
  "绿@@": 6492,
  "北约": 6493,
  "内战": 6494,
  "旅客": 6495,
  "对不起": 6496,
  "征@@": 6497,
  "Mar@@": 6498,
  "中方": 6499,
  "ec@@": 6500,
  "权力下放": 6501,
  "妥协": 6502,
  "嘴": 6503,
  "雇佣军": 6504,
  "深切": 6505,
  "孕产妇": 6506,
  "自行车": 6507,
  "货@@": 6508,
  "信件": 6509,
  "洗": 6510,
  "戏剧": 6511,
  "English": 6512,
  "杆": 6513,
  "欣赏": 6514,
  "海牙": 6515,
  "性骚扰": 6516,
  "哭": 6517,
  "不让": 6518,
  "曹@@": 6519,
  "前后": 6520,
  "硬@@": 6521,
  "这使": 6522,
  "二氧化碳": 6523,
  "益处": 6524,
  "中所": 6525,
  "sh@@": 6526,
  "镜": 6527,
  "学术界": 6528,
  "焦点": 6529,
  "章节": 6530,
  "40@@": 6531,
  "境况": 6532,
  "绳之以法": 6533,
  "穿过": 6534,
  "z": 6535,
  "关键问题": 6536,
  "股@@": 6537,
  "录音": 6538,
  "商务": 6539,
  "迷@@": 6540,
  "高层": 6541,
  "心中": 6542,
  "通告": 6543,
  "词@@": 6544,
  "启@@": 6545,
  "致命": 6546,
  "传媒": 6547,
  "姑娘": 6548,
  "连同": 6549,
  "余": 6550,
  "管理机构": 6551,
  "青": 6552,
  "秦@@": 6553,
  "所提": 6554,
  "载列": 6555,
  "难题": 6556,
  "细菌": 6557,
  "日历": 6558,
  "15%": 6559,
  "预防措施": 6560,
  "遵照": 6561,
  "产@@": 6562,
  "陆地": 6563,
  "轻松": 6564,
  "创@@": 6565,
  "无视": 6566,
  "Am@@": 6567,
  "第三@@": 6568,
  "私@@": 6569,
  "餐厅": 6570,
  "慷慨": 6571,
  "驾驶": 6572,
  "到期": 6573,
  "勇气": 6574,
  "总量": 6575,
  "um@@": 6576,
  "区域性": 6577,
  "毕业生": 6578,
  "年来": 6579,
  "调查团": 6580,
  "134": 6581,
  "甲基": 6582,
  "财务状况": 6583,
  "爵士": 6584,
  "峰": 6585,
  "衰退": 6586,
  "航空公司": 6587,
  "扶持": 6588,
  "标": 6589,
  "加紧努力": 6590,
  "氟": 6591,
  "不可或缺": 6592,
  "用水": 6593,
  "读书": 6594,
  "梁": 6595,
  "乙@@": 6596,
  "比尔": 6597,
  "重大进展": 6598,
  "延续": 6599,
  "运转": 6600,
  "输出": 6601,
  "独立宣言": 6602,
  "仪器": 6603,
  "全民投票": 6604,
  "停": 6605,
  "增设": 6606,
  "体验": 6607,
  "34@@": 6608,
  "制造业": 6609,
  "计@@": 6610,
  "身份证": 6611,
  "问@@": 6612,
  "富": 6613,
  "潘@@": 6614,
  "便是": 6615,
  "所致": 6616,
  "尼日尔": 6617,
  "隆@@": 6618,
  "补救措施": 6619,
  "据报": 6620,
  "忠": 6621,
  "36@@": 6622,
  "振@@": 6623,
  "跳@@": 6624,
  "然@@": 6625,
  "观看": 6626,
  "密": 6627,
  "码": 6628,
  "与会": 6629,
  "折@@": 6630,
  "le@@": 6631,
  "农药": 6632,
  "le": 6633,
  "叛乱": 6634,
  "［": 6635,
  "耳@@": 6636,
  "128": 6637,
  "–": 6638,
  "镇压": 6639,
  "后代": 6640,
  "欲": 6641,
  "射": 6642,
  "充当": 6643,
  "靠近": 6644,
  "公私": 6645,
  "柯@@": 6646,
  "占@@": 6647,
  "38@@": 6648,
  "尚书": 6649,
  "昌": 6650,
  "马拉维": 6651,
  "幅度": 6652,
  "麻": 6653,
  "三大": 6654,
  "基层": 6655,
  "不敢": 6656,
  "酶": 6657,
  "稿": 6658,
  "精力": 6659,
  "游泳": 6660,
  "照@@": 6661,
  "卖方": 6662,
  "惠益": 6663,
  "Distr": 6664,
  "季度": 6665,
  "撒": 6666,
  "孝@@": 6667,
  "好好": 6668,
  "多地": 6669,
  "洋@@": 6670,
  "昂贵": 6671,
  "民族和解": 6672,
  "成年": 6673,
  "op@@": 6674,
  "03": 6675,
  "153": 6676,
  "蛋白": 6677,
  "断@@": 6678,
  "1950": 6679,
  "37@@": 6680,
  "脸上": 6681,
  "色彩": 6682,
  "抽@@": 6683,
  "追回": 6684,
  "伴随": 6685,
  "琳": 6686,
  "故障": 6687,
  "乡@@": 6688,
  "呼吸": 6689,
  "所需": 6690,
  "主意": 6691,
  "伴侣": 6692,
  "小组讨论": 6693,
  "款额": 6694,
  "救@@": 6695,
  "房@@": 6696,
  "拨": 6697,
  "远离": 6698,
  "牧师": 6699,
  "Ar@@": 6700,
  "减": 6701,
  "3.1": 6702,
  "简介": 6703,
  "事务司": 6704,
  "固有": 6705,
  "摩@@": 6706,
  "空运": 6707,
  "费率": 6708,
  "瑞": 6709,
  "警卫": 6710,
  "左": 6711,
  "155": 6712,
  "分娩": 6713,
  "研究生": 6714,
  "防": 6715,
  "注射": 6716,
  "ie": 6717,
  "荣幸": 6718,
  "第十九条": 6719,
  "这座": 6720,
  "抵制": 6721,
  "联合国日内瓦办事处": 6722,
  "切割": 6723,
  "走私": 6724,
  "森@@": 6725,
  "脚@@": 6726,
  "ti@@": 6727,
  "播放": 6728,
  "回去": 6729,
  "农": 6730,
  "远程": 6731,
  "1540": 6732,
  "］": 6733,
  "校@@": 6734,
  "生产能力": 6735,
  "沿着": 6736,
  "样本": 6737,
  "拆除": 6738,
  "狂@@": 6739,
  "兼@@": 6740,
  "刺史": 6741,
  "高等法院": 6742,
  "138": 6743,
  "毒@@": 6744,
  "上周": 6745,
  "走进": 6746,
  "不适": 6747,
  "困扰": 6748,
  "突破": 6749,
  "流量": 6750,
  "电视剧": 6751,
  "惊讶": 6752,
  "126": 6753,
  "公寓": 6754,
  "顺": 6755,
  "浮@@": 6756,
  "电子@@": 6757,
  "维尔": 6758,
  "127": 6759,
  "棒": 6760,
  "磨@@": 6761,
  "外界": 6762,
  "最小": 6763,
  "债务人": 6764,
  "18.@@": 6765,
  "队长": 6766,
  "自信": 6767,
  "抢劫": 6768,
  "调集": 6769,
  "官长": 6770,
  "答应": 6771,
  "民用": 6772,
  "占领国": 6773,
  "之二": 6774,
  "简直": 6775,
  "阵地": 6776,
  "继@@": 6777,
  "友": 6778,
  "残@@": 6779,
  "ib@@": 6780,
  "乔": 6781,
  "婚礼": 6782,
  "17.@@": 6783,
  "一间": 6784,
  "1948": 6785,
  "恶@@": 6786,
  "命@@": 6787,
  "扣押": 6788,
  "柱": 6789,
  "策划": 6790,
  "极端主义": 6791,
  "列支敦士登": 6792,
  "庭长": 6793,
  "内外": 6794,
  "1945": 6795,
  "布朗": 6796,
  "中小型": 6797,
  "自治区": 6798,
  "判刑": 6799,
  "第一阶段": 6800,
  "古老": 6801,
  "丰@@": 6802,
  "形态": 6803,
  "宽": 6804,
  "到处": 6805,
  "此案": 6806,
  "约翰内斯堡": 6807,
  "经社": 6808,
  "可见": 6809,
  "窗口": 6810,
  "辅导": 6811,
  "各项规定": 6812,
  "反而": 6813,
  "相一致": 6814,
  "各种各样": 6815,
  "天然": 6816,
  "灵": 6817,
  "姓": 6818,
  "抚养": 6819,
  "aw@@": 6820,
  "非洲大陆": 6821,
  "智@@": 6822,
  "马尔代夫": 6823,
  "贩毒": 6824,
  "加重": 6825,
  "患有": 6826,
  "彭@@": 6827,
  "举报": 6828,
  "紧张局势": 6829,
  "ot@@": 6830,
  "1951": 6831,
  "排名": 6832,
  "穆罕默德": 6833,
  "承付": 6834,
  "金融市场": 6835,
  "影": 6836,
  "中央银行": 6837,
  "ir": 6838,
  "量@@": 6839,
  "助@@": 6840,
  "雨@@": 6841,
  "卡车": 6842,
  "第十三届": 6843,
  "悲剧": 6844,
  "黑色": 6845,
  "受益人": 6846,
  "夫妻": 6847,
  "春": 6848,
  "地名": 6849,
  "延伸": 6850,
  "哥本哈根": 6851,
  "休": 6852,
  "烟草": 6853,
  "正面": 6854,
  "广场": 6855,
  "背@@": 6856,
  "暂定": 6857,
  "违约": 6858,
  "70%": 6859,
  "幸存者": 6860,
  "无障碍": 6861,
  "朝着": 6862,
  "妮": 6863,
  "产假": 6864,
  "从前": 6865,
  "无辜": 6866,
  "牙@@": 6867,
  "不确定性": 6868,
  "os@@": 6869,
  "故@@": 6870,
  "第一条": 6871,
  "球季": 6872,
  "ra": 6873,
  "戏": 6874,
  "129": 6875,
  "几种": 6876,
  "侦查": 6877,
  "迈出": 6878,
  "久@@": 6879,
  "建制": 6880,
  "宽容": 6881,
  "拿出": 6882,
  "够": 6883,
  "黎@@": 6884,
  "相符": 6885,
  "桌子": 6886,
  "诗@@": 6887,
  "奴隶": 6888,
  "应是": 6889,
  "殴打": 6890,
  "60%": 6891,
  "吸毒": 6892,
  "ay": 6893,
  "胜@@": 6894,
  "借助": 6895,
  "蓝色": 6896,
  "投标": 6897,
  "泽": 6898,
  "法律顾问": 6899,
  "阵线": 6900,
  "宣@@": 6901,
  "á": 6902,
  "令@@": 6903,
  "Th@@": 6904,
  "弱": 6905,
  "多米尼加共和国": 6906,
  "参议院": 6907,
  "Q": 6908,
  "巴巴多斯": 6909,
  "这两项": 6910,
  "巴格达": 6911,
  "同期": 6912,
  "次年": 6913,
  "测@@": 6914,
  "城市化": 6915,
  "史密斯": 6916,
  "委任": 6917,
  "极为重要": 6918,
  "健康状况": 6919,
  "马达加斯加": 6920,
  "eg@@": 6921,
  "不必要": 6922,
  "造": 6923,
  "贴": 6924,
  "见面": 6925,
  "1969": 6926,
  "90%": 6927,
  "被控": 6928,
  "人身": 6929,
  "险": 6930,
  "回忆": 6931,
  "孤立": 6932,
  "生气": 6933,
  "ov": 6934,
  "对本": 6935,
  "资金来源": 6936,
  "遗@@": 6937,
  "动用": 6938,
  "明星": 6939,
  "免除": 6940,
  "判定": 6941,
  "击": 6942,
  "矿物": 6943,
  "养老金": 6944,
  "订": 6945,
  "波多黎各": 6946,
  "浏览": 6947,
  "改动": 6948,
  "了@@": 6949,
  "沉重": 6950,
  "谢": 6951,
  "丝@@": 6952,
  "坦@@": 6953,
  "感@@": 6954,
  "各州": 6955,
  "附注": 6956,
  "划拨": 6957,
  "链": 6958,
  "市@@": 6959,
  "法外": 6960,
  "三方": 6961,
  "反复": 6962,
  "可疑": 6963,
  "同情": 6964,
  "犯人": 6965,
  "缴付": 6966,
  "这会": 6967,
  "链接": 6968,
  "使人": 6969,
  "休@@": 6970,
  "致@@": 6971,
  "刚@@": 6972,
  "号法": 6973,
  "il": 6974,
  "可怜": 6975,
  "良心": 6976,
  "太阳能": 6977,
  "宪法法院": 6978,
  "马丁": 6979,
  "毒性": 6980,
  "人选": 6981,
  "挂钩": 6982,
  "教育权": 6983,
  "急@@": 6984,
  "廷": 6985,
  "六月": 6986,
  "总裁": 6987,
  "英译汉": 6988,
  "兼顾": 6989,
  "高达": 6990,
  "在职": 6991,
  "修理": 6992,
  "裁减": 6993,
  "独立国家": 6994,
  "宫@@": 6995,
  "侯": 6996,
  "再也": 6997,
  "蔬菜": 6998,
  "雪": 6999,
  "响": 7000,
  "裁判": 7001,
  "TD": 7002,
  "入选": 7003,
  "战略性": 7004,
  "妇女组织": 7005,
  "水果": 7006,
  "隐@@": 7007,
  "街道": 7008,
  "欧洲共同体": 7009,
  "作出反应": 7010,
  "心脏": 7011,
  "孤儿": 7012,
  "博茨瓦纳": 7013,
  "更是": 7014,
  "第五十四届": 7015,
  "全国性": 7016,
  "执政": 7017,
  "虚@@": 7018,
  "便宜": 7019,
  "前所未有": 7020,
  "父@@": 7021,
  "流动性": 7022,
  "区域间": 7023,
  "ina": 7024,
  "联苏": 7025,
  "生命权": 7026,
  "最早": 7027,
  "UN@@": 7028,
  "柏@@": 7029,
  "偏@@": 7030,
  "八个": 7031,
  "编入": 7032,
  "目@@": 7033,
  "拘押": 7034,
  "柏林": 7035,
  "意志": 7036,
  "上市": 7037,
  "毫不": 7038,
  "讲座": 7039,
  "奴役": 7040,
  "石头": 7041,
  "io": 7042,
  "往来": 7043,
  "充分考虑": 7044,
  "终身": 7045,
  "新增": 7046,
  "逃离": 7047,
  "译": 7048,
  "疗法": 7049,
  "部件": 7050,
  "良": 7051,
  "款@@": 7052,
  "息": 7053,
  "135": 7054,
  "探@@": 7055,
  "令人遗憾": 7056,
  "文化遗产": 7057,
  "指引": 7058,
  "他于": 7059,
  "血液": 7060,
  "查看": 7061,
  "闭幕": 7062,
  "132": 7063,
  "房舍": 7064,
  "之类": 7065,
  "厚": 7066,
  "保护措施": 7067,
  "心灵": 7068,
  "待@@": 7069,
  "插入": 7070,
  "迁": 7071,
  "ard": 7072,
  "侧重": 7073,
  "隔离墙": 7074,
  "胁迫": 7075,
  "罢工": 7076,
  "秋@@": 7077,
  "长期以来": 7078,
  "二人": 7079,
  "麻@@": 7080,
  "服务业": 7081,
  "在场": 7082,
  "诗人": 7083,
  "矿@@": 7084,
  "性格": 7085,
  "早年": 7086,
  "移@@": 7087,
  "原文": 7088,
  "戈兰": 7089,
  "差@@": 7090,
  "电池": 7091,
  "闻": 7092,
  "氯化": 7093,
  "约定": 7094,
  "睡眠": 7095,
  "孙": 7096,
  "几项": 7097,
  "词汇": 7098,
  "不丹": 7099,
  "机器人": 7100,
  "限额": 7101,
  "An@@": 7102,
  "经典": 7103,
  "秒": 7104,
  "课题": 7105,
  "干部": 7106,
  "遥感": 7107,
  "替换": 7108,
  "征得": 7109,
  "九年": 7110,
  "一体": 7111,
  "可爱": 7112,
  "39@@": 7113,
  "接种": 7114,
  "社团": 7115,
  "形状": 7116,
  "ation": 7117,
  "五月": 7118,
  "133": 7119,
  "牙": 7120,
  "展现": 7121,
  "源自": 7122,
  "联委会": 7123,
  "杜": 7124,
  "只不过": 7125,
  "匹配": 7126,
  "恐怕": 7127,
  "冲": 7128,
  "消@@": 7129,
  "海啸": 7130,
  "不法行为": 7131,
  "地向": 7132,
  "科学研究": 7133,
  "呼@@": 7134,
  "决定性": 7135,
  "伊拉克政府": 7136,
  "分组": 7137,
  "睡觉": 7138,
  "积@@": 7139,
  "阿拉伯国家联盟": 7140,
  "支撑": 7141,
  "复": 7142,
  "v": 7143,
  "深感": 7144,
  "体内": 7145,
  "葬": 7146,
  "乐队": 7147,
  "轻": 7148,
  "id": 7149,
  "2.2": 7150,
  "认知": 7151,
  "联合国人口基金": 7152,
  "政治@@": 7153,
  "呈现": 7154,
  "获准": 7155,
  "很小": 7156,
  "The": 7157,
  "太子": 7158,
  "雄": 7159,
  "矿": 7160,
  "互助": 7161,
  "用语": 7162,
  "素质": 7163,
  "易于": 7164,
  "强劲": 7165,
  "努@@": 7166,
  "偷运": 7167,
  "深化": 7168,
  "拿到": 7169,
  "亿元": 7170,
  "与@@": 7171,
  "主管机构": 7172,
  "填写": 7173,
  "不可分割": 7174,
  "罗斯": 7175,
  "联网": 7176,
  "特别法庭": 7177,
  "寄@@": 7178,
  "派@@": 7179,
  "四月": 7180,
  "交谈": 7181,
  "心情": 7182,
  "量化": 7183,
  "仿真": 7184,
  "位@@": 7185,
  "道理": 7186,
  "民政": 7187,
  "法典": 7188,
  "酸@@": 7189,
  "胶@@": 7190,
  "斡旋": 7191,
  "遵约": 7192,
  "喜@@": 7193,
  "短暂": 7194,
  "无数": 7195,
  "一度": 7196,
  "暴露": 7197,
  "热带": 7198,
  "态": 7199,
  "PC": 7200,
  "备@@": 7201,
  "00@@": 7202,
  "载@@": 7203,
  "演": 7204,
  "面试": 7205,
  "号@@": 7206,
  "灰@@": 7207,
  "一向": 7208,
  "业@@": 7209,
  "连贯": 7210,
  "过时": 7211,
  "传达": 7212,
  "人称": 7213,
  "旅": 7214,
  "讲述": 7215,
  "四川": 7216,
  "1.2": 7217,
  "卢": 7218,
  "盘@@": 7219,
  "二级": 7220,
  "述及": 7221,
  "多重": 7222,
  "五十@@": 7223,
  "跟随": 7224,
  "项@@": 7225,
  "ud@@": 7226,
  "麻醉品": 7227,
  "薄弱": 7228,
  "170": 7229,
  "敏": 7230,
  "出席会议": 7231,
  "签约": 7232,
  "潮": 7233,
  "多人": 7234,
  "19.@@": 7235,
  "社会@@": 7236,
  "拘禁": 7237,
  "东方": 7238,
  "陵": 7239,
  "沈@@": 7240,
  "百万": 7241,
  "早些时候": 7242,
  "观@@": 7243,
  "自主权": 7244,
  "大程度": 7245,
  "３": 7246,
  "蓄意": 7247,
  "物流": 7248,
  "吃饭": 7249,
  "长度": 7250,
  "营销": 7251,
  "冯@@": 7252,
  "主教": 7253,
  "容器": 7254,
  "显@@": 7255,
  "度@@": 7256,
  "一把": 7257,
  "交叉": 7258,
  "有毒": 7259,
  "历@@": 7260,
  "足@@": 7261,
  "af@@": 7262,
  "震@@": 7263,
  "时应": 7264,
  "一致意见": 7265,
  "创伤": 7266,
  "家乡": 7267,
  "按时": 7268,
  "第一款": 7269,
  "疑问": 7270,
  "佐@@": 7271,
  "帕": 7272,
  "惊人": 7273,
  "早就": 7274,
  "19@@": 7275,
  "轴": 7276,
  "拖欠": 7277,
  "种@@": 7278,
  "早已": 7279,
  "ob@@": 7280,
  "幼儿": 7281,
  "群@@": 7282,
  "大会决议": 7283,
  "算@@": 7284,
  "圭亚那": 7285,
  "　": 7286,
  "暗示": 7287,
  "毛里塔尼亚": 7288,
  "采取任何": 7289,
  "生日": 7290,
  "各省": 7291,
  "182": 7292,
  "在此期间": 7293,
  "富裕": 7294,
  "奉@@": 7295,
  "尺寸": 7296,
  "发病率": 7297,
  "紧": 7298,
  "第一位": 7299,
  "射@@": 7300,
  "信誉": 7301,
  "交易所": 7302,
  "公然": 7303,
  "疡": 7304,
  "�": 7305,
  "浙江": 7306,
  "东北": 7307,
  "公爵": 7308,
  "人工": 7309,
  "太空": 7310,
  "菲": 7311,
  "年份": 7312,
  "GDP": 7313,
  "供应链": 7314,
  "钢@@": 7315,
  "通知书": 7316,
  "分区": 7317,
  "去@@": 7318,
  "招标": 7319,
  "僵局": 7320,
  "多方": 7321,
  "生产者": 7322,
  "名誉": 7323,
  "不明": 7324,
  "庆": 7325,
  "布雷顿": 7326,
  "空军": 7327,
  "不可避免": 7328,
  "舍": 7329,
  "高度重视": 7330,
  "崔@@": 7331,
  "订单": 7332,
  "车队": 7333,
  "class": 7334,
  "八届": 7335,
  "ani": 7336,
  "托管": 7337,
  "调查表": 7338,
  "下滑": 7339,
  "拍卖": 7340,
  "136": 7341,
  "大国": 7342,
  "似的": 7343,
  "通胀": 7344,
  "孟@@": 7345,
  "上班": 7346,
  "同一个": 7347,
  "第三章": 7348,
  "57@@": 7349,
  "朗@@": 7350,
  "48@@": 7351,
  "吸取": 7352,
  "众@@": 7353,
  "保卫": 7354,
  "撒@@": 7355,
  "第八": 7356,
  "历": 7357,
  "冒险": 7358,
  "瓶": 7359,
  "努力实现": 7360,
  "高效率": 7361,
  "列表": 7362,
  "绝不": 7363,
  "全额": 7364,
  "多边贸易": 7365,
  "虚拟": 7366,
  "传感器": 7367,
  "开车": 7368,
  "罪名": 7369,
  "就@@": 7370,
  "否定": 7371,
  "约会": 7372,
  "无力": 7373,
  "〇": 7374,
  "致力": 7375,
  "驻@@": 7376,
  "弗": 7377,
  "严肃": 7378,
  "迫切": 7379,
  "医疗保险": 7380,
  "液体": 7381,
  "拖@@": 7382,
  "营@@": 7383,
  "单曲": 7384,
  "硬件": 7385,
  "从不": 7386,
  "谱": 7387,
  "仓库": 7388,
  "发育": 7389,
  "殿": 7390,
  "今@@": 7391,
  "忧虑": 7392,
  "空白": 7393,
  "哪@@": 7394,
  "性别歧视": 7395,
  "派驻": 7396,
  "制备": 7397,
  "勇敢": 7398,
  "X@@": 7399,
  "三天": 7400,
  "当事": 7401,
  "开心": 7402,
  "鹿特丹": 7403,
  "审核": 7404,
  "兑现": 7405,
  "拍@@": 7406,
  "贤": 7407,
  "第十条": 7408,
  "非洲人": 7409,
  "旁": 7410,
  "被判": 7411,
  "央行": 7412,
  "从此": 7413,
  "面包": 7414,
  "优@@": 7415,
  "艰苦": 7416,
  "源于": 7417,
  "谈谈": 7418,
  "该次": 7419,
  "告@@": 7420,
  "地质": 7421,
  "健@@": 7422,
  "祖": 7423,
  "彩@@": 7424,
  "深度": 7425,
  "着@@": 7426,
  "样品": 7427,
  "家伙": 7428,
  "军备竞赛": 7429,
  "金牌": 7430,
  "接替": 7431,
  "古代": 7432,
  "贯彻": 7433,
  "严格遵守": 7434,
  "庭": 7435,
  "关岛": 7436,
  "交存": 7437,
  "祖国": 7438,
  "ek@@": 7439,
  "送给": 7440,
  "赤字": 7441,
  "负面": 7442,
  "131": 7443,
  "桥梁": 7444,
  "赐": 7445,
  "生产性": 7446,
  "北美": 7447,
  "增效": 7448,
  "年内": 7449,
  "声援": 7450,
  "日常生活": 7451,
  "im": 7452,
  "军方": 7453,
  "大使馆": 7454,
  "系@@": 7455,
  "岗位": 7456,
  "仅@@": 7457,
  "CO": 7458,
  "征": 7459,
  "明朝": 7460,
  "行李": 7461,
  "141": 7462,
  "临": 7463,
  "皇@@": 7464,
  "下属": 7465,
  "告": 7466,
  "未决": 7467,
  "行政长官": 7468,
  "研究员": 7469,
  "没什么": 7470,
  "外来": 7471,
  "第六十六": 7472,
  "姐姐": 7473,
  "震惊": 7474,
  "号码": 7475,
  "1946": 7476,
  "卖@@": 7477,
  "ch": 7478,
  "南北": 7479,
  "猪": 7480,
  "亚的斯亚贝巴": 7481,
  "宣读": 7482,
  "搜查": 7483,
  "三月": 7484,
  "毒": 7485,
  "保持一致": 7486,
  "栏": 7487,
  "ent@@": 7488,
  "露": 7489,
  "京": 7490,
  "附表": 7491,
  "应收款": 7492,
  "免@@": 7493,
  "锡": 7494,
  "点击": 7495,
  "经常性": 7496,
  "同步": 7497,
  "复审": 7498,
  "两周": 7499,
  "众所周知": 7500,
  "差旅": 7501,
  "之子": 7502,
  "饮料": 7503,
  "认@@": 7504,
  "俩": 7505,
  "问卷": 7506,
  "主义者": 7507,
  "小规模": 7508,
  "董事长": 7509,
  "伊斯坦布尔": 7510,
  "差不多": 7511,
  "急剧": 7512,
  "弹性": 7513,
  "品种": 7514,
  "扶贫": 7515,
  "航": 7516,
  "服@@": 7517,
  "牛奶": 7518,
  "自卫": 7519,
  "欢@@": 7520,
  "名叫": 7521,
  "省级": 7522,
  "大厦": 7523,
  "创意": 7524,
  "措词": 7525,
  "居留": 7526,
  "非统组织": 7527,
  "摩尔多瓦共和国": 7528,
  "句子": 7529,
  "贵国": 7530,
  "预审": 7531,
  "探测": 7532,
  "竞赛": 7533,
  "纯@@": 7534,
  "般": 7535,
  "神圣": 7536,
  "禁@@": 7537,
  "航班": 7538,
  "吸@@": 7539,
  "投降": 7540,
  "47@@": 7541,
  "减灾": 7542,
  "卿": 7543,
  "尔斯": 7544,
  "展@@": 7545,
  "陪同": 7546,
  "德尔": 7547,
  "论@@": 7548,
  "以免": 7549,
  "枪@@": 7550,
  "七月": 7551,
  "征税": 7552,
  "舒适": 7553,
  "az@@": 7554,
  "ST": 7555,
  "佛": 7556,
  "季节": 7557,
  "联合行动": 7558,
  "里程碑": 7559,
  "蛋": 7560,
  "密度": 7561,
  "省份": 7562,
  "贵族": 7563,
  "qu@@": 7564,
  "郎": 7565,
  "暴行": 7566,
  "发动机": 7567,
  "板@@": 7568,
  "讨厌": 7569,
  "怕": 7570,
  "内心": 7571,
  "住宿": 7572,
  "被害人": 7573,
  "在家": 7574,
  "卒": 7575,
  "不可@@": 7576,
  "几位": 7577,
  "创": 7578,
  "执行机构": 7579,
  "答辩": 7580,
  "杀@@": 7581,
  "洪水": 7582,
  "舞": 7583,
  "保险公司": 7584,
  "噢": 7585,
  "资讯科技": 7586,
  "169": 7587,
  "中立": 7588,
  "多元化": 7589,
  "餐": 7590,
  "小册子": 7591,
  "一颗": 7592,
  "乌": 7593,
  "142": 7594,
  "社交": 7595,
  "叫做": 7596,
  "什@@": 7597,
  "川@@": 7598,
  "Ad@@": 7599,
  "港@@": 7600,
  "榜": 7601,
  "战略方针": 7602,
  "赢": 7603,
  "承担责任": 7604,
  "专注": 7605,
  "不停": 7606,
  "幅": 7607,
  "屠杀": 7608,
  "1963": 7609,
  "国有": 7610,
  "环境影响": 7611,
  "玩具": 7612,
  "软": 7613,
  "索取": 7614,
  "天使": 7615,
  "汗": 7616,
  "弱点": 7617,
  "供给": 7618,
  "扫描": 7619,
  "疯狂": 7620,
  "诚实": 7621,
  "伯爵": 7622,
  "犯罪活动": 7623,
  "共和党": 7624,
  "汲取": 7625,
  "锻炼": 7626,
  "网络@@": 7627,
  "揭示": 7628,
  "令人@@": 7629,
  "杀人": 7630,
  "3.2": 7631,
  "飞离": 7632,
  "便利化": 7633,
  "ong": 7634,
  "出场": 7635,
  "立法机构": 7636,
  "走上": 7637,
  "同性恋": 7638,
  "容@@": 7639,
  "变为": 7640,
  "刑事犯罪": 7641,
  "强行": 7642,
  "愿景": 7643,
  "举@@": 7644,
  "历史性": 7645,
  "另@@": 7646,
  "百姓": 7647,
  "大麻": 7648,
  "装饰": 7649,
  "尤为": 7650,
  "生产率": 7651,
  "种群": 7652,
  "节日": 7653,
  "20.@@": 7654,
  "移": 7655,
  "合办": 7656,
  "速": 7657,
  "注销": 7658,
  "茶@@": 7659,
  "视角": 7660,
  "朝廷": 7661,
  "139": 7662,
  "部长会议": 7663,
  "哥@@": 7664,
  "沙特": 7665,
  "俄国": 7666,
  "懂得": 7667,
  "剑": 7668,
  "陶@@": 7669,
  "干净": 7670,
  "族群": 7671,
  "ev@@": 7672,
  "素@@": 7673,
  "裁撤": 7674,
  "中央政府": 7675,
  "统计资料": 7676,
  "着眼于": 7677,
  "监@@": 7678,
  "红十字": 7679,
  "强制执行": 7680,
  "动画": 7681,
  "锁": 7682,
  "构造": 7683,
  "肯": 7684,
  "众议院": 7685,
  "oc@@": 7686,
  "管理部": 7687,
  "罗伯特": 7688,
  "经由": 7689,
  "战略规划": 7690,
  "药物滥用": 7691,
  "í": 7692,
  "选择性": 7693,
  "现况": 7694,
  "相辅相成": 7695,
  "相互作用": 7696,
  "令人鼓舞": 7697,
  "饭店": 7698,
  "143": 7699,
  "社会保险": 7700,
  "外汇": 7701,
  "限制性": 7702,
  "EC": 7703,
  "前途": 7704,
  "雇佣": 7705,
  "磁@@": 7706,
  "丧生": 7707,
  "传输": 7708,
  "沉@@": 7709,
  "有效率": 7710,
  "坚@@": 7711,
  "软@@": 7712,
  "平等权利": 7713,
  "ang@@": 7714,
  "肇事者": 7715,
  "变量": 7716,
  "参议员": 7717,
  "消耗性": 7718,
  "亲王": 7719,
  "５": 7720,
  "刊登": 7721,
  "财政年度": 7722,
  "出入": 7723,
  "营业": 7724,
  "兵力": 7725,
  "145": 7726,
  "潜能": 7727,
  "发言稿": 7728,
  "暴力事件": 7729,
  "辞": 7730,
  "以色列政府": 7731,
  "承包者": 7732,
  "退役": 7733,
  "收获": 7734,
  "欧元区": 7735,
  "混凝土": 7736,
  "仍@@": 7737,
  "162": 7738,
  "ic": 7739,
  "仲@@": 7740,
  "道歉": 7741,
  "莎": 7742,
  "念": 7743,
  "氢": 7744,
  "置": 7745,
  "烧@@": 7746,
  "肿瘤": 7747,
  "智能": 7748,
  "协商会议": 7749,
  "沃": 7750,
  "撞": 7751,
  "市场经济": 7752,
  "曲线": 7753,
  "党派": 7754,
  "配": 7755,
  "套@@": 7756,
  "印尼": 7757,
  "技术性": 7758,
  "委@@": 7759,
  "详细资料": 7760,
  "英镑": 7761,
  "定性": 7762,
  "升任": 7763,
  "存放": 7764,
  "考验": 7765,
  "钟": 7766,
  "学年": 7767,
  "ers": 7768,
  "飞越": 7769,
  "137": 7770,
  "4000": 7771,
  "第二十届": 7772,
  "乳@@": 7773,
  "感激": 7774,
  "宜@@": 7775,
  "余留": 7776,
  "邮@@": 7777,
  "很长": 7778,
  "速@@": 7779,
  "免于": 7780,
  "龄": 7781,
  "第二十三届": 7782,
  "加蓬": 7783,
  "角@@": 7784,
  "钟@@": 7785,
  "妃": 7786,
  "徒刑": 7787,
  "注入": 7788,
  "宽@@": 7789,
  "土著居民": 7790,
  "基本@@": 7791,
  "管理工作": 7792,
  "保护区": 7793,
  "166": 7794,
  "综述": 7795,
  "传送": 7796,
  "我方": 7797,
  "AR@@": 7798,
  "杨": 7799,
  "尾@@": 7800,
  "步伐": 7801,
  "露@@": 7802,
  "100%": 7803,
  "伤@@": 7804,
  "原子": 7805,
  "ć": 7806,
  "随即": 7807,
  "纯粹": 7808,
  "厨房": 7809,
  "阵": 7810,
  "原有": 7811,
  "而定": 7812,
  "第八条": 7813,
  "144": 7814,
  "贝尔": 7815,
  "功": 7816,
  "1966": 7817,
  "二苯醚": 7818,
  "市政": 7819,
  "PV": 7820,
  "原件": 7821,
  "多方面": 7822,
  "器官": 7823,
  "塑料": 7824,
  "时尚": 7825,
  "昭@@": 7826,
  "反叛": 7827,
  "真理": 7828,
  "一并": 7829,
  "重量": 7830,
  "发表意见": 7831,
  "现时": 7832,
  "你@@": 7833,
  "盈余": 7834,
  "高等": 7835,
  "隐藏": 7836,
  "民航": 7837,
  "尽量减少": 7838,
  "1500": 7839,
  "灭": 7840,
  "完@@": 7841,
  "授@@": 7842,
  "身心": 7843,
  "泡沫": 7844,
  "置@@": 7845,
  "停留": 7846,
  "寻@@": 7847,
  "一台": 7848,
  "教材": 7849,
  "禁产": 7850,
  "公职人员": 7851,
  "承办": 7852,
  "赋权": 7853,
  "抓": 7854,
  "日刊": 7855,
  "附有": 7856,
  "疗效": 7857,
  "顾@@": 7858,
  "基线": 7859,
  "视觉": 7860,
  "Car@@": 7861,
  "万名": 7862,
  "检讨": 7863,
  "明智": 7864,
  "推": 7865,
  "新闻稿": 7866,
  "多元": 7867,
  "密切相关": 7868,
  "一对": 7869,
  "借@@": 7870,
  "外交政策": 7871,
  "跨部门": 7872,
  "世界粮食计划署": 7873,
  "终@@": 7874,
  "咱们": 7875,
  "近来": 7876,
  "搬": 7877,
  "医@@": 7878,
  "事务所": 7879,
  "习惯法": 7880,
  "传染性": 7881,
  "门口": 7882,
  "组件": 7883,
  "旋转": 7884,
  "2.5": 7885,
  "四名": 7886,
  "环境卫生": 7887,
  "生物武器": 7888,
  "控制@@": 7889,
  "受益者": 7890,
  "不限": 7891,
  "不利于": 7892,
  "活性": 7893,
  "舞蹈": 7894,
  "毒素": 7895,
  "战士": 7896,
  "窗户": 7897,
  "品@@": 7898,
  "ow@@": 7899,
  "济": 7900,
  "直布罗陀": 7901,
  "上去": 7902,
  "最低工资": 7903,
  "铲除": 7904,
  "薄@@": 7905,
  "情节": 7906,
  "大致": 7907,
  "危险废物": 7908,
  "依赖于": 7909,
  "九月": 7910,
  "五名": 7911,
  "犯罪者": 7912,
  "产物": 7913,
  "全新": 7914,
  "对照": 7915,
  "1968": 7916,
  "战略目标": 7917,
  "IN@@": 7918,
  "总会": 7919,
  "毁坏": 7920,
  "控告": 7921,
  "十七届": 7922,
  "山东": 7923,
  "春天": 7924,
  "财力": 7925,
  "第九": 7926,
  "体育@@": 7927,
  "发展部": 7928,
  "军区": 7929,
  "总局": 7930,
  "寿@@": 7931,
  "146": 7932,
  "Ma@@": 7933,
  "58@@": 7934,
  "宣告": 7935,
  "": 7936,
  "土地利用": 7937,
  "爬": 7938,
  "柳@@": 7939,
  "女王": 7940,
  "联合国粮食及农业组织": 7941,
  "235": 7942,
  "毁": 7943,
  "材": 7944,
  "注明": 7945,
  "放缓": 7946,
  "急性": 7947,
  "220": 7948,
  "鲍@@": 7949,
  "波恩": 7950,
  "大胆": 7951,
  "货币基金": 7952,
  "仆人": 7953,
  "休假": 7954,
  "人口普查": 7955,
  "环节": 7956,
  "安全@@": 7957,
  "剂量": 7958,
  "树立": 7959,
  "这句": 7960,
  "偷@@": 7961,
  "阿里": 7962,
  "激发": 7963,
  "安全性": 7964,
  "上网": 7965,
  "选票": 7966,
  "端@@": 7967,
  "这点": 7968,
  "累@@": 7969,
  "分项": 7970,
  "筹备会议": 7971,
  "规格": 7972,
  "互@@": 7973,
  "书记官": 7974,
  "等到": 7975,
  "老鼠": 7976,
  "所定": 7977,
  "专": 7978,
  "前来": 7979,
  "联合国安全理事会": 7980,
  "场@@": 7981,
  "瘤": 7982,
  "新闻界": 7983,
  "逃@@": 7984,
  "初始": 7985,
  "劳动法": 7986,
  "学家": 7987,
  "谈@@": 7988,
  "北京@@": 7989,
  "届满": 7990,
  "Bar@@": 7991,
  "成千上万": 7992,
  "46@@": 7993,
  "嗯": 7994,
  "职业生涯": 7995,
  "光绪": 7996,
  "笔@@": 7997,
  "浅@@": 7998,
  "异": 7999,
  "甚": 8000,
  "汇": 8001,
  "简短": 8002,
  "慢": 8003,
  "高速": 8004,
  "媒介": 8005,
  "途中": 8006,
  "舆论": 8007,
  "草拟": 8008,
  "实况": 8009,
  "后期": 8010,
  "特许": 8011,
  "研训": 8012,
  "施": 8013,
  "审视": 8014,
  "演@@": 8015,
  "个性": 8016,
  "扭曲": 8017,
  "服从": 8018,
  "侵权行为": 8019,
  "糖尿病": 8020,
  "实时": 8021,
  "汤": 8022,
  "大于": 8023,
  "请愿": 8024,
  "第六十": 8025,
  "功@@": 8026,
  "略@@": 8027,
  "阿布哈兹": 8028,
  "密码": 8029,
  "推定": 8030,
  "49@@": 8031,
  "操纵": 8032,
  "解放军": 8033,
  "也就是说": 8034,
  "第十二条": 8035,
  "上限": 8036,
  "百万美元": 8037,
  "时光": 8038,
  "一职": 8039,
  "死去": 8040,
  "阿曼": 8041,
  "某种程度": 8042,
  "附带": 8043,
  "河流": 8044,
  "汤@@": 8045,
  "首位": 8046,
  "获释": 8047,
  "手里": 8048,
  "邻居": 8049,
  "国家计划": 8050,
  "刻": 8051,
  "编码": 8052,
  "划@@": 8053,
  "基督": 8054,
  "线路": 8055,
  "技术@@": 8056,
  "火器": 8057,
  "捕鱼": 8058,
  "独自": 8059,
  "仅限于": 8060,
  "156": 8061,
  "纯": 8062,
  "开罗": 8063,
  "必要条件": 8064,
  "大声": 8065,
  "审批": 8066,
  "二十年": 8067,
  "支票": 8068,
  "III": 8069,
  "ana": 8070,
  "输@@": 8071,
  "科学@@": 8072,
  "女工": 8073,
  "Kh@@": 8074,
  "性健康": 8075,
  "诸": 8076,
  "背": 8077,
  "中欧": 8078,
  "司法程序": 8079,
  "嫌疑人": 8080,
  "人会": 8081,
  "行政@@": 8082,
  "争@@": 8083,
  "领事": 8084,
  "含水层": 8085,
  "尔德": 8086,
  "率@@": 8087,
  "社@@": 8088,
  "欠": 8089,
  "保养": 8090,
  "有形": 8091,
  "继续加强": 8092,
  "喷@@": 8093,
  "宗教信仰": 8094,
  "固@@": 8095,
  "147": 8096,
  "麦": 8097,
  "出资": 8098,
  "享年": 8099,
  "购物": 8100,
  "漫长": 8101,
  "耳": 8102,
  "红十字会": 8103,
  "汽油": 8104,
  "院@@": 8105,
  "沮丧": 8106,
  "特派": 8107,
  "大夫": 8108,
  "汇@@": 8109,
  "羊": 8110,
  "垂@@": 8111,
  "避孕": 8112,
  "鬼": 8113,
  "湖@@": 8114,
  "长远": 8115,
  "剪@@": 8116,
  "局部": 8117,
  "生物@@": 8118,
  "民主化": 8119,
  "充@@": 8120,
  "冷战": 8121,
  "误解": 8122,
  "冬天": 8123,
  "金融服务": 8124,
  "转入": 8125,
  "总经理": 8126,
  "前者": 8127,
  "树木": 8128,
  "弄@@": 8129,
  "定价": 8130,
  "157": 8131,
  "法制": 8132,
  "表述": 8133,
  "负@@": 8134,
  "额@@": 8135,
  "片@@": 8136,
  "插@@": 8137,
  "60@@": 8138,
  "奖项": 8139,
  "常任理事": 8140,
  "智力": 8141,
  "天内": 8142,
  "走出": 8143,
  "第四@@": 8144,
  "幼@@": 8145,
  "八月": 8146,
  "迈克尔": 8147,
  "堆": 8148,
  "飓风": 8149,
  "娶": 8150,
  "博士学位": 8151,
  "退": 8152,
  "金伯利": 8153,
  "登上": 8154,
  "紧缩": 8155,
  "系统性": 8156,
  "炉": 8157,
  "胆@@": 8158,
  "保守": 8159,
  "文盲": 8160,
  "已知": 8161,
  "累计": 8162,
  "估值": 8163,
  "暂@@": 8164,
  "暴@@": 8165,
  "加紧": 8166,
  "坦桑尼亚": 8167,
  "英尺": 8168,
  "最长": 8169,
  "长子": 8170,
  "交通@@": 8171,
  "CO@@": 8172,
  "函": 8173,
  "应计": 8174,
  "航@@": 8175,
  "总之": 8176,
  "第四章": 8177,
  "事后": 8178,
  "建成": 8179,
  "联大": 8180,
  "粉@@": 8181,
  "活着": 8182,
  "失": 8183,
  "演奏": 8184,
  "总监": 8185,
  "紫@@": 8186,
  "私有化": 8187,
  "实习": 8188,
  "拥挤": 8189,
  "饮水": 8190,
  "唱@@": 8191,
  "免": 8192,
  "国民党": 8193,
  "切实有效": 8194,
  "昨日": 8195,
  "不同于": 8196,
  "壁": 8197,
  "帮忙": 8198,
  "无意": 8199,
  "定稿": 8200,
  "日本政府": 8201,
  "省委": 8202,
  "受到限制": 8203,
  "缺@@": 8204,
  "不敌": 8205,
  "缔约": 8206,
  "健康权": 8207,
  "革新": 8208,
  "函件": 8209,
  "270": 8210,
  "座位": 8211,
  "崇@@": 8212,
  "指望": 8213,
  "结构调整": 8214,
  "静": 8215,
  "粗@@": 8216,
  "餐馆": 8217,
  "iz@@": 8218,
  "圣诞节": 8219,
  "象@@": 8220,
  "示@@": 8221,
  "昌@@": 8222,
  "贵@@": 8223,
  "联络小组": 8224,
  "欺骗": 8225,
  "son": 8226,
  "ang": 8227,
  "210": 8228,
  "渐渐": 8229,
  "找@@": 8230,
  "跨越": 8231,
  "绘画": 8232,
  "一声": 8233,
  "ip@@": 8234,
  "自豪": 8235,
  "勋章": 8236,
  "1958": 8237,
  "犹太": 8238,
  "欧": 8239,
  "资发": 8240,
  "贿赂": 8241,
  "信用证": 8242,
  "新生儿": 8243,
  "祝": 8244,
  "走廊": 8245,
  "身分": 8246,
  "59@@": 8247,
  "附@@": 8248,
  "采集": 8249,
  "监护人": 8250,
  "詹姆斯": 8251,
  "选区": 8252,
  "卷@@": 8253,
  "脂肪": 8254,
  "诚": 8255,
  "发票": 8256,
  "竞争性": 8257,
  "创造性": 8258,
  "南斯拉夫联盟共和国": 8259,
  "基础教育": 8260,
  "京@@": 8261,
  "下届": 8262,
  "个人@@": 8263,
  "大门": 8264,
  "称之为": 8265,
  "志愿者": 8266,
  "该处": 8267,
  "银": 8268,
  "基石": 8269,
  "关键因素": 8270,
  "最具": 8271,
  "助": 8272,
  "ter": 8273,
  "过多": 8274,
  "降至": 8275,
  "出庭": 8276,
  "路径": 8277,
  "冠@@": 8278,
  "分析师": 8279,
  "流域": 8280,
  "IS@@": 8281,
  "只好": 8282,
  "培训中心": 8283,
  "职@@": 8284,
  "起义": 8285,
  "议": 8286,
  "触@@": 8287,
  "旗": 8288,
  "答": 8289,
  "飘@@": 8290,
  "鸡": 8291,
  "业主": 8292,
  "魅力": 8293,
  "战术": 8294,
  "钥匙": 8295,
  "星期六": 8296,
  "太多": 8297,
  "不论是": 8298,
  "日向": 8299,
  "租@@": 8300,
  "工业@@": 8301,
  "益@@": 8302,
  "疼痛": 8303,
  "一节": 8304,
  "脑": 8305,
  "两家": 8306,
  "首个": 8307,
  "之友": 8308,
  "结核病": 8309,
  "坦": 8310,
  "这条": 8311,
  "九个": 8312,
  "同盟": 8313,
  "第二款": 8314,
  "肌肉": 8315,
  "154": 8316,
  "显而易见": 8317,
  "二月": 8318,
  "为例": 8319,
  "水域": 8320,
  "商业@@": 8321,
  "监督机构": 8322,
  "雷达": 8323,
  "硬": 8324,
  "贸易协定": 8325,
  "头脑": 8326,
  "ey": 8327,
  "列报": 8328,
  "56@@": 8329,
  "汁": 8330,
  "不行": 8331,
  "慢性": 8332,
  "程@@": 8333,
  "战后": 8334,
  "电视节目": 8335,
  "温暖": 8336,
  "头上": 8337,
  "话@@": 8338,
  "仲裁庭": 8339,
  "大陆架": 8340,
  "21.@@": 8341,
  "赖@@": 8342,
  "报价": 8343,
  "控制系统": 8344,
  "文档": 8345,
  "济@@": 8346,
  "涂@@": 8347,
  "发电": 8348,
  "联阿": 8349,
  "壳": 8350,
  "本周": 8351,
  "ub@@": 8352,
  "处长": 8353,
  "无线": 8354,
  "一处": 8355,
  "西班牙文": 8356,
  "破坏性": 8357,
  "留学": 8358,
  "交通运输": 8359,
  "阮@@": 8360,
  "申请书": 8361,
  "补": 8362,
  "毁灭": 8363,
  "大纲": 8364,
  "发电机": 8365,
  "伪造": 8366,
  "十二月": 8367,
  "教室": 8368,
  "芬": 8369,
  "大会堂": 8370,
  "仿佛": 8371,
  "会面": 8372,
  "连任": 8373,
  "致函": 8374,
  "献@@": 8375,
  "增大": 8376,
  "一根": 8377,
  "坎@@": 8378,
  "敌方": 8379,
  "ik@@": 8380,
  "清朝": 8381,
  "151": 8382,
  "应收": 8383,
  "激光": 8384,
  "Ab@@": 8385,
  "否决": 8386,
  "舒服": 8387,
  "耐心": 8388,
  "圣经": 8389,
  "贫民窟": 8390,
  "进出": 8391,
  "奉行": 8392,
  "竞争法": 8393,
  "谋@@": 8394,
  "挺": 8395,
  "帮@@": 8396,
  "高校": 8397,
  "室内": 8398,
  "乃": 8399,
  "领先": 8400,
  "村@@": 8401,
  "逾期": 8402,
  "某@@": 8403,
  "评@@": 8404,
  "时常": 8405,
  "颇": 8406,
  "阿拉伯语": 8407,
  "沿": 8408,
  "污水": 8409,
  "这张": 8410,
  "承": 8411,
  "巴哈马": 8412,
  "日程": 8413,
  "队员": 8414,
  "1964": 8415,
  "侧": 8416,
  "围@@": 8417,
  "时任": 8418,
  "洛杉矶": 8419,
  "无罪": 8420,
  "辉": 8421,
  "新鲜": 8422,
  "正好": 8423,
  "温和": 8424,
  "上将": 8425,
  "ass@@": 8426,
  "第二节": 8427,
  "沙漠": 8428,
  "柔@@": 8429,
  "管理员": 8430,
  "十月": 8431,
  "系统@@": 8432,
  "在外": 8433,
  "缺席": 8434,
  "组成员": 8435,
  "湿": 8436,
  "沉默": 8437,
  "全民": 8438,
  "怎么办": 8439,
  "日志": 8440,
  "打死": 8441,
  "特有": 8442,
  "∶": 8443,
  "延": 8444,
  "菌": 8445,
  "第一份": 8446,
  "湖区": 8447,
  "数年": 8448,
  "第二项": 8449,
  "制成": 8450,
  "轨": 8451,
  "歌@@": 8452,
  "味道": 8453,
  "玩@@": 8454,
  "各项措施": 8455,
  "容": 8456,
  "定居者": 8457,
  "就任": 8458,
  "251": 8459,
  "资源分配": 8460,
  "急需": 8461,
  "普遍存在": 8462,
  "基伍": 8463,
  "和平部队": 8464,
  "估价": 8465,
  "贯穿": 8466,
  "履约": 8467,
  "该案": 8468,
  "神秘": 8469,
  "市镇": 8470,
  "演唱会": 8471,
  "4.1": 8472,
  "屏幕": 8473,
  "艰巨": 8474,
  "眼前": 8475,
  "审计报告": 8476,
  "全力支持": 8477,
  "凭借": 8478,
  "营造": 8479,
  "主演": 8480,
  "总收入": 8481,
  "性行为": 8482,
  "痛@@": 8483,
  "重计": 8484,
  "血管": 8485,
  "结成": 8486,
  "西撒": 8487,
  "表决权": 8488,
  "校园": 8489,
  "兴奋": 8490,
  "非盟": 8491,
  "庄@@": 8492,
  "希族": 8493,
  "艘": 8494,
  "赤@@": 8495,
  "攻": 8496,
  "集合": 8497,
  "以使": 8498,
  "演唱": 8499,
  "逃": 8500,
  "风暴": 8501,
  "检查站": 8502,
  "搬迁": 8503,
  "扬@@": 8504,
  "殖民主义": 8505,
  "盐@@": 8506,
  "晚@@": 8507,
  "刺@@": 8508,
  "据估计": 8509,
  "拓展": 8510,
  "测": 8511,
  "交流信息": 8512,
  "蛇": 8513,
  "斗": 8514,
  "扔": 8515,
  "毕竟": 8516,
  "SC": 8517,
  "岩@@": 8518,
  "合理化": 8519,
  "击@@": 8520,
  "新闻@@": 8521,
  "发表声明": 8522,
  "纷纷": 8523,
  "录像": 8524,
  "密集": 8525,
  "至迟": 8526,
  "参与性": 8527,
  "冰": 8528,
  "电路": 8529,
  "23.@@": 8530,
  "廷@@": 8531,
  "最有": 8532,
  "作证": 8533,
  "岩石": 8534,
  "顶@@": 8535,
  "逃避": 8536,
  "佳@@": 8537,
  "默@@": 8538,
  "侦察机": 8539,
  "平行": 8540,
  "创收": 8541,
  "毛泽东": 8542,
  "Su@@": 8543,
  "椅子": 8544,
  "人家": 8545,
  "射入": 8546,
  "时所": 8547,
  "较@@": 8548,
  "摩加迪沙": 8549,
  "役": 8550,
  "油价": 8551,
  "般的": 8552,
  "淡水": 8553,
  "县@@": 8554,
  "国情": 8555,
  "分成": 8556,
  "罪@@": 8557,
  "六种": 8558,
  "减至": 8559,
  "挖掘": 8560,
  "防护": 8561,
  "侵入": 8562,
  "饼": 8563,
  "亚历山大": 8564,
  "148": 8565,
  "eb@@": 8566,
  "参见": 8567,
  "逊": 8568,
  "贺@@": 8569,
  "多万": 8570,
  "这名": 8571,
  "案@@": 8572,
  "十一": 8573,
  "已婚": 8574,
  "载入": 8575,
  "检": 8576,
  "浸@@": 8577,
  "4.2": 8578,
  "红十字国际委员会": 8579,
  "情景": 8580,
  "葛@@": 8581,
  "og@@": 8582,
  "本土": 8583,
  "161": 8584,
  "倾@@": 8585,
  "聘请": 8586,
  "铜": 8587,
  "152": 8588,
  "不太": 8589,
  "ry": 8590,
  "射击": 8591,
  "提高效率": 8592,
  "残酷": 8593,
  "袁@@": 8594,
  "拼@@": 8595,
  "两倍": 8596,
  "盛": 8597,
  "启用": 8598,
  "意识形态": 8599,
  "策": 8600,
  "中为": 8601,
  "共产党": 8602,
  "少量": 8603,
  "携手": 8604,
  "范例": 8605,
  "条中": 8606,
  "严重性": 8607,
  "友@@": 8608,
  "消费量": 8609,
  "医药": 8610,
  "一新": 8611,
  "158": 8612,
  "技术咨询": 8613,
  "将领": 8614,
  "病逝": 8615,
  "四分之一": 8616,
  "公式": 8617,
  "控制措施": 8618,
  "等国": 8619,
  "章@@": 8620,
  "伏@@": 8621,
  "履行职责": 8622,
  "胸@@": 8623,
  "资": 8624,
  "1947": 8625,
  "谷@@": 8626,
  "简易": 8627,
  "简称": 8628,
  "重债": 8629,
  "标识": 8630,
  "岸": 8631,
  "第七章": 8632,
  "宾@@": 8633,
  "白宫": 8634,
  "学士": 8635,
  "伟@@": 8636,
  "为本": 8637,
  "复合": 8638,
  "评审": 8639,
  "祈祷": 8640,
  "上来": 8641,
  "撤消": 8642,
  "床上": 8643,
  "190": 8644,
  "嫁给": 8645,
  "巴布亚新几内亚": 8646,
  "ai": 8647,
  "波黑": 8648,
  "夹@@": 8649,
  "提示": 8650,
  "受援国": 8651,
  "预备": 8652,
  "应力": 8653,
  "随函": 8654,
  "吊@@": 8655,
  "申@@": 8656,
  "虎@@": 8657,
  "此举": 8658,
  "猜": 8659,
  "冒": 8660,
  "特立尼达和多巴哥": 8661,
  "败": 8662,
  "累": 8663,
  "1.5": 8664,
  "甚@@": 8665,
  "值得注意": 8666,
  "饭": 8667,
  "保护环境": 8668,
  "州@@": 8669,
  "手指": 8670,
  "臭氧层": 8671,
  "诞生": 8672,
  "天津": 8673,
  "赶@@": 8674,
  "中华": 8675,
  "ing@@": 8676,
  "帽子": 8677,
  "显": 8678,
  "导向": 8679,
  "评级": 8680,
  "形容": 8681,
  "维奇": 8682,
  "怪": 8683,
  "管理@@": 8684,
  "四周": 8685,
  "冈比亚": 8686,
  "虎": 8687,
  "入球": 8688,
  "隔@@": 8689,
  "转为": 8690,
  "身为": 8691,
  "总计": 8692,
  "错@@": 8693,
  "苦": 8694,
  "刑@@": 8695,
  "导": 8696,
  "阻挠": 8697,
  "越境": 8698,
  "该股": 8699,
  "节余": 8700,
  "务实": 8701,
  "转达": 8702,
  "事务局": 8703,
  "此处": 8704,
  "q@@": 8705,
  "汇集": 8706,
  "火灾": 8707,
  "酒吧": 8708,
  "起飞": 8709,
  "育@@": 8710,
  "货币政策": 8711,
  "新喀里多尼亚": 8712,
  "严重威胁": 8713,
  "信用卡": 8714,
  "缺口": 8715,
  "希尔": 8716,
  "持@@": 8717,
  "天皇": 8718,
  "口粮": 8719,
  "单个": 8720,
  "乃至": 8721,
  "据@@": 8722,
  "冬季": 8723,
  "主管机关": 8724,
  "提问": 8725,
  "随之": 8726,
  "特别强调": 8727,
  "拉斯": 8728,
  "刘": 8729,
  "折磨": 8730,
  "蓝": 8731,
  "民族@@": 8732,
  "荷@@": 8733,
  "149": 8734,
  "都@@": 8735,
  "绝望": 8736,
  "转会": 8737,
  "出版社": 8738,
  "缴": 8739,
  "脱": 8740,
  "PRST": 8741,
  "判": 8742,
  "陪伴": 8743,
  "批@@": 8744,
  "蛋白质": 8745,
  "审前": 8746,
  "移植": 8747,
  "生病": 8748,
  "段@@": 8749,
  "斯特@@": 8750,
  "过渡政府": 8751,
  "烈": 8752,
  "悲伤": 8753,
  "封闭": 8754,
  "敬": 8755,
  "表示满意": 8756,
  "例句": 8757,
  "审慎": 8758,
  "评": 8759,
  "一次性": 8760,
  "圆": 8761,
  "热线": 8762,
  "队友": 8763,
  "数据@@": 8764,
  "访谈": 8765,
  "丑": 8766,
  "2.3": 8767,
  "海运": 8768,
  "月球": 8769,
  "议案": 8770,
  "筛选": 8771,
  "决@@": 8772,
  "宪政": 8773,
  "义务教育": 8774,
  "摩": 8775,
  "跨@@": 8776,
  "自然@@": 8777,
  "货运": 8778,
  "传说": 8779,
  "玉": 8780,
  "野生": 8781,
  "传染": 8782,
  "变形": 8783,
  "偶尔": 8784,
  "针": 8785,
  "集装箱": 8786,
  "祥": 8787,
  "卓@@": 8788,
  "前体": 8789,
  "经营者": 8790,
  "208": 8791,
  "遇": 8792,
  "上校": 8793,
  "分工": 8794,
  "坛": 8795,
  "除此之外": 8796,
  "莱索托": 8797,
  "扣除": 8798,
  "概括": 8799,
  "游行": 8800,
  "深远": 8801,
  "行列": 8802,
  "把握": 8803,
  "永久性": 8804,
  "既有": 8805,
  "继续执行": 8806,
  "里奥": 8807,
  "表示遗憾": 8808,
  "碎": 8809,
  "薪": 8810,
  "梦@@": 8811,
  "国家主权": 8812,
  "说出": 8813,
  "相处": 8814,
  "唐": 8815,
  "一阵": 8816,
  "一枚": 8817,
  "泉": 8818,
  "拉特": 8819,
  "参选": 8820,
  "惩戒": 8821,
  "奈@@": 8822,
  "相称": 8823,
  "起初": 8824,
  "350": 8825,
  "发布会": 8826,
  "加州": 8827,
  "奖金": 8828,
  "薄": 8829,
  "第二期": 8830,
  "敌军": 8831,
  "事例": 8832,
  "轻易": 8833,
  "转运": 8834,
  "限定": 8835,
  "目光": 8836,
  "老挝人民民主共和国": 8837,
  "以致": 8838,
  "跟着": 8839,
  "盒": 8840,
  "逾": 8841,
  "被告人": 8842,
  "防卫": 8843,
  "总的来说": 8844,
  "芝加哥": 8845,
  "刑": 8846,
  "公职": 8847,
  "165": 8848,
  "美联储": 8849,
  "储备金": 8850,
  "地板": 8851,
  "垄断": 8852,
  "腾": 8853,
  "la": 8854,
  "税率": 8855,
  "专业知识": 8856,
  "止": 8857,
  "禁": 8858,
  "海域": 8859,
  "核对": 8860,
  "魔@@": 8861,
  "误@@": 8862,
  "监护": 8863,
  "一时": 8864,
  "粘@@": 8865,
  "公营": 8866,
  "辰": 8867,
  "协": 8868,
  "多久": 8869,
  "受损": 8870,
  "符号": 8871,
  "获胜": 8872,
  "俊@@": 8873,
  "上半年": 8874,
  "1954": 8875,
  "接口": 8876,
  "192": 8877,
  "无限": 8878,
  "开启": 8879,
  "结算": 8880,
  "闪@@": 8881,
  "氏@@": 8882,
  "联合国贸易和发展会议": 8883,
  "尖@@": 8884,
  "豪@@": 8885,
  "6000": 8886,
  "硕士": 8887,
  "利害关系": 8888,
  "一遍": 8889,
  "末@@": 8890,
  "优先权": 8891,
  "天下": 8892,
  "com": 8893,
  "忠诚": 8894,
  "第一批": 8895,
  "第二十四届": 8896,
  "ou": 8897,
  "血统": 8898,
  "纪@@": 8899,
  "芳": 8900,
  "出境": 8901,
  "办公厅": 8902,
  "数码": 8903,
  "蒋@@": 8904,
  "财@@": 8905,
  "铜@@": 8906,
  "独联体": 8907,
  "厚@@": 8908,
  "放到": 8909,
  "哈利": 8910,
  "振动": 8911,
  "船上": 8912,
  "仙@@": 8913,
  "咸@@": 8914,
  "商业银行": 8915,
  "此基础": 8916,
  "El@@": 8917,
  "接管": 8918,
  "敌对": 8919,
  "俄@@": 8920,
  "辩护律师": 8921,
  "程序性": 8922,
  "自由@@": 8923,
  "伦理": 8924,
  "无须": 8925,
  "双手": 8926,
  "骄傲": 8927,
  "乘@@": 8928,
  "侮辱": 8929,
  "第七次": 8930,
  "平等待遇": 8931,
  "澳洲": 8932,
  "医务": 8933,
  "不准": 8934,
  "有何": 8935,
  "羊@@": 8936,
  "不动产": 8937,
  "差额": 8938,
  "勇@@": 8939,
  "宜": 8940,
  "基本法": 8941,
  "氧": 8942,
  "薪水": 8943,
  "煤": 8944,
  "35@@": 8945,
  "第一项": 8946,
  "Be@@": 8947,
  "喜": 8948,
  "我愿": 8949,
  "出示": 8950,
  "割@@": 8951,
  "武装力量": 8952,
  "牲畜": 8953,
  "极其重要": 8954,
  "开枪": 8955,
  "帐": 8956,
  "机密": 8957,
  "横向": 8958,
  "次页": 8959,
  "众人": 8960,
  "届时": 8961,
  "每届": 8962,
  "摄影": 8963,
  "抛弃": 8964,
  "余地": 8965,
  "劝": 8966,
  "墨@@": 8967,
  "效能": 8968,
  "分阶段": 8969,
  "申请者": 8970,
  "统@@": 8971,
  "引擎": 8972,
  "设@@": 8973,
  "Sal@@": 8974,
  "筒": 8975,
  "殖民": 8976,
  "佛教": 8977,
  "琴": 8978,
  "保管": 8979,
  "安南": 8980,
  "民法": 8981,
  "廉价": 8982,
  "执@@": 8983,
  "生育率": 8984,
  "楼@@": 8985,
  "股权": 8986,
  "设计师": 8987,
  "侯@@": 8988,
  "多达": 8989,
  "地为": 8990,
  "包围": 8991,
  "间@@": 8992,
  "艺人": 8993,
  "极度": 8994,
  "第二十六条": 8995,
  "ó": 8996,
  "癌": 8997,
  "奴隶制": 8998,
  "孤@@": 8999,
  "检索": 9000,
  "土族": 9001,
  "市场@@": 9002,
  "1962": 9003,
  "缉获": 9004,
  "规@@": 9005,
  "付@@": 9006,
  "保育": 9007,
  "项目管理": 9008,
  "英国人": 9009,
  "一层": 9010,
  "一案": 9011,
  "三年期": 9012,
  "通往": 9013,
  "河南": 9014,
  "淡@@": 9015,
  "内政": 9016,
  "少于": 9017,
  "201": 9018,
  "雄@@": 9019,
  "联络点": 9020,
  "切实可行": 9021,
  "印度洋": 9022,
  "Kar@@": 9023,
  "轰炸": 9024,
  "地下水": 9025,
  "三人": 9026,
  "晓@@": 9027,
  "凡是": 9028,
  "音乐会": 9029,
  "心脏病": 9030,
  "弟": 9031,
  "Le@@": 9032,
  "条所": 9033,
  "透@@": 9034,
  "恨": 9035,
  "难以@@": 9036,
  "240": 9037,
  "第六十九": 9038,
  "两大": 9039,
  "不合理": 9040,
  "167": 9041,
  "au@@": 9042,
  "具@@": 9043,
  "税@@": 9044,
  "AN@@": 9045,
  "恒@@": 9046,
  "汉语": 9047,
  "单身": 9048,
  "先例": 9049,
  "会计师": 9050,
  "ok@@": 9051,
  "159": 9052,
  "舱": 9053,
  "博客": 9054,
  "驻科": 9055,
  "距": 9056,
  "昨晚": 9057,
  "掩盖": 9058,
  "供其": 9059,
  "课@@": 9060,
  "下落": 9061,
  "1965": 9062,
  "锦@@": 9063,
  "会长": 9064,
  "for": 9065,
  "if@@": 9066,
  "细": 9067,
  "国际金融": 9068,
  "文化@@": 9069,
  "禁试": 9070,
  "深表": 9071,
  "急": 9072,
  "铀": 9073,
  "213": 9074,
  "查尔斯": 9075,
  "异议": 9076,
  "文物": 9077,
  "索偿": 9078,
  "废@@": 9079,
  "24.@@": 9080,
  "研究者": 9081,
  "暗杀": 9082,
  "拖": 9083,
  "领地": 9084,
  "愚蠢": 9085,
  "借贷": 9086,
  "差旅费": 9087,
  "取缔": 9088,
  "诚意": 9089,
  "虚假": 9090,
  "划定": 9091,
  "页面": 9092,
  "卡拉": 9093,
  "我来": 9094,
  "团聚": 9095,
  "机理": 9096,
  "跳舞": 9097,
  "来讲": 9098,
  "一轮": 9099,
  "瓦尔": 9100,
  "租": 9101,
  "总产值": 9102,
  "..": 9103,
  "增值": 9104,
  "阿拉伯人": 9105,
  "人民@@": 9106,
  "数百万": 9107,
  "新疆": 9108,
  "承运人": 9109,
  "那边": 9110,
  "训": 9111,
  "封信": 9112,
  "巧克力": 9113,
  "睡@@": 9114,
  "出演": 9115,
  "隐私": 9116,
  "尼斯": 9117,
  "漫画": 9118,
  "亚军": 9119,
  "退休金": 9120,
  "曰": 9121,
  "攻@@": 9122,
  "请问": 9123,
  "咨询机构": 9124,
  "第二次世界大战": 9125,
  "扣@@": 9126,
  "管理制度": 9127,
  "外交官": 9128,
  "226": 9129,
  "下放": 9130,
  "183": 9131,
  "词语": 9132,
  "不顾": 9133,
  "耳朵": 9134,
  "200@@": 9135,
  "克林顿": 9136,
  "紧急状态": 9137,
  "ash@@": 9138,
  "做些": 9139,
  "模": 9140,
  "一带": 9141,
  "凡@@": 9142,
  "劳动@@": 9143,
  "乘坐": 9144,
  "生产商": 9145,
  "宾": 9146,
  "袭": 9147,
  "检@@": 9148,
  "其间": 9149,
  "㈤": 9150,
  "新政府": 9151,
  "悬@@": 9152,
  "议会选举": 9153,
  "画家": 9154,
  "构成威胁": 9155,
  "模板": 9156,
  "坑": 9157,
  "22@@": 9158,
  "报名": 9159,
  "管理者": 9160,
  "尊@@": 9161,
  "字母": 9162,
  "一代": 9163,
  "何": 9164,
  "In@@": 9165,
  "或非": 9166,
  "所起": 9167,
  "幻想": 9168,
  "商标": 9169,
  "该科": 9170,
  "贴@@": 9171,
  "结果显示": 9172,
  "登记处": 9173,
  "精神@@": 9174,
  "段时间": 9175,
  "判处死刑": 9176,
  "某项": 9177,
  "鼠": 9178,
  "司马": 9179,
  "伟": 9180,
  "更高": 9181,
  "第十七条": 9182,
  "楚@@": 9183,
  "零售": 9184,
  "定型": 9185,
  "裁": 9186,
  "日报": 9187,
  "准@@": 9188,
  "摩纳哥": 9189,
  "联络处": 9190,
  "围": 9191,
  "68@@": 9192,
  "大屠杀": 9193,
  "艺术@@": 9194,
  "望@@": 9195,
  "挂@@": 9196,
  "164": 9197,
  "%": 9198,
  "党员": 9199,
  "燕@@": 9200,
  "1955": 9201,
  "啤酒": 9202,
  "麦克": 9203,
  "丢": 9204,
  "无权": 9205,
  "汇总": 9206,
  "频道": 9207,
  "销": 9208,
  "街上": 9209,
  "摆@@": 9210,
  "1956": 9211,
  "马尔@@": 9212,
  "榜样": 9213,
  "珠": 9214,
  "迹": 9215,
  "0%": 9216,
  "商品价格": 9217,
  "败@@": 9218,
  "泵": 9219,
  "儿@@": 9220,
  "随意": 9221,
  "电流": 9222,
  "负担得起": 9223,
  "秋": 9224,
  "四方": 9225,
  "下达": 9226,
  "节能": 9227,
  "安静": 9228,
  "大力支持": 9229,
  "忍受": 9230,
  "放置": 9231,
  "干燥": 9232,
  "备": 9233,
  "三角": 9234,
  "热烈": 9235,
  "即位": 9236,
  "压迫": 9237,
  "制度化": 9238,
  "一封": 9239,
  "占用": 9240,
  "起点": 9241,
  "破裂": 9242,
  "189": 9243,
  "爆@@": 9244,
  "娃": 9245,
  "寒@@": 9246,
  "内向": 9247,
  "发生变化": 9248,
  "熊": 9249,
  "销量": 9250,
  "卓越": 9251,
  "源@@": 9252,
  "开来": 9253,
  "证@@": 9254,
  "礼貌": 9255,
  "下半年": 9256,
  "适用范围": 9257,
  "之害": 9258,
  "生理": 9259,
  "就此结束": 9260,
  "原告": 9261,
  "CA@@": 9262,
  "祝福": 9263,
  "卫": 9264,
  "并入": 9265,
  "就算": 9266,
  "歌唱": 9267,
  "着重于": 9268,
  "碰到": 9269,
  "工作日": 9270,
  "农业部门": 9271,
  "市政府": 9272,
  "26.@@": 9273,
  "诗歌": 9274,
  "升高": 9275,
  "警": 9276,
  "见证": 9277,
  "业界": 9278,
  "211": 9279,
  "职司": 9280,
  "十三": 9281,
  "分割": 9282,
  "教员": 9283,
  "牌照": 9284,
  "可取": 9285,
  "码头": 9286,
  "抢@@": 9287,
  "刺": 9288,
  "贝鲁特": 9289,
  "高昂": 9290,
  "院校": 9291,
  "战场": 9292,
  "化学@@": 9293,
  "熊@@": 9294,
  "介绍性": 9295,
  "到位": 9296,
  "热爱": 9297,
  "速效": 9298,
  "许": 9299,
  "175": 9300,
  "德拉": 9301,
  "邦@@": 9302,
  "竹@@": 9303,
  "遥远": 9304,
  "浓缩": 9305,
  "XV": 9306,
  "层@@": 9307,
  "王朝": 9308,
  "3.3": 9309,
  "长达": 9310,
  "翼": 9311,
  "陪": 9312,
  "阿拉伯文": 9313,
  "生物学": 9314,
  "局限于": 9315,
  "学费": 9316,
  "千克": 9317,
  "塞浦路斯共和国": 9318,
  "狄@@": 9319,
  "粒": 9320,
  "房地": 9321,
  "世界@@": 9322,
  "恶": 9323,
  "问道": 9324,
  "调解人": 9325,
  "防扩散": 9326,
  "信仰自由": 9327,
  "几周": 9328,
  "审@@": 9329,
  "完全符合": 9330,
  "服役": 9331,
  "缓和": 9332,
  "过后": 9333,
  "产权": 9334,
  "级@@": 9335,
  "一艘": 9336,
  "述": 9337,
  "东欧国家": 9338,
  "声誉": 9339,
  "统计局": 9340,
  "签署国": 9341,
  "年任": 9342,
  "狼": 9343,
  "冒@@": 9344,
  "积压": 9345,
  "造林": 9346,
  "图表": 9347,
  "平方米": 9348,
  "水泥": 9349,
  "百分之@@": 9350,
  "all@@": 9351,
  "重大贡献": 9352,
  "一日": 9353,
  "九龙": 9354,
  "67@@": 9355,
  "RE@@": 9356,
  "丙@@": 9357,
  "全氟": 9358,
  "163": 9359,
  "评委": 9360,
  "名词": 9361,
  "律": 9362,
  "夜晚": 9363,
  "安慰": 9364,
  "球迷": 9365,
  "以色列国防军": 9366,
  "阻@@": 9367,
  "香港特别行政区": 9368,
  "Har@@": 9369,
  "竟": 9370,
  "胶": 9371,
  "窗": 9372,
  "iv@@": 9373,
  "Con@@": 9374,
  "家务": 9375,
  "桶": 9376,
  "纪": 9377,
  "押": 9378,
  "自然人": 9379,
  "育": 9380,
  "董@@": 9381,
  "广阔": 9382,
  "深深": 9383,
  "中说": 9384,
  "船长": 9385,
  "Sp@@": 9386,
  "肤色": 9387,
  "伊丽莎白": 9388,
  "美洲国家组织": 9389,
  "法医": 9390,
  "玉米": 9391,
  "安盟": 9392,
  "序列": 9393,
  "赠": 9394,
  "资深": 9395,
  "桑": 9396,
  "第十九届": 9397,
  "十一月": 9398,
  "韦": 9399,
  "三世": 9400,
  "帽": 9401,
  "福建": 9402,
  "管理处": 9403,
  "年纪": 9404,
  "祭": 9405,
  "1952": 9406,
  "研究院": 9407,
  "著@@": 9408,
  "例外情况": 9409,
  "容量": 9410,
  "单词": 9411,
  "填@@": 9412,
  "结社自由": 9413,
  "思路": 9414,
  "瑟": 9415,
  "本函": 9416,
  "住户": 9417,
  "鼻@@": 9418,
  "奋斗": 9419,
  "end@@": 9420,
  "普遍认为": 9421,
  "法律依据": 9422,
  "听众": 9423,
  "萨赫勒": 9424,
  "境": 9425,
  "开辟": 9426,
  "莉@@": 9427,
  "负有责任": 9428,
  "缘": 9429,
  "执行官": 9430,
  "食用": 9431,
  "劲": 9432,
  "香港@@": 9433,
  "岛上": 9434,
  "市区": 9435,
  "全都": 9436,
  "竟然": 9437,
  "坐下": 9438,
  "干什么": 9439,
  "追查": 9440,
  "舍@@": 9441,
  "反过来": 9442,
  "煤@@": 9443,
  "ST@@": 9444,
  "租用": 9445,
  "搜集": 9446,
  "框": 9447,
  "方程": 9448,
  "培育": 9449,
  "25.@@": 9450,
  "调查员": 9451,
  "噪音": 9452,
  "IV": 9453,
  "吻": 9454,
  "创造条件": 9455,
  "型@@": 9456,
  "RC": 9457,
  "返@@": 9458,
  "民国": 9459,
  "Dec": 9460,
  "擅长": 9461,
  "悲惨": 9462,
  "本项": 9463,
  "准确性": 9464,
  "两类": 9465,
  "教廷": 9466,
  "崇高": 9467,
  "交换意见": 9468,
  "230": 9469,
  "男童": 9470,
  "微软": 9471,
  "８": 9472,
  "旗下": 9473,
  "外籍": 9474,
  "所知": 9475,
  "鸡@@": 9476,
  "本港": 9477,
  "交货": 9478,
  "４": 9479,
  "侵蚀": 9480,
  "进修": 9481,
  "各届": 9482,
  "合作项目": 9483,
  "北非": 9484,
  "想想": 9485,
  "压缩": 9486,
  "铺": 9487,
  "生殖器": 9488,
  "日军": 9489,
  "大家庭": 9490,
  "联发援": 9491,
  "ent": 9492,
  "阿卜耶伊": 9493,
  "微生物": 9494,
  "斗@@": 9495,
  "千万": 9496,
  "搜寻": 9497,
  "零件": 9498,
  "灾后": 9499,
  "iy@@": 9500,
  "心理学": 9501,
  "金融体系": 9502,
  "写道": 9503,
  "巴勒斯坦国": 9504,
  "公共汽车": 9505,
  "173": 9506,
  "任教": 9507,
  "欢乐": 9508,
  "贤@@": 9509,
  "音乐@@": 9510,
  "碳@@": 9511,
  "错过": 9512,
  "西北": 9513,
  "艾": 9514,
  "国防军": 9515,
  "长久": 9516,
  "阀": 9517,
  "75%": 9518,
  "低下": 9519,
  "部位": 9520,
  "鸿沟": 9521,
  "等候": 9522,
  "猛@@": 9523,
  "键": 9524,
  "Z": 9525,
  "元首": 9526,
  "改良": 9527,
  "势@@": 9528,
  "定量": 9529,
  "教科书": 9530,
  "止@@": 9531,
  "洲": 9532,
  "调度": 9533,
  "仓": 9534,
  "版权": 9535,
  "夜间": 9536,
  "不符": 9537,
  "每当": 9538,
  "ell@@": 9539,
  "力图": 9540,
  "监": 9541,
  "园@@": 9542,
  "首领": 9543,
  "晶@@": 9544,
  "227": 9545,
  "英语@@": 9546,
  "新建": 9547,
  "滚@@": 9548,
  "第三节": 9549,
  "即时": 9550,
  "多于": 9551,
  "子弹": 9552,
  "其为": 9553,
  "好象": 9554,
  "索引": 9555,
  "与非": 9556,
  "地理信息系统": 9557,
  "村民": 9558,
  "百分点": 9559,
  "历来": 9560,
  "第五@@": 9561,
  "260": 9562,
  "通行": 9563,
  "庄严": 9564,
  "凯": 9565,
  "进球": 9566,
  "黄色": 9567,
  "中介": 9568,
  "科摩罗": 9569,
  "此一": 9570,
  "预报": 9571,
  "列明": 9572,
  "财务管理": 9573,
  "初等教育": 9574,
  "学历": 9575,
  "是非": 9576,
  "控诉": 9577,
  "误差": 9578,
  "未曾": 9579,
  "最少": 9580,
  "242": 9581,
  "分支": 9582,
  "翻": 9583,
  "失效": 9584,
  "股价": 9585,
  "保险@@": 9586,
  "不时": 9587,
  "其管辖": 9588,
  "扩充": 9589,
  "四项": 9590,
  "精神病": 9591,
  "简": 9592,
  "下表": 9593,
  "队@@": 9594,
  "激动": 9595,
  "似": 9596,
  "第五章": 9597,
  "昆@@": 9598,
  "薪资": 9599,
  "交战": 9600,
  "1957": 9601,
  "度假": 9602,
  "ur": 9603,
  "大师": 9604,
  "伏": 9605,
  "北极": 9606,
  "艇": 9607,
  "奏": 9608,
  "潜@@": 9609,
  "及早": 9610,
  "22.@@": 9611,
  "奇迹": 9612,
  "―": 9613,
  "uk@@": 9614,
  "248": 9615,
  "恋": 9616,
  "敏@@": 9617,
  "以求": 9618,
  "双语": 9619,
  "全力": 9620,
  "增添": 9621,
  "斯基": 9622,
  "你好": 9623,
  "玫瑰": 9624,
  "适@@": 9625,
  "其所": 9626,
  "合金": 9627,
  "调用": 9628,
  "酒精": 9629,
  "准决赛": 9630,
  "西非国家": 9631,
  "争夺": 9632,
  "完毕": 9633,
  "精神药物": 9634,
  "医师": 9635,
  "焦@@": 9636,
  "1937": 9637,
  "以至于": 9638,
  "ES": 9639,
  "海水": 9640,
  "int": 9641,
  "新年": 9642,
  "送往": 9643,
  "突@@": 9644,
  "每人": 9645,
  "公共秩序": 9646,
  "偶然": 9647,
  "168": 9648,
  "缩减": 9649,
  "银行业": 9650,
  "乙": 9651,
  "档": 9652,
  "目睹": 9653,
  "模仿": 9654,
  "技术人员": 9655,
  "一员": 9656,
  "虽@@": 9657,
  "巡@@": 9658,
  "利益冲突": 9659,
  "孤独": 9660,
  "1930": 9661,
  "一倍": 9662,
  "日于": 9663,
  "保留意见": 9664,
  "举动": 9665,
  "格局": 9666,
  "感染者": 9667,
  "应于": 9668,
  "绝": 9669,
  "轻微": 9670,
  "千": 9671,
  "奴": 9672,
  "法律法规": 9673,
  "球会": 9674,
  "政变": 9675,
  "罗姆": 9676,
  "三国": 9677,
  "理事国": 9678,
  "中等教育": 9679,
  "泥@@": 9680,
  "迈@@": 9681,
  "半岛": 9682,
  "邻近": 9683,
  "磅": 9684,
  "腔": 9685,
  "播出": 9686,
  "猎@@": 9687,
  "应立即": 9688,
  "2500": 9689,
  "余下": 9690,
  "注视": 9691,
  "囊": 9692,
  "有效期": 9693,
  "访问团": 9694,
  "浓@@": 9695,
  "所称": 9696,
  "运费": 9697,
  "深受": 9698,
  "旅@@": 9699,
  "不肯": 9700,
  "高峰": 9701,
  "竞争对手": 9702,
  "扣": 9703,
  "五岁": 9704,
  "代表作": 9705,
  "各个领域": 9706,
  "十五": 9707,
  "偏离": 9708,
  "废料": 9709,
  "欲@@": 9710,
  "工作@@": 9711,
  "剧院": 9712,
  "经纪": 9713,
  "绘制": 9714,
  "外勤人员": 9715,
  "手工": 9716,
  "收藏": 9717,
  "沿@@": 9718,
  "东非": 9719,
  "此人": 9720,
  "Ag@@": 9721,
  "金融@@": 9722,
  "购": 9723,
  "觉": 9724,
  "第七@@": 9725,
  "兴建": 9726,
  "熟练": 9727,
  "172": 9728,
  "丢失": 9729,
  "姿态": 9730,
  "县级": 9731,
  "机会均等": 9732,
  "大道": 9733,
  "灌溉": 9734,
  "粮": 9735,
  "机械@@": 9736,
  "始于": 9737,
  "球场": 9738,
  "ess@@": 9739,
  "空气污染": 9740,
  "全年": 9741,
  "默": 9742,
  "公顷": 9743,
  "安全措施": 9744,
  "水中": 9745,
  "迁徙": 9746,
  "提供者": 9747,
  "人员编制": 9748,
  "彻底消除": 9749,
  "绿": 9750,
  "动词": 9751,
  "隧道": 9752,
  "185": 9753,
  "Sub": 9754,
  "代表大会": 9755,
  "Di@@": 9756,
  "那次": 9757,
  "RES": 9758,
  "贾": 9759,
  "凤@@": 9760,
  "re": 9761,
  "刊物": 9762,
  "夺取": 9763,
  "中共@@": 9764,
  "精度": 9765,
  "周一": 9766,
  "历史@@": 9767,
  "第十六届": 9768,
  "电讯": 9769,
  "28.@@": 9770,
  "谷歌": 9771,
  "式@@": 9772,
  "佛得角": 9773,
  "浪漫": 9774,
  "174": 9775,
  "三级": 9776,
  "开关": 9777,
  "人身安全": 9778,
  "刻@@": 9779,
  "从业人员": 9780,
  "营运": 9781,
  "加共体": 9782,
  "一期": 9783,
  "煤炭": 9784,
  "行星": 9785,
  "使用权": 9786,
  "决不": 9787,
  "视听": 9788,
  "乐意": 9789,
  "墙上": 9790,
  "钢琴": 9791,
  "pl@@": 9792,
  "1959": 9793,
  "务@@": 9794,
  "反抗": 9795,
  "鼓@@": 9796,
  "书院": 9797,
  "坚实": 9798,
  "运输@@": 9799,
  "第十五届": 9800,
  "甜@@": 9801,
  "造福": 9802,
  "参谋": 9803,
  "菜@@": 9804,
  "55@@": 9805,
  "监督管理": 9806,
  "穿@@": 9807,
  "抵@@": 9808,
  "聚": 9809,
  "拔@@": 9810,
  "激@@": 9811,
  "在实践中": 9812,
  "214": 9813,
  "重庆": 9814,
  "政治部": 9815,
  "臂": 9816,
  "有望": 9817,
  "乡试": 9818,
  "确@@": 9819,
  "几": 9820,
  "赛会": 9821,
  "禁毒署": 9822,
  "出缺": 9823,
  "徒": 9824,
  "均@@": 9825,
  "模@@": 9826,
  "1200": 9827,
  "建立联系": 9828,
  "爆": 9829,
  "压制": 9830,
  "槽": 9831,
  "须@@": 9832,
  "个人资料": 9833,
  "期刊": 9834,
  "贞@@": 9835,
  "est@@": 9836,
  "政策措施": 9837,
  "略有": 9838,
  "米兰": 9839,
  "舞@@": 9840,
  "断定": 9841,
  "灯@@": 9842,
  "评定": 9843,
  "一月": 9844,
  "消极影响": 9845,
  "同志": 9846,
  "天基": 9847,
  "合计": 9848,
  "敢": 9849,
  "悲@@": 9850,
  "针@@": 9851,
  "27.@@": 9852,
  "君@@": 9853,
  "奥林匹克": 9854,
  "光明": 9855,
  "法律义务": 9856,
  "ce": 9857,
  "因子": 9858,
  "SA@@": 9859,
  "第一年": 9860,
  "终结": 9861,
  "会议厅": 9862,
  "移居": 9863,
  "率为": 9864,
  "牙齿": 9865,
  "日本@@": 9866,
  "童年": 9867,
  "低估": 9868,
  "篮球": 9869,
  "稳步": 9870,
  "占领军": 9871,
  "第纳尔": 9872,
  "~": 9873,
  "案子": 9874,
  "相关者": 9875,
  "典": 9876,
  "小组会议": 9877,
  "天堂": 9878,
  "哈马斯": 9879,
  "焦虑": 9880,
  "即决": 9881,
  "城乡": 9882,
  "跑@@": 9883,
  "鸿@@": 9884,
  "一门": 9885,
  "国民经济": 9886,
  "em": 9887,
  "体育运动": 9888,
  "人质": 9889,
  "常委": 9890,
  "应从": 9891,
  "入口": 9892,
  "写信": 9893,
  "第十七届": 9894,
  "新生": 9895,
  "随机": 9896,
  "教导": 9897,
  "赚": 9898,
  "核设施": 9899,
  "农发": 9900,
  "诚@@": 9901,
  "桃@@": 9902,
  "执照": 9903,
  "刊": 9904,
  "律师协会": 9905,
  "图书": 9906,
  "十周年": 9907,
  "拜访": 9908,
  "乾隆": 9909,
  "脸@@": 9910,
  "得益于": 9911,
  "吹": 9912,
  "CMP": 9913,
  "第十八届": 9914,
  "精算": 9915,
  "江苏": 9916,
  "育儿": 9917,
  "怪@@": 9918,
  "一头": 9919,
  "继续下去": 9920,
  "离子": 9921,
  "丧@@": 9922,
  "未成年": 9923,
  "最快": 9924,
  "受伤害": 9925,
  "詹@@": 9926,
  "有所改善": 9927,
  "丰": 9928,
  "辞去": 9929,
  "幕": 9930,
  "擦": 9931,
  "44@@": 9932,
  "中应": 9933,
  "之处": 9934,
  "抵触": 9935,
  "局局长": 9936,
  "各不相同": 9937,
  "偿付": 9938,
  "叫@@": 9939,
  "美属": 9940,
  "宏@@": 9941,
  "硕士学位": 9942,
  "走过": 9943,
  "69@@": 9944,
  "塑造": 9945,
  "教育领域": 9946,
  "街@@": 9947,
  "胃@@": 9948,
  "增列": 9949,
  "中旬": 9950,
  "小国": 9951,
  "对面": 9952,
  "壮@@": 9953,
  "诽谤": 9954,
  "拉姆": 9955,
  "规划系统": 9956,
  "科研": 9957,
  "监察组": 9958,
  "表情": 9959,
  "描绘": 9960,
  "勋": 9961,
  "充实": 9962,
  "教学@@": 9963,
  "th": 9964,
  "逐字": 9965,
  "信息@@": 9966,
  "户主": 9967,
  "进化": 9968,
  "演习": 9969,
  "母语": 9970,
  "欧共体": 9971,
  "缺": 9972,
  "泰勒": 9973,
  "1.3": 9974,
  "艺@@": 9975,
  "53@@": 9976,
  "妻": 9977,
  "控制权": 9978,
  "覆盖面": 9979,
  "亭": 9980,
  "听证会": 9981,
  "惠": 9982,
  "上级": 9983,
  "信徒": 9984,
  "柜": 9985,
  "氛围": 9986,
  "统": 9987,
  "ez": 9988,
  "丘@@": 9989,
  "性取向": 9990,
  "学到": 9991,
  "ach@@": 9992,
  "寄": 9993,
  "混合物": 9994,
  "约瑟夫": 9995,
  "颗粒": 9996,
  "司令": 9997,
  "签": 9998,
  "单纯": 9999,
  "认": 10000,
  "稳": 10001,
  "劳": 10002,
  "中以": 10003,
  "上海@@": 10004,
  "乃@@": 10005,
  "ill@@": 10006,
  "亲密": 10007,
  "华人": 10008,
  "三位": 10009,
  "2019": 10010,
  "而成": 10011,
  "人道": 10012,
  "国民政府": 10013,
  "恭@@": 10014,
  "桥@@": 10015,
  "威尔": 10016,
  "它会": 10017,
  "DNA": 10018,
  "赞@@": 10019,
  "半数": 10020,
  "大为": 10021,
  "借款": 10022,
  "长官": 10023,
  "揭露": 10024,
  "佐": 10025,
  "171": 10026,
  "娅": 10027,
  "186": 10028,
  "反驳": 10029,
  "订@@": 10030,
  "不该": 10031,
  "州长": 10032,
  "关键性": 10033,
  "重新考虑": 10034,
  "都市": 10035,
  "摆在": 10036,
  "逼": 10037,
  "己": 10038,
  "Sch@@": 10039,
  "母婴": 10040,
  "捷克": 10041,
  "留给": 10042,
  "民用航空": 10043,
  "庄": 10044,
  "偶像": 10045,
  "一个@@": 10046,
  "借此": 10047,
  "节度使": 10048,
  "议长": 10049,
  "海洋生物": 10050,
  "勃@@": 10051,
  "播": 10052,
  "国际性": 10053,
  "姐妹": 10054,
  "检疫": 10055,
  "江西": 10056,
  "泡": 10057,
  "Pro@@": 10058,
  "详细情况": 10059,
  "1940": 10060,
  "警务人员": 10061,
  "害": 10062,
  "浩@@": 10063,
  "喀布尔": 10064,
  "ind@@": 10065,
  "期限内": 10066,
  "善于": 10067,
  "敏感性": 10068,
  "引": 10069,
  "有所不同": 10070,
  "闲@@": 10071,
  "自称": 10072,
  "联伊": 10073,
  "宿@@": 10074,
  "2.4": 10075,
  "稍@@": 10076,
  "反对党": 10077,
  "男生": 10078,
  "法律效力": 10079,
  "珍": 10080,
  "何处": 10081,
  "屋顶": 10082,
  "从来不": 10083,
  "限@@": 10084,
  "储@@": 10085,
  "兴奋剂": 10086,
  "帝@@": 10087,
  "一般来说": 10088,
  "课堂": 10089,
  "发生率": 10090,
  "5.2": 10091,
  "游说": 10092,
  "阴影": 10093,
  "续@@": 10094,
  "屈@@": 10095,
  "逆@@": 10096,
  "原名": 10097,
  "寡妇": 10098,
  "En@@": 10099,
  "妈": 10100,
  "高出": 10101,
  "匮乏": 10102,
  "um": 10103,
  "改编": 10104,
  "审案": 10105,
  "大厅": 10106,
  "零部件": 10107,
  "倾听": 10108,
  "避@@": 10109,
  "网球": 10110,
  "粒子": 10111,
  "傅@@": 10112,
  "挫折": 10113,
  "姚@@": 10114,
  "讽刺": 10115,
  "童@@": 10116,
  "小麦": 10117,
  "邪恶": 10118,
  "智": 10119,
  "婚@@": 10120,
  "怀": 10121,
  "综管": 10122,
  "抵御": 10123,
  "ta": 10124,
  "朱": 10125,
  "节点": 10126,
  "规范性": 10127,
  "布什总统": 10128,
  "宗教自由": 10129,
  "控": 10130,
  "废水": 10131,
  "信息管理": 10132,
  "千美元": 10133,
  "排列": 10134,
  "部族": 10135,
  "减排": 10136,
  "坦克": 10137,
  "户@@": 10138,
  "甚么": 10139,
  "掌": 10140,
  "交由": 10141,
  "提出申请": 10142,
  "1325": 10143,
  "扩@@": 10144,
  "争辩": 10145,
  "教育@@": 10146,
  "爱德华": 10147,
  "订购": 10148,
  "移动电话": 10149,
  "迟到": 10150,
  "弹道导弹": 10151,
  "遭@@": 10152,
  "湖南": 10153,
  "卫生部门": 10154,
  "摇@@": 10155,
  "喂": 10156,
  "装运": 10157,
  "闭@@": 10158,
  "精英": 10159,
  "大城市": 10160,
  "英联邦": 10161,
  "10000": 10162,
  "贪污": 10163,
  "服兵役": 10164,
  "充分发挥": 10165,
  "外聘": 10166,
  "斜@@": 10167,
  "ts": 10168,
  "联合体": 10169,
  "炸药": 10170,
  "ish@@": 10171,
  "如上": 10172,
  "检察": 10173,
  "午餐": 10174,
  "托马斯": 10175,
  "点钟": 10176,
  "答@@": 10177,
  "祝愿": 10178,
  "诉@@": 10179,
  "一款": 10180,
  "死后": 10181,
  "ist@@": 10182,
  "当今世界": 10183,
  "审定": 10184,
  "不去": 10185,
  "石棉": 10186,
  "冬@@": 10187,
  "慢@@": 10188,
  "184": 10189,
  "预警系统": 10190,
  "脂": 10191,
  "联合声明": 10192,
  "神经@@": 10193,
  "洋": 10194,
  "价@@": 10195,
  "对阵": 10196,
  "候补": 10197,
  "侧@@": 10198,
  "年会": 10199,
  "物理学": 10200,
  "调任": 10201,
  "沟": 10202,
  "克制": 10203,
  "肯@@": 10204,
  "天体": 10205,
  "学业": 10206,
  "206": 10207,
  "鲜@@": 10208,
  "电压": 10209,
  "另一方": 10210,
  "使该": 10211,
  "越过": 10212,
  "令人担忧": 10213,
  "动力学": 10214,
  "IT": 10215,
  "高风险": 10216,
  "新任": 10217,
  "业务@@": 10218,
  "萨米": 10219,
  "界面": 10220,
  "葡萄酒": 10221,
  "研究成果": 10222,
  "召@@": 10223,
  "六十@@": 10224,
  "白人": 10225,
  "精": 10226,
  "NBA": 10227,
  "才@@": 10228,
  "联索": 10229,
  "Ali": 10230,
  "除名": 10231,
  "迎@@": 10232,
  "四次": 10233,
  "伯利兹": 10234,
  "藤@@": 10235,
  "年龄组": 10236,
  "炮": 10237,
  "骑@@": 10238,
  "７": 10239,
  "踢": 10240,
  "辛": 10241,
  "218": 10242,
  "贝尔格莱德": 10243,
  "181": 10244,
  "雾": 10245,
  "纺织品": 10246,
  "湿地": 10247,
  "来信": 10248,
  "经济衰退": 10249,
  "言语": 10250,
  "跨境": 10251,
  "升值": 10252,
  "勇": 10253,
  "大鼠": 10254,
  "桩": 10255,
  "禄": 10256,
  "服务提供者": 10257,
  "裂": 10258,
  "177": 10259,
  "漏洞": 10260,
  "嘉": 10261,
  "称号": 10262,
  "年级": 10263,
  "ya": 10264,
  "闻名": 10265,
  "不佳": 10266,
  "６": 10267,
  "果断": 10268,
  "慈@@": 10269,
  "布林迪西": 10270,
  "全人类": 10271,
  "王后": 10272,
  "增订": 10273,
  "橡胶": 10274,
  "利物浦": 10275,
  "特区": 10276,
  "靠@@": 10277,
  "容纳": 10278,
  "铅": 10279,
  "十二@@": 10280,
  "防空": 10281,
  "讯": 10282,
  "赦免": 10283,
  "43@@": 10284,
  "当初": 10285,
  "第十一条": 10286,
  "遇见": 10287,
  "鼻子": 10288,
  "避难": 10289,
  "极少": 10290,
  "乐趣": 10291,
  "朴@@": 10292,
  "抓@@": 10293,
  "机票": 10294,
  "净@@": 10295,
  "陛下": 10296,
  "分支机构": 10297,
  "服务@@": 10298,
  "起因": 10299,
  "灾难性": 10300,
  "唱歌": 10301,
  "幼儿园": 10302,
  "Gu@@": 10303,
  "巨额": 10304,
  "225": 10305,
  "阴谋": 10306,
  "福特": 10307,
  "氧化": 10308,
  "周边": 10309,
  "疏@@": 10310,
  "名人": 10311,
  "加倍努力": 10312,
  "犬": 10313,
  "批判": 10314,
  "嘉宾": 10315,
  "景观": 10316,
  "员@@": 10317,
  "爱好": 10318,
  "维生素": 10319,
  "购@@": 10320,
  "当日": 10321,
  "今": 10322,
  "半年": 10323,
  "海峡": 10324,
  "效用": 10325,
  "旋@@": 10326,
  "技@@": 10327,
  "顿@@": 10328,
  "多余": 10329,
  "191": 10330,
  "拘留所": 10331,
  "场景": 10332,
  "の": 10333,
  "烧": 10334,
  "大自然": 10335,
  "依旧": 10336,
  "原谅": 10337,
  "所处": 10338,
  "兆@@": 10339,
  "任内": 10340,
  "比重": 10341,
  "矿业": 10342,
  "轮胎": 10343,
  "法学院": 10344,
  "穆": 10345,
  "尚待": 10346,
  "伸@@": 10347,
  "汽@@": 10348,
  "加勒比地区": 10349,
  "甫": 10350,
  "均匀": 10351,
  "醒": 10352,
  "玄@@": 10353,
  "增": 10354,
  "回避": 10355,
  "曼联": 10356,
  "亿人": 10357,
  "与否": 10358,
  "间隔": 10359,
  "主场": 10360,
  "SBI": 10361,
  "ell": 10362,
  "战时": 10363,
  "一幅": 10364,
  "云南": 10365,
  "席@@": 10366,
  "分解": 10367,
  "赤道几内亚": 10368,
  "挽救": 10369,
  "ot": 10370,
  "贞": 10371,
  "面谈": 10372,
  "座@@": 10373,
  "查验": 10374,
  "有序": 10375,
  "法例": 10376,
  "187": 10377,
  "竭尽全力": 10378,
  "刀@@": 10379,
  "毕@@": 10380,
  "广播电台": 10381,
  "罐": 10382,
  "赖": 10383,
  "负责管理": 10384,
  "安娜": 10385,
  "普京": 10386,
  "上下": 10387,
  "顾": 10388,
  "军用": 10389,
  "熟": 10390,
  "必将": 10391,
  "站@@": 10392,
  "藩": 10393,
  "版@@": 10394,
  "雅典": 10395,
  "共同@@": 10396,
  "und@@": 10397,
  "233": 10398,
  "带给": 10399,
  "第二轮": 10400,
  "迈进": 10401,
  "牵@@": 10402,
  "向上": 10403,
  "资本主义": 10404,
  "上任": 10405,
  "基督徒": 10406,
  "第十五条": 10407,
  "值@@": 10408,
  "广义": 10409,
  "存货": 10410,
  "弘@@": 10411,
  "少将": 10412,
  "原材料": 10413,
  "逐@@": 10414,
  "原定": 10415,
  "滑": 10416,
  "兼职": 10417,
  "罕见": 10418,
  "上个月": 10419,
  "178": 10420,
  "70@@": 10421,
  "识字": 10422,
  "萨尔": 10423,
  "国家机关": 10424,
  "ug@@": 10425,
  "领导层": 10426,
  "一封信": 10427,
  "one": 10428,
  "之地": 10429,
  "贵方": 10430,
  "范": 10431,
  "塞尔": 10432,
  "狮子": 10433,
  "见本": 10434,
  "节奏": 10435,
  "伤残": 10436,
  "ak": 10437,
  "折扣": 10438,
  "练": 10439,
  "发生冲突": 10440,
  "勤": 10441,
  "苏里南": 10442,
  "海滩": 10443,
  "达尔": 10444,
  "翻修": 10445,
  "盯": 10446,
  "烦恼": 10447,
  "短语": 10448,
  "前线": 10449,
  "1929": 10450,
  "AP@@": 10451,
  "＊": 10452,
  "要说": 10453,
  "符合国际": 10454,
  "不结盟": 10455,
  "非线性": 10456,
  "柴@@": 10457,
  "＿": 10458,
  "工商": 10459,
  "婚": 10460,
  "晚些时候": 10461,
  "尺度": 10462,
  "运动会": 10463,
  "辍学": 10464,
  "再见": 10465,
  "一番": 10466,
  "流感": 10467,
  "浆": 10468,
  "中国人民解放军": 10469,
  "付诸": 10470,
  "207": 10471,
  "似@@": 10472,
  "划": 10473,
  "券": 10474,
  "忠实": 10475,
  "天才": 10476,
  "现阶段": 10477,
  "建筑@@": 10478,
  "稍后": 10479,
  "第十八条": 10480,
  "194": 10481,
  "催化剂": 10482,
  "ara": 10483,
  "176": 10484,
  "喝@@": 10485,
  "大宗": 10486,
  "盈利": 10487,
  "情报@@": 10488,
  "原油": 10489,
  "一杯": 10490,
  "不住": 10491,
  "手法": 10492,
  "服刑": 10493,
  "散步": 10494,
  "吸入": 10495,
  "斯坦": 10496,
  "第十四届": 10497,
  "空调": 10498,
  "激情": 10499,
  "冠": 10500,
  "～": 10501,
  "善意": 10502,
  "礼拜": 10503,
  "碰撞": 10504,
  "昂": 10505,
  "清真寺": 10506,
  "无可@@": 10507,
  "险@@": 10508,
  "废止": 10509,
  "一览表": 10510,
  "保全": 10511,
  "钦@@": 10512,
  "扫雷": 10513,
  "绕": 10514,
  "使馆": 10515,
  "205": 10516,
  "腰@@": 10517,
  "考绩": 10518,
  "打败": 10519,
  "解读": 10520,
  "航运": 10521,
  "日趋": 10522,
  "相连": 10523,
  "Se@@": 10524,
  "艺": 10525,
  "反思": 10526,
  "种族隔离": 10527,
  "第六@@": 10528,
  "签@@": 10529,
  "宿舍": 10530,
  "198": 10531,
  "死者": 10532,
  "公正性": 10533,
  "糖@@": 10534,
  "CH@@": 10535,
  "票@@": 10536,
  "有名": 10537,
  "非洲统一组织": 10538,
  "纽@@": 10539,
  "疲劳": 10540,
  "起源": 10541,
  "齿": 10542,
  "南极": 10543,
  "服用": 10544,
  "持有人": 10545,
  "穿越": 10546,
  "迁@@": 10547,
  "转而": 10548,
  "ff@@": 10549,
  "并发症": 10550,
  "赔偿金": 10551,
  "一整套": 10552,
  "International": 10553,
  "推销": 10554,
  "努": 10555,
  "第一期": 10556,
  "磷": 10557,
  "周二": 10558,
  "尊": 10559,
  "扶养": 10560,
  "化石": 10561,
  "拆@@": 10562,
  "这段": 10563,
  "5.1": 10564,
  "价格@@": 10565,
  "联格": 10566,
  "ep@@": 10567,
  "助手": 10568,
  "教徒": 10569,
  "不止": 10570,
  "尖": 10571,
  "经纪人": 10572,
  "童": 10573,
  "改正": 10574,
  "医务人员": 10575,
  "湿@@": 10576,
  "开创": 10577,
  "里亚": 10578,
  "办事": 10579,
  "ari": 10580,
  "角度看": 10581,
  "法律咨询": 10582,
  "承包": 10583,
  "对称": 10584,
  "热点": 10585,
  "那条": 10586,
  "强加": 10587,
  "口袋": 10588,
  "捍卫者": 10589,
  "前锋": 10590,
  "地产": 10591,
  "优良": 10592,
  "期满": 10593,
  "条约法": 10594,
  "忍@@": 10595,
  "十大": 10596,
  "移民局": 10597,
  "侵权": 10598,
  "持续增长": 10599,
  "航天": 10600,
  "222": 10601,
  "厕所": 10602,
  "纳税人": 10603,
  "IC@@": 10604,
  "上课": 10605,
  "市委": 10606,
  "勤@@": 10607,
  "电缆": 10608,
  "休会": 10609,
  "193": 10610,
  "发展局": 10611,
  "效": 10612,
  "ka": 10613,
  "征服": 10614,
  "ER@@": 10615,
  "大地": 10616,
  "图瓦卢": 10617,
  "中向": 10618,
  "票据": 10619,
  "直辖市": 10620,
  "杂项": 10621,
  "4.3": 10622,
  "移送": 10623,
  "202": 10624,
  "ian": 10625,
  "迷": 10626,
  "调拨": 10627,
  "动乱": 10628,
  "晚餐": 10629,
  "重新@@": 10630,
  "醇": 10631,
  "预料": 10632,
  "商讨": 10633,
  "变暖": 10634,
  "合伙": 10635,
  "两架": 10636,
  "容许": 10637,
  "根据上述": 10638,
  "流向": 10639,
  "第一轮": 10640,
  "LA@@": 10641,
  "翁": 10642,
  "喀土穆": 10643,
  "新界": 10644,
  "动脉": 10645,
  "威尔士": 10646,
  "发现自己": 10647,
  "检查和": 10648,
  "圣诞": 10649,
  "野蛮": 10650,
  "休闲": 10651,
  "赏": 10652,
  "换句话说": 10653,
  "奥尔@@": 10654,
  "冷静": 10655,
  "一分钟": 10656,
  "科技@@": 10657,
  "纽约市": 10658,
  "改名": 10659,
  "早餐": 10660,
  "屋@@": 10661,
  "坊": 10662,
  "民主@@": 10663,
  "Bl@@": 10664,
  "小小的": 10665,
  "灰色": 10666,
  "全职": 10667,
  "南美洲": 10668,
  "阁": 10669,
  "243": 10670,
  "讯息": 10671,
  "行走": 10672,
  "保护法": 10673,
  "小男孩": 10674,
  "渔船": 10675,
  "可惜": 10676,
  "人中": 10677,
  "外资": 10678,
  "而来": 10679,
  "鼓掌": 10680,
  "语法": 10681,
  "挑战性": 10682,
  "感动": 10683,
  "无限期": 10684,
  "伍@@": 10685,
  "住院": 10686,
  "经济合作与发展组织": 10687,
  "翌年": 10688,
  "笑@@": 10689,
  "挑衅": 10690,
  "肥胖": 10691,
  "庇护所": 10692,
  "布尔": 10693,
  "噪声": 10694,
  "庙": 10695,
  "刑事案件": 10696,
  "拒@@": 10697,
  "兑换": 10698,
  "得分": 10699,
  "激进": 10700,
  "样@@": 10701,
  "见表": 10702,
  "基金组织": 10703,
  "属@@": 10704,
  "防守": 10705,
  "伴": 10706,
  "后备": 10707,
  "数月": 10708,
  "主力": 10709,
  "过高": 10710,
  "幽默": 10711,
  "剧@@": 10712,
  "公共安全": 10713,
  "第四十九届": 10714,
  "驻扎": 10715,
  "谋生": 10716,
  "熙": 10717,
  "二十": 10718,
  "1938": 10719,
  "中毒": 10720,
  "缩@@": 10721,
  "选举法": 10722,
  "题@@": 10723,
  "乐团": 10724,
  "ati@@": 10725,
  "棉花": 10726,
  "涉@@": 10727,
  "制服": 10728,
  "行为人": 10729,
  "寿": 10730,
  "不起": 10731,
  "出国": 10732,
  "209": 10733,
  "ate": 10734,
  "退回": 10735,
  "矩阵": 10736,
  "一章": 10737,
  "欲望": 10738,
  "科学院": 10739,
  "医": 10740,
  "45@@": 10741,
  "星期天": 10742,
  "炮弹": 10743,
  "崛起": 10744,
  "188": 10745,
  "树林": 10746,
  "不清": 10747,
  "序": 10748,
  "查访": 10749,
  "涅@@": 10750,
  "野生动物": 10751,
  "眼镜": 10752,
  "论证": 10753,
  "根本原因": 10754,
  "斯威士兰": 10755,
  "ICEF": 10756,
  "拟@@": 10757,
  "aj@@": 10758,
  "大街": 10759,
  "密切联系": 10760,
  "变性": 10761,
  "司法部长": 10762,
  "就职": 10763,
  "覆盖率": 10764,
  "MISC": 10765,
  "总人口": 10766,
  "财务@@": 10767,
  "察@@": 10768,
  "岭": 10769,
  "瑟@@": 10770,
  "美军": 10771,
  "滴": 10772,
  "基会": 10773,
  "胜任": 10774,
  "好友": 10775,
  "多边条约": 10776,
  "CAT": 10777,
  "耀@@": 10778,
  "逃跑": 10779,
  "8000": 10780,
  "66@@": 10781,
  "哀@@": 10782,
  "定向": 10783,
  "车站": 10784,
  "白天": 10785,
  "惊奇": 10786,
  "ma": 10787,
  "报销": 10788,
  "弥@@": 10789,
  "赔偿额": 10790,
  "生活水准": 10791,
  "使者": 10792,
  "加热": 10793,
  "亟需": 10794,
  "烈@@": 10795,
  "逆转": 10796,
  "所罗门群岛": 10797,
  "住@@": 10798,
  "外表": 10799,
  "参谋长": 10800,
  "判@@": 10801,
  "Par@@": 10802,
  "颜@@": 10803,
  "蛋糕": 10804,
  "永恒": 10805,
  "所有者": 10806,
  "不见": 10807,
  "牢固": 10808,
  "撰文": 10809,
  "彼@@": 10810,
  "奔": 10811,
  "山西": 10812,
  "信息中心": 10813,
  "互补": 10814,
  "家庭@@": 10815,
  "洪": 10816,
  "演说": 10817,
  "可卡因": 10818,
  "关怀": 10819,
  "头衔": 10820,
  "阿拉木图": 10821,
  "仍旧": 10822,
  "同日": 10823,
  "俄文": 10824,
  "洁净": 10825,
  "SO@@": 10826,
  "仅为": 10827,
  "co": 10828,
  "格林": 10829,
  "交流经验": 10830,
  "克隆": 10831,
  "da": 10832,
  "访问期间": 10833,
  "外长": 10834,
  "高速公路": 10835,
  "德斯": 10836,
  "280": 10837,
  "戏@@": 10838,
  "符": 10839,
  "亡": 10840,
  "开幕式": 10841,
  "鬼@@": 10842,
  "渗透": 10843,
  "一是": 10844,
  "ann@@": 10845,
  "察": 10846,
  "女演员": 10847,
  "ran@@": 10848,
  "准入": 10849,
  "大气层": 10850,
  "难度": 10851,
  "阿鲁沙": 10852,
  "该段": 10853,
  "联席会议": 10854,
  "频@@": 10855,
  "常任": 10856,
  "剑@@": 10857,
  "水源": 10858,
  "圣卢西亚": 10859,
  "奎@@": 10860,
  "愿@@": 10861,
  "天赋": 10862,
  "这部分": 10863,
  "图案": 10864,
  "肠@@": 10865,
  "舰队": 10866,
  "流浪": 10867,
  "太平洋地区": 10868,
  "w": 10869,
  "现存": 10870,
  "oy@@": 10871,
  "改革方案": 10872,
  "80@@": 10873,
  "简历": 10874,
  "1936": 10875,
  "变换": 10876,
  "7000": 10877,
  "一千@@": 10878,
  "骂": 10879,
  "时才": 10880,
  "接洽": 10881,
  "透": 10882,
  "宁愿": 10883,
  "标明": 10884,
  "画面": 10885,
  "御@@": 10886,
  "潮流": 10887,
  "继承人": 10888,
  "外出": 10889,
  "摩西": 10890,
  "珍贵": 10891,
  "贼": 10892,
  "三条": 10893,
  "216": 10894,
  "保人": 10895,
  "一首": 10896,
  "退还": 10897,
  "互利": 10898,
  "微妙": 10899,
  "年度预算": 10900,
  "就读于": 10901,
  "书写": 10902,
  "二战": 10903,
  "平面": 10904,
  "被动": 10905,
  "主教练": 10906,
  "物项": 10907,
  "一眼": 10908,
  "化管": 10909,
  "欣@@": 10910,
  "让步": 10911,
  "DVD": 10912,
  "饰": 10913,
  "广为": 10914,
  "增幅": 10915,
  "账目": 10916,
  "斑@@": 10917,
  "缅甸政府": 10918,
  "影像": 10919,
  "寒冷": 10920,
  "空前": 10921,
  "海湾": 10922,
  "豪": 10923,
  "意向": 10924,
  "按钮": 10925,
  "暗": 10926,
  "年里": 10927,
  "债": 10928,
  "鸦片": 10929,
  "绳": 10930,
  "全国人民代表大会": 10931,
  "赞": 10932,
  "碎@@": 10933,
  "欣": 10934,
  "调查报告": 10935,
  "俊": 10936,
  "199": 10937,
  "450": 10938,
  "震": 10939,
  "语音": 10940,
  "大奖": 10941,
  "替代性": 10942,
  "谨向": 10943,
  "遣": 10944,
  "电话号码": 10945,
  "氮": 10946,
  "AT@@": 10947,
  "集成": 10948,
  "非法行为": 10949,
  "始@@": 10950,
  "Sa@@": 10951,
  "接任": 10952,
  "借用": 10953,
  "导师": 10954,
  "203": 10955,
  "相等": 10956,
  "乃是": 10957,
  "195": 10958,
  "科目": 10959,
  "起着": 10960,
  "拨出": 10961,
  "ICCD": 10962,
  "讨伐": 10963,
  "凝@@": 10964,
  "打印": 10965,
  "228": 10966,
  "几分钟": 10967,
  "sc": 10968,
  "204": 10969,
  "艾伦": 10970,
  "周三": 10971,
  "文凭": 10972,
  "省长": 10973,
  "三维": 10974,
  "商用": 10975,
  "史上": 10976,
  "效@@": 10977,
  "De@@": 10978,
  "179": 10979,
  "组织法": 10980,
  "诚信": 10981,
  "汪@@": 10982,
  "肝@@": 10983,
  "天文台": 10984,
  "探": 10985,
  "中是": 10986,
  "热量": 10987,
  "创始人": 10988,
  "瓦努阿图": 10989,
  "冬": 10990,
  "金属@@": 10991,
  "郊区": 10992,
  "包裹": 10993,
  "已获": 10994,
  "善政": 10995,
  "桂@@": 10996,
  "并行": 10997,
  "准予": 10998,
  "中国国民党": 10999,
  "注定": 11000,
  "当务之急": 11001,
  "贬值": 11002,
  "金沙萨": 11003,
  "固体": 11004,
  "易受": 11005,
  "合伙人": 11006,
  "皮特": 11007,
  "址": 11008,
  "无家可归": 11009,
  "跟进": 11010,
  "MA@@": 11011,
  "坚强": 11012,
  "规": 11013,
  "束": 11014,
  "贸易谈判": 11015,
  "克拉": 11016,
  "否决权": 11017,
  "腹@@": 11018,
  "偷": 11019,
  "行政助理": 11020,
  "国旗": 11021,
  "阿克拉": 11022,
  "收缴": 11023,
  "失衡": 11024,
  "攻打": 11025,
  "挤@@": 11026,
  "安妮": 11027,
  "215": 11028,
  "法郎": 11029,
  "看过": 11030,
  "记入": 11031,
  "221": 11032,
  "根深蒂固": 11033,
  "共同利益": 11034,
  "ant@@": 11035,
  "合法化": 11036,
  "益": 11037,
  "制剂": 11038,
  "贪@@": 11039,
  "1941": 11040,
  "始": 11041,
  "陕西": 11042,
  "其父": 11043,
  "逗留": 11044,
  "吐@@": 11045,
  "减弱": 11046,
  "唯@@": 11047,
  "阶级": 11048,
  "所在国": 11049,
  "两条": 11050,
  "明确指出": 11051,
  "墓": 11052,
  "莲": 11053,
  "长期存在": 11054,
  "泡@@": 11055,
  "捕获": 11056,
  "华尔街": 11057,
  "枝": 11058,
  "树脂": 11059,
  "社会工作者": 11060,
  "挑@@": 11061,
  "灭@@": 11062,
  "管理制": 11063,
  "毫克": 11064,
  "喊": 11065,
  "保护主义": 11066,
  "选用": 11067,
  "Br@@": 11068,
  "3.5": 11069,
  "IT@@": 11070,
  "但须": 11071,
  "擦@@": 11072,
  "佳": 11073,
  "Mor@@": 11074,
  "精彩": 11075,
  "266": 11076,
  "宣传@@": 11077,
  "有期徒刑": 11078,
  "里斯": 11079,
  "液@@": 11080,
  "对立": 11081,
  "瞧": 11082,
  "熟@@": 11083,
  "om": 11084,
  "剥夺权利": 11085,
  "241": 11086,
  "不定": 11087,
  "反洗钱": 11088,
  "真空": 11089,
  "仲裁员": 11090,
  "好几个": 11091,
  "号召": 11092,
  "预订": 11093,
  "辈": 11094,
  "4.5": 11095,
  "备用": 11096,
  "肥@@": 11097,
  "调和": 11098,
  "日渐": 11099,
  "绍@@": 11100,
  "小计": 11101,
  "htm": 11102,
  "不像": 11103,
  "百慕大": 11104,
  "晚会": 11105,
  "光学": 11106,
  "各项政策": 11107,
  "眼光": 11108,
  "第二年": 11109,
  "El": 11110,
  "第九@@": 11111,
  "价格上涨": 11112,
  "铺@@": 11113,
  "吃惊": 11114,
  "后卫": 11115,
  "采": 11116,
  "十个": 11117,
  "工程@@": 11118,
  "十四": 11119,
  "1953": 11120,
  "奖@@": 11121,
  "访": 11122,
  "辩称": 11123,
  "敬意": 11124,
  "巴厘": 11125,
  "聘": 11126,
  "光盘": 11127,
  "密封": 11128,
  "青春": 11129,
  "太守": 11130,
  "专业化": 11131,
  "叔叔": 11132,
  "Sam@@": 11133,
  "1939": 11134,
  "灌@@": 11135,
  "中场": 11136,
  "为准": 11137,
  "头部": 11138,
  "例@@": 11139,
  "12%": 11140,
  "马车": 11141,
  "结核": 11142,
  "棘手": 11143,
  "初中": 11144,
  "译成": 11145,
  "饥荒": 11146,
  "领导者": 11147,
  "早婚": 11148,
  "129@@": 11149,
  "丝毫": 11150,
  "咬": 11151,
  "随便": 11152,
  "查找": 11153,
  "福音": 11154,
  "祖先": 11155,
  "夹": 11156,
  "开除": 11157,
  "萧条": 11158,
  "意在": 11159,
  "议@@": 11160,
  "前夕": 11161,
  "大军": 11162,
  "碱": 11163,
  "法则": 11164,
  "237": 11165,
  "率先": 11166,
  "垂直": 11167,
  "圣文森特": 11168,
  "飞行员": 11169,
  "考入": 11170,
  "司令部": 11171,
  "厌恶": 11172,
  "既@@": 11173,
  "偶@@": 11174,
  "都督": 11175,
  "世上": 11176,
  "深圳": 11177,
  "积极支持": 11178,
  "拔": 11179,
  "亦@@": 11180,
  "一律": 11181,
  "剧本": 11182,
  "政客": 11183,
  "中共中央": 11184,
  "269": 11185,
  "另一名": 11186,
  "沿岸": 11187,
  "联东": 11188,
  "民进党": 11189,
  "伤心": 11190,
  "相比之下": 11191,
  "数次": 11192,
  "动植物": 11193,
  "带走": 11194,
  "启发": 11195,
  "领队": 11196,
  "cl@@": 11197,
  "①": 11198,
  "船员": 11199,
  "受雇": 11200,
  "大海": 11201,
  "会计@@": 11202,
  "渥太华": 11203,
  "恰@@": 11204,
  "税款": 11205,
  "集群": 11206,
  "表中": 11207,
  "司马@@": 11208,
  "非暴力": 11209,
  "步行": 11210,
  "中型": 11211,
  "经济援助": 11212,
  "灭绝": 11213,
  "〕": 11214,
  "力学": 11215,
  "担负": 11216,
  "开头": 11217,
  "鸡蛋": 11218,
  "分部": 11219,
  "质素": 11220,
  "锁@@": 11221,
  "伸出": 11222,
  "健": 11223,
  "警报": 11224,
  "ro": 11225,
  "分在": 11226,
  "进一步提高": 11227,
  "来临": 11228,
  "扰乱": 11229,
  "振": 11230,
  "商业性": 11231,
  "书面形式": 11232,
  "露出": 11233,
  "马舍尔": 11234,
  "这套": 11235,
  "姬": 11236,
  "减小": 11237,
  "西南": 11238,
  "不可逆转": 11239,
  "怒": 11240,
  "刑期": 11241,
  "焊接": 11242,
  "出口国": 11243,
  "all": 11244,
  "革@@": 11245,
  "各政党": 11246,
  "失误": 11247,
  "吞@@": 11248,
  "援": 11249,
  "氯": 11250,
  "德黑兰": 11251,
  "地铁": 11252,
  "通货膨胀率": 11253,
  "函@@": 11254,
  "亲戚": 11255,
  "每一项": 11256,
  "宏观": 11257,
  "备件": 11258,
  "收缩": 11259,
  "1933": 11260,
  "两岸": 11261,
  "务必": 11262,
  "布雷": 11263,
  "送回": 11264,
  "专项": 11265,
  "再生": 11266,
  "门户": 11267,
  "陆": 11268,
  "197": 11269,
  "过剩": 11270,
  "宣扬": 11271,
  "去除": 11272,
  "欠款": 11273,
  "276": 11274,
  "给@@": 11275,
  "城堡": 11276,
  "五十": 11277,
  "our@@": 11278,
  "研@@": 11279,
  "本月": 11280,
  "哲@@": 11281,
  "派别": 11282,
  "订阅": 11283,
  "排定": 11284,
  "军事法庭": 11285,
  "荒@@": 11286,
  "例行": 11287,
  "善良": 11288,
  "培@@": 11289,
  "朝鲜半岛": 11290,
  "鹿": 11291,
  "狭窄": 11292,
  "泛@@": 11293,
  "后悔": 11294,
  "注@@": 11295,
  "所长": 11296,
  "1927": 11297,
  "内务部": 11298,
  "渡@@": 11299,
  "放下": 11300,
  "贫@@": 11301,
  "撤退": 11302,
  "屋子": 11303,
  "科菲": 11304,
  "妊娠": 11305,
  "译@@": 11306,
  "平方公里": 11307,
  "料@@": 11308,
  "第一季度": 11309,
  "受访者": 11310,
  "商界": 11311,
  "多层面": 11312,
  "保护@@": 11313,
  "主角": 11314,
  "棉@@": 11315,
  "拉美": 11316,
  "无知": 11317,
  "毅": 11318,
  "GS": 11319,
  "线索": 11320,
  "会同": 11321,
  "示威者": 11322,
  "胡": 11323,
  "犯罪人": 11324,
  "军团": 11325,
  "未获": 11326,
  "获得成功": 11327,
  "第八@@": 11328,
  "免税": 11329,
  "喜剧": 11330,
  "oh@@": 11331,
  "增补": 11332,
  "ek": 11333,
  "格拉": 11334,
  "泥": 11335,
  "好事": 11336,
  "医疗卫生": 11337,
  "服务质量": 11338,
  "月间": 11339,
  "未满": 11340,
  "吓": 11341,
  "身心健康": 11342,
  "追": 11343,
  "恐怖活动": 11344,
  "ph@@": 11345,
  "感到高兴": 11346,
  "应以": 11347,
  "悬挂": 11348,
  "垫": 11349,
  "出租": 11350,
  "劝@@": 11351,
  "发展趋势": 11352,
  "CERD": 11353,
  "谭@@": 11354,
  "战略伙伴": 11355,
  "掌@@": 11356,
  "成都": 11357,
  "诏": 11358,
  "水质": 11359,
  "骨折": 11360,
  "电影@@": 11361,
  "静止": 11362,
  "公海": 11363,
  "高温": 11364,
  "丹尼尔": 11365,
  "器@@": 11366,
  "6.2": 11367,
  "平安": 11368,
  "国防部长": 11369,
  "总体而言": 11370,
  "漫@@": 11371,
  "出差": 11372,
  "图形": 11373,
  "引人注目": 11374,
  "流亡": 11375,
  "稀@@": 11376,
  "典礼": 11377,
  "降到": 11378,
  "检察院": 11379,
  "夺@@": 11380,
  "秋天": 11381,
  "1925": 11382,
  "最终目标": 11383,
  "限期": 11384,
  "ow": 11385,
  "258": 11386,
  "亏损": 11387,
  "万英镑": 11388,
  "以内": 11389,
  "珠@@": 11390,
  "eh": 11391,
  "本章": 11392,
  "赵": 11393,
  "积": 11394,
  "归因于": 11395,
  "菌@@": 11396,
  "国家有关": 11397,
  "体检": 11398,
  "这块": 11399,
  "大赛": 11400,
  "参赛": 11401,
  "折": 11402,
  "纵@@": 11403,
  "瓜@@": 11404,
  "流失": 11405,
  "〔": 11406,
  "感冒": 11407,
  "处理@@": 11408,
  "坡": 11409,
  "印制": 11410,
  "总署": 11411,
  "253": 11412,
  "坏@@": 11413,
  "人性": 11414,
  "俗@@": 11415,
  "空间科学": 11416,
  "销@@": 11417,
  "纲": 11418,
  "29.@@": 11419,
  "午@@": 11420,
  "中请": 11421,
  "水准": 11422,
  "院士": 11423,
  "钢铁": 11424,
  "抵销": 11425,
  "门槛": 11426,
  "代表权": 11427,
  "灾": 11428,
  "制定者": 11429,
  "联署": 11430,
  "泄漏": 11431,
  "雷斯": 11432,
  "致电": 11433,
  "出口商": 11434,
  "归咎于": 11435,
  "潘基文": 11436,
  "责成": 11437,
  "腐蚀": 11438,
  "汽车@@": 11439,
  "磺酸": 11440,
  "手臂": 11441,
  "1935": 11442,
  "海洛因": 11443,
  "好转": 11444,
  "价值链": 11445,
  "伪@@": 11446,
  "车间": 11447,
  "裁@@": 11448,
  "一股": 11449,
  "稳固": 11450,
  "宪兵": 11451,
  "眼泪": 11452,
  "宴会": 11453,
  "尺": 11454,
  "罪恶": 11455,
  "恐怖袭击": 11456,
  "雨水": 11457,
  "偏远": 11458,
  "在此之前": 11459,
  "卫生@@": 11460,
  "格林纳丁斯": 11461,
  "另见": 11462,
  "温柔": 11463,
  "曾祖父": 11464,
  "民族团结": 11465,
  "尘": 11466,
  "看不见": 11467,
  "薛@@": 11468,
  "戒@@": 11469,
  "玛丽亚": 11470,
  "永": 11471,
  "电源": 11472,
  "荣耀": 11473,
  "视力": 11474,
  "月亮": 11475,
  "埋": 11476,
  "视作": 11477,
  "星期日": 11478,
  "同伴": 11479,
  "太阳@@": 11480,
  "公益": 11481,
  "清算": 11482,
  "217": 11483,
  "韩": 11484,
  "太后": 11485,
  "弯@@": 11486,
  "豆": 11487,
  "禽流感": 11488,
  "内涵": 11489,
  "特许权": 11490,
  "乍": 11491,
  "麟": 11492,
  "环境@@": 11493,
  "关爱": 11494,
  "吩咐": 11495,
  "四大": 11496,
  "令人不安": 11497,
  "As@@": 11498,
  "讲师": 11499,
  "东南欧": 11500,
  "迈": 11501,
  "3.4": 11502,
  "求助": 11503,
  "宣誓": 11504,
  "出租车": 11505,
  "学士学位": 11506,
  "奶": 11507,
  "列于": 11508,
  "盆地": 11509,
  "鞋@@": 11510,
  "纳税": 11511,
  "离去": 11512,
  "全家": 11513,
  "广西": 11514,
  "0000": 11515,
  "运载工具": 11516,
  "亦可": 11517,
  "下雨": 11518,
  "厄": 11519,
  "低成本": 11520,
  "立法机关": 11521,
  "城里": 11522,
  "训@@": 11523,
  "改划": 11524,
  "Ham@@": 11525,
  "谎言": 11526,
  "盟友": 11527,
  "物业": 11528,
  "岛@@": 11529,
  "谘询": 11530,
  "制图": 11531,
  "上市公司": 11532,
  "ity": 11533,
  "恋爱": 11534,
  "建模": 11535,
  "军用飞机": 11536,
  "多媒体": 11537,
  "嫁": 11538,
  "在位": 11539,
  "负荷": 11540,
  "搭": 11541,
  "创新性": 11542,
  "动摇": 11543,
  "缺失": 11544,
  "付给": 11545,
  "火焰": 11546,
  "晚年": 11547,
  "定制": 11548,
  "拥抱": 11549,
  "出具": 11550,
  "养育": 11551,
  "打交道": 11552,
  "来源于": 11553,
  "住区": 11554,
  "计入": 11555,
  "并用": 11556,
  "康熙": 11557,
  "这事": 11558,
  "诱惑": 11559,
  "za": 11560,
  "质量保证": 11561,
  "纳粹": 11562,
  "关节": 11563,
  "族人": 11564,
  "星球": 11565,
  "切断": 11566,
  "第一节": 11567,
  "清醒": 11568,
  "宏": 11569,
  "肺": 11570,
  "隔": 11571,
  "琼斯": 11572,
  "30.@@": 11573,
  "视野": 11574,
  "番": 11575,
  "Cl@@": 11576,
  "教区": 11577,
  "uc@@": 11578,
  "毫不@@": 11579,
  "主持会议": 11580,
  "遗体": 11581,
  "十六": 11582,
  "电机": 11583,
  "审计工作": 11584,
  "战斗机": 11585,
  "繁@@": 11586,
  "为首": 11587,
  "复议": 11588,
  "侍郎": 11589,
  "酯": 11590,
  "慧@@": 11591,
  "新娘": 11592,
  "洁": 11593,
  "兄": 11594,
  "责令": 11595,
  "伯格": 11596,
  "肝": 11597,
  "广东省": 11598,
  "牢房": 11599,
  "13%": 11600,
  "过失": 11601,
  "运载": 11602,
  "财政部长": 11603,
  "宝贝": 11604,
  "出自": 11605,
  "担当": 11606,
  "栋": 11607,
  "会试": 11608,
  "一共": 11609,
  "击中": 11610,
  "是@@": 11611,
  "吉姆": 11612,
  "底部": 11613,
  "卡特": 11614,
  "草地": 11615,
  "77@@": 11616,
  "箱子": 11617,
  "好莱坞": 11618,
  "处处长": 11619,
  "继任": 11620,
  "墙@@": 11621,
  "q": 11622,
  "触发": 11623,
  "境地": 11624,
  "坚": 11625,
  "第四节": 11626,
  "输送": 11627,
  "第十六条": 11628,
  "1.4": 11629,
  "诺夫": 11630,
  "两者之间": 11631,
  "部份": 11632,
  "陷于": 11633,
  "操@@": 11634,
  "日记": 11635,
  "核武库": 11636,
  "全境": 11637,
  "影子": 11638,
  "医学院": 11639,
  "猜测": 11640,
  "尤": 11641,
  "财产权": 11642,
  "案中": 11643,
  "全身": 11644,
  "ung": 11645,
  "Mu@@": 11646,
  "开火": 11647,
  "缩编": 11648,
  "纵向": 11649,
  "岁月": 11650,
  "霸@@": 11651,
  "铝": 11652,
  "悬而未决": 11653,
  "旅程": 11654,
  "萨拉": 11655,
  "专职": 11656,
  "创下": 11657,
  "合法权益": 11658,
  "兴起": 11659,
  "临时代办": 11660,
  "方可": 11661,
  "有益于": 11662,
  "迈克": 11663,
  "巴士": 11664,
  "耗@@": 11665,
  "1944": 11666,
  "偏远地区": 11667,
  "监督机制": 11668,
  "民间组织": 11669,
  "深海": 11670,
  "刑警": 11671,
  "望远镜": 11672,
  "删去": 11673,
  "现代@@": 11674,
  "藤": 11675,
  "名声": 11676,
  "CCW": 11677,
  "一路": 11678,
  "阿比让": 11679,
  "详述": 11680,
  "衬衫": 11681,
  "不然": 11682,
  "疑@@": 11683,
  "加以解决": 11684,
  "捷@@": 11685,
  "里约热内卢": 11686,
  "人来": 11687,
  "各次": 11688,
  "四处": 11689,
  "锋": 11690,
  "难过": 11691,
  "控@@": 11692,
  "收录": 11693,
  "搁置": 11694,
  "公立": 11695,
  "路易斯": 11696,
  "换言之": 11697,
  "陌生人": 11698,
  "百": 11699,
  "心态": 11700,
  "弃@@": 11701,
  "辛烷": 11702,
  "供电": 11703,
  "火山": 11704,
  "女孩子": 11705,
  "优": 11706,
  "停滞": 11707,
  "掠夺": 11708,
  "Fl@@": 11709,
  "之用": 11710,
  "凶@@": 11711,
  "ice": 11712,
  "入伍": 11713,
  "公开赛": 11714,
  "有无": 11715,
  "组织@@": 11716,
  "瘫痪": 11717,
  "截@@": 11718,
  "子孙": 11719,
  "爱国": 11720,
  "社群": 11721,
  "非核心": 11722,
  "奈": 11723,
  "稍": 11724,
  "眼中": 11725,
  "三十年": 11726,
  "John": 11727,
  "口译员": 11728,
  "淑@@": 11729,
  "约翰逊": 11730,
  "备灾": 11731,
  "分数": 11732,
  "致辞": 11733,
  "紧急行动": 11734,
  "政治化": 11735,
  "摆": 11736,
  "1920": 11737,
  "嘛": 11738,
  "惟@@": 11739,
  "事实证明": 11740,
  "十八": 11741,
  "Mon@@": 11742,
  "伤口": 11743,
  "付费": 11744,
  "如上所述": 11745,
  "255": 11746,
  "营养@@": 11747,
  "CT": 11748,
  "盗窃": 11749,
  "翻译成": 11750,
  "排序": 11751,
  "本署": 11752,
  "经受": 11753,
  "米尔": 11754,
  "丑闻": 11755,
  "搭配": 11756,
  "世人": 11757,
  "缘故": 11758,
  "雷曼": 11759,
  "哲": 11760,
  "胎": 11761,
  "每位": 11762,
  "棒球": 11763,
  "外国投资": 11764,
  "钉": 11765,
  "英超": 11766,
  "SBSTA": 11767,
  "Pl@@": 11768,
  "听从": 11769,
  "嘿": 11770,
  "特朗普": 11771,
  "典@@": 11772,
  "为限": 11773,
  "喝酒": 11774,
  "步枪": 11775,
  "心理健康": 11776,
  "看不到": 11777,
  "相互尊重": 11778,
  "借调": 11779,
  "不堪": 11780,
  "分手": 11781,
  "达格": 11782,
  "废": 11783,
  "欧盟委员会": 11784,
  "昆虫": 11785,
  "尼克": 11786,
  "几点": 11787,
  "电视@@": 11788,
  "灰": 11789,
  "姜@@": 11790,
  "气温": 11791,
  "ga": 11792,
  "推测": 11793,
  "族@@": 11794,
  "掌控": 11795,
  "机动": 11796,
  "宠物": 11797,
  "不容": 11798,
  "督察": 11799,
  "配套": 11800,
  "辅@@": 11801,
  "狗@@": 11802,
  "表示同意": 11803,
  "努力提高": 11804,
  "平稳": 11805,
  "不出": 11806,
  "职业@@": 11807,
  "维拉": 11808,
  "腾@@": 11809,
  "1942": 11810,
  "战略部署": 11811,
  "首脑": 11812,
  "5.3": 11813,
  "入狱": 11814,
  "卡拉巴赫": 11815,
  "纪念活动": 11816,
  "连贯性": 11817,
  "二者": 11818,
  "堂@@": 11819,
  "俄语": 11820,
  "吴": 11821,
  "te@@": 11822,
  "196": 11823,
  "碧@@": 11824,
  "核爆炸": 11825,
  "胎儿": 11826,
  "批准书": 11827,
  "第六章": 11828,
  "珊瑚礁": 11829,
  "第四个": 11830,
  "非常高兴": 11831,
  "总值": 11832,
  "巡逻队": 11833,
  "本合同": 11834,
  "全环": 11835,
  "水道": 11836,
  "释@@": 11837,
  "之战": 11838,
  "建议书": 11839,
  "杀戮": 11840,
  "再说": 11841,
  "总体目标": 11842,
  "结社": 11843,
  "南太平洋": 11844,
  "晋": 11845,
  "中所列": 11846,
  "介质": 11847,
  "不懈努力": 11848,
  "反射": 11849,
  "抗日战争": 11850,
  "二十世纪": 11851,
  "无线电视": 11852,
  "通报情况": 11853,
  "妇@@": 11854,
  "非常重视": 11855,
  "笑话": 11856,
  "水面": 11857,
  "抗击": 11858,
  "医学@@": 11859,
  "不及": 11860,
  "学术@@": 11861,
  "假日": 11862,
  "对冲": 11863,
  "浪@@": 11864,
  "所得税": 11865,
  "情事": 11866,
  "骗": 11867,
  "赚取": 11868,
  "236": 11869,
  "行人": 11870,
  "第十@@": 11871,
  "楼宇": 11872,
  "贫困人口": 11873,
  "放宽": 11874,
  "ath@@": 11875,
  "柏": 11876,
  "镜头": 11877,
  "狂": 11878,
  "称呼": 11879,
  "全盘": 11880,
  "识": 11881,
  "发掘": 11882,
  "计算方法": 11883,
  "差价": 11884,
  "第十三条": 11885,
  "牧@@": 11886,
  "驱逐出境": 11887,
  "芳@@": 11888,
  "1928": 11889,
  "惠及": 11890,
  "搬@@": 11891,
  "身高": 11892,
  "油田": 11893,
  "持续性": 11894,
  "私立": 11895,
  "刮@@": 11896,
  "来往": 11897,
  "ab": 11898,
  "生命周期": 11899,
  "银行家": 11900,
  "城市规划": 11901,
  "激素": 11902,
  "国家级": 11903,
  "谋": 11904,
  "平时": 11905,
  "遇@@": 11906,
  "构成犯罪": 11907,
  "sp@@": 11908,
  "国会议员": 11909,
  "奉献": 11910,
  "两届": 11911,
  "卸任": 11912,
  "没错": 11913,
  "重型": 11914,
  "插": 11915,
  "远距离": 11916,
  "终": 11917,
  "多大": 11918,
  "大马士革": 11919,
  "90@@": 11920,
  "桌上": 11921,
  "残割": 11922,
  "塞舌尔": 11923,
  "Gh@@": 11924,
  "尚无": 11925,
  "可不": 11926,
  "听力": 11927,
  "大将军": 11928,
  "EN@@": 11929,
  "265": 11930,
  "妹": 11931,
  "旗@@": 11932,
  "应予以": 11933,
  "骑士": 11934,
  "扫@@": 11935,
  "渣": 11936,
  "投资@@": 11937,
  "开展业务": 11938,
  "张贴": 11939,
  "货物运输": 11940,
  "电脑@@": 11941,
  "豆@@": 11942,
  "周转": 11943,
  "中级": 11944,
  "数据处理": 11945,
  "肠": 11946,
  "国家统计局": 11947,
  "好评": 11948,
  "光线": 11949,
  "第八次": 11950,
  "遍": 11951,
  "竭力": 11952,
  "蒋介石": 11953,
  "劳工法": 11954,
  "奋@@": 11955,
  "性传播": 11956,
  "35%": 11957,
  "明亮": 11958,
  "足额": 11959,
  "CC@@": 11960,
  "相继": 11961,
  "ton": 11962,
  "祭司": 11963,
  "君主": 11964,
  "民族主义": 11965,
  "第三款": 11966,
  "昂@@": 11967,
  "克里斯": 11968,
  "从小": 11969,
  "弃": 11970,
  "散布": 11971,
  "ich@@": 11972,
  "紧急状况": 11973,
  "贝克": 11974,
  "砂@@": 11975,
  "体会": 11976,
  "局限性": 11977,
  "AS@@": 11978,
  "降落": 11979,
  "春季": 11980,
  "致意": 11981,
  "264": 11982,
  "工作岗位": 11983,
  "紧紧": 11984,
  "杭州": 11985,
  "应享": 11986,
  "锅": 11987,
  "踏@@": 11988,
  "功率": 11989,
  "极限": 11990,
  "体积": 11991,
  "保险费": 11992,
  "熔@@": 11993,
  "凉": 11994,
  "ary": 11995,
  "严": 11996,
  "旺@@": 11997,
  "有过": 11998,
  "中心@@": 11999,
  "开端": 12000,
  "第四十八届": 12001,
  "二次": 12002,
  "斑": 12003,
  "停下来": 12004,
  "安全网": 12005,
  "策@@": 12006,
  "年满": 12007,
  "ard@@": 12008,
  "欧洲理事会": 12009,
  "英寸": 12010,
  "琪": 12011,
  "1932": 12012,
  "预言": 12013,
  "自由贸易": 12014,
  "学系": 12015,
  "尿@@": 12016,
  "公共事务": 12017,
  "冷却": 12018,
  "英国@@": 12019,
  "跟@@": 12020,
  "楚": 12021,
  "人发": 12022,
  "混淆": 12023,
  "阶": 12024,
  "武汉": 12025,
  "财物": 12026,
  "不良影响": 12027,
  "收容所": 12028,
  "神话": 12029,
  "请洽": 12030,
  "正常化": 12031,
  "赚钱": 12032,
  "归属": 12033,
  "蒙受": 12034,
  "过滤": 12035,
  "年鉴": 12036,
  "index": 12037,
  "改建": 12038,
  "聊天": 12039,
  "农田": 12040,
  "探访": 12041,
  "kh@@": 12042,
  "庭@@": 12043,
  "早先": 12044,
  "芬@@": 12045,
  "多样": 12046,
  "克里@@": 12047,
  "壁@@": 12048,
  "宇": 12049,
  "渔@@": 12050,
  "275": 12051,
  "建设项目": 12052,
  "主计长": 12053,
  "酗酒": 12054,
  "鹰": 12055,
  "长者": 12056,
  "整整": 12057,
  "镜子": 12058,
  "时效": 12059,
  "该款": 12060,
  "运气": 12061,
  "衔": 12062,
  "our": 12063,
  "摩尔多瓦": 12064,
  "推理": 12065,
  "1931": 12066,
  "争吵": 12067,
  "犯@@": 12068,
  "360": 12069,
  "崇拜": 12070,
  "50000": 12071,
  "气味": 12072,
  "先知": 12073,
  "夺": 12074,
  "鉴@@": 12075,
  "非常任": 12076,
  "商会": 12077,
  "牌@@": 12078,
  "滴@@": 12079,
  "教育部门": 12080,
  "轮流": 12081,
  "几名": 12082,
  "1267": 12083,
  "本应": 12084,
  "专业人士": 12085,
  "应邀": 12086,
  "津": 12087,
  "佩": 12088,
  "线性": 12089,
  "万个": 12090,
  "试着": 12091,
  "老挝": 12092,
  "恶意": 12093,
  "海报": 12094,
  "联布": 12095,
  "246": 12096,
  "胺": 12097,
  "高水平": 12098,
  "同类": 12099,
  "芯片": 12100,
  "腰": 12101,
  "庞@@": 12102,
  "里昂": 12103,
  "幸@@": 12104,
  "舰": 12105,
  "日为": 12106,
  "从根本上": 12107,
  "署@@": 12108,
  "^": 12109,
  "布局": 12110,
  "罚金": 12111,
  "223": 12112,
  "参与方": 12113,
  "被选为": 12114,
  "一角": 12115,
  "两只": 12116,
  "系指": 12117,
  "看守": 12118,
  "停车场": 12119,
  "平均数": 12120,
  "手上": 12121,
  "ri": 12122,
  "宽带": 12123,
  "238": 12124,
  "而后": 12125,
  "锌": 12126,
  "减损": 12127,
  "选拔": 12128,
  "天上": 12129,
  "艾哈迈德": 12130,
  "公民投票": 12131,
  "奔@@": 12132,
  "商品@@": 12133,
  "碰@@": 12134,
  "革命@@": 12135,
  "新近": 12136,
  "周刊": 12137,
  "大都": 12138,
  "录制": 12139,
  "全国政协": 12140,
  "钦": 12141,
  "贡": 12142,
  "机能": 12143,
  "极力": 12144,
  "主观": 12145,
  "盒子": 12146,
  "召": 12147,
  "送达": 12148,
  "脚注": 12149,
  "翻新": 12150,
  "惨@@": 12151,
  "ama": 12152,
  "茂@@": 12153,
  "247": 12154,
  "装修": 12155,
  "善治": 12156,
  "播@@": 12157,
  "实现目标": 12158,
  "逆转录": 12159,
  "新人": 12160,
  "最低标准": 12161,
  "人口@@": 12162,
  "情况通报": 12163,
  "终端": 12164,
  "招": 12165,
  "受限制": 12166,
  "赶上": 12167,
  "天生": 12168,
  "转到": 12169,
  "彦@@": 12170,
  "罚": 12171,
  "列车": 12172,
  "祖母": 12173,
  "理查德": 12174,
  "不断扩大": 12175,
  "行之有效": 12176,
  "车子": 12177,
  "行驶": 12178,
  "日益增长": 12179,
  "氢@@": 12180,
  "拒绝接受": 12181,
  "八国集团": 12182,
  "典范": 12183,
  "怒@@": 12184,
  "共存": 12185,
  "终生": 12186,
  "244": 12187,
  "祷告": 12188,
  "半个": 12189,
  "252": 12190,
  "254": 12191,
  "同胞": 12192,
  "协理": 12193,
  "介@@": 12194,
  "作好": 12195,
  "过渡期": 12196,
  "鞋子": 12197,
  "衫": 12198,
  "开玩笑": 12199,
  "脉": 12200,
  "新闻媒体": 12201,
  "廖@@": 12202,
  "恐怖组织": 12203,
  "忽然": 12204,
  "里约集团": 12205,
  "总司令": 12206,
  "Man@@": 12207,
  "224": 12208,
  "参看": 12209,
  "减去": 12210,
  "跌": 12211,
  "有史以来": 12212,
  "宝宝": 12213,
  "一般而言": 12214,
  "amb@@": 12215,
  "喜悦": 12216,
  "人民代表大会": 12217,
  "第二十二届": 12218,
  "焚烧": 12219,
  "护": 12220,
  "燃油": 12221,
  "结局": 12222,
  "人心": 12223,
  "遵行": 12224,
  "放心": 12225,
  "是否是": 12226,
  "亚太地区": 12227,
  "一副": 12228,
  "皇": 12229,
  "甜": 12230,
  "币": 12231,
  "不详": 12232,
  "指认": 12233,
  "成像": 12234,
  "人文": 12235,
  "浅": 12236,
  "陪审团": 12237,
  "膨胀": 12238,
  "称作": 12239,
  "分会": 12240,
  "埋@@": 12241,
  "电网": 12242,
  "困@@": 12243,
  "查理": 12244,
  "亮@@": 12245,
  "浪": 12246,
  "纹": 12247,
  "换取": 12248,
  "款中": 12249,
  "东南": 12250,
  "餐@@": 12251,
  "法学家": 12252,
  "带头": 12253,
  "情势": 12254,
  "利用率": 12255,
  "裂@@": 12256,
  "照射": 12257,
  "公吨": 12258,
  "申": 12259,
  "流产": 12260,
  "杀虫剂": 12261,
  "意味": 12262,
  "临近": 12263,
  "劫持": 12264,
  "几何": 12265,
  "肩@@": 12266,
  "主权国家": 12267,
  "赞美": 12268,
  "径": 12269,
  "哲学家": 12270,
  "首尔": 12271,
  "烤@@": 12272,
  "中东地区": 12273,
  "速率": 12274,
  "检控": 12275,
  "安全局": 12276,
  "阅": 12277,
  "创造力": 12278,
  "人能": 12279,
  "底下": 12280,
  "敌@@": 12281,
  "斯塔": 12282,
  "羽@@": 12283,
  "汉堡": 12284,
  "挣扎": 12285,
  "iyah": 12286,
  "闻@@": 12287,
  "举例": 12288,
  "装有": 12289,
  "堆@@": 12290,
  "秋季": 12291,
  "奥斯陆": 12292,
  "重振": 12293,
  "6.1": 12294,
  "仪@@": 12295,
  "宝石": 12296,
  "输": 12297,
  "风景": 12298,
  "迟": 12299,
  "繁殖": 12300,
  "做事": 12301,
  "开拓": 12302,
  "数十年": 12303,
  "20000": 12304,
  "鸟@@": 12305,
  "整天": 12306,
  "传授": 12307,
  "海里": 12308,
  "屋里": 12309,
  "表现形式": 12310,
  "来访": 12311,
  "归类": 12312,
  "的@@": 12313,
  "第四十六届": 12314,
  "手下": 12315,
  "不太可能": 12316,
  "电器": 12317,
  "猪@@": 12318,
  "219": 12319,
  "卜": 12320,
  "口号": 12321,
  "生产@@": 12322,
  "ion": 12323,
  "霍": 12324,
  "额度": 12325,
  "圣地亚哥": 12326,
  "64@@": 12327,
  "地形": 12328,
  "十二年": 12329,
  "经济效益": 12330,
  "产后": 12331,
  "挺@@": 12332,
  "达喀尔": 12333,
  "地理位置": 12334,
  "罩": 12335,
  "没能": 12336,
  "维多利亚": 12337,
  "来源国": 12338,
  "搭@@": 12339,
  "不许": 12340,
  "se@@": 12341,
  "时会": 12342,
  "谥": 12343,
  "高压": 12344,
  "Mc@@": 12345,
  "花钱": 12346,
  "以防": 12347,
  "SP": 12348,
  "站点": 12349,
  "汤加": 12350,
  "鉴别": 12351,
  "委派": 12352,
  "一行": 12353,
  "数据中心": 12354,
  "231": 12355,
  "海平面": 12356,
  "CCPR": 12357,
  "胃": 12358,
  "和平谈判": 12359,
  "升至": 12360,
  "54@@": 12361,
  "荣获": 12362,
  "小女孩": 12363,
  "概@@": 12364,
  "而应": 12365,
  "能为": 12366,
  "摩擦": 12367,
  "十九": 12368,
  "停战": 12369,
  "煤矿": 12370,
  "奶@@": 12371,
  "敦@@": 12372,
  "备受": 12373,
  "gl@@": 12374,
  "铭": 12375,
  "232": 12376,
  "倾斜": 12377,
  "莱斯": 12378,
  "光谱": 12379,
  "克尔": 12380,
  "IMF": 12381,
  "宽松": 12382,
  "捷": 12383,
  "引述": 12384,
  "教派": 12385,
  "柴油": 12386,
  "哈佛大学": 12387,
  "富人": 12388,
  "脑袋": 12389,
  "信赖": 12390,
  "Part": 12391,
  "一语": 12392,
  "SA": 12393,
  "归于": 12394,
  "地毯": 12395,
  "就业率": 12396,
  "恐慌": 12397,
  "结盟": 12398,
  "金融部门": 12399,
  "覆@@": 12400,
  "狂热": 12401,
  "味@@": 12402,
  "涌入": 12403,
  "妇女儿童": 12404,
  "炮@@": 12405,
  "扣留": 12406,
  "生活费": 12407,
  "漏@@": 12408,
  "ust@@": 12409,
  "数字@@": 12410,
  "95%": 12411,
  "解体": 12412,
  "老龄化": 12413,
  "草原": 12414,
  "近代": 12415,
  "商学院": 12416,
  "圈@@": 12417,
  "绕@@": 12418,
  "菜单": 12419,
  "阿拉@@": 12420,
  "棋@@": 12421,
  "国有企业": 12422,
  "第一天": 12423,
  "其子": 12424,
  "未缴": 12425,
  "oo@@": 12426,
  "算是": 12427,
  "工商业": 12428,
  "整": 12429,
  "侍@@": 12430,
  "辉煌": 12431,
  "侦察": 12432,
  "鸣@@": 12433,
  "我家": 12434,
  "弦": 12435,
  "安提瓜和巴布达": 12436,
  "打造": 12437,
  "看电视": 12438,
  "拨@@": 12439,
  "摩托车": 12440,
  "束缚": 12441,
  "昭": 12442,
  "IM@@": 12443,
  "产科": 12444,
  "阿卜杜勒": 12445,
  "边防": 12446,
  "私下": 12447,
  "灵感": 12448,
  "王位": 12449,
  "患病": 12450,
  "至多": 12451,
  "诉求": 12452,
  "废弃": 12453,
  "痕迹": 12454,
  "照明": 12455,
  "大事": 12456,
  "法学": 12457,
  "遴选": 12458,
  "儿童@@": 12459,
  "有钱": 12460,
  "迷人": 12461,
  "上游": 12462,
  "厉害": 12463,
  "凌@@": 12464,
  "Col@@": 12465,
  "老婆": 12466,
  "默认": 12467,
  "电报": 12468,
  "用地": 12469,
  "迈向": 12470,
  "撞@@": 12471,
  "颗": 12472,
  "测试@@": 12473,
  "隐私权": 12474,
  "牢记": 12475,
  "玻璃@@": 12476,
  "警员": 12477,
  "幽@@": 12478,
  "257": 12479,
  "局限": 12480,
  "七条": 12481,
  "享用": 12482,
  "小镇": 12483,
  "283": 12484,
  "司职": 12485,
  "西安": 12486,
  "兽": 12487,
  "工党": 12488,
  "曹操": 12489,
  "似宜": 12490,
  "正直": 12491,
  "290": 12492,
  "根本性": 12493,
  "抽烟": 12494,
  "纸张": 12495,
  "数个": 12496,
  "马绍尔群岛": 12497,
  "发誓": 12498,
  "远景": 12499,
  "处死": 12500,
  "总协定": 12501,
  "财政状况": 12502,
  "贸易@@": 12503,
  "判决书": 12504,
  "描写": 12505,
  "处分": 12506,
  "per@@": 12507,
  "王室": 12508,
  "特里": 12509,
  "统治者": 12510,
  "好多": 12511,
  "轿车": 12512,
  "评为": 12513,
  "一致同意": 12514,
  "289": 12515,
  "旧金山": 12516,
  "爬@@": 12517,
  "产品@@": 12518,
  "放大": 12519,
  "间谍": 12520,
  "嘉莉": 12521,
  "234": 12522,
  "五项": 12523,
  "ica": 12524,
  "逃脱": 12525,
  "提出异议": 12526,
  "pro@@": 12527,
  "念@@": 12528,
  "摄@@": 12529,
  "鸣": 12530,
  "非传统": 12531,
  "ol": 12532,
  "信奉": 12533,
  "78@@": 12534,
  "倒退": 12535,
  "不带": 12536,
  "子公司": 12537,
  "年末": 12538,
  "第十次": 12539,
  "沉积": 12540,
  "借以": 12541,
  "可望": 12542,
  "冰箱": 12543,
  "外科": 12544,
  "特殊教育": 12545,
  "力争": 12546,
  "试行": 12547,
  "灯光": 12548,
  "共用": 12549,
  "ge": 12550,
  "口语": 12551,
  "ee": 12552,
  "笔译": 12553,
  "ain": 12554,
  "沿线": 12555,
  "凯瑟琳": 12556,
  "点儿": 12557,
  "科技委": 12558,
  "居住地": 12559,
  "打断": 12560,
  "Qu@@": 12561,
  "比较@@": 12562,
  "运河": 12563,
  "发言权": 12564,
  "组织者": 12565,
  "献": 12566,
  "阵@@": 12567,
  "巡抚": 12568,
  "1934": 12569,
  "控制器": 12570,
  "平常": 12571,
  "未必": 12572,
  "元件": 12573,
  "日止": 12574,
  "哪怕": 12575,
  "福克兰群岛": 12576,
  "盖茨": 12577,
  "提法": 12578,
  "各阶层": 12579,
  "脉冲": 12580,
  "杀伤性": 12581,
  "神奇": 12582,
  "扶@@": 12583,
  "ER": 12584,
  "北平": 12585,
  "安道尔": 12586,
  "告诫": 12587,
  "印第安人": 12588,
  "门户网站": 12589,
  "1926": 12590,
  "困惑": 12591,
  "理智": 12592,
  "4.4": 12593,
  "把手": 12594,
  "身亡": 12595,
  "睡着": 12596,
  "二百@@": 12597,
  "银行@@": 12598,
  "像@@": 12599,
  "政治犯": 12600,
  "安定": 12601,
  "珍@@": 12602,
  "己@@": 12603,
  "激增": 12604,
  "倘若": 12605,
  "净化": 12606,
  "准军事": 12607,
  "请参阅": 12608,
  "环境退化": 12609,
  "做成": 12610,
  "停车": 12611,
  "证明书": 12612,
  "话语": 12613,
  "盗@@": 12614,
  "心理@@": 12615,
  "落入": 12616,
  "拦截": 12617,
  "2.6": 12618,
  "Me@@": 12619,
  "组长": 12620,
  "惟一": 12621,
  "年期": 12622,
  "巴拉": 12623,
  "261": 12624,
  "Ac@@": 12625,
  "适度": 12626,
  "数千": 12627,
  "上述情况": 12628,
  "东南亚国家联盟": 12629,
  "报刊": 12630,
  "筹款": 12631,
  "挖@@": 12632,
  "舟": 12633,
  "阿卜杜拉": 12634,
  "对联": 12635,
  "出血": 12636,
  "新闻记者": 12637,
  "流传": 12638,
  "指向": 12639,
  "物料": 12640,
  "最终用户": 12641,
  "te": 12642,
  "希特勒": 12643,
  "海港": 12644,
  "格尔": 12645,
  "还给": 12646,
  "科尔": 12647,
  "暨": 12648,
  "管理信息系统": 12649,
  "火星": 12650,
  "骑兵": 12651,
  "矿产": 12652,
  "潮@@": 12653,
  "俗": 12654,
  "辅": 12655,
  "第九次": 12656,
  "任何一方": 12657,
  "埃厄": 12658,
  "全会": 12659,
  "寻常": 12660,
  "NPT": 12661,
  "规例": 12662,
  "行程": 12663,
  "建国": 12664,
  "Un@@": 12665,
  "教皇": 12666,
  "葬礼": 12667,
  "列名": 12668,
  "情人": 12669,
  "人均收入": 12670,
  "反应堆": 12671,
  "景象": 12672,
  "布拉@@": 12673,
  "路易": 12674,
  "存活": 12675,
  "次要": 12676,
  "民间团体": 12677,
  "渐@@": 12678,
  "房产": 12679,
  "楼梯": 12680,
  "走路": 12681,
  "奏@@": 12682,
  "手枪": 12683,
  "爵": 12684,
  "导则": 12685,
  "学期": 12686,
  "决策机构": 12687,
  "国土": 12688,
  "彩": 12689,
  "245": 12690,
  "空袭": 12691,
  "备案": 12692,
  "ij@@": 12693,
  "盟": 12694,
  "操作系统": 12695,
  "核销": 12696,
  "分校": 12697,
  "自我@@": 12698,
  "ー": 12699,
  "凝聚力": 12700,
  "致死": 12701,
  "部将": 12702,
  "圣保罗": 12703,
  "国在": 12704,
  "消息来源": 12705,
  "有鉴于此": 12706,
  "尴尬": 12707,
  "剧团": 12708,
  "谷物": 12709,
  "时有": 12710,
  "html": 12711,
  "筹集资金": 12712,
  "不足之处": 12713,
  "争": 12714,
  "辽@@": 12715,
  "非凡": 12716,
  "溪": 12717,
  "坐标": 12718,
  "合资": 12719,
  "公安机关": 12720,
  "候": 12721,
  "哭泣": 12722,
  "星星": 12723,
  "遵从": 12724,
  "Em@@": 12725,
  "优雅": 12726,
  "ik": 12727,
  "情愿": 12728,
  "在世界上": 12729,
  "投机": 12730,
  "令人震惊": 12731,
  "本信": 12732,
  "丸": 12733,
  "链@@": 12734,
  "结案": 12735,
  "归纳": 12736,
  "沿海地区": 12737,
  "1943": 12738,
  "人力资本": 12739,
  "这本": 12740,
  "卧室": 12741,
  "更长": 12742,
  "不成": 12743,
  "不曾": 12744,
  "con@@": 12745,
  "ru@@": 12746,
  "东北部": 12747,
  "公共利益": 12748,
  "抽象": 12749,
  "施加压力": 12750,
  "履行义务": 12751,
  "现今": 12752,
  "ex@@": 12753,
  "1800": 12754,
  "湖北": 12755,
  "乐器": 12756,
  "习": 12757,
  "加利": 12758,
  "魔法": 12759,
  "呼声": 12760,
  "布置": 12761,
  "吾": 12762,
  "不已": 12763,
  "社会学": 12764,
  "购买力": 12765,
  "For@@": 12766,
  "态势": 12767,
  "抬头": 12768,
  "微小": 12769,
  "情报局": 12770,
  "宋": 12771,
  "国务卿": 12772,
  "奶奶": 12773,
  "茨@@": 12774,
  "真主党": 12775,
  "床@@": 12776,
  "适于": 12777,
  "亨@@": 12778,
  "第二类": 12779,
  "长老": 12780,
  "帕劳": 12781,
  "市值": 12782,
  "举止": 12783,
  "演示": 12784,
  "写信给": 12785,
  "罢": 12786,
  "业余": 12787,
  "周六": 12788,
  "帖": 12789,
  "ane": 12790,
  "注释": 12791,
  "际": 12792,
  "识字率": 12793,
  "万亿美元": 12794,
  "台北市": 12795,
  "负债表": 12796,
  "违规": 12797,
  "拿破仑": 12798,
  "溶液": 12799,
  "周日": 12800,
  "Abu": 12801,
  "共产主义": 12802,
  "正当理由": 12803,
  "裕": 12804,
  "一双": 12805,
  "架次": 12806,
  "占领区": 12807,
  "待命": 12808,
  "可予": 12809,
  "厘米": 12810,
  "贡@@": 12811,
  "核技术": 12812,
  "受众": 12813,
  "宪": 12814,
  "㈥": 12815,
  "孙中山": 12816,
  "平原": 12817,
  "适用性": 12818,
  "隐瞒": 12819,
  "票数": 12820,
  "对外贸易": 12821,
  "每隔": 12822,
  "上演": 12823,
  "带动": 12824,
  "绝不能": 12825,
  "1900": 12826,
  "琴@@": 12827,
  "开口": 12828,
  "发病": 12829,
  "肾@@": 12830,
  "ly": 12831,
  "不懈": 12832,
  "愈": 12833,
  "63@@": 12834,
  "辞@@": 12835,
  "切尔诺贝利": 12836,
  "可观": 12837,
  "软件@@": 12838,
  "上届": 12839,
  "犯罪集团": 12840,
  "主编": 12841,
  "减肥": 12842,
  "旨": 12843,
  "冻@@": 12844,
  "作曲家": 12845,
  "混": 12846,
  "国贸": 12847,
  "身后": 12848,
  "布宜诺斯艾利斯": 12849,
  "100000": 12850,
  "践踏": 12851,
  "奥斯卡": 12852,
  "弯曲": 12853,
  "评述": 12854,
  "瓜": 12855,
  "联军": 12856,
  "288": 12857,
  "写下": 12858,
  "加勒比海": 12859,
  "国际刑警组织": 12860,
  "居然": 12861,
  "传奇": 12862,
  "不易": 12863,
  "醒来": 12864,
  "电气": 12865,
  "第二十五条": 12866,
  "RA@@": 12867,
  "细目": 12868,
  "女朋友": 12869,
  "偏低": 12870,
  "杜绝": 12871,
  "坚定不移": 12872,
  "护送": 12873,
  "多边合作": 12874,
  "汝@@": 12875,
  "民事诉讼": 12876,
  "微波": 12877,
  "接受国": 12878,
  "民选": 12879,
  "比如说": 12880,
  "第四十届": 12881,
  "技术培训": 12882,
  "中小学": 12883,
  "箭": 12884,
  "PDF": 12885,
  "篇幅": 12886,
  "煮": 12887,
  "损": 12888,
  "鲜明": 12889,
  "旁@@": 12890,
  "运往": 12891,
  "司法人员": 12892,
  "倾倒": 12893,
  "闹": 12894,
  "具体@@": 12895,
  "防备": 12896,
  "喀@@": 12897,
  "篇文章": 12898,
  "柄": 12899,
  "习@@": 12900,
  "隐": 12901,
  "拿下": 12902,
  "脖子": 12903,
  "18%": 12904,
  "未有": 12905,
  "妇人": 12906,
  "捕@@": 12907,
  "9000": 12908,
  "口头报告": 12909,
  "272": 12910,
  "后于": 12911,
  "我爱你": 12912,
  "di": 12913,
  "凯恩": 12914,
  "山上": 12915,
  "翅膀": 12916,
  "型号": 12917,
  "书店": 12918,
  "冈@@": 12919,
  "前期": 12920,
  "钙": 12921,
  "ale": 12922,
  "骚乱": 12923,
  "UN": 12924,
  "第二十条": 12925,
  "使团": 12926,
  "多种多样": 12927,
  "御史": 12928,
  "猛烈": 12929,
  "第二十一条": 12930,
  "抽样": 12931,
  "各大": 12932,
  "VI": 12933,
  "获利": 12934,
  "338": 12935,
  "第一类": 12936,
  "房价": 12937,
  "培": 12938,
  "恭": 12939,
  "植被": 12940,
  "纺织": 12941,
  "新德里": 12942,
  "织@@": 12943,
  "鼓": 12944,
  "漏": 12945,
  "门外": 12946,
  "氧@@": 12947,
  "天线": 12948,
  "罂粟": 12949,
  "娘": 12950,
  "中起": 12951,
  "赞成票": 12952,
  "赶": 12953,
  "好消息": 12954,
  "没事": 12955,
  "参考资料": 12956,
  "DA@@": 12957,
  "短时间": 12958,
  "Bo@@": 12959,
  "积极主动": 12960,
  "帐篷": 12961,
  "危险性": 12962,
  "知名度": 12963,
  "人有": 12964,
  "零零": 12965,
  "并不一定": 12966,
  "按计划": 12967,
  "ure": 12968,
  "enn@@": 12969,
  "优异": 12970,
  "蜂@@": 12971,
  "珍惜": 12972,
  "拘捕": 12973,
  "谈及": 12974,
  "推断": 12975,
  "市中心": 12976,
  "集结": 12977,
  "肩膀": 12978,
  "第一名": 12979,
  "南共体": 12980,
  "可可": 12981,
  "叛军": 12982,
  "ter@@": 12983,
  "用法": 12984,
  "一时期": 12985,
  "利马": 12986,
  "印度政府": 12987,
  "抢": 12988,
  "有意思": 12989,
  "打印机": 12990,
  "抛@@": 12991,
  "此刻": 12992,
  "旗帜": 12993,
  "盛行": 12994,
  "Ber@@": 12995,
  "赏@@": 12996,
  "微观": 12997,
  "碰": 12998,
  "夸@@": 12999,
  "大有": 13000,
  "穷": 13001,
  "北京大学": 13002,
  "玛格丽特": 13003,
  "氧化@@": 13004,
  "第四十七届": 13005,
  "美术": 13006,
  "派对": 13007,
  "吸毒者": 13008,
  "避开": 13009,
  "涛": 13010,
  "DC": 13011,
  "礼品": 13012,
  "反击": 13013,
  "受让人": 13014,
  "充": 13015,
  "are": 13016,
  "85%": 13017,
  "点燃": 13018,
  "运动@@": 13019,
  "超声": 13020,
  "缓冲区": 13021,
  "架@@": 13022,
  "幕@@": 13023,
  "只得": 13024,
  "永不": 13025,
  "拨给": 13026,
  "传单": 13027,
  "第一百": 13028,
  "弱@@": 13029,
  "售": 13030,
  "申请表": 13031,
  "做过": 13032,
  "字符": 13033,
  "颠覆": 13034,
  "深入研究": 13035,
  "杰夫": 13036,
  "新闻自由": 13037,
  "术后": 13038,
  "未知": 13039,
  "厂商": 13040,
  "查出": 13041,
  "缩": 13042,
  "就让": 13043,
  "部际": 13044,
  "物价": 13045,
  "POPS": 13046,
  "Co": 13047,
  "检方": 13048,
  "1701": 13049,
  "示例": 13050,
  "已故": 13051,
  "1600": 13052,
  "肺结核": 13053,
  "进军": 13054,
  "撕@@": 13055,
  "战机": 13056,
  "群组": 13057,
  "豁免权": 13058,
  "Mat@@": 13059,
  "哈里": 13060,
  "美国国会": 13061,
  "Her@@": 13062,
  "缝": 13063,
  "躲": 13064,
  "水分": 13065,
  "IS": 13066,
  "格林纳达": 13067,
  "涨": 13068,
  "拥@@": 13069,
  "主导作用": 13070,
  "红新月会": 13071,
  "坟墓": 13072,
  "肥": 13073,
  "治愈": 13074,
  "想着": 13075,
  "收支": 13076,
  "小企业": 13077,
  "铝@@": 13078,
  "当成": 13079,
  "议事": 13080,
  "互补性": 13081,
  "可比": 13082,
  "ID@@": 13083,
  "洞@@": 13084,
  "公立学校": 13085,
  "凸@@": 13086,
  "尔特": 13087,
  "服务员": 13088,
  "Is@@": 13089,
  "胳膊": 13090,
  "执教": 13091,
  "au": 13092,
  "一顿": 13093,
  "精心": 13094,
  "ie@@": 13095,
  "稳@@": 13096,
  "私营企业": 13097,
  "写入": 13098,
  "道光": 13099,
  "假装": 13100,
  "嘲笑": 13101,
  "植@@": 13102,
  "准时": 13103,
  "电视机": 13104,
  "玩家": 13105,
  "窗@@": 13106,
  "弯": 13107,
  "告别": 13108,
  "汀": 13109,
  "山脉": 13110,
  "一口": 13111,
  "姓氏": 13112,
  "燕": 13113,
  "冲动": 13114,
  "285": 13115,
  "征募": 13116,
  "专委": 13117,
  "仓@@": 13118,
  "65@@": 13119,
  "老虎": 13120,
  "录@@": 13121,
  "长安": 13122,
  "ME@@": 13123,
  "剧烈": 13124,
  "直线": 13125,
  "另行": 13126,
  "日益严重": 13127,
  "临时性": 13128,
  "援@@": 13129,
  "296": 13130,
  "本节": 13131,
  "登录": 13132,
  "鸟类": 13133,
  "保持联系": 13134,
  "筑@@": 13135,
  "主导地位": 13136,
  "女主角": 13137,
  "解放运动": 13138,
  "椅": 13139,
  "展出": 13140,
  "抗日": 13141,
  "硅@@": 13142,
  "CE@@": 13143,
  "界线": 13144,
  "教养": 13145,
  "生产国": 13146,
  "外交@@": 13147,
  "第二十四条": 13148,
  "灾区": 13149,
  "陆续": 13150,
  "掉@@": 13151,
  "钻@@": 13152,
  "撤@@": 13153,
  "改任": 13154,
  "事关": 13155,
  "每种": 13156,
  "大奖赛": 13157,
  "出卖": 13158,
  "主旨": 13159,
  "霸": 13160,
  "息@@": 13161,
  "卡塔赫纳": 13162,
  "登进士": 13163,
  "编程": 13164,
  "握": 13165,
  "ata": 13166,
  "重新部署": 13167,
  "": 13168,
  "He@@": 13169,
  "同居": 13170,
  "259": 13171,
  "养殖": 13172,
  "债权": 13173,
  "衍生": 13174,
  "访@@": 13175,
  "知名人士": 13176,
  "搞@@": 13177,
  "叔@@": 13178,
  "动物园": 13179,
  "殷@@": 13180,
  "祝@@": 13181,
  "儿女": 13182,
  "上司": 13183,
  "决不能": 13184,
  "财": 13185,
  "军营": 13186,
  "沦为": 13187,
  "磨": 13188,
  "监核": 13189,
  "强硬": 13190,
  "操": 13191,
  "省政府": 13192,
  "生殖器官": 13193,
  "稍微": 13194,
  "美妙": 13195,
  "古典": 13196,
  "非法活动": 13197,
  "第二十三条": 13198,
  "争执": 13199,
  "求解": 13200,
  "卢萨卡": 13201,
  "二是": 13202,
  "触犯": 13203,
  "洁@@": 13204,
  "妇": 13205,
  "数字化": 13206,
  "电梯": 13207,
  "平定": 13208,
  "凌晨": 13209,
  "同文信": 13210,
  "尼科西亚": 13211,
  "不遗余力": 13212,
  "看成": 13213,
  "高等学校": 13214,
  "能效": 13215,
  "man@@": 13216,
  "蓝图": 13217,
  "碗": 13218,
  "掌管": 13219,
  "避孕药": 13220,
  "服务台": 13221,
  "林肯": 13222,
  "财产损失": 13223,
  "佐证": 13224,
  "酮": 13225,
  "抵": 13226,
  "攻读": 13227,
  "漂@@": 13228,
  "ev": 13229,
  "必定": 13230,
  "无聊": 13231,
  "受惠": 13232,
  "一队": 13233,
  "戒": 13234,
  "体制改革": 13235,
  "受灾": 13236,
  "放入": 13237,
  "宽恕": 13238,
  "摩根": 13239,
  "敲定": 13240,
  "直接参与": 13241,
  "党委": 13242,
  "逃犯": 13243,
  "磁": 13244,
  "三倍": 13245,
  "ano": 13246,
  "捐@@": 13247,
  "旱灾": 13248,
  "思想@@": 13249,
  "协力": 13250,
  "不用说": 13251,
  "仿@@": 13252,
  "周五": 13253,
  "领养": 13254,
  "石油@@": 13255,
  "表彰": 13256,
  "断裂": 13257,
  "状@@": 13258,
  "11%": 13259,
  "薪@@": 13260,
  "瘦@@": 13261,
  "苗@@": 13262,
  "缝@@": 13263,
  "凭@@": 13264,
  "羞辱": 13265,
  "Per@@": 13266,
  "Cor@@": 13267,
  "可预测性": 13268,
  "病情": 13269,
  "湘@@": 13270,
  "宣": 13271,
  "近年": 13272,
  "选中": 13273,
  "一点点": 13274,
  "前瞻性": 13275,
  "疏": 13276,
  "耕地": 13277,
  "谨@@": 13278,
  "魔鬼": 13279,
  "边际": 13280,
  "竟@@": 13281,
  "祂": 13282,
  "武装集团": 13283,
  "理应": 13284,
  "蓝线": 13285,
  "登陆": 13286,
  "制药": 13287,
  "心理学家": 13288,
  "商业活动": 13289,
  "斯顿": 13290,
  "身材": 13291,
  "ova": 13292,
  "带上": 13293,
  "巨人": 13294,
  "249": 13295,
  "表扬": 13296,
  "府@@": 13297,
  "冯": 13298,
  "科学界": 13299,
  "价钱": 13300,
  "狼@@": 13301,
  "议席": 13302,
  "责备": 13303,
  "瑙鲁": 13304,
  "乐于": 13305,
  "试试": 13306,
  "一刻": 13307,
  "不善": 13308,
  "囚禁": 13309,
  "传来": 13310,
  "着力": 13311,
  "均等": 13312,
  "想像": 13313,
  "And@@": 13314,
  "脏": 13315,
  "广泛应用": 13316,
  "滥杀": 13317,
  "一经": 13318,
  "乎": 13319,
  "雄心勃勃": 13320,
  "敲": 13321,
  "可行性研究": 13322,
  "北京市": 13323,
  "社会科学": 13324,
  "贷": 13325,
  "恢复正常": 13326,
  "相机": 13327,
  "亨": 13328,
  "旱地": 13329,
  "黛@@": 13330,
  "687": 13331,
  "丧": 13332,
  "交易@@": 13333,
  "旺": 13334,
  "座谈会": 13335,
  "完工": 13336,
  "历史学家": 13337,
  "上场": 13338,
  "交通工具": 13339,
  "控件": 13340,
  "遗嘱": 13341,
  "1924": 13342,
  "功效": 13343,
  "缔造": 13344,
  "德里": 13345,
  "竞@@": 13346,
  "滤@@": 13347,
  "豪华": 13348,
  "澳大利亚政府": 13349,
  "宗教团体": 13350,
  "病假": 13351,
  "重新分配": 13352,
  "隶属": 13353,
  "付诸实施": 13354,
  "会议记录": 13355,
  "扰": 13356,
  "229": 13357,
  "管理司": 13358,
  "时数": 13359,
  "马拉": 13360,
  "勉强": 13361,
  "人间": 13362,
  "周四": 13363,
  "纪念碑": 13364,
  "饱受": 13365,
  "归功于": 13366,
  "责任感": 13367,
  "尸@@": 13368,
  "Mohamed": 13369,
  "份子": 13370,
  "论及": 13371,
  "6.3": 13372,
  "评判": 13373,
  "抨击": 13374,
  "大战": 13375,
  "酋长": 13376,
  "利斯": 13377,
  "居所": 13378,
  "年时": 13379,
  "披@@": 13380,
  "破产法": 13381,
  "配方": 13382,
  "互相@@": 13383,
  "淡": 13384,
  "眼下": 13385,
  "新一代": 13386,
  "of@@": 13387,
  "生动": 13388,
  "卜@@": 13389,
  "暖@@": 13390,
  "润": 13391,
  "润@@": 13392,
  "宁静": 13393,
  "内为": 13394,
  "鹿@@": 13395,
  "珠宝": 13396,
  "促@@": 13397,
  "参政": 13398,
  "一书": 13399,
  "十分重视": 13400,
  "题材": 13401,
  "舞会": 13402,
  "撞击": 13403,
  "抱@@": 13404,
  "ill": 13405,
  "外观": 13406,
  "去过": 13407,
  "第@@": 13408,
  "固": 13409,
  "优美": 13410,
  "被盗": 13411,
  "17%": 13412,
  "苗": 13413,
  "合法权利": 13414,
  "腹": 13415,
  "角落": 13416,
  "内有": 13417,
  "ace": 13418,
  "妙@@": 13419,
  "自力更生": 13420,
  "雷区": 13421,
  "五天": 13422,
  "递送": 13423,
  "弥合": 13424,
  "价值观念": 13425,
  "盆": 13426,
  "泄露": 13427,
  "兆": 13428,
  "攻入": 13429,
  "女友": 13430,
  "步兵": 13431,
  "敌意": 13432,
  "饲料": 13433,
  "吏部": 13434,
  "迟@@": 13435,
  "yn@@": 13436,
  "检查员": 13437,
  "溶@@": 13438,
  "本协定": 13439,
  "一会": 13440,
  "239": 13441,
  "买家": 13442,
  "Ay@@": 13443,
  "大大增加": 13444,
  "ric@@": 13445,
  "没法": 13446,
  "枝@@": 13447,
  "所能": 13448,
  "抄@@": 13449,
  "学说": 13450,
  "第十": 13451,
  "米歇尔": 13452,
  "履行任务": 13453,
  "积极性": 13454,
  "验@@": 13455,
  "岳@@": 13456,
  "财政政策": 13457,
  "个案研究": 13458,
  "吉尔": 13459,
  "1300": 13460,
  "互惠": 13461,
  "雅各": 13462,
  "吸": 13463,
  "工作效率": 13464,
  "PS": 13465,
  "辍学率": 13466,
  "薇": 13467,
  "分销": 13468,
  "安圭拉": 13469,
  "视委": 13470,
  "自营": 13471,
  "第二十六届": 13472,
  "切合实际": 13473,
  "停火协定": 13474,
  "亲人": 13475,
  "佣金": 13476,
  "tion": 13477,
  "录取": 13478,
  "传统习俗": 13479,
  "矿产资源": 13480,
  "布莱@@": 13481,
  "犹如": 13482,
  "卫队": 13483,
  "来文方": 13484,
  "亡@@": 13485,
  "构架": 13486,
  "可信度": 13487,
  "消化": 13488,
  "顶级": 13489,
  "厄@@": 13490,
  "概率": 13491,
  "祸害": 13492,
  "赶到": 13493,
  "烦@@": 13494,
  "售@@": 13495,
  "反倾销": 13496,
  "饮酒": 13497,
  "中东问题": 13498,
  "镜@@": 13499,
  "域外": 13500,
  "激起": 13501,
  "飞往": 13502,
  "BS": 13503,
  "Bu@@": 13504,
  "年届会": 13505,
  "歌剧": 13506,
  "同上": 13507,
  "细胞@@": 13508,
  "法国人": 13509,
  "发作": 13510,
  "夫斯基": 13511,
  "第一部": 13512,
  "三十": 13513,
  "一小部分": 13514,
  "很强": 13515,
  "穷@@": 13516,
  "载体": 13517,
  "账": 13518,
  "第二号": 13519,
  "320": 13520,
  "夜里": 13521,
  "器材": 13522,
  "这话": 13523,
  "首歌": 13524,
  "留意": 13525,
  "土壤@@": 13526,
  "塔尔": 13527,
  "英国政府": 13528,
  "ex": 13529,
  "建筑师": 13530,
  "十五年": 13531,
  "督@@": 13532,
  "享@@": 13533,
  "晋级": 13534,
  "配件": 13535,
  "不服": 13536,
  "当事国": 13537,
  "严重后果": 13538,
  "厅长": 13539,
  "夏威夷": 13540,
  "自此": 13541,
  "外交关系": 13542,
  "牢": 13543,
  "消防": 13544,
  "簿": 13545,
  "热门": 13546,
  "通向": 13547,
  "任务区": 13548,
  "津@@": 13549,
  "生态环境": 13550,
  "超市": 13551,
  "肺@@": 13552,
  "不在乎": 13553,
  "国际化": 13554,
  "疫情": 13555,
  "刷": 13556,
  "丘": 13557,
  "一点儿": 13558,
  "航空@@": 13559,
  "和平共处": 13560,
  "实证": 13561,
  "窝": 13562,
  "牛肉": 13563,
  "里克": 13564,
  "非常感谢": 13565,
  "构@@": 13566,
  "挥@@": 13567,
  "启示": 13568,
  "跌@@": 13569,
  "亚非": 13570,
  "欧洲央行": 13571,
  "深处": 13572,
  "恪守": 13573,
  "轴@@": 13574,
  "上方": 13575,
  "投票权": 13576,
  "周岁": 13577,
  "弟兄": 13578,
  "宰相": 13579,
  "布鲁@@": 13580,
  "综合症": 13581,
  "埃尔@@": 13582,
  "天文": 13583,
  "硬币": 13584,
  "单证": 13585,
  "军衔": 13586,
  "兑": 13587,
  "担@@": 13588,
  "接入": 13589,
  "陈旧": 13590,
  "测验": 13591,
  "竹": 13592,
  "寒": 13593,
  "农作物": 13594,
  "扩建": 13595,
  "尚有": 13596,
  "一线": 13597,
  "一侧": 13598,
  "疏忽": 13599,
  "漆": 13600,
  "警惕": 13601,
  "37.@@": 13602,
  "触及": 13603,
  "继承权": 13604,
  "不致": 13605,
  "硫丹": 13606,
  "爱人": 13607,
  "256": 13608,
  "SE@@": 13609,
  "不高": 13610,
  "挤": 13611,
  "每名": 13612,
  "过期": 13613,
  "下周": 13614,
  "布里": 13615,
  "你方": 13616,
  "拉萨": 13617,
  "洛阳": 13618,
  "国军": 13619,
  "全国人大常委会": 13620,
  "轮调": 13621,
  "冈": 13622,
  "一至": 13623,
  "更能": 13624,
  "研": 13625,
  "第二份": 13626,
  "幻@@": 13627,
  "使本": 13628,
  "疯": 13629,
  "弗兰克": 13630,
  "债@@": 13631,
  "双边协定": 13632,
  "重伤": 13633,
  "静态": 13634,
  "绵@@": 13635,
  "双重标准": 13636,
  "映@@": 13637,
  "贫困线": 13638,
  "AL@@": 13639,
  "Bank": 13640,
  "ens@@": 13641,
  "筹划": 13642,
  "辩解": 13643,
  "14%": 13644,
  "财政@@": 13645,
  "安德烈": 13646,
  "2030": 13647,
  "316": 13648,
  "环己烷": 13649,
  "劳力": 13650,
  "文盲率": 13651,
  "硫@@": 13652,
  "第四十三届": 13653,
  "妓女": 13654,
  "5.4": 13655,
  "艺术品": 13656,
  "彦": 13657,
  "涅": 13658,
  "克什米尔": 13659,
  "显现": 13660,
  "45%": 13661,
  "5.5": 13662,
  "34.@@": 13663,
  "山谷": 13664,
  "一连串": 13665,
  "右翼": 13666,
  "肌@@": 13667,
  "积分": 13668,
  "损害赔偿": 13669,
  "金斯": 13670,
  "呆@@": 13671,
  "边境地区": 13672,
  "周转基金": 13673,
  "觉@@": 13674,
  "COM": 13675,
  "收音机": 13676,
  "姐": 13677,
  "责": 13678,
  "era": 13679,
  "工作进展": 13680,
  "恤": 13681,
  "亚斯": 13682,
  "挖": 13683,
  "严密": 13684,
  "核心作用": 13685,
  "体操": 13686,
  "纳米": 13687,
  "第二十五届": 13688,
  "官至": 13689,
  "粗": 13690,
  "肖@@": 13691,
  "31.@@": 13692,
  "小孩子": 13693,
  "进驻": 13694,
  "蒙特塞": 13695,
  "邮寄": 13696,
  "排行榜": 13697,
  "工商企业": 13698,
  "进口国": 13699,
  "各部委": 13700,
  "纪录片": 13701,
  "五十周年": 13702,
  "茂": 13703,
  "263": 13704,
  "33.@@": 13705,
  "挡": 13706,
  "pdf": 13707,
  "轻型": 13708,
  "殿试": 13709,
  "个省": 13710,
  "搭档": 13711,
  "裴@@": 13712,
  "宪@@": 13713,
  "垒": 13714,
  "正月": 13715,
  "国际贸易中心": 13716,
  "出发点": 13717,
  "非营利": 13718,
  "认出": 13719,
  "两国政府": 13720,
  "州市": 13721,
  "暴": 13722,
  "安全区": 13723,
  "在政治上": 13724,
  "现为": 13725,
  "经济合作组织": 13726,
  "抚@@": 13727,
  "标准@@": 13728,
  "平息": 13729,
  "解析": 13730,
  "壁垒": 13731,
  "起床": 13732,
  "获选": 13733,
  "第三十八届": 13734,
  "晶": 13735,
  "讨@@": 13736,
  "知县": 13737,
[...]
